the 191727
a 86116
of 74705
in 64209
and 63914
is 56487
to 55054
was 41435
it 29152
he 28222
for 22557
on 22039
are 21796
i 21773
as 18802
with 18017
his 17574
by 17041
this 16704
&apos;s 15790
at 14768
an 13881
also 13761
that 13657
you 11672
from 11223
be 10867
has 10835
were 10696
she 9708
have 9326
not 8638
they 8600
s 8244
one 8108
two 7737
there 7564
her 7561
or 7062
had 6926
its 6848
re@@ 6699
can 6685
all 6251
man 6118
been 5712
but 5604
their 5531
in@@ 5444
after 5354
my 5105
first 4920
&apos;t 4750
some 4747
&apos; 4720
k@@ 4678
these 4638
other 4595
we 4565
d@@ 4473
e@@ 4428
many 4349
time 4312
es 4249
o 4246
new 4209
no 4196
what 4194
me 4118
him 4057
ing 4024
up 4017
o@@ 3941
used 3895
un@@ 3884
school 3871
into 3832
er 3820
ed 3799
s@@ 3785
t@@ 3782
most 3726
more 3701
out 3677
do 3623
however 3588
three 3560
only 3487
later 3479
then 3364
ers 3359
ation 3341
al@@ 3334
i@@ 3322
people 3308
y@@ 3305
t 3286
p@@ 3253
g@@ 3249
will 3245
y 3245
en@@ 3244
city 3181
an@@ 3168
now 3123
when 3095
would 3081
m@@ 3080
known 2985
very 2968
e 2950
said 2917
during 2905
both 2899
several 2882
name 2867
n@@ 2856
u@@ 2827
town 2792
ar@@ 2775
on@@ 2731
co@@ 2720
f@@ 2720
us 2716
which 2716
about 2705
ate 2681
born 2673
over 2653
er@@ 2634
al 2631
b@@ 2625
like 2618
well 2596
work 2578
ch@@ 2575
h@@ 2574
who 2551
a@@ 2532
ro@@ 2531
st@@ 2531
dis@@ 2513
area 2512
through 2510
became 2506
le@@ 2489
so 2481
l@@ 2475
years 2464
made 2453
may 2449
named 2413
son 2412
part 2393
located 2375
v@@ 2370
z@@ 2356
did 2355
w@@ 2354
am@@ 2350
r@@ 2345
c@@ 2298
your 2294
than 2292
them 2285
use 2285
de@@ 2263
called 2253
el@@ 2248
don 2247
year 2230
ated 2211
way 2163
while 2160
ti@@ 2151
di@@ 2143
ts 2137
woman 2095
k 2082
ted 2070
or@@ 2067
em@@ 2066
if 2053
high 2019
th@@ 2012
county 2009
four 1995
is@@ 1991
each 1986
ad@@ 1980
mar@@ 1980
con@@ 1957
such 1956
group 1950
as@@ 1948
able 1936
lo@@ 1929
at@@ 1910
often 1906
p 1905
before 1901
children 1898
down 1889
mo@@ 1883
en 1871
es@@ 1868
house 1865
ac@@ 1862
m 1856
ine 1846
day 1842
how 1839
young 1839
water 1838
music 1836
age 1833
university 1810
white 1810
ab@@ 1807
see 1805
never 1794
se@@ 1793
any 1790
li@@ 1788
could 1785
ton 1783
another 1782
g 1776
d 1775
u 1767
be@@ 1765
it@@ 1764
ri@@ 1764
world 1758
ations 1753
still 1742
back 1738
river 1735
king 1727
ha@@ 1723
j@@ 1711
sh@@ 1711
men 1710
little 1704
po@@ 1703
sp@@ 1697
under 1692
old 1683
where 1681
park 1680
between 1676
go 1676
book 1675
just 1675
car@@ 1665
much 1656
ds 1652
pe@@ 1650
play 1648
black 1644
small 1638
album 1623
family 1623
ag@@ 1619
ar 1615
station 1598
am 1596
im@@ 1594
our 1594
second 1588
found 1583
state 1576
red 1573
ting 1563
home 1562
off 1562
company 1559
south 1557
ra@@ 1556
same 1549
include 1547
ly 1541
life 1539
bo@@ 1532
large 1529
played 1523
bar@@ 1521
north 1516
game 1513
to@@ 1513
war 1512
film 1505
here 1503
l 1496
good 1495
n 1489
no@@ 1489
man@@ 1482
ic 1479
par@@ 1476
ating 1475
per@@ 1467
pre@@ 1464
get 1458
public 1458
ia 1456
ne@@ 1456
long 1443
being 1441
ic@@ 1433
ous 1433
line 1430
national 1430
playing 1429
field 1421
land 1421
different 1416
ent 1414
b 1413
le 1413
pro@@ 1400
college 1397
ol@@ 1395
district 1393
ist 1386
ap@@ 1381
mon@@ 1379
within 1373
around 1371
si@@ 1367
five 1365
local 1365
ates 1364
number 1364
band 1358
he@@ 1349
inter@@ 1347
om@@ 1346
place 1346
served 1344
ter 1325
again 1320
sub@@ 1312
west 1310
following 1308
next 1303
il@@ 1301
own 1299
show 1297
street 1297
ur@@ 1296
als 1292
last 1287
father 1285
ul@@ 1285
me@@ 1278
system 1278
led 1277
&apos;m 1275
bl@@ 1273
boy 1273
building 1269
ding 1269
el 1268
ed@@ 1267
main 1267
take 1267
ks 1266
left 1266
know 1263
har@@ 1258
took 1252
make 1250
team 1250
want 1246
blue 1235
de 1235
ma@@ 1234
end 1231
based 1227
married 1227
qu@@ 1227
ies 1222
united 1222
series 1221
near 1220
side 1220
der 1218
song 1215
village 1214
x 1212
must 1211
currently 1202
ans 1197
ir@@ 1197
times 1194
need 1193
ec@@ 1189
set 1187
began 1181
early 1179
ex@@ 1177
does 1175
du@@ 1175
community 1168
please 1168
wearing 1166
john 1165
girl 1164
won 1163
br@@ 1161
should 1160
ter@@ 1160
states 1158
against 1157
ver@@ 1155
included 1153
party 1151
think 1151
too 1145
today 1144
best 1143
american 1140
ity 1140
te@@ 1140
great 1134
ke 1133
ons 1132
do@@ 1131
road 1131
since 1131
air 1127
let 1126
major 1122
tion 1122
ho@@ 1118
ch 1117
went 1117
find 1116
um 1112
ge@@ 1105
dog 1104
form 1102
head 1100
ley 1099
come 1097
gu@@ 1096
x@@ 1094
few 1092
ded 1089
right 1085
saint 1085
ings 1081
gi@@ 1078
popular 1077
su@@ 1076
la@@ 1074
se 1067
over@@ 1066
op@@ 1065
&apos;ll 1064
ber@@ 1064
along 1062
received 1056
common 1051
club 1049
te 1049
car 1047
even 1046
church 1045
died 1044
member 1040
got 1037
hi@@ 1036
east 1033
can@@ 1027
ph@@ 1025
women 1024
cor@@ 1022
ant 1021
cl@@ 1017
going 1017
green 1016
tu@@ 1016
original 1015
island 1013
us@@ 1013
pl@@ 1012
service 1009
tions 1008
using 1001
government 1000
tri@@ 999
um@@ 999
members 998
bu@@ 993
english 990
without 989
vi@@ 988
ing@@ 986
usually 986
always 983
war@@ 979
est 977
ta@@ 976
general 975
considered 974
ally 973
child 968
ian 967
bi@@ 965
every 965
came 964
fl@@ 964
point 964
fi@@ 963
ni@@ 963
ou@@ 958
ps 955
room 954
go@@ 953
gr@@ 953
lake 951
works 949
available 948
so@@ 947
all@@ 943
former 943
ance 939
ve 939
for@@ 935
h 935
les 935
z 934
built 931
written 929
death 927
held 927
pi@@ 927
important 926
ment 926
york 925
au@@ 923
front 923
shirt 923
together 923
r 919
&apos;re 915
something 914
released 913
non@@ 910
say 910
open 907
tic 906
pa@@ 905
law 904
those 903
species 902
away 901
career 901
history 900
less 900
sometimes 900
wife 900
f 896
mother 896
ins 894
ru@@ 893
sa@@ 891
ke@@ 890
worked 888
ford 886
live 886
become 881
soon 880
outside 879
light 878
love 875
six 875
various 873
mor@@ 872
among 871
standing 870
ent@@ 868
com@@ 865
look 864
ten@@ 863
produced 862
table 861
fe@@ 859
business 857
che@@ 856
sha@@ 851
th 851
once 850
days 849
including 849
min@@ 849
&apos;ve 847
top 844
add 843
her@@ 843
term 842
ite 833
cur@@ 830
himself 830
country 828
football 828
ever 826
single 826
ves 826
continued 825
saw 825
british 824
cr@@ 824
looking 824
president 823
person 822
id@@ 821
schools 820
international 819
ors 819
sc@@ 818
ten 818
bur@@ 817
tr@@ 816
london 814
mer@@ 814
ism 813
under@@ 811
tw@@ 808
walking 807
art 806
ak@@ 805
we@@ 804
c 803
board 802
power 801
ked 800
ary 799
gar@@ 799
better 795
night 795
because 794
case 794
similar 794
working 793
et 792
player 792
col@@ 791
season 789
students 789
wood 789
current 788
ste@@ 784
due 783
res 783
sitting 783
daughter 782
ty@@ 782
av@@ 781
tra@@ 781
brown 780
center 780
der@@ 780
pen@@ 776
rock 776
ster 776
why 776
seen 774
sk@@ 773
fire 771
ry 770
lost 764
and@@ 760
ang@@ 760
language 760
w 757
ship 756
word 756
give 754
story 754
published 753
french 751
hand 748
largest 748
site 747
ters 747
throughout 747
songs 746
ob@@ 745
third 745
ble 743
mc@@ 743
office 742
seat 742
eventually 741
central 740
ical 739
court 735
movie 733
attended 732
moved 731
sts 726
ty 726
areas 725
gra@@ 722
ator 718
ats 717
run 717
free 716
seven 716
version 716
ay@@ 715
brother 715
region 715
england 713
upon 712
help 711
mu@@ 711
dy 708
ff@@ 707
cal@@ 705
dec@@ 705
ati@@ 703
means 701
until 701
ad 700
short 700
wrote 700
jo@@ 699
up@@ 697
gen@@ 695
given 695
hu@@ 694
includes 692
ling 692
others 689
ard 688
council 688
ses 688
generally 687
mi@@ 687
across 685
thing 685
ba@@ 683
list 679
playlist 678
ker 677
books 676
ep@@ 675
gl@@ 675
lu@@ 675
sch@@ 675
appeared 672
cre@@ 670
period 670
ve@@ 670
bre@@ 669
face 669
na@@ 668
out@@ 668
ju@@ 667
features 666
ca@@ 665
oc@@ 665
developed 664
ens 664
ness 664
thought 664
games 663
ties 663
ence 661
the@@ 661
body 660
style 660
put 659
development 658
ents 658
course 657
further 656
returned 656
ig@@ 655
tor 655
sur@@ 653
fin@@ 652
gh@@ 652
ish 652
ari@@ 651
cu@@ 648
california 647
del@@ 647
example 646
modern 645
political 645
track 645
ville 645
voice 645
bridge 644
tor@@ 644
western 644
order 643
ev@@ 642
tell 641
design 640
os 640
sol@@ 640
ative 639
started 637
den@@ 636
ice 635
ages 633
hill 633
nothing 633
german 632
ren@@ 632
end@@ 631
quite 631
role 631
lies 630
production 630
ga@@ 628
plays 628
type 628
lives 627
remains 627
food 626
result 626
str@@ 626
ill@@ 625
ey 624
low 624
gave 623
fa@@ 621
tive 621
ach@@ 618
bas@@ 618
ery 618
pr@@ 618
services 618
originally 616
sal@@ 615
television 615
ler 612
sir 612
township 612
buried 611
hall 611
sw@@ 611
taken 610
ven@@ 609
northern 608
wi@@ 607
done 606
big 605
ement 605
ge 605
sel@@ 605
things 605
val@@ 605
education 604
ster@@ 604
almost 603
famous 603
full 603
thus 603
nearby 602
position 601
title 601
behind 600
da 600
pri@@ 600
ah 599
stage 599
systems 598
ball 597
really 597
sted 597
league 594
final 593
fer@@ 592
ko@@ 592
running 592
video 592
designed 591
beach 590
ell@@ 590
ders 586
uses 586
recorded 585
stone 585
ay 583
project 583
research 583
ash@@ 582
super@@ 582
ful 580
museum 580
airport 579
provided 577
level 576
ore 576
ser@@ 576
active 574
centre 574
dr@@ 574
holding 574
ning 574
described 573
remained 573
support 573
ants 572
ess 572
bra@@ 570
rather 570
class 569
port 569
change 568
char@@ 568
id 568
key 568
act 567
ow@@ 566
ston 564
anti@@ 563
yellow 563
sound 562
created 561
hand@@ 561
yes 560
control 558
military 558
pan@@ 558
sea 558
sure 558
changed 557
george 557
cemetery 556
grew 556
v 556
high@@ 555
southern 555
wa@@ 554
formed 553
keep 553
ability 551
ess@@ 551
sing 551
tes 551
rec@@ 550
cap@@ 549
capital 549
ise 549
st 549
tro@@ 549
mid@@ 548
money 548
eight 547
months 547
action 546
information 546
mal@@ 546
sil@@ 546
close 545
makes 545
character 544
forms 543
range 543
tur@@ 543
ments 542
bor@@ 541
bs 541
half 541
mis@@ 541
sm@@ 541
ver 541
ie 540
ner 540
space 540
studied 540
mat@@ 539
numerous 539
process 539
bul@@ 538
lan@@ 538
fre@@ 537
market 537
parents 537
sed 537
ina 536
society 536
parts 535
william 535
bal@@ 534
construction 533
ther@@ 531
wal@@ 531
having 530
army 529
eyes 528
ground 528
police 528
ham 527
den 526
program 525
ics 524
ined 524
sting 524
words 524
below 522
followed 522
joined 522
uc@@ 522
ka 521
although 520
friend 520
sen@@ 520
ta 520
ward 520
addition 519
hol@@ 519
owned 519
des 518
serves 518
ys 518
ass@@ 517
pal@@ 517
tre@@ 517
bel@@ 516
ically 516
events 515
featured 515
vo@@ 515
yet 515
james 514
dra@@ 513
ne 513
ned 513
hon@@ 512
instead 512
mountain 512
referred 512
via 512
ali@@ 511
contains 511
ely 511
pat@@ 511
railway 510
takes 510
ce 509
groups 509
australia 508
doctor 508
nor@@ 508
radio 508
canada 507
et@@ 507
ped 507
ci@@ 505
ways 505
ana 504
af@@ 503
don@@ 503
making 503
round 503
director 502
mag@@ 501
pu@@ 501
cas@@ 500
turned 500
je@@ 499
above 498
bro@@ 498
ill 498
performed 498
sion 498
dance 497
race 497
tly 496
raised 495
lived 494
bed 493
either 493
natural 493
ended 492
bus 491
mostly 491
private 491
didn 490
runs 490
industry 489
met 489
valley 489
ben@@ 487
new@@ 487
hor@@ 486
ines 486
kes 486
low@@ 485
official 485
per 485
primary 485
stri@@ 485
air@@ 484
wh@@ 484
sent 483
back@@ 481
gre@@ 481
shows 481
tar@@ 481
ators 480
fr@@ 480
human 480
middle 480
ology 480
players 480
replaced 480
train 480
cy@@ 479
sons 479
added 478
force 478
wall 477
event 476
weather 476
asked 475
call 475
fish 475
independent 475
ma 475
est@@ 474
writing 474
ban@@ 473
post@@ 473
ade 472
ial 472
social 472
though 472
ches 471
appears 470
far 470
noted 470
possible 470
record 470
dic@@ 469
older 469
science 469
records 467
source 467
kar@@ 466
might 465
related 465
fore@@ 464
special 464
door 463
covered 462
re 462
san 462
sold 462
data 461
involved 461
mean 461
na 461
population 461
win 461
da@@ 460
success 460
ently 459
hard 459
idea 458
star 458
fully 457
heard 457
stra@@ 457
strong 456
established 455
present 455
chief 454
ell 454
san@@ 454
traditional 454
des@@ 453
lin@@ 453
oo@@ 453
enti@@ 452
girls 452
pol@@ 452
quickly 452
europe 451
looked 451
week 451
mac@@ 450
despite 449
killed 449
ann@@ 448
release 448
cat@@ 447
mister 447
ram@@ 447
typically 447
decided 446
mainly 446
therefore 446
han@@ 445
ns 445
shall 445
summer 445
shi@@ 444
couple 443
els 443
listed 443
paper 443
real 443
union 443
ger@@ 442
mil@@ 442
pped 442
successful 442
stop 441
lines 440
lower 440
oh 440
master 438
subsequently 438
according 437
ils 437
paul 437
pul@@ 437
stand 437
sti@@ 436
battle 435
dar@@ 435
ring 435
heart 434
il 434
native 434
professional 434
tors 434
wor@@ 433
yo@@ 433
brought 432
by@@ 432
friends 432
houses 432
start 432
boys 430
past 430
return 430
cover 429
hands 429
hy@@ 429
ori@@ 429
itself 428
royal 428
por@@ 427
base 426
water@@ 426
az@@ 425
bay 425
doing 425
mad@@ 425
restaurant 425
trans@@ 425
bri@@ 424
eastern 424
kin@@ 424
morning 424
told 424
already 423
comes 423
forest 423
ine@@ 423
ish@@ 423
ker@@ 423
late 423
mind 423
division 422
fied 422
location 422
performance 422
ran 422
cam@@ 421
dark 421
hair 421
films 420
ger 420
news 420
nine 420
bit 419
elected 419
limited 419
orange 419
sister 419
artist 418
ms 418
practice 418
ric@@ 418
wide 418
buildings 417
france 417
gold 417
tracks 417
&apos;d 416
library 416
ly@@ 415
media 415
tic@@ 415
commonly 414
countries 414
ised 413
names 413
read 413
teams 413
test 413
win@@ 413
flo@@ 412
lead 412
tan@@ 412
ching 411
ized 411
tree 411
access 410
ale 410
anything 410
ear@@ 410
hel@@ 410
plant 410
que 410
tt 410
european 409
japanese 409
movement 409
theory 409
award 408
companies 408
ington 408
lot 408
passed 408
tics 408
uni@@ 408
whole 408
guitar 407
ra 407
ran@@ 407
stands 407
model 406
sports 406
star@@ 406
aircraft 405
dun@@ 405
musical 405
ented 404
primarily 404
provides 404
sun@@ 404
types 404
technology 403
ash 402
consists 402
men@@ 401
sions 401
spent 401
training 401
closed 400
ham@@ 400
walk 400
ged 399
off@@ 399
ships 399
bon@@ 398
cross 398
parish 398
living 397
placed 397
ton@@ 397
novel 396
female 395
head@@ 395
ched 394
feature 394
ki@@ 394
section 394
significant 394
ths 394
acc@@ 393
atic 393
kind 393
america 392
germany 392
longer 392
ously 392
speci@@ 392
wil@@ 392
alice 391
bar 391
operated 391
store 391
ular 391
view 391
os@@ 390
sl@@ 390
stars 390
taking 390
try 390
bun@@ 389
cases 389
castle 389
civil 389
clo@@ 389
highly 389
ily 389
rac@@ 389
robert 389
ality 388
boo@@ 388
ka@@ 388
richard 388
believe 387
dly 387
study 387
association 386
dogs 386
eng@@ 386
minister 386
commercial 385
david 385
earth 385
fall 385
indian 385
riding 385
felt 384
ast 383
bill 383
enough 383
lady 383
structure 383
true 383
everything 382
post 382
hot 381
land@@ 381
leave 381
ls 381
ws 381
acy 380
bank 380
educated 380
especially 380
mer 380
baby 379
date 378
dem@@ 378
los 378
regular 377
shortly 377
dor@@ 376
god 376
standard 376
complete 375
floor 375
hat 375
holds 375
sive 375
snow 375
tically 375
arm@@ 374
divided 374
eu@@ 373
magazine 372
mark 372
mus@@ 372
widely 372
languages 371
tim@@ 371
ze 371
att@@ 370
charles 370
fication 370
fo@@ 370
hal@@ 370
hundred 370
turn 370
certain 369
effect 369
ory 369
points 369
towards 369
well@@ 369
boat 368
j 368
associated 367
hum@@ 367
mel@@ 367
smith 367
tional 367
chair 366
michael 366
changes 365
horse 365
ile 365
inside 365
mary 365
problems 365
stu@@ 365
tion@@ 365
coast 364
situated 364
wanted 364
ze@@ 364
bat@@ 363
department 363
entire 363
network 363
particularly 363
products 363
sky 363
aw@@ 362
gri@@ 362
ological 362
pe 362
fil@@ 361
health 361
sam@@ 361
ack 360
ancient 360
cha@@ 360
code 360
cold 360
leader 360
machine 360
zed 360
computer 359
fort 359
press 359
rest 359
getting 358
lam@@ 358
aff@@ 357
least 357
province 357
shot 357
texas 357
ered 356
hear 356
sta@@ 356
cannot 355
ken@@ 355
recent 355
ick@@ 354
problem 354
thomas 354
care 353
picture 353
ure 353
ber 351
characters 351
inten@@ 351
ce@@ 350
frequently 350
talk 350
arch@@ 349
ping 349
son@@ 349
ving 349
ances 348
india 348
pur@@ 348
sun 348
box 347
coming 347
creek 347
festival 347
gone 347
interest 347
tical 347
chinese 346
cho@@ 346
coun@@ 346
down@@ 346
forces 346
grass 346
ying 346
complex 345
ff 345
gener@@ 345
immediately 345
previously 345
looks 344
pres@@ 344
directed 343
ets 343
mouth 343
variety 343
appear 342
pic@@ 342
route 342
theatre 342
asian 341
carried 341
initially 341
ir 341
moment 341
academy 340
borough 340
comm@@ 340
dressed 340
lar@@ 340
meaning 340
pink 340
rel@@ 340
&apos;@@ 339
arms 339
future 339
mission 339
sign 339
election 338
ku@@ 338
ple@@ 338
sem@@ 338
sto@@ 338
van 338
heavy 337
japan 337
opened 337
poor 337
speak 337
subject 337
terms 337
tom@@ 337
feel 336
ong 336
nature 335
trac@@ 335
dri@@ 334
governor 334
hold 334
ky 334
tal@@ 334
ago 333
chi@@ 333
mixed 333
peter 333
provide 333
roman 333
continues 332
knew 332
pit@@ 332
serve 332
ends 331
match 331
numbers 331
results 331
younger 331
attack 330
brothers 330
tt@@ 330
vis@@ 330
additional 329
dead 329
hope 329
hospital 329
inf@@ 329
matter 329
recently 329
ture 329
arts 328
lie 328
sand@@ 328
separate 328
sters 328
themselves 328
trees 328
cause 327
cut 327
failed 327
pin@@ 327
probably 327
author 326
managed 326
multiple 326
student 326
historic 325
cli@@ 324
fellow 324
higher 324
hour 324
metal 324
notable 324
tam@@ 324
winter 324
ath@@ 323
china 323
exc@@ 323
play@@ 323
required 323
ved 323
fishing 322
introduced 322
lim@@ 322
method 322
reading 322
regional 322
swe@@ 322
wing 322
berg 321
bow@@ 321
canadian 321
experience 321
fu@@ 321
larger 321
catholic 320
garden 320
material 320
simple 320
kept 319
mur@@ 319
needed 319
offers 319
allowed 318
appointed 318
bol@@ 318
degree 318
far@@ 318
smaller 318
va 318
ace 317
caused 317
move 317
studies 317
writer 317
exist 316
fol@@ 316
historical 316
ished 316
multi@@ 316
online 316
shop 316
suit 316
activities 315
border 315
christian 315
economy 315
founded 315
search 315
spanish 315
ably 314
ak 314
composed 314
hit 314
talking 314
ya 314
baseball 313
bird 313
kers 313
latin 313
seems 313
background 312
fro@@ 312
happy 312
zz@@ 312
culture 311
engine 311
ga 311
nearly 311
property 311
survived 311
cities 310
pos@@ 310
spo@@ 310
vel@@ 310
collection 309
episode 309
fight 309
issue 309
leaves 309
row 309
specific 309
atory 308
committee 308
fourth 308
places 308
poly@@ 308
product 308
sim@@ 308
clear 307
din@@ 307
finally 307
gal@@ 307
leading 307
medical 307
og@@ 307
origin 307
previous 307
blo@@ 306
die 306
finished 306
offered 306
particular 306
sec@@ 306
supported 306
campus 305
competition 305
fri@@ 305
italian 305
lands 305
manager 305
succeeded 305
ach 304
eg@@ 304
headquarters 304
jewish 304
movies 304
operation 304
pes 304
programs 304
reviews 304
cour@@ 303
cro@@ 303
deep 303
fle@@ 303
majority 303
falls 302
ire 302
ireland 302
job 302
speed 302
ane 301
ering 301
mayor 301
plan 301
queen 301
tation 301
islands 300
coach 299
istic 299
py@@ 299
residents 299
tour 299
dear 298
di 298
individual 298
male 298
our@@ 298
phone 298
pun@@ 298
rich 298
cars 297
ft 297
gg@@ 297
greek 297
iled 297
organization 297
bil@@ 296
dry 296
ili@@ 296
nation 296
oil 296
spar@@ 296
trade 296
cle@@ 295
eat 295
ements 295
energy 295
except 295
fel@@ 295
flu@@ 295
fur@@ 295
marriage 295
municipality 295
size 295
bad 294
bike 294
burg 294
difficult 294
largely 294
mem@@ 294
my@@ 294
sin@@ 294
hours 293
les@@ 293
newspaper 293
sor@@ 293
blood 292
completely 292
gs 292
ici@@ 292
positive 292
annual 291
approach 291
dev@@ 291
drive 291
fell 291
kingdom 291
one@@ 291
represented 291
ron 291
scar@@ 291
shown 291
produce 290
weeks 290
are@@ 289
long@@ 289
operations 289
sar@@ 289
crowd 288
era 288
fact 288
ong@@ 288
sen 288
sits 288
tried 288
virginia 288
charge 287
elements 287
gas 287
glass 287
letter 287
marked 287
rate 287
appearance 286
henry 286
ry@@ 286
bit@@ 285
helped 285
legal 285
reported 285
roads 285
scre@@ 285
self@@ 285
towns 285
worth 285
fire@@ 284
fy 284
gh 284
internet 284
issues 284
loc@@ 284
personal 284
actor 283
black@@ 283
daughters 283
lord 283
operates 283
oun@@ 283
text 283
washington 283
ately 282
awards 282
inc@@ 282
rights 282
stadium 282
tered 282
unit 282
bright 281
chicago 281
economic 281
gam@@ 281
ion 281
learning 281
nu@@ 281
retired 281
soccer 281
cra@@ 280
critics 280
cul@@ 280
hotel 280
mountains 280
stations 280
actually 279
continue 279
dress 279
mount 279
note 279
remain 279
sing@@ 279
youth 279
captain 278
entirely 278
fine 278
form@@ 278
lat@@ 278
wat@@ 278
au 277
enc@@ 277
shire 277
command 276
def@@ 276
easy 276
growing 276
hom@@ 276
influence 276
meet 276
reg@@ 276
scene 276
sho@@ 276
software 276
surface 276
top@@ 276
tures 276
ars 275
co 275
coll@@ 275
ki 275
platform 275
signed 275
syn@@ 275
unknown 275
dol@@ 274
eds 274
husband 274
plants 274
pool 274
wish 274
century 273
det@@ 273
gate 273
herself 273
ining 273
politics 273
professor 273
shu@@ 273
staff 273
trains 273
upper 273
watch 273
ah@@ 272
birds 272
bles 272
estate 272
florida 272
ney 272
prominent 272
russian 272
stre@@ 272
ye@@ 272
doesn 271
month 271
seemed 271
tin 271
camera 270
ese 270
myself 270
nic@@ 270
remember 270
says 270
singer 270
slo@@ 270
stories 270
van@@ 270
claimed 269
color 269
communities 269
ects 269
goes 269
harry 269
hop@@ 269
ica 269
roman@@ 269
equ@@ 268
jumping 268
pon@@ 268
spring 268
answer 267
earlier 267
sco@@ 267
wards 267
wel@@ 267
africa 266
artists 266
awarded 266
coat 266
cru@@ 266
distance 266
duc@@ 266
financial 266
four@@ 266
gor@@ 266
greater 266
likely 266
railroad 266
thr@@ 266
alism 265
alist 265
ams 265
evidence 265
ination 265
inv@@ 265
management 265
occur 265
simply 265
sit 265
thor@@ 265
ase 264
ational 264
basketball 264
minor 264
mol@@ 264
of@@ 264
ontario 264
piece 264
tower 264
ust 264
foreign 263
gives 263
paris 263
q@@ 263
religious 263
speech 263
tru@@ 263
ang 262
animals 262
grand 262
grand@@ 262
pass 262
rare 262
red@@ 262
sa 262
schedule 262
studio 262
teacher 262
wit@@ 262
christmas 261
hen@@ 261
increased 261
policy 261
roo@@ 261
versions 261
aries 260
executive 260
highway 260
jacket 260
med 260
od@@ 260
sli@@ 260
sul@@ 260
dy@@ 259
foot 259
foundation 259
happened 259
reached 259
shar@@ 259
stood 259
twice 259
workers 259
ck 258
clu@@ 258
directly 258
electric 258
gro@@ 258
honor 258
institute 258
iz@@ 258
micro@@ 258
trail 258
tran@@ 258
wasn 258
cent@@ 257
clothes 257
fast 257
offer 257
onic 257
performing 257
quar@@ 257
sy@@ 257
taught 257
two@@ 257
windows 257
arm 256
believed 256
cri@@ 256
examples 256
facilities 256
hun@@ 256
miss 256
pp@@ 255
tin@@ 255
traffic 255
trying 255
ack@@ 254
acting 254
afterwards 254
ame 254
beautiful 254
camp 254
conditions 254
critical 254
flows 254
ious 254
painting 254
port@@ 254
quality 254
shopping 254
whether 254
wood@@ 254
alone 253
asia 253
cher 253
concept 253
length 253
mit@@ 253
nam@@ 253
ocean 253
real@@ 253
sh 253
daily 252
eli@@ 252
else 252
forced 252
forward 252
ny 252
suffered 252
ai 251
bury 251
completed 251
cup 251
follow 251
ison 251
latter 251
cont@@ 250
fifth 250
hur@@ 250
irish 250
jersey 250
literature 250
nom@@ 250
north@@ 250
settlement 250
she@@ 250
square 250
window 250
angeles 249
doc@@ 249
ei@@ 249
leaving 249
plan@@ 249
pra@@ 249
principal 249
southeast 249
african 248
deal 248
eth@@ 248
reason 248
singing 248
branch 247
direct 247
rail 247
sets 247
stock 247
australian 246
ble@@ 246
discovered 246
emer@@ 246
green@@ 246
knowledge 246
len@@ 246
metropolitan 246
ony 246
perhaps 246
phil@@ 246
secondary 246
yn@@ 246
connected 245
ena 245
equipment 245
junior 245
memorial 245
ron@@ 245
tun@@ 245
ath 244
broken 244
campaign 244
cast 244
decision 244
explo@@ 244
ists 244
levels 244
settled 244
someone 244
value 244
yourself 244
aged 243
comp@@ 243
function 243
hin@@ 243
king@@ 243
may@@ 243
prot@@ 243
security 243
serving 243
tle 243
beginning 242
build 242
easily 242
families 242
net 242
replied 242
sla@@ 242
sty 242
ancy 241
flowers 241
martin 241
models 241
recording 241
til@@ 241
units 241
work@@ 241
clar@@ 240
lab@@ 240
lee 240
mentioned 240
officer 240
relatively 240
sig@@ 240
vers@@ 240
dic 239
graphic 239
highest 239
lay 239
methods 239
navy 239
northwest 239
ough@@ 239
regularly 239
relationship 239
run@@ 239
sort 239
activity 238
britain 238
ges 238
kno@@ 238
owner 238
rose 238
sites 238
transport 238
website 238
ata 237
carrying 237
ids 237
ingly 237
ours 237
philip 237
reservation 237
silver 237
federal 236
ites 236
meeting 236
oldest 236
ot 236
path 236
pop 236
ski 236
whit@@ 236
ys@@ 236
ada 235
agriculture 235
dle 235
drink 235
ited 235
ja@@ 235
ko 235
oned 235
ones 235
sport 235
understand 235
vol@@ 235
wo@@ 235
break 234
conc@@ 234
cow@@ 234
engineering 234
eye 234
formation 234
guy 234
justice 234
mas@@ 234
moving 234
prime 234
solution 234
chairman 233
iling 233
image 233
jack 233
law@@ 233
neither 233
ohio 233
oli@@ 233
twenty@@ 233
attempt 232
effects 232
industrial 232
jones 232
needs 232
ored 232
qui@@ 232
soci@@ 232
ades 231
covers 231
fruit 231
gained 231
ises 231
surrounding 231
beyond 230
crater 230
fields 230
filled 230
fun@@ 230
gan 230
ick 230
ph 230
rit@@ 230
sources 230
squ@@ 230
sunday 230
tom 230
treatment 230
vary 230
ym@@ 230
albums 229
ba 229
ene 229
focus 229
graduated 229
ize 229
lon@@ 229
pay 229
plat@@ 229
sum@@ 229
tab@@ 229
vision 229
ast@@ 228
dam@@ 228
destroyed 228
dur@@ 228
mod@@ 228
pel@@ 228
spec@@ 228
swimming 228
ur 228
write 228
yard 228
cost 227
digital 227
dropped 227
grade 227
normal 227
onto 227
opening 227
page 227
spe@@ 227
tis 227
unique 227
west@@ 227
crew 226
dou@@ 226
fac@@ 226
figure 226
fly 226
ple 226
rural 226
tea 226
tter 226
burn 225
dedicated 225
farm 225
gun 225
ich 225
lets 225
passes 225
spoke 225
acked 224
ball@@ 224
becomes 224
cat 224
classical 224
constructed 224
defeated 224
ect 224
ences 224
ere 224
heavily 224
kets 224
luc@@ 224
pennsylvania 224
perform 224
plane 224
pt 224
shape 224
slightly 224
snow@@ 224
tal 224
tan 224
content 223
extremely 223
gil@@ 223
hear@@ 223
ishes 223
jac@@ 223
mexico 223
parliament 223
sex 223
stated 223
tournament 223
wn 223
bench 222
corner 222
formerly 222
geo@@ 222
hat@@ 222
johnson 222
mine 222
mir@@ 222
mul@@ 222
nar@@ 222
pas@@ 222
stan@@ 222
allow 221
hills 221
sense 221
sidewalk 221
chain 220
ected 220
hockey 220
ino 220
lad@@ 220
mun@@ 220
ole 220
tennis 220
yu@@ 220
actions 219
amount 219
bin@@ 219
conference 219
driving 219
ette 219
pping 219
prince 219
racing 219
removed 219
south@@ 219
translated 219
val 219
acts 218
contributed 218
dam 218
editor 218
gray 218
jer@@ 218
peace 218
proved 218
question 218
surrounded 218
trust 218
unlike 218
zo@@ 218
contract 217
derived 217
dro@@ 217
ective 217
emp@@ 217
fighting 217
fir@@ 217
gets 217
growth 217
italy 217
ium 217
joseph 217
label 217
paid 217
rule 217
scottish 217
wear 217
bling 216
cross@@ 216
direction 216
ging 216
lun@@ 216
nie 216
ol 216
plans 216
sle@@ 216
split 216
contain 215
cou@@ 215
counter@@ 215
details 215
flight 215
goal 215
influenced 215
int@@ 215
iting 215
kids 215
motor@@ 215
nor 215
northeast 215
prior 215
ride 215
steel 215
va@@ 215
wind 215
ays 214
begins 214
broke 214
climate 214
dered 214
miles 214
physical 214
sta 214
ain 213
allows 213
ama 213
amed 213
boston 213
earned 213
feet 213
follows 213
occurs 213
refused 213
scotland 213
urban 213
vit@@ 213
yer 213
ases 212
attention 212
authority 212
birth 212
cel@@ 212
condition 212
extended 212
factory 212
inst@@ 212
kin 212
ray 212
stopped 212
theme 212
article 211
essed 211
fiction 211
ization 211
pil@@ 211
presented 211
screen 211
uncle 211
adopted 210
advis@@ 210
agricultural 210
animal 210
bell 210
dale 210
damage 210
everyone 210
foot@@ 210
gran@@ 210
gy 210
ie@@ 210
ini@@ 210
jazz 210
la 210
rain 210
republic 210
response 210
temple 210
thro@@ 210
anna 209
ate@@ 209
edward 209
lyrics 209
ples 209
responsible 209
ries 209
selected 209
titles 209
total 209
za 209
zealand 209
accepted 208
aded 208
ads 208
carolina 208
create 208
entered 208
hosts 208
iron 208
mic@@ 208
occasionally 208
pieces 208
producer 208
seem 208
viol@@ 208
walks 208
bert 207
display 207
hard@@ 207
hit@@ 207
ired 207
cricket 206
elled 206
entation 206
faces 206
functions 206
host 206
itation 206
ken 206
memory 206
proposed 206
recognized 206
stream 206
suppose 206
twelve 206
weight 206
aging 205
alized 205
dest@@ 205
fans 205
half@@ 205
investig@@ 205
officers 205
prefer 205
roun@@ 205
walls 205
bel 204
choice 204
dies 204
kel@@ 204
marks 204
thy 204
waiting 204
wouldn 204
ac 203
account 203
ano 203
dan@@ 203
edge 203
enter 203
ful@@ 203
massachusetts 203
pay@@ 203
portion 203
prison 203
renamed 203
situation 203
avoid 202
bio@@ 202
cancer 202
channel 202
classes 202
evening 202
gun@@ 202
hil@@ 202
lau@@ 202
lor@@ 202
occurred 202
pretty 202
resi@@ 202
sis 202
tac@@ 202
whom 202
ant@@ 201
ele@@ 201
ella 201
exam@@ 201
hi 201
hoo@@ 201
pa 201
parties 201
prize 201
rain@@ 201
stay 201
teen@@ 201
ures 201
basic 200
bility 200
bom@@ 200
claims 200
closely 200
credited 200
defined 200
double 200
driver 200
louis 200
ners 200
report 200
score 200
showing 200
status 200
storm 200
applied 199
aqu@@ 199
bab@@ 199
bear 199
columbia 199
drinking 199
founder 199
frank 199
integr@@ 199
intended 199
nine@@ 199
ome 199
sides 199
wait 199
watching 199
caught 198
cer@@ 198
int 198
moon 198
pacific 198
typical 198
ulation 198
useful 198
wol@@ 198
causes 197
conservative 197
core 197
ears 197
escape 197
ready 197
stam@@ 197
thre@@ 197
treated 197
administration 196
cen@@ 196
cried 196
cultural 196
downtown 196
ened 196
fifty 196
hem@@ 196
initial 196
mann 196
organized 196
pap@@ 196
projects 196
rome 196
sand 196
senior 196
toronto 196
anc@@ 195
compu@@ 195
dre@@ 195
eating 195
ek 195
fts 195
golden 195
jump 195
nation@@ 195
nice 195
none 195
poetry 195
pose 195
remaining 195
scale 195
secretary 195
smiling 195
sor 195
tte 195
advanced 194
amm@@ 194
avenue 194
commission 194
couldn 194
extensive 194
genus 194
isn 194
med@@ 194
mill 194
neighborhood 194
object 194
stat@@ 194
villages 194
wine 194
adult 193
afternoon 193
bicycle 193
bran@@ 193
celebr@@ 193
dge 193
expected 193
identified 193
ier 193
increase 193
instruments 193
ishing 193
lit@@ 193
ner@@ 193
ris@@ 193
six@@ 193
sn@@ 193
speaking 193
subsequent 193
vers 193
wan@@ 193
adjacent 192
administrative 192
announced 192
bis@@ 192
empire 192
gol@@ 192
graduate 192
inations 192
mike 192
nearest 192
ona 192
ough 192
que@@ 192
scientific 192
suburb 192
visited 192
actress 191
basis 191
contained 191
corporation 191
dinner 191
grow 191
lin 191
nobody 191
scrip@@ 191
soviet 191
wave 191
card 190
contemporary 190
forget 190
gan@@ 190
lec@@ 190
liberal 190
loss 190
proc@@ 190
prof@@ 190
shore 190
sus@@ 190
tations 190
territory 190
tone 190
bb@@ 189
crown 189
dings 189
fal@@ 189
flat 189
huge 189
kil@@ 189
matches 189
materials 189
normally 189
parks 189
planned 189
susp@@ 189
travel 189
vehicle 189
views 189
with@@ 189
aci@@ 188
acking 188
brand 188
dancing 188
ero@@ 188
flow 188
maintained 188
ming 188
pair 188
stein 188
stor@@ 188
tradition 188
bands 187
bow 187
cards 187
championship 187
colour 187
consul@@ 187
drawn 187
haw@@ 187
join 187
listen 187
medal 187
minutes 187
offices 187
operating 187
powerful 187
require 187
sleep 187
academic 186
acted 186
applications 186
compl@@ 186
dig@@ 186
entertainment 186
ext@@ 186
glasses 186
kan@@ 186
lying 186
necessary 186
ordered 186
presence 186
selling 186
shel@@ 186
southwest 186
agreed 185
bec@@ 185
bishop 185
environment 185
facility 185
igh@@ 185
illa 185
illinois 185
inner 185
interior 185
teenth 185
twenty 185
yed 185
fair@@ 184
incorporated 184
judge 184
otherwise 184
prev@@ 184
reli@@ 184
somewhat 184
trained 184
ush 184
xes 184
analysis 183
anda 183
bad@@ 183
bob 183
chance 183
coffee 183
descent 183
dom@@ 183
generation 183
hosted 183
met@@ 183
painted 183
purpose 183
sat 183
tomorrow 183
ts@@ 183
atten@@ 182
disease 182
ening 182
lack 182
missing 182
notes 182
novels 182
onal 182
pper 182
ried 182
rivers 182
thousand 182
victoria 182
yl@@ 182
buy 181
consider 181
demonstr@@ 181
differ@@ 181
georgia 181
giving 181
jeeves 181
knows 181
meant 181
negative 181
pack 181
rob@@ 181
rules 181
sey 181
wrong 181
arrived 180
audience 180
bass 180
colors 180
elementary 180
fox 180
hole 180
items 180
kit@@ 180
liber@@ 180
nal 180
ought 180
pressure 180
reasons 180
refers 180
regions 180
roles 180
sy 180
ue 180
verse 180
ye 180
aling 179
animated 179
application 179
ca 179
class@@ 179
determined 179
feeling 179
flag 179
jen@@ 179
lane 179
meanwhile 179
ola 179
om 179
plain 179
refl@@ 179
rey 179
sales 179
springs 179
tax 179
tol@@ 179
adap@@ 178
affected 178
anne 178
borders 178
carry 178
champion 178
chess 178
claim 178
dutch 178
greatest 178
literary 178
lock 178
price 178
russia 178
sou@@ 178
tel@@ 178
visible 178
wooden 178
adults 177
alternative 177
arrested 177
ashed 177
chan@@ 177
humans 177
indeed 177
kill 177
letters 177
lo 177
locations 177
rise 177
rocks 177
sequ@@ 177
tall 177
unincorporated 177
williams 177
appearances 176
articles 176
assembly 176
bought 176
contrac@@ 176
coo@@ 176
ending 176
fair 176
fresh 176
guest 176
heads 176
holiday 176
improved 176
jackson 176
jam@@ 176
loo@@ 176
michigan 176
organizations 176
pad@@ 176
requires 176
spot 176
stable 176
truth 176
victory 176
designs 175
emperor 175
finish 175
inger 175
ith 175
lights 175
lion 175
load 175
milk 175
pet 175
ption 175
questions 175
reach 175
rel 175
ridge 175
safety 175
thereafter 175
ann 174
ased 174
consisted 174
courses 174
cy 174
decades 174
engaged 174
formal 174
format 174
gene@@ 174
grandfather 174
io 174
kins 174
marine 174
minute 174
purposes 174
rank 174
rice 174
sections 174
statistical 174
struck 174
technical 174
trip 174
ung 174
wales 174
acks 173
bo 173
buil@@ 173
bus@@ 173
captured 173
efforts 173
flav@@ 173
lakes 173
philosophy 173
platforms 173
pot@@ 173
rooms 173
straight 173
tax@@ 173
tis@@ 173
winning 173
deb@@ 172
debut 172
democratic 172
distribution 172
expanded 172
illing 172
inspired 172
kal@@ 172
medicine 172
oul@@ 172
ox@@ 172
papers 172
res@@ 172
risk 172
show@@ 172
slow 172
teaching 172
tho@@ 172
web@@ 172
faced 171
gin 171
industries 171
joe 171
kir@@ 171
kong 171
mass 171
mental 171
seasons 171
secret 171
waters 171
attempts 170
churches 170
classic 170
dal@@ 170
em 170
folk 170
happen 170
has@@ 170
haven 170
heat 170
ideas 170
opposed 170
poss@@ 170
rarely 170
regarded 170
serv@@ 170
step 170
tail 170
tives 170
tren@@ 170
wings 170
additionally 169
ask 169
ax@@ 169
bell@@ 169
bes 169
bring 169
calls 169
cles 169
farming 169
fit@@ 169
guard 169
individuals 169
murder 169
oxford 169
print 169
resides 169
stores 169
studios 169
techniques 169
toward 169
uk@@ 169
wild 169
writers 169
activ@@ 168
banks 168
block 168
bound 168
break@@ 168
ef@@ 168
ius 168
march 168
mobile 168
onia 168
radi@@ 168
saying 168
showed 168
ual 168
alexander 167
architecture 167
becoming 167
cell 167
concert 167
fer 167
fran@@ 167
indi@@ 167
labour 167
sburg 167
share 167
sorry 167
vir@@ 167
winner 167
achieved 166
americans 166
assistant 166
bir@@ 166
bra 166
clean 166
designated 166
good@@ 166
imag@@ 166
ink 166
meat 166
ment@@ 166
observ@@ 166
reduced 166
spl@@ 166
strange 166
ultimately 166
ut@@ 166
agu@@ 165
begin 165
domin@@ 165
drew 165
esh 165
fon@@ 165
greatly 165
hong 165
lyn@@ 165
ond@@ 165
prote@@ 165
reaction 165
slowly 165
som@@ 165
ss 165
termin@@ 165
tively 165
ums 165
agent 164
astic 164
august 164
brick 164
broad@@ 164
busy 164
candidate 164
chec@@ 164
connection 164
figures 164
incident 164
inging 164
mill@@ 164
ome@@ 164
pack@@ 164
promo@@ 164
revolution 164
semi@@ 164
singles 164
ske@@ 164
stro@@ 164
sty@@ 164
troops 164
avi@@ 163
beat@@ 163
broadcast 163
employed 163
existence 163
exp@@ 163
golf 163
greg@@ 163
instrument 163
leaders 163
phys@@ 163
piano 163
proto@@ 163
receive 163
regi@@ 163
relations 163
resem@@ 163
review 163
roof 163
save 163
shorts 163
spoken 163
andy 162
crossing 162
eman 162
exists 162
failure 162
ght 162
homes 162
ign@@ 162
ising 162
learned 162
lewis 162
mining 162
occupied 162
serious 162
tony 162
ute 162
vel 162
visit 162
approximately 161
chester 161
cycl@@ 161
direc@@ 161
elling 161
kh@@ 161
operate 161
outdoor 161
passenger 161
peak 161
potential 161
programming 161
republican 161
roc@@ 161
santa 161
send 161
separ@@ 161
streets 161
suff@@ 161
technique 161
trial 161
wy@@ 161
ara 160
ass 160
eve 160
file 160
focused 160
god@@ 160
independence 160
lawyer 160
lips 160
observed 160
ound 160
pla@@ 160
temperature 160
theatres 160
turns 160
ven 160
worn 160
abandoned 159
alists 159
alongside 159
alum@@ 159
berlin 159
bled 159
catch 159
cells 159
closest 159
congress 159
cousin 159
ee 159
ency 159
expensive 159
favorite 159
flying 159
historically 159
horses 159
housing 159
lou@@ 159
mani@@ 159
mode 159
nickname 159
nit@@ 159
ood 159
oured 159
refer 159
scott 159
senate 159
supply 159
tune 159
analy@@ 158
ato 158
businesses 158
collec@@ 158
controversial 158
episodes 158
founding 158
grey 158
intelligence 158
kid@@ 158
opposition 158
ric 158
salt 158
soft 158
suggested 158
taylor 158
thank 158
transl@@ 158
tus 158
ames 157
andrew 157
brow@@ 157
cambridge 157
circle 157
dates 157
difference 157
districts 157
draw 157
eigh@@ 157
fixed 157
jan@@ 157
overall 157
performances 157
soil 157
tap@@ 157
warm 157
weekly 157
brad@@ 156
brain 156
dia 156
forecast 156
gging 156
grounds 156
ha 156
happ@@ 156
ills 156
nations 156
roll 156
safe 156
shops 156
sight 156
spon@@ 156
structures 156
theater 156
ther 156
tourism 156
bag 155
celia 155
educational 155
enemy 155
entrance 155
gen 155
ide@@ 155
issued 155
jeans 155
link 155
medi@@ 155
misses 155
musicians 155
pho@@ 155
pictures 155
purple 155
quick 155
sexual 155
spi@@ 155
spir@@ 155
sus 155
three@@ 155
users 155
actors 154
ading 154
distinct 154
elections 154
engines 154
im 154
injured 154
laid 154
municipal 154
ogue 154
properties 154
regul@@ 154
setting 154
solo 154
spain 154
thirty 154
unusual 154
aching 153
arthur 153
cla@@ 153
dial@@ 153
doubt 153
jec@@ 153
keys 153
mascot 153
nevertheless 153
non 153
opinion 153
polish 153
ro 153
rou@@ 153
stairs 153
suddenly 153
sydney 153
tag@@ 153
thers 153
abilities 152
band@@ 152
christ@@ 152
coal 152
conf@@ 152
cream 152
dents 152
describes 152
flower 152
fron@@ 152
interred 152
irs 152
kat@@ 152
ligh@@ 152
mari@@ 152
ories 152
pain 152
poet 152
quali@@ 152
resulted 152
sof@@ 152
spread 152
thousands 152
transportation 152
dal 151
davis 151
denied 151
fs 151
iles 151
importance 151
ji@@ 151
migr@@ 151
nominated 151
opposite 151
protection 151
tourist 151
anced 150
bet 150
chin@@ 150
chosen 150
chris 150
clim@@ 150
earliest 150
effective 150
faster 150
fuel 150
heritage 150
lic 150
ot@@ 150
positions 150
read@@ 150
universities 150
zi@@ 150
ake 149
alls 149
announ@@ 149
armed 149
arranged 149
attrac@@ 149
bia 149
boats 149
clubs 149
comb@@ 149
count 149
defense 149
dent 149
distinguished 149
finds 149
firm 149
fying 149
injury 149
ja 149
ky@@ 149
lers 149
ppy 149
reputation 149
retirement 149
starred 149
tropical 149
vote 149
wounded 149
agreement 148
aled 148
asing 148
assi@@ 148
bush 148
cast@@ 148
conducted 148
develop 148
ental 148
ever@@ 148
fan 148
images 148
june 148
laws 148
legs 148
phones 148
pilot 148
reference 148
reserve 148
sell 148
sher@@ 148
thir@@ 148
tonight 148
transm@@ 148
ues 148
ala 147
attend 147
aunt 147
bby 147
bertie 147
bru@@ 147
cell@@ 147
choose 147
comedy 147
contact 147
dot 147
drop 147
environmental 147
hence 147
leads 147
planning 147
rol@@ 147
sav@@ 147
tes@@ 147
tta 147
tz 147
umb@@ 147
boards 146
calcul@@ 146
controversy 146
human@@ 146
ini 146
journal 146
ll 146
orders 146
prepared 146
quo@@ 146
rated 146
reports 146
ricardo 146
sixth 146
skin 146
tennessee 146
traditionally 146
web 146
blan@@ 145
device 145
encies 145
exactly 145
exchange 145
hundreds 145
indic@@ 145
ket 145
mini@@ 145
possibly 145
sam 145
sel 145
successfully 145
vehicles 145
wilson 145
apple 144
archi@@ 144
attached 144
attempted 144
cathedral 144
check 144
climbing 144
colored 144
comic 144
cool@@ 144
del 144
domestic 144
fear 144
free@@ 144
frequent 144
open@@ 144
ov@@ 144
permanent 144
soldiers 144
stand@@ 144
starting 144
steps 144
strongly 144
sweet 144
visitors 144
adapted 143
ager 143
ague 143
bay@@ 143
bed@@ 143
clothing 143
dering 143
donald 143
east@@ 143
fought 143
francisco 143
goods 143
graphy 143
han 143
hydro@@ 143
impossible 143
interesting 143
mathematics 143
minnesota 143
missouri 143
predic@@ 143
represent 143
residential 143
tting 143
architect 142
connec@@ 142
diplom@@ 142
elderly 142
ey@@ 142
ille 142
jo 142
maryland 142
objects 142
pir@@ 142
promoted 142
ref@@ 142
sac@@ 142
settlers 142
si 142
sisters 142
styles 142
tory 142
unless 142
viewed 142
ceremony 141
changing 141
cheese 141
duke 141
israel 141
jun@@ 141
mond 141
nur@@ 141
paintings 141
produces 141
recordings 141
rejected 141
statue 141
steve 141
user 141
wheel 141
zer 141
actual 140
allen 140
anal@@ 140
answered 140
bang@@ 140
canal 140
combat 140
continu@@ 140
crime 140
criminal 140
dan 140
devil 140
diagno@@ 140
drama 140
eless 140
elizabeth 140
emo@@ 140
excellent 140
ho 140
illustr@@ 140
impro@@ 140
lip@@ 140
log@@ 140
pants 140
productions 140
righ@@ 140
scored 140
seeing 140
ser 140
spirit 140
stress 140
string 140
subjects 140
than@@ 140
toy 140
wall@@ 140
wedding 140
ali 139
asi@@ 139
ature 139
aud@@ 139
bag@@ 139
beat 139
beer 139
ben 139
boarding 139
bone 139
bottom 139
boy@@ 139
charges 139
concrete 139
coordin@@ 139
cus@@ 139
eighteen 139
extensively 139
harmon@@ 139
identi@@ 139
motion 139
mouse 139
ops 139
partner 139
powers 139
rid@@ 139
spac@@ 139
ush@@ 139
vil@@ 139
wind@@ 139
zes 139
charged 138
considerable 138
distributed 138
edition 138
empty 138
exclu@@ 138
fairly 138
frame 138
ghts 138
honour 138
jud@@ 138
kee 138
landscape 138
legi@@ 138
olympic 138
oning 138
oph@@ 138
pressed 138
refer@@ 138
rer 138
retained 138
ri 138
ros@@ 138
seats 138
shared 138
signal 138
succ@@ 138
terminal 138
thi@@ 138
translation 138
venue 138
wa 138
wants 138
wise 138
worldwide 138
accident 137
aid 137
ano@@ 137
ared 137
but@@ 137
cad@@ 137
cav@@ 137
citizens 137
com 137
cop@@ 137
dd@@ 137
dence 137
eous 137
expres@@ 137
ferry 137
fun 137
itted 137
manner 137
nes 137
occup@@ 137
pine 137
provincial 137
revealed 137
rock@@ 137
significantly 137
tank 137
tig@@ 137
titled 137
underground 137
absolutely 136
aming 136
assigned 136
ection 136
filmed 136
fled 136
glad 136
gue 136
ians 136
lac@@ 136
lots 136
mont@@ 136
naval 136
passing 136
rapidly 136
repe@@ 136
rings 136
routes 136
rup@@ 136
sev@@ 136
sman 136
tells 136
ula 136
values 136
var@@ 136
vice 136
wealth 136
wer 136
ahead 135
apart 135
astronom@@ 135
carri@@ 135
composer 135
controlled 135
correct 135
dian 135
effort 135
eleven 135
engineer 135
frag@@ 135
headquartered 135
hero 135
home@@ 135
imperial 135
jack@@ 135
males 135
manchester 135
noise 135
pig@@ 135
proper 135
purchased 135
rad@@ 135
rat@@ 135
rich@@ 135
rolling 135
scen@@ 135
shoes 135
strength 135
tas@@ 135
cab@@ 134
colon@@ 134
dirt 134
dul@@ 134
dum@@ 134
edited 134
grown 134
hamilton 134
hus@@ 134
income 134
interested 134
ior 134
ix 134
kes@@ 134
let@@ 134
minim@@ 134
perc@@ 134
supreme 134
surgery 134
tant 134
tia 134
tourists 134
town@@ 134
ually 134
vely 134
weekend 134
wich 134
ables 133
bers 133
certainly 133
cham@@ 133
chor@@ 133
composition 133
consequently 133
differences 133
dish 133
esses 133
ffs 133
geor@@ 133
grave 133
gussie 133
hip 133
illed 133
increasingly 133
iness 133
ingham 133
interests 133
key@@ 133
neck 133
plac@@ 133
plo@@ 133
prepar@@ 133
rang@@ 133
rows 133
skills 133
sought 133
sounds 133
sugar 133
task 133
tele@@ 133
thinking 133
tured 133
vari@@ 133
variations 133
varies 133
vic@@ 133
woods 133
yn 133
zero 133
accept 132
address 132
albert 132
alle@@ 132
bath 132
berry 132
camer@@ 132
commander 132
compared 132
credit 132
cycle 132
defen@@ 132
earl 132
eed 132
element 132
francis 132
freedom 132
hou@@ 132
lincoln 132
medieval 132
night@@ 132
parking 132
quiet 132
religion 132
stal@@ 132
sville 132
tow@@ 132
unfortunately 132
zone 132
acid 131
crossed 131
custom@@ 131
elev@@ 131
gain 131
gall@@ 131
gardens 131
hall@@ 131
hood 131
hypo@@ 131
interpre@@ 131
lap@@ 131
launched 131
lay@@ 131
machines 131
nap@@ 131
optim@@ 131
posing 131
pum@@ 131
requ@@ 131
respec@@ 131
rum@@ 131
soul 131
tless 131
accep@@ 130
alization 130
anyone 130
asts 130
attacks 130
attracted 130
auto@@ 130
biggest 130
breeding 130
briefly 130
brigh@@ 130
compar@@ 130
doors 130
duties 130
eggs 130
hes@@ 130
leadership 130
nec@@ 130
negoti@@ 130
pref@@ 130
preserved 130
races 130
severe 130
sia 130
stick 130
tains 130
teeth 130
testing 130
uck 130
vin@@ 130
accommod@@ 129
apply 129
arc@@ 129
ards 129
brun@@ 129
cap 129
clearly 129
colle@@ 129
conduc@@ 129
constant 129
creation 129
credits 129
elec@@ 129
electronic 129
entary 129
faith 129
forests 129
gation 129
gon@@ 129
obtained 129
ok@@ 129
opera 129
passengers 129
publication 129
reduce 129
rho@@ 129
shoulder 129
tering 129
tools 129
tou@@ 129
zing 129
arena 128
communication 128
contribu@@ 128
dium 128
fted 128
hits 128
hollywood 128
ink@@ 128
ita 128
kitchen 128
magic 128
maintain 128
newspapers 128
rear 128
saf@@ 128
senator 128
separated 128
skir@@ 128
vity 128
average 127
brac@@ 127
camp@@ 127
catal@@ 127
cau@@ 127
corn@@ 127
correc@@ 127
cotton 127
day@@ 127
degrees 127
emplo@@ 127
enjoy 127
equivalent 127
exact 127
expansion 127
extension 127
fresh@@ 127
grant 127
graph 127
ides 127
jim 127
leg@@ 127
mills 127
prevent 127
progress 127
scenes 127
shaped 127
surve@@ 127
unable 127
alty 126
big@@ 126
cape 126
childhood 126
ck@@ 126
confirmed 126
construc@@ 126
creative 126
decre@@ 126
discovery 126
diverse 126
eries 126
extra 126
facing 126
fit 126
fleet 126
gold@@ 126
horn 126
hunting 126
junction 126
million 126
netherlands 126
occasions 126
ool 126
organisation 126
reality 126
relief 126
repeated 126
represents 126
roots 126
supporting 126
supports 126
surprise 126
tar 126
volume 126
ai@@ 125
aker 125
anch@@ 125
auc@@ 125
book@@ 125
challenge 125
cinema 125
convention 125
cooper@@ 125
damaged 125
declared 125
ea@@ 125
ecture 125
ethnic 125
existing 125
granted 125
haz@@ 125
holy 125
how@@ 125
kansas 125
labor 125
less@@ 125
map 125
message 125
mix 125
oak 125
ora 125
ourselves 125
perfect 125
photo 125
plate 125
ports 125
presi@@ 125
pub 125
restored 125
row@@ 125
server 125
sleeping 125
swedish 125
tioned 125
aer@@ 124
afraid 124
amaz@@ 124
bal 124
carefully 124
classified 124
collabor@@ 124
conversation 124
cooking 124
divi@@ 124
dream 124
fic@@ 124
frequency 124
funding 124
guns 124
ji 124
learn 124
lieutenant 124
mail 124
markets 124
mes@@ 124
nin@@ 124
pole 124
returns 124
school@@ 124
september 124
sup@@ 124
sym@@ 124
tain 124
thetic 124
thin 124
ticket 124
uniform 124
vest 124
vocals 124
wet 124
wonder 124
april 123
attacked 123
consol@@ 123
constitu@@ 123
correspon@@ 123
divisions 123
eag@@ 123
essential 123
excep@@ 123
factors 123
fare 123
fications 123
gers 123
headed 123
knight 123
locked 123
loved 123
mono@@ 123
narrow 123
option 123
pav@@ 123
printed 123
psych@@ 123
residence 123
resulting 123
rugby 123
scholars 123
signs 123
speaker 123
tex@@ 123
tie 123
trou@@ 123
trum@@ 123
ud 123
un 123
yan@@ 123
accoun@@ 122
acquired 122
alities 122
amateur 122
appeal 122
authorities 122
carto@@ 122
chemical 122
colours 122
commands 122
consider@@ 122
consum@@ 122
ech 122
fat@@ 122
feed 122
impact 122
increasing 122
landing 122
linked 122
medic@@ 122
mont 122
motor 122
neighb@@ 122
orn 122
sax@@ 122
soundtrack 122
syl@@ 122
ull 122
atlantic 121
author@@ 121
beg@@ 121
blond 121
cake 121
cash 121
colorado 121
conqu@@ 121
debate 121
dow@@ 121
econom@@ 121
fingers 121
func@@ 121
helps 121
lef@@ 121
lig@@ 121
links 121
lum@@ 121
nia 121
oms 121
palace 121
popul@@ 121
protected 121
secre@@ 121
short@@ 121
spend 121
tiny 121
tivity 121
tual 121
aks 120
audio 120
besides 120
bloc@@ 120
cattle 120
collected 120
colonel 120
converted 120
courts 120
danc@@ 120
declined 120
definition 120
desert 120
eco@@ 120
ecu@@ 120
edinburgh 120
ef 120
experienced 120
fav@@ 120
fif@@ 120
gary 120
gentleman 120
investment 120
joh@@ 120
loves 120
monument 120
owners 120
patri@@ 120
portuguese 120
posi@@ 120
scri@@ 120
smooth 120
strike 120
tch 120
ug@@ 120
wellknown 120
whose 120
wra@@ 120
writes 120
adv@@ 119
agency 119
alive 119
ani 119
apparently 119
appl@@ 119
artificial 119
augh@@ 119
bern@@ 119
cabinet 119
components 119
concerned 119
demand 119
deser@@ 119
drawing 119
ecting 119
fame 119
favourite 119
fe 119
flights 119
gallery 119
gas@@ 119
glo@@ 119
governed 119
installed 119
ions 119
keeping 119
las 119
lists 119
miller 119
onally 119
qualified 119
ren 119
resigned 119
restaurants 119
rever@@ 119
rus@@ 119
sau@@ 119
smile 119
telephone 119
trouble 119
wore 119
bars 118
bodies 118
branches 118
charity 118
chose 118
combined 118
consci@@ 118
costs 118
dean 118
depending 118
ech@@ 118
express 118
factor 118
hill@@ 118
kur@@ 118
life@@ 118
ots 118
petro@@ 118
phase 118
recru@@ 118
reduc@@ 118
sad@@ 118
sculp@@ 118
sit@@ 118
specifically 118
stayed 118
stuff 118
ural 118
wag@@ 118
waves 118
worse 118
ached 117
agree 117
andre@@ 117
aside 117
ban 117
chapel 117
circuit 117
constitution 117
describe 117
distribu@@ 117
earth@@ 117
grove 117
guardian 117
ician 117
ints 117
lea@@ 117
lic@@ 117
outh 117
pot 117
q 117
ram 117
reas@@ 117
resources 117
sses 117
stages 117
standards 117
suicide 117
tionary 117
watches 117
wick 117
worker 117
year@@ 117
yers 117
absor@@ 116
affairs 116
arabic 116
autom@@ 116
aya 116
bee 116
boundary 116
competed 116
connecticut 116
displayed 116
dres@@ 116
fast@@ 116
gene 116
howard 116
jumps 116
leg 116
lev@@ 116
ounded 116
patients 116
philadelphia 116
quarter 116
script 116
sweden 116
tours 116
trav@@ 116
tti 116
wars 116
will@@ 116
aire 115
aki 115
capit@@ 115
cros@@ 115
encour@@ 115
enjoyed 115
expressed 115
global 115
inn 115
keeps 115
mention 115
merely 115
ni 115
phy 115
physics 115
prec@@ 115
processing 115
progres@@ 115
resident 115
resistance 115
search@@ 115
similarly 115
smoking 115
starts 115
stephen 115
stock@@ 115
toler@@ 115
urs 115
variant 115
visual 115
whi@@ 115
accessible 114
ae 114
atives 114
best@@ 114
broad 114
bronze 114
brook 114
burned 114
buses 114
chi 114
classification 114
come@@ 114
conflict 114
dangerous 114
democr@@ 114
directors 114
du 114
electro@@ 114
equal 114
escaped 114
facts 114
handle 114
heal@@ 114
joy 114
july 114
lose 114
membership 114
mix@@ 114
officially 114
orthodox 114
participated 114
premier 114
reve@@ 114
revol@@ 114
settlements 114
sheep 114
ski@@ 114
target 114
truck 114
vac@@ 114
wake 114
wright 114
arch 113
barri@@ 113
bian 113
bloo@@ 113
chemistry 113
chil@@ 113
combination 113
comfortable 113
dated 113
decor@@ 113
delivered 113
desc@@ 113
devices 113
fashion 113
females 113
fired 113
first@@ 113
flow@@ 113
impl@@ 113
inn@@ 113
institution 113
internal 113
kentucky 113
losing 113
melbourne 113
ordinary 113
ov 113
partially 113
planet 113
plas@@ 113
renov@@ 113
rough 113
sab@@ 113
satis@@ 113
sharp 113
stoc@@ 113
subway 113
survive 113
surviving 113
symbol@@ 113
tile 113
vent@@ 113
wic@@ 113
appointment 112
aug@@ 112
bing 112
bud@@ 112
cent 112
chocolate 112
deal@@ 112
dependent 112
eland 112
enni@@ 112
eria 112
essi@@ 112
great@@ 112
improve 112
itor 112
jane 112
marke@@ 112
max 112
musician 112
neu@@ 112
popularity 112
powered 112
publications 112
pure 112
rail@@ 112
remembered 112
rides 112
rope 112
sick 112
swi@@ 112
tang@@ 112
tem@@ 112
tism 112
trick 112
tted 112
ura 112
visi@@ 112
voc@@ 112
acci@@ 111
ado 111
advantage 111
archy 111
aster@@ 111
bits 111
bridges 111
buc@@ 111
chy 111
clark 111
constituency 111
conver@@ 111
docum@@ 111
drag@@ 111
gab@@ 111
genre 111
icious 111
inhabitants 111
insurance 111
itable 111
kam@@ 111
lawrence 111
lia 111
lunch 111
meets 111
merged 111
narr@@ 111
oring 111
plastic 111
practical 111
preferred 111
pull 111
rein@@ 111
roy@@ 111
tests 111
ti 111
treas@@ 111
tum@@ 111
weapons 111
wildlife 111
wolf 111
woo@@ 111
accompanied 110
ador 110
advertising 110
alled 110
aps 110
attributed 110
blocks 110
blues 110
boxes 110
capacity 110
centuries 110
committed 110
compos@@ 110
document 110
err@@ 110
expect 110
federation 110
fifteen 110
incorpor@@ 110
kie 110
kni@@ 110
lawn 110
oes 110
outstanding 110
peter@@ 110
pli@@ 110
poem 110
poems 110
sang 110
scheme 110
selection 110
suggests 110
tat@@ 110
thes@@ 110
thri@@ 110
wire 110
xing 110
authors 109
balance 109
bass@@ 109
boxing 109
defeat 109
drug 109
fru@@ 109
ght@@ 109
gram@@ 109
helene 109
ide 109
identity 109
inate 109
iv@@ 109
juli@@ 109
lift 109
massive 109
onist 109
pag@@ 109
pioneer 109
request 109
rolled 109
sentence 109
solid 109
struc@@ 109
suppl@@ 109
switzerland 109
teach 109
tha 109
theories 109
transfer 109
zar@@ 109
abo@@ 108
aches 108
adju@@ 108
alcohol 108
alleg@@ 108
alpha@@ 108
belt 108
beside 108
blind 108
bou@@ 108
brian 108
cing 108
cry 108
dozen 108
duty 108
eled 108
encoun@@ 108
forming 108
giant 108
hire 108
immediate 108
investigation 108
jobs 108
johnny 108
kings 108
las@@ 108
lip 108
modi@@ 108
orchestra 108
pic 108
poland 108
pseu@@ 108
quanti@@ 108
quarter@@ 108
revi@@ 108
see@@ 108
sequence 108
statement 108
trag@@ 108
universal 108
usual 108
violence 108
wr@@ 108
yl 108
akes 107
alan 107
angela 107
annually 107
argument 107
ashes 107
coins 107
colonial 107
component 107
concerts 107
contrast 107
covering 107
devoted 107
encouraged 107
eo 107
executed 107
expression 107
goals 107
gru@@ 107
honorary 107
inary 107
mechan@@ 107
mississippi 107
motorcycle 107
movements 107
nes@@ 107
norway 107
oklahoma 107
phrase 107
princess 107
rand@@ 107
rely 107
shook 107
symbol 107
tables 107
taining 107
teachers 107
tel 107
thick 107
tribe 107
whis@@ 107
youngest 107
ab 106
accounts 106
ani@@ 106
awa 106
broadway 106
carries 106
characterized 106
coding 106
cook 106
crops 106
drums 106
eks 106
emi@@ 106
eption 106
explained 106
funeral 106
jes@@ 106
liked 106
mystery 106
nephew 106
num@@ 106
offen@@ 106
oll@@ 106
organic 106
organiz@@ 106
patient 106
patrick 106
plot 106
producing 106
representative 106
spor@@ 106
super 106
tend 106
tier 106
valuable 106
vin 106
walked 106
won@@ 106
yesterday 106
anybody 105
apolo@@ 105
appe@@ 105
bac@@ 105
coastal 105
collections 105
concer@@ 105
context 105
dave 105
decline 105
developing 105
diocese 105
discussion 105
dorothy 105
entering 105
explanation 105
fiel@@ 105
forever 105
full@@ 105
helmet 105
increases 105
institutions 105
jesus 105
launch 105
listening 105
logo 105
moo@@ 105
november 105
olly 105
organ@@ 105
ous@@ 105
pain@@ 105
plic@@ 105
recognition 105
recovered 105
rocky 105
sale 105
scientists 105
scope 105
scra@@ 105
sign@@ 105
silent 105
vessels 105
anthro@@ 104
any@@ 104
ater 104
behavior 104
chie@@ 104
commemor@@ 104
crash 104
defin@@ 104
ells 104
emergency 104
enced 104
eton 104
everybody 104
extreme 104
fence 104
forgotten 104
gregson 104
identical 104
idi@@ 104
journey 104
keeper 104
kis@@ 104
light@@ 104
lows 104
matters 104
moore 104
motto 104
ogy 104
ologist 104
oon 104
oregon 104
peninsula 104
pierre 104
programme 104
putting 104
rim 104
samuel 104
saxon 104
seek 104
session 104
studying 104
swim@@ 104
temp@@ 104
ules 104
weak@@ 104
white@@ 104
ym 104
adm@@ 103
advoc@@ 103
angle 103
ap 103
athletic 103
batt@@ 103
bry@@ 103
cum@@ 103
dent@@ 103
drummer 103
eding 103
egg 103
elsewhere 103
error 103
expen@@ 103
fill 103
fitted 103
fting 103
gged 103
hyper@@ 103
instrumental 103
iring 103
itary 103
loy@@ 103
mass@@ 103
mechanism 103
nett 103
nicknamed 103
nuclear 103
pati@@ 103
performs 103
pick 103
picked 103
plu@@ 103
promise 103
pup@@ 103
reportedly 103
retail 103
saturday 103
scription 103
stors 103
swing 103
thesis 103
throw 103
tious 103
vill@@ 103
walter 103
alised 102
awar@@ 102
brazil 102
broo@@ 102
contributions 102
dim@@ 102
div@@ 102
dock 102
domain 102
economics 102
eller 102
even@@ 102
exhibit 102
fate 102
gay 102
hang@@ 102
hurt 102
inspec@@ 102
joint 102
mit 102
moder@@ 102
mounted 102
october 102
output 102
premi@@ 102
prob@@ 102
publ@@ 102
rag@@ 102
regarding 102
relati@@ 102
rem@@ 102
rement 102
returning 102
ruled 102
scheduled 102
sens@@ 102
shir@@ 102
shoc@@ 102
shooting 102
steam 102
techn@@ 102
tened 102
usage 102
wan 102
aka 101
amongst 101
anderson 101
angel 101
anger 101
atom@@ 101
bly 101
brief 101
buff@@ 101
campaig@@ 101
canyon 101
charter 101
chem@@ 101
commit@@ 101
cool 101
daniel 101
distinctive 101
essentially 101
gar 101
garage 101
gradually 101
grammar 101
greece 101
identify 101
inqu@@ 101
ist@@ 101
itated 101
kent 101
maria 101
maybe 101
missions 101
moves 101
networks 101
objec@@ 101
officials 101
paint 101
painter 101
parallel 101
pattern 101
pier@@ 101
pocket 101
rid 101
romantic 101
saved 101
sely 101
shares 101
stly 101
strip 101
stry 101
tunnel 101
turning 101
vegetables 101
zi 101
zo 101
&apos;clock 100
algorithm 100
ao 100
begun 100
boundaries 100
cher@@ 100
circumstances 100
cited 100
counties 100
decade 100
disc 100
electoral 100
enh@@ 100
ensu@@ 100
extrac@@ 100
fortune 100
fred 100
fund 100
injuries 100
instance 100
jum@@ 100
ler@@ 100
limits 100
measure 100
ore@@ 100
outer 100
prohi@@ 100
pulled 100
rang 100
rap@@ 100
releases 100
remote 100
resort 100
solar 100
suspended 100
transferred 100
widespread 100
acqu@@ 99
adver@@ 99
agents 99
anywhere 99
appreci@@ 99
argu@@ 99
bible 99
bited 99
blu@@ 99
breed 99
ceremon@@ 99
cock 99
criticism 99
detail 99
dom 99
dram@@ 99
dublin 99
eral 99
false 99
finals 99
follow@@ 99
gul@@ 99
harve@@ 99
hau@@ 99
icks 99
kol@@ 99
leon@@ 99
li 99
ling@@ 99
mater@@ 99
mr 99
nick@@ 99
norwegian 99
oid 99
ols 99
pounds 99
ques@@ 99
registered 99
ria 99
roughly 99
sanc@@ 99
shr@@ 99
side@@ 99
sky@@ 99
stance 99
strong@@ 99
sum 99
thum@@ 99
tongue 99
tries 99
understood 99
utili@@ 99
adam 98
ari 98
arti@@ 98
attitude 98
beauty 98
cin@@ 98
colorful 98
compla@@ 98
conserv@@ 98
depen@@ 98
develop@@ 98
elle 98
employees 98
endor@@ 98
ential 98
experiences 98
found@@ 98
friendly 98
funds 98
govern@@ 98
hardly 98
infl@@ 98
insects 98
ities 98
korean 98
laun@@ 98
lined 98
list@@ 98
lock@@ 98
main@@ 98
manuscri@@ 98
meal 98
melo@@ 98
microphone 98
ministry 98
missed 98
montreal 98
ose 98
parliamentary 98
phic 98
pond 98
praised 98
pression 98
psychology 98
robo@@ 98
seeds 98
seriously 98
simon 98
skill 98
sley 98
solutions 98
stab@@ 98
stati@@ 98
storage 98
stown 98
thu@@ 98
tian 98
ut 98
ache 97
alabama 97
biology 97
bruce 97
candidates 97
category 97
cave 97
chamber 97
chase 97
christianity 97
corps 97
december 97
depression 97
deputy 97
desk 97
destination 97
dir@@ 97
drum 97
existed 97
fighter 97
franklin 97
gradu@@ 97
harris 97
hull 97
influential 97
inhabited 97
lasted 97
linear 97
lovely 97
marry 97
notably 97
nov@@ 97
oma 97
opportunity 97
originated 97
origins 97
otic 97
outs 97
part@@ 97
pin 97
pris@@ 97
register 97
reply 97
road@@ 97
sati@@ 97
shirts 97
soldier 97
supposed 97
symptoms 97
tshirt 97
alize 96
arities 96
atically 96
audi@@ 96
bears 96
bour@@ 96
bowl 96
breakfast 96
chart 96
clay 96
cliff 96
congres@@ 96
copies 96
crosses 96
crowded 96
dd 96
dead@@ 96
dollars 96
dual 96
dust 96
elim@@ 96
guilty 96
gur@@ 96
haired 96
lingu@@ 96
mall 96
manufactured 96
manufacturing 96
mistake 96
nig@@ 96
nut 96
oral 96
pass@@ 96
path@@ 96
promised 96
psy@@ 96
ral@@ 96
rhy@@ 96
screen@@ 96
second@@ 96
shaw 96
silence 96
smallest 96
spring@@ 96
tees 96
transi@@ 96
ult 96
virtual 96
weak 96
abstr@@ 95
alge@@ 95
attorney 95
billy 95
chro@@ 95
circul@@ 95
citiz@@ 95
conduct 95
corn 95
descri@@ 95
description 95
dil@@ 95
dor 95
drove 95
egypt 95
ela 95
entry 95
expl@@ 95
ference 95
flew 95
flor@@ 95
generated 95
gie 95
houston 95
hunter 95
inct 95
indiana 95
influences 95
innov@@ 95
kennedy 95
martial 95
mechanical 95
mines 95
moz@@ 95
ow 95
park@@ 95
pear@@ 95
pen 95
periods 95
pers 95
persons 95
pitch 95
ported 95
poses 95
protect 95
puzz@@ 95
ray@@ 95
reign 95
respon@@ 95
river@@ 95
sciences 95
seg@@ 95
seventh 95
shed 95
singapore 95
smo@@ 95
spin@@ 95
surname 95
tape 95
ude 95
variable 95
wav@@ 95
wisconsin 95
agers 94
alternate 94
anim@@ 94
ballo@@ 94
bau@@ 94
bread 94
cand@@ 94
certi@@ 94
chron@@ 94
clock 94
continuous 94
craw@@ 94
creating 94
criticized 94
dahlia 94
dea@@ 94
difficulty 94
ece 94
enter@@ 94
etr@@ 94
expan@@ 94
extra@@ 94
grandchildren 94
guys 94
hats 94
immigr@@ 94
iner 94
instruc@@ 94
inve@@ 94
jan 94
korea 94
margaret 94
mes 94
mess@@ 94
naturally 94
noticed 94
pione@@ 94
principle 94
processes 94
proof 94
provi@@ 94
rebel@@ 94
resumed 94
root 94
ross 94
rot@@ 94
rupted 94
shadow 94
shallow 94
somewhere 94
speaks 94
sume 94
sunglasses 94
surprised 94
thirteen 94
tram@@ 94
tty 94
tube 94
ulated 94
varied 94
view@@ 94
virtu@@ 94
vis 94
whatever 94
abbey 93
advance 93
advice 93
arn@@ 93
bes@@ 93
bos@@ 93
bren@@ 93
christopher 93
clear@@ 93
contr@@ 93
craft 93
cutting 93
determin@@ 93
divorced 93
dresses 93
educ@@ 93
ek@@ 93
estion 93
ex 93
farmers 93
forgot 93
gathered 93
graphical 93
guitarist 93
gy@@ 93
height 93
ices 93
laugh@@ 93
marsh@@ 93
mere 93
middle@@ 93
motiv@@ 93
nest 93
nick 93
nings 93
notice 93
origin@@ 93
ownership 93
owns 93
oy@@ 93
parade 93
priv@@ 93
prosp@@ 93
raine 93
relationships 93
some@@ 93
stones 93
supplied 93
talent 93
tude 93
unclear 93
accused 92
anthony 92
antly 92
artistic 92
assist 92
bak@@ 92
bever@@ 92
cart 92
categories 92
cheer@@ 92
cigarette 92
collaboration 92
colleges 92
conclu@@ 92
consist 92
diamond 92
exclusively 92
gin@@ 92
hospit@@ 92
imp@@ 92
insul@@ 92
ladies 92
leaf 92
liberty 92
locks 92
maintains 92
mon 92
olog@@ 92
osc@@ 92
partly 92
photographs 92
recommended 92
recreation 92
reform 92
rie 92
sian 92
skate@@ 92
span@@ 92
specialized 92
sunset 92
swim 92
touch 92
tox@@ 92
tra 92
vow@@ 92
waited 92
wer@@ 92
worship 92
advertis@@ 91
age@@ 91
ales 91
ambi@@ 91
automatic 91
carbon 91
centers 91
characteristic 91
column 91
communications 91
compete 91
competitions 91
corporate 91
costume 91
decide 91
deep@@ 91
depicted 91
efficient 91
eli 91
emphas@@ 91
enjoys 91
enthusi@@ 91
event@@ 91
feeding 91
fountain 91
funded 91
grou@@ 91
hair@@ 91
hidden 91
hired 91
implic@@ 91
indicate 91
involves 91
journalist 91
kap@@ 91
manage 91
mars 91
metric 91
orial 91
patron 91
peri@@ 91
poverty 91
presents 91
recreational 91
relevant 91
respect 91
sector 91
servation 91
thompson 91
tokyo 91
ware 91
welsh 91
wrest@@ 91
acle 90
adop@@ 90
alliance 90
anian 90
anx@@ 90
attraction 90
bin 90
brand@@ 90
championships 90
che 90
colum@@ 90
communist 90
dakota 90
driven 90
drivers 90
dynam@@ 90
dynasty 90
edit@@ 90
eer 90
elder 90
eldest 90
embar@@ 90
erals 90
fallen 90
fes@@ 90
fos@@ 90
gies 90
ice@@ 90
ideal 90
ig 90
ila 90
illegal 90
jection 90
jefferson 90
jur@@ 90
killing 90
laughed 90
lux@@ 90
measu@@ 90
moderate 90
onian 90
oper@@ 90
outdoors 90
photo@@ 90
preparing 90
promote 90
promotion 90
py 90
rebuilt 90
recogni@@ 90
rence 90
sandy 90
scand@@ 90
sex@@ 90
somebody 90
stic 90
suffering 90
una 90
vessel 90
wis@@ 90
yp@@ 90
zu@@ 90
arian 89
bank@@ 89
bbed 89
bee@@ 89
behavi@@ 89
bond 89
careful 89
chips 89
commis@@ 89
concep@@ 89
confidence 89
crow@@ 89
customers 89
detroit 89
diff@@ 89
disappeared 89
easier 89
eived 89
enz@@ 89
external 89
finance 89
flag@@ 89
grandson 89
grows 89
heroes 89
iler 89
ingredi@@ 89
interview 89
judg@@ 89
keyboard 89
kl@@ 89
kne@@ 89
kon@@ 89
lington 89
lis@@ 89
locally 89
maj@@ 89
mate 89
mean@@ 89
merch@@ 89
nowadays 89
offs 89
photograph 89
politician 89
privately 89
reads 89
rot 89
satur@@ 89
siblings 89
simil@@ 89
solve 89
stored 89
supporter 89
surren@@ 89
tall@@ 89
themes 89
tiles 89
toured 89
turkey 89
twin 89
unic@@ 89
universe 89
violin 89
visiting 89
watched 89
whist@@ 89
ails 88
ancing 88
approved 88
arab@@ 88
assass@@ 88
bags 88
bicy@@ 88
brooklyn 88
cafe 88
capture 88
cats 88
cement 88
chanc@@ 88
chel@@ 88
chen@@ 88
colony 88
confused 88
designer 88
eric 88
exercise 88
explain 88
files 88
floo@@ 88
fra@@ 88
frank@@ 88
graph@@ 88
gulf 88
immigrants 88
inci@@ 88
indicated 88
inum 88
invent@@ 88
invented 88
invention 88
ith@@ 88
itors 88
master@@ 88
matic 88
medium 88
near@@ 88
obsc@@ 88
pedestri@@ 88
poli@@ 88
pro 88
proce@@ 88
quebec 88
rati@@ 88
remainder 88
rising 88
sent@@ 88
spr@@ 88
ste 88
tee 88
tender 88
theorem 88
tim 88
trinity 88
alpha 87
arrive 87
astro@@ 87
atur@@ 87
belgium 87
buying 87
charlie 87
christ 87
cleveland 87
compound 87
conn@@ 87
contin@@ 87
dimen@@ 87
dismissed 87
displays 87
documentary 87
dominated 87
drinks 87
eagle 87
editions 87
emma 87
extend 87
exter@@ 87
farm@@ 87
fortun@@ 87
friday 87
furthermore 87
grad@@ 87
hampshire 87
harbor 87
housed 87
implem@@ 87
jury 87
justi@@ 87
knife 87
lei@@ 87
lifetime 87
mad 87
maximum 87
meetings 87
modified 87
newly 87
onable 87
palm 87
partial 87
progressive 87
proposal 87
punk 87
ras@@ 87
references 87
representatives 87
shoot 87
shor@@ 87
stops 87
successor 87
then@@ 87
ttle 87
uniforms 87
videos 87
voting 87
wheel@@ 87
whilst 87
wrestling 87
accor@@ 86
benefit 86
birthplace 86
brew@@ 86
bull 86
burst 86
chicken 86
chim@@ 86
cler@@ 86
comics 86
concern 86
congreg@@ 86
dallas 86
defence 86
defensive 86
electr@@ 86
eliminated 86
encing 86
escap@@ 86
essive 86
eur 86
featuring 86
fies 86
forth 86
fur 86
geneva 86
gift 86
graphics 86
guil@@ 86
indians 86
magazines 86
magnetic 86
merchant 86
mexican 86
municipalities 86
murray 86
nat@@ 86
ny@@ 86
participants 86
pit 86
portrayed 86
posed 86
principles 86
rapid 86
reaching 86
reverse 86
sail@@ 86
sarah 86
seas@@ 86
shell 86
sible 86
skiing 86
stroke 86
swit@@ 86
ting@@ 86
touched 86
zen 86
acher 85
admitted 85
affair 85
airline 85
alcohol@@ 85
ald 85
ank 85
aspects 85
assumed 85
bie 85
biography 85
brid@@ 85
cc@@ 85
ced@@ 85
circular 85
comman@@ 85
cover@@ 85
destroy 85
disputed 85
evolved 85
faculty 85
grace 85
hann@@ 85
hart 85
hate 85
hay@@ 85
heights 85
horri@@ 85
illustrated 85
ind 85
internationally 85
iran 85
islamic 85
ity@@ 85
jean 85
jews 85
longest 85
maid 85
moun@@ 85
neighbor@@ 85
ologists 85
ook 85
participate 85
patterns 85
pling 85
portions 85
practices 85
predominantly 85
recei@@ 85
regiment 85
relative 85
rele@@ 85
replacement 85
rick 85
rider 85
rubber 85
stered 85
stret@@ 85
suitable 85
symph@@ 85
tail@@ 85
telling 85
tible 85
tool 85
transit 85
tric@@ 85
ua 85
vibr@@ 85
walker 85
warri@@ 85
adams 84
aders 84
allow@@ 84
appropriate 84
assum@@ 84
ather 84
atic@@ 84
bedroom 84
borne 84
bron@@ 84
burns 84
cardi@@ 84
clean@@ 84
comprises 84
conventional 84
convicted 84
cylin@@ 84
dialect 84
dynamic 84
employment 84
ero 84
evolution 84
fed 84
gear 84
google 84
handled 84
homo@@ 84
hunt 84
ight 84
indu@@ 84
inno@@ 84
integrated 84
introduction 84
iously 84
kay@@ 84
lap 84
leather 84
licensed 84
lineup 84
liverpool 84
maine 84
maintenance 84
maker 84
mccar@@ 84
nan@@ 84
navi@@ 84
og 84
oman 84
pec@@ 84
phy@@ 84
portra@@ 84
prisoners 84
publishing 84
rela@@ 84
roger 84
sank 84
seattle 84
sever@@ 84
shield 84
slide 84
strategy 84
stric@@ 84
substantial 84
substitu@@ 84
sunny 84
teries 84
thernmost 84
thic 84
toddler 84
treaty 84
ud@@ 84
unsuccessful 84
welcome 84
wing@@ 84
writings 84
ail@@ 83
animation 83
argued 83
aspect 83
birmingham 83
boro 83
bull@@ 83
capable 83
cargo 83
characteristics 83
clin@@ 83
consi@@ 83
constra@@ 83
contain@@ 83
cuts 83
depends 83
dramatic 83
edly 83
edy 83
enters 83
entitled 83
equipped 83
ests 83
experimental 83
extends 83
fam@@ 83
flood 83
foo@@ 83
gest@@ 83
graham 83
habitat 83
ind@@ 83
iowa 83
jet 83
kiss 83
landmark 83
latest 83
mature 83
metro 83
mou@@ 83
neighbourhood 83
occasion 83
partnership 83
pes@@ 83
populations 83
practi@@ 83
publisher 83
remark@@ 83
rep@@ 83
requirements 83
revolutionary 83
robin 83
scru@@ 83
sne@@ 83
spaces 83
suggest 83
switch 83
terri@@ 83
though@@ 83
toys 83
trin@@ 83
tul@@ 83
vor@@ 83
wash@@ 83
arkansas 82
assign@@ 82
beaches 82
benef@@ 82
budget 82
calling 82
care@@ 82
closer 82
cone 82
confi@@ 82
connect 82
connects 82
convic@@ 82
copy 82
crisis 82
dating 82
deck 82
dency 82
determine 82
dimensional 82
distinction 82
eling 82
estim@@ 82
flash 82
flexi@@ 82
harrison 82
hel 82
hier@@ 82
icon 82
inity 82
invasion 82
ishment 82
itarian 82
joining 82
jordan 82
journ@@ 82
kim@@ 82
laboratory 82
malay@@ 82
measures 82
nag@@ 82
nas@@ 82
ott@@ 82
pan 82
pat 82
perfectly 82
perio@@ 82
photographer 82
ranges 82
reservoir 82
russell 82
signature 82
stic@@ 82
striped 82
sword 82
thorpe 82
threatened 82
trem@@ 82
ves@@ 82
vienna 82
wid@@ 82
adventure 81
algorithms 81
ami 81
angels 81
arizona 81
armen@@ 81
asleep 81
aviation 81
bacter@@ 81
basin 81
battery 81
boulevard 81
ced 81
cloud 81
common@@ 81
companion 81
concerns 81
containing 81
contem@@ 81
dat@@ 81
delivery 81
dible 81
differ 81
discus@@ 81
dreams 81
eaten 81
eter@@ 81
exposed 81
fea@@ 81
fen@@ 81
fic 81
focuses 81
geon 81
harvard 81
hide 81
his@@ 81
iny 81
isi@@ 81
january 81
joins 81
journalism 81
kills 81
knowled@@ 81
lan 81
laying 81
linux 81
lit 81
loaded 81
loose 81
louisiana 81
luck 81
mack@@ 81
masters 81
opportunities 81
person@@ 81
pick@@ 81
pleasant 81
possession 81
power@@ 81
promp@@ 81
purchase 81
pursue 81
rates 81
roy 81
sentenced 81
sings 81
stru@@ 81
syndrome 81
tery 81
ushed 81
varieties 81
voices 81
accompl@@ 80
alternati@@ 80
approached 80
assisted 80
atmosphere 80
austria 80
bum@@ 80
butler 80
contest 80
crimin@@ 80
dawn 80
dee 80
dense 80
destruc@@ 80
eld 80
endur@@ 80
execu@@ 80
fail 80
formally 80
gang 80
hamlet 80
hawaii 80
hiking 80
household 80
initi@@ 80
insi@@ 80
kevin 80
legislative 80
longtime 80
manufacturers 80
max@@ 80
mineral 80
nelson 80
occupation 80
olympics 80
operator 80
organis@@ 80
ouse 80
pam@@ 80
permitted 80
pus 80
raft 80
rage 80
remin@@ 80
rescue 80
responsibility 80
rison 80
sat@@ 80
seventeen 80
snowy 80
spectac@@ 80
stead 80
struggle 80
supporters 80
tack@@ 80
tap 80
taxi 80
tends 80
terrible 80
threw 80
tide 80
tionally 80
transmission 80
trousers 80
usa 80
vals 80
week@@ 80
wes@@ 80
yards 80
aber@@ 79
achieve 79
arrangement 79
arrival 79
associ@@ 79
attending 79
baker 79
bure@@ 79
burning 79
chairs 79
chat@@ 79
cleaning 79
cos@@ 79
creature 79
cultiv@@ 79
cus 79
dark@@ 79
decorated 79
depic@@ 79
deriv@@ 79
derives 79
eau 79
elt 79
enjoying 79
farms 79
fault 79
gates 79
glasgow 79
guests 79
guide 79
hardware 79
hell 79
historian 79
hydr@@ 79
icial 79
inspiration 79
jimmy 79
kas@@ 79
kic@@ 79
legend 79
libraries 79
maps 79
microsoft 79
morris 79
nati@@ 79
neighbouring 79
oner 79
partners 79
phil 79
pressive 79
priest 79
queen@@ 79
relocated 79
sessions 79
sevent@@ 79
sheet 79
shut 79
sixteen 79
skateboard 79
summit 79
targets 79
tech 79
teen 79
tent 79
text@@ 79
topics 79
traveled 79
turkish 79
was@@ 79
acceler@@ 78
acker 78
asp@@ 78
asses 78
athens 78
breaks 78
brit@@ 78
choir 78
colom@@ 78
conservation 78
cun@@ 78
cup@@ 78
cut@@ 78
ddy 78
decisions 78
detailed 78
diet 78
disney 78
dist@@ 78
dley 78
eas@@ 78
eded 78
eighth 78
enclo@@ 78
esc@@ 78
feelings 78
formula 78
franc@@ 78
governments 78
guitars 78
happens 78
helicop@@ 78
implemented 78
iso@@ 78
iss@@ 78
ito 78
kid 78
kland 78
literally 78
loud 78
marketing 78
miss@@ 78
mons 78
monthly 78
norman 78
oke 78
oliver 78
ordin@@ 78
personality 78
pittsburgh 78
pizza 78
plenty 78
plum@@ 78
pow@@ 78
puerto 78
reci@@ 78
relation 78
restricted 78
richmond 78
rod 78
scoo@@ 78
socialist 78
speakers 78
stan 78
statistics 78
sufficient 78
swiss 78
temporary 78
them@@ 78
throwing 78
thrown 78
trails 78
turn@@ 78
undergraduate 78
understanding 78
variation 78
warning 78
airlines 77
amy 77
ancestry 77
aria 77
artwork 77
attractions 77
austin 77
bill@@ 77
bite 77
boss 77
bristol 77
bub@@ 77
button 77
ces 77
chair@@ 77
click 77
climb 77
clou@@ 77
control@@ 77
controls 77
conveni@@ 77
departments 77
desper@@ 77
discussed 77
disgu@@ 77
dominant 77
douglas 77
electricity 77
ern@@ 77
essing 77
ession 77
evil 77
exhibits 77
expedition 77
experiments 77
falling 77
fla@@ 77
fundamental 77
gom@@ 77
hub 77
iced 77
indoor 77
isher 77
jav@@ 77
jurisdiction 77
khan 77
ks@@ 77
layer 77
legislation 77
matthew 77
muslim 77
nomination 77
novel@@ 77
operational 77
pakistan 77
pher@@ 77
remove 77
replace 77
rhythm 77
ruins 77
rush 77
satellite 77
sculpture 77
terribly 77
tobacco 77
traditions 77
trium@@ 77
truste@@ 77
washing 77
whe@@ 77
alia 76
allo@@ 76
anny 76
arrives 76
assistance 76
associate 76
bachelor 76
cali@@ 76
candy 76
cinem@@ 76
compil@@ 76
computers 76
customer 76
dare 76
devo@@ 76
diag@@ 76
dick 76
discre@@ 76
documents 76
effectively 76
engag@@ 76
eville 76
expert 76
farmer 76
fashi@@ 76
ffed 76
foc@@ 76
football@@ 76
fourteen 76
fruits 76
gent@@ 76
gods 76
governor@@ 76
grassy 76
guards 76
harbour 76
helen 76
historians 76
jason 76
manor 76
model@@ 76
news@@ 76
newton 76
ock 76
ounds 76
paro@@ 76
plates 76
pronounced 76
properly 76
ques 76
quet 76
reception 76
reless 76
rer@@ 76
rico 76
rout@@ 76
scout 76
snake 76
spiritual 76
stewart 76
streng@@ 76
territories 76
tied 76
time@@ 76
tired 76
ulu 76
uncertain 76
utah 76
vic 76
whisper@@ 76
wrec@@ 76
xi@@ 76
youtube 76
abl@@ 75
ail 75
apo@@ 75
athlete 75
automatically 75
baptist 75
broadcasting 75
calm 75
carol@@ 75
cer 75
clan 75
comment@@ 75
commun@@ 75
confusion 75
constitutional 75
continental 75
crying 75
descendants 75
dest 75
detected 75
elevation 75
eline 75
evalu@@ 75
exhibition 75
explor@@ 75
folded 75
gible 75
gly@@ 75
habit@@ 75
healthy 75
hes 75
inated 75
indigenous 75
infrastructure 75
innovation 75
inver@@ 75
iro 75
jected 75
keen 75
kel 75
kor@@ 75
lag@@ 75
lamp 75
license 75
miami 75
mild 75
mo 75
morph@@ 75
obe@@ 75
passion 75
plus 75
proud 75
reactions 75
reliable 75
responded 75
sad 75
secure 75
shark 75
spectrum 75
steep 75
subsi@@ 75
supplies 75
therapy 75
timate 75
trading 75
vid 75
weigh@@ 75
wells 75
worthy 75
affiliated 74
alexand@@ 74
allied 74
angered 74
angry 74
anner 74
anno@@ 74
atlanta 74
august@@ 74
avo@@ 74
backs 74
baron 74
benjamin 74
birthday 74
boun@@ 74
cabin 74
call@@ 74
channels 74
clinton 74
complex@@ 74
concentrated 74
confeder@@ 74
contra@@ 74
creates 74
critic 74
darkness 74
dispute 74
dragon 74
drum@@ 74
ear 74
elabor@@ 74
electron@@ 74
equally 74
eri@@ 74
excav@@ 74
exclaimed 74
fan@@ 74
flash@@ 74
forti@@ 74
fulltime 74
german@@ 74
guid@@ 74
hebrew 74
horse@@ 74
inte@@ 74
ision 74
item 74
kaz@@ 74
nicholas 74
northwestern 74
osa@@ 74
parker 74
persian 74
photography 74
planes 74
princ@@ 74
publicly 74
ramp 74
reco@@ 74
representation 74
revers@@ 74
rogers 74
rowing 74
salv@@ 74
settler 74
shorter 74
sively 74
spher@@ 74
story@@ 74
stun@@ 74
sudden 74
tale 74
talked 74
taste 74
tickets 74
travelled 74
treat 74
variants 74
virtue 74
volunteer 74
adele 73
after@@ 73
agues 73
aired 73
arity 73
bald 73
bones 73
box@@ 73
cable 73
challenged 73
chip 73
chronic@@ 73
closure 73
codes 73
commercially 73
communic@@ 73
competi@@ 73
confron@@ 73
considerably 73
consistent 73
continuing 73
cord 73
dances 73
danger 73
defe@@ 73
denmark 73
dental 73
developments 73
diego 73
ections 73
ello 73
emerged 73
everywhere 73
exper@@ 73
fab@@ 73
factor@@ 73
fires 73
fris@@ 73
gather 73
generations 73
gi 73
glaci@@ 73
glen@@ 73
gli@@ 73
grapher 73
gus 73
hang 73
hanging 73
hitting 73
install@@ 73
kle@@ 73
liquid 73
liter@@ 73
manhattan 73
mead@@ 73
medals 73
mist@@ 73
mly 73
nad@@ 73
nerv@@ 73
nic 73
norfolk 73
past@@ 73
philippines 73
playground 73
pled 73
poles 73
policies 73
portland 73
portugal 73
prices 73
researchers 73
scholar 73
single@@ 73
sity 73
slov@@ 73
smoke 73
sugg@@ 73
surroun@@ 73
tained 73
ury 73
voted 73
vul@@ 73
winners 73
ymous 73
administered 72
advent@@ 72
ae@@ 72
amp@@ 72
anism 72
apolis 72
appoin@@ 72
asser@@ 72
autumn 72
believes 72
boar@@ 72
bot@@ 72
carl 72
champions 72
chapter 72
color@@ 72
compe@@ 72
convers@@ 72
cult 72
curren@@ 72
currency 72
daylight 72
declar@@ 72
deeply 72
defini@@ 72
dict@@ 72
disaster 72
ele 72
entr@@ 72
establishment 72
esther 72
ethics 72
evid@@ 72
ez 72
facil@@ 72
fascin@@ 72
fax 72
february 72
finite 72
franchise 72
funny 72
gent 72
gger 72
graduation 72
hart@@ 72
heim 72
icals 72
imprisoned 72
izing 72
joy@@ 72
laughing 72
legisl@@ 72
lessons 72
lifted 72
lighting 72
limit 72
log 72
loop 72
manufac@@ 72
mathematical 72
minority 72
moreover 72
necess@@ 72
nights 72
noble 72
occasional 72
ok 72
organ 72
orph@@ 72
overseas 72
pedia 72
presentation 72
profession 72
propag@@ 72
raise 72
rent 72
repair 72
ring@@ 72
sci@@ 72
sic@@ 72
squir@@ 72
suburbs 72
superior 72
texts 72
tful 72
travels 72
william@@ 72
wonderful 72
yam@@ 72
yorkshire 72
abroad 71
accordingly 71
aim 71
aking 71
appro@@ 71
atively 71
aw 71
beng@@ 71
bid 71
boarder 71
bug 71
butter@@ 71
cherry 71
chr@@ 71
clinical 71
commerce 71
comprehensive 71
consist@@ 71
consumer 71
country@@ 71
critic@@ 71
destroy@@ 71
deter@@ 71
distant 71
doub@@ 71
egyptian 71
enemies 71
ep 71
euro@@ 71
evangel@@ 71
fantasy 71
fat 71
fictional 71
fren@@ 71
gn@@ 71
hara 71
hero@@ 71
holder 71
horror 71
inning 71
instantly 71
ira 71
isle 71
jay 71
jerusalem 71
killer 71
layers 71
locomotives 71
lucky 71
map@@ 71
mom@@ 71
moments 71
morgan 71
nel 71
odd 71
onom@@ 71
ority 71
ottawa 71
passage 71
personnel 71
peti@@ 71
populated 71
posts 71
practiced 71
practicing 71
quad@@ 71
rainfall 71
recep@@ 71
renew@@ 71
robot 71
ruption 71
shock 71
sion@@ 71
sixty 71
stants 71
steady 71
tage 71
take@@ 71
tast@@ 71
threat@@ 71
tially 71
tility 71
tip 71
umbrella 71
victor@@ 71
victorian 71
violent 71
weapon 71
wheels 71
wins 71
withdrew 71
worst 71
accompan@@ 70
acoustic 70
ania 70
approaches 70
archaeological 70
architectural 70
aware 70
bach 70
balls 70
butt@@ 70
carpet 70
chal@@ 70
chap@@ 70
clam@@ 70
coin 70
collap@@ 70
commissioned 70
commons 70
condem@@ 70
confir@@ 70
conve@@ 70
counc@@ 70
dad 70
deer 70
delta 70
deman@@ 70
directions 70
drugs 70
edges 70
efficiency 70
electrical 70
enterprise 70
enting 70
erie 70
estimated 70
etary 70
experiment 70
exposure 70
fix 70
flour@@ 70
goo@@ 70
idated 70
idity 70
index 70
insec@@ 70
intellectual 70
intense 70
kick 70
knee 70
leaning 70
lover 70
mah@@ 70
manufacturer 70
mare 70
marshall 70
measured 70
messages 70
mirror 70
moral 70
nucle@@ 70
opponent 70
options 70
orleans 70
outfit 70
payment 70
phenomenon 70
phosp@@ 70
portrait 70
profile 70
proph@@ 70
provinces 70
pson 70
pur 70
reaches 70
recovery 70
ris 70
rul@@ 70
segments 70
ship@@ 70
sie 70
skating 70
stair@@ 70
stanley 70
stell@@ 70
suits 70
sweater 70
taiwan 70
tary 70
thanded 70
third@@ 70
tissue 70
turing 70
vian 70
vie@@ 70
viewers 70
zation 70
acclaim 69
add@@ 69
admiral 69
arg@@ 69
arly 69
aur@@ 69
ax 69
badly 69
baltimore 69
bart 69
bath@@ 69
breath 69
byz@@ 69
campbell 69
carter 69
catherine 69
cauc@@ 69
causing 69
celebration 69
centr@@ 69
coc@@ 69
contested 69
cott@@ 69
coverage 69
cran@@ 69
delic@@ 69
dishes 69
dit@@ 69
diver@@ 69
drunk 69
emen 69
finding 69
finnish 69
flat@@ 69
formations 69
gib@@ 69
heaven 69
hello 69
hn 69
hurst 69
invited 69
issance 69
itting 69
izes 69
line@@ 69
mansion 69
mission@@ 69
moscow 69
napole@@ 69
nose 69
overwhel@@ 69
package 69
particip@@ 69
pent@@ 69
percent 69
phd 69
pleasure 69
possibility 69
ppers 69
pred@@ 69
prepare 69
presentday 69
prolific 69
pushed 69
random 69
sees 69
serge@@ 69
shru@@ 69
terry 69
theore@@ 69
timber 69
toil@@ 69
uph@@ 69
vancouver 69
vas@@ 69
vegetation 69
volcan@@ 69
achiev@@ 68
adequ@@ 68
advocate 68
aes@@ 68
afterward 68
aga@@ 68
aimed 68
alaska 68
alling 68
approxim@@ 68
attribu@@ 68
avoided 68
bear@@ 68
blue@@ 68
bowling 68
buffalo 68
caes@@ 68
cancelled 68
chand@@ 68
charlo@@ 68
client 68
commu@@ 68
con 68
consequence 68
councill@@ 68
darling 68
davi@@ 68
definitely 68
depth 68
distingu@@ 68
divorce 68
draft 68
drawings 68
email 68
explic@@ 68
favor 68
fem@@ 68
fi 68
fish@@ 68
flags 68
furniture 68
gentlemen 68
gical 68
gordon 68
heim@@ 68
holland 68
hungry 68
hydrogen 68
ich@@ 68
ino@@ 68
intelligent 68
interviews 68
isolated 68
juice 68
laugh 68
likewise 68
lodge 68
longterm 68
mar 68
mates 68
meo 68
mic 68
muscle 68
muslims 68
mythology 68
ophy@@ 68
ori 68
ornam@@ 68
pale 68
paved 68
penny 68
phi@@ 68
pope 68
pride 68
promin@@ 68
raw 68
renowned 68
robinson 68
salmon 68
scattered 68
scienti@@ 68
sponsored 68
spots 68
subsidiary 68
substan@@ 68
sung 68
surely 68
susan 68
sworth 68
talks 68
tham 68
toll 68
topolo@@ 68
trailer 68
tz@@ 68
underneath 68
wick@@ 68
yar@@ 68
&apos;brien 67
academ@@ 67
advant@@ 67
alike 67
appren@@ 67
athe@@ 67
auth@@ 67
belonged 67
beneath 67
benefits 67
bent 67
boots 67
christians 67
coff@@ 67
cog@@ 67
commissioner 67
complicated 67
compounds 67
conte@@ 67
contribute 67
cooper 67
corrid@@ 67
dant 67
delaware 67
deleg@@ 67
denom@@ 67
depos@@ 67
discuss 67
distur@@ 67
ector 67
eff@@ 67
ems 67
enth 67
expec@@ 67
exten@@ 67
finland 67
frederick 67
gae 67
gel 67
icing 67
iding 67
illu@@ 67
inherited 67
instruction 67
instructions 67
interpretation 67
itations 67
lear@@ 67
ley@@ 67
lining 67
mainstream 67
makers 67
monastery 67
mort@@ 67
mountain@@ 67
murdered 67
necessarily 67
ongoing 67
operators 67
orm@@ 67
ousness 67
parad@@ 67
patrol 67
ply 67
prin@@ 67
profit 67
programmes 67
protein 67
replic@@ 67
respected 67
rival 67
roller 67
saw@@ 67
seated 67
sized 67
sole 67
som 67
sri 67
strings 67
strugg@@ 67
tari@@ 67
teaches 67
thirty@@ 67
tit@@ 67
tup 67
tv 67
ulate 67
vital 67
voiced 67
warren 67
zy 67
accomplished 66
afric@@ 66
alex 66
alizing 66
amphi@@ 66
arri@@ 66
asks 66
assem@@ 66
astr@@ 66
aters 66
belongs 66
beta 66
bre 66
breaking 66
brilliant 66
businessman 66
cataly@@ 66
ceased 66
cere@@ 66
child@@ 66
cock@@ 66
copper 66
darker 66
demolished 66
departure 66
dolph@@ 66
epi@@ 66
esis 66
fee 66
festivals 66
flies 66
foods 66
gender 66
ghost 66
goal@@ 66
graphs 66
humanity 66
hung 66
hurricane 66
inde@@ 66
infer@@ 66
irrit@@ 66
jeanne 66
kit 66
ku 66
lain 66
lind@@ 66
lion@@ 66
lisa 66
logic 66
loo 66
matrix 66
mete@@ 66
mile 66
natur@@ 66
neg@@ 66
nurse 66
obtain 66
obviously 66
particles 66
phal@@ 66
pillar 66
polic@@ 66
polis 66
ranks 66
ree 66
refuge 66
rena@@ 66
repeatedly 66
respond 66
rob 66
scal@@ 66
scales 66
sensitive 66
sigh@@ 66
stol@@ 66
sympa@@ 66
syndic@@ 66
synon@@ 66
tenure 66
tested 66
thanks 66
tigh@@ 66
till 66
tu 66
valu@@ 66
varying 66
vice@@ 66
vocal 66
volleyball 66
waste 66
winters 66
woodland 66
absence 65
altered 65
amounts 65
amus@@ 65
anamerican 65
ands 65
ange 65
apor@@ 65
approval 65
aver@@ 65
banned 65
barbara 65
basket 65
battles 65
bbing 65
bic@@ 65
bish@@ 65
bot 65
cia 65
circles 65
coinci@@ 65
cultivated 65
cz@@ 65
deno@@ 65
diameter 65
dwar@@ 65
dying 65
encer 65
ete 65
eye@@ 65
favour 65
filter 65
fried@@ 65
functional 65
gage 65
gloves 65
griff@@ 65
honors 65
house@@ 65
hybri@@ 65
ided 65
imagine 65
involve 65
involvement 65
isa@@ 65
isation 65
larg@@ 65
licen@@ 65
midd@@ 65
mitchell 65
mund 65
nav@@ 65
need@@ 65
nonetheless 65
objective 65
oriented 65
panel 65
personally 65
pile 65
plains 65
planted 65
pray 65
preced@@ 65
preserve 65
professionals 65
proposals 65
reti@@ 65
rub@@ 65
rupt 65
sail 65
sbury 65
scarecrow 65
schemes 65
secured 65
sleep@@ 65
spare 65
spell 65
sporting 65
streams 65
summers 65
tiv@@ 65
touring 65
traveling 65
tribes 65
tributary 65
tric 65
ttes 65
valid 65
vege@@ 65
venture 65
victim 65
victims 65
villa 65
visions 65
wears 65
where@@ 65
aero@@ 64
agrees 64
alizes 64
ance@@ 64
antine 64
archae@@ 64
arise 64
bam@@ 64
bat 64
bition 64
blame 64
bordered 64
bucket 64
cardinal 64
carol 64
celebrated 64
chen 64
chic@@ 64
chlor@@ 64
cho 64
commanded 64
commune 64
competitive 64
compositions 64
contribution 64
conven@@ 64
copyright 64
corresponding 64
crystal 64
define 64
diversity 64
donated 64
edu@@ 64
ellor 64
engineers 64
establ@@ 64
eum 64
exception 64
exile 64
finger 64
flooding 64
fold 64
forcement 64
foster 64
freight 64
gathering 64
ggy 64
gym 64
hay 64
heav@@ 64
helping 64
holes 64
horizon@@ 64
hugh@@ 64
illness 64
indonesia 64
infr@@ 64
inlaw 64
intermediate 64
introduc@@ 64
involving 64
jonathan 64
kelly 64
kim 64
lar 64
leban@@ 64
leng@@ 64
lex@@ 64
lions 64
liv@@ 64
loan 64
mark@@ 64
modern@@ 64
narrow@@ 64
nevada 64
nutri@@ 64
ogi@@ 64
old@@ 64
oming 64
orchestr@@ 64
ound@@ 64
owed 64
oxygen 64
pipe 64
prey 64
proceeded 64
prove 64
pursu@@ 64
quietly 64
receiving 64
reflect 64
regardless 64
rhe@@ 64
rises 64
roberts 64
roe 64
ryan 64
shipping 64
slaves 64
somer@@ 64
sour@@ 64
spelling 64
sson 64
stared 64
succession 64
taxes 64
tioning 64
tricks 64
trol@@ 64
truc@@ 64
trun@@ 64
uma 64
unk 64
victor 64
volunteers 64
wednesday 64
wild@@ 64
ace@@ 63
alberta 63
alli@@ 63
answ@@ 63
anticip@@ 63
argentina 63
arsen@@ 63
athle@@ 63
banking 63
believ@@ 63
binary 63
blow@@ 63
boul@@ 63
chambers 63
civic 63
collins 63
corpor@@ 63
crazy 63
democracy 63
density 63
desig@@ 63
disorder 63
dream@@ 63
eo@@ 63
essions 63
excited 63
experim@@ 63
fis@@ 63
gover@@ 63
graded 63
guided 63
hen 63
hudson 63
ida 63
iders 63
inal 63
instant 63
islam 63
isra@@ 63
jar@@ 63
kab@@ 63
kinds 63
mechanisms 63
modu@@ 63
nan 63
numbered 63
nuts 63
oce@@ 63
opo@@ 63
pairs 63
patent 63
persi@@ 63
persu@@ 63
phoen@@ 63
pike 63
pointed 63
predecessor 63
printing 63
prisoner 63
prop@@ 63
proteins 63
pts 63
quantum 63
railways 63
rating 63
refin@@ 63
regard 63
remov@@ 63
reside 63
respectively 63
rif@@ 63
shouldn 63
simultaneously 63
squad@@ 63
step@@ 63
steph@@ 63
swam@@ 63
telescope 63
temperate 63
throne 63
tine 63
tiveness 63
tled 63
totally 63
ultimate 63
ults 63
vulner@@ 63
witn@@ 63
worry 63
wound 63
ya@@ 63
abled 62
accurate 62
affect 62
agre@@ 62
alfred 62
ampton 62
anni@@ 62
assembled 62
ati 62
bearded 62
beck 62
belong 62
bitter 62
bonus 62
bourg 62
celtic 62
centered 62
centres 62
churchill 62
cincinnati 62
civil@@ 62
costumes 62
cryp@@ 62
cultures 62
custom 62
dag@@ 62
datab@@ 62
delayed 62
dies@@ 62
difficulties 62
discipl@@ 62
domes@@ 62
ernest 62
escal@@ 62
eves 62
fas@@ 62
fighters 62
fisher@@ 62
fool@@ 62
forty 62
goose 62
gram 62
guar@@ 62
hammer 62
idation 62
induc@@ 62
ission 62
kom@@ 62
lab 62
lied 62
manu@@ 62
maur@@ 62
millions 62
modes 62
nerve 62
northeastern 62
offering 62
onau@@ 62
oo 62
pets 62
producers 62
rabb@@ 62
radar 62
remo@@ 62
rescu@@ 62
restoration 62
rev@@ 62
revenge 62
rifl@@ 62
rober@@ 62
saints 62
scor@@ 62
seal 62
semic@@ 62
shift 62
shoo@@ 62
shortlived 62
shri@@ 62
signals 62
smar@@ 62
southeastern 62
sper@@ 62
stom@@ 62
stration 62
structural 62
suffer 62
supervis@@ 62
temperatures 62
tended 62
tension 62
terrain 62
tica 62
ticul@@ 62
too@@ 62
topic 62
towers 62
uous 62
vincent 62
voyage 62
wai@@ 62
wash 62
wester@@ 62
westminster 62
winnipeg 62
wisdom 62
xon 62
abundant 61
actively 61
admir@@ 61
admit 61
aim@@ 61
altogether 61
ambass@@ 61
architects 61
aren 61
athletes 61
aus 61
autonomous 61
banded 61
bei@@ 61
bias 61
bon 61
buddhist 61
burn@@ 61
bye 61
caval@@ 61
collapsed 61
compact 61
conspir@@ 61
creatures 61
cric@@ 61
crit@@ 61
danish 61
dennis 61
dissolved 61
dn 61
een 61
ende@@ 61
evacu@@ 61
explains 61
explosion 61
faith@@ 61
five@@ 61
fordshire 61
gameplay 61
grain 61
gymnas@@ 61
hampton 61
hawk 61
iety 61
impressed 61
iser 61
itory 61
jag@@ 61
jail 61
jeff 61
knocked 61
lighted 61
limestone 61
mediterranean 61
metro@@ 61
mi 61
minimum 61
monkey 61
montana 61
neighboring 61
neil 61
notor@@ 61
opens 61
oxide 61
pages 61
panic 61
parent 61
parked 61
pep@@ 61
permanently 61
perry 61
perspective 61
pois@@ 61
prayer 61
princip@@ 61
public@@ 61
pursued 61
repa@@ 61
repor@@ 61
revised 61
sacrifice 61
scoring 61
scrat@@ 61
sells 61
sett 61
shoots 61
slave 61
smell 61
specim@@ 61
spin 61
staring 61
statements 61
stead@@ 61
summer@@ 61
susta@@ 61
symbols 61
tanks 61
tarian 61
theology 61
tle@@ 61
torate 61
tough 61
underwent 61
vector 61
vietnam 61
way@@ 61
ampli@@ 60
anten@@ 60
assault 60
atus 60
balcon@@ 60
ballet 60
bli@@ 60
bold 60
bottle 60
buck@@ 60
carved 60
cathol@@ 60
character@@ 60
chers 60
chin 60
chu@@ 60
coalition 60
collecting 60
compati@@ 60
configuration 60
consecutive 60
convinced 60
dav@@ 60
deplo@@ 60
designation 60
dians 60
doctors 60
double@@ 60
dread@@ 60
drow@@ 60
employers 60
encom@@ 60
ener@@ 60
founders 60
frac@@ 60
freezing 60
gerald 60
ggling 60
gill 60
gir@@ 60
grades 60
grandmother 60
grim@@ 60
grocer@@ 60
handed 60
holders 60
holidays 60
hollow 60
hoods 60
hungarian 60
ignored 60
immun@@ 60
incre@@ 60
indicates 60
intention 60
isms 60
iss 60
jon 60
judges 60
jus@@ 60
kate 60
kett 60
len 60
lifel@@ 60
listened 60
live@@ 60
mainland 60
manual 60
marie 60
metal@@ 60
monster 60
neutr@@ 60
oa 60
ope 60
oul 60
pac@@ 60
panels 60
penalty 60
performers 60
physi@@ 60
pleased 60
politan 60
precise 60
programm@@ 60
punc@@ 60
rar@@ 60
readily 60
receives 60
recomm@@ 60
reluc@@ 60
ret@@ 60
runners 60
sake 60
salad 60
sample 60
saving 60
schu@@ 60
select 60
sham@@ 60
shots 60
shou@@ 60
shoul@@ 60
sland 60
sophi@@ 60
specified 60
spelled 60
static 60
stern 60
storms 60
strategic 60
surfing 60
thom@@ 60
threat 60
torpe@@ 60
tribute 60
tton 60
twel@@ 60
unt 60
vocalist 60
xed 60
yan 60
yellow@@ 60
yi@@ 60
yiel@@ 60
abraham 59
admission 59
aga 59
alb@@ 59
ater@@ 59
authored 59
bid@@ 59
biological 59
bious 59
bla@@ 59
bore 59
brazilian 59
brigade 59
burial 59
camping 59
canoe 59
cely 59
civilian 59
clists 59
completion 59
conflicts 59
conv@@ 59
conversion 59
cuba 59
deposits 59
desire 59
draw@@ 59
draws 59
dus@@ 59
ento 59
eth 59
etry 59
faction 59
familiar 59
fant@@ 59
fear@@ 59
feed@@ 59
gear@@ 59
germans 59
grey@@ 59
hell@@ 59
homer 59
hop 59
hotels 59
illi@@ 59
improvements 59
institu@@ 59
interface 59
ital 59
ital@@ 59
jing 59
jor@@ 59
kenne@@ 59
kha@@ 59
legacy 59
leis@@ 59
locomotive 59
managing 59
marath@@ 59
mason 59
mel 59
naked 59
navig@@ 59
nem@@ 59
nex@@ 59
nol@@ 59
overnight 59
parame@@ 59
partic@@ 59
peoples 59
pharmac@@ 59
polo 59
present@@ 59
procedure 59
rabbit 59
recognised 59
refugees 59
refuses 59
repaired 59
representing 59
rest@@ 59
ricul@@ 59
satisfied 59
servant 59
settle 59
shelter 59
shoe 59
situations 59
sni@@ 59
stant 59
steam@@ 59
stir@@ 59
ston@@ 59
suburban 59
sumed 59
suspension 59
tomb 59
transformed 59
vast 59
vial 59
volumes 59
votes 59
ware@@ 59
wider 59
widow 59
achi@@ 58
acqua@@ 58
adol@@ 58
amer@@ 58
anyway 58
aring 58
artillery 58
assur@@ 58
awak@@ 58
battali@@ 58
belong@@ 58
brea@@ 58
brings 58
carrier 58
casualties 58
cellphone 58
certific@@ 58
ches@@ 58
clerk 58
columns 58
conferences 58
cruc@@ 58
cryst@@ 58
denti@@ 58
deo 58
devast@@ 58
developer 58
discipline 58
easter 58
eness 58
equation 58
ested 58
forgive 58
frame@@ 58
gat@@ 58
gel@@ 58
globe 58
godd@@ 58
guaran@@ 58
headache 58
him@@ 58
humid 58
ign 58
independently 58
inher@@ 58
initiated 58
iraq 58
itter 58
jerry 58
lang 58
linda 58
locals 58
louis@@ 58
machin@@ 58
make@@ 58
mamm@@ 58
matt 58
mercur@@ 58
mud 58
must@@ 58
net@@ 58
nets 58
nodded 58
obvious 58
oria 58
pers@@ 58
philosoph@@ 58
photos 58
plain@@ 58
precipit@@ 58
prints 58
prosecu@@ 58
publishes 58
puts 58
radical 58
replac@@ 58
riders 58
roll@@ 58
saskat@@ 58
seed 58
settings 58
shade 58
shakespeare 58
sheriff 58
siege 58
sin 58
slu@@ 58
soph@@ 58
sors 58
sound@@ 58
strate 58
survey 58
teamm@@ 58
thered 58
thunder@@ 58
toral 58
trace 58
wau@@ 58
wayne 58
wheat 58
zard 58
aboard 57
adelaide 57
antry 57
apartment 57
apparent 57
apped 57
archbishop 57
arguments 57
arrest 57
austrian 57
aving 57
beard 57
belief 57
bend 57
bery 57
bomb 57
botan@@ 57
bottles 57
brands 57
bred 57
brown@@ 57
categor@@ 57
cep@@ 57
challenges 57
chapters 57
colli@@ 57
comments 57
concentr@@ 57
concluded 57
cowboy 57
crop 57
curve 57
diabe@@ 57
diving 57
emphasis 57
english@@ 57
errors 57
escor@@ 57
establish 57
eved 57
exhibitions 57
eze 57
fabric 57
fabric@@ 57
favorable 57
feels 57
fli@@ 57
galax@@ 57
gang@@ 57
geable 57
geography 57
gle 57
gon 57
gras@@ 57
hearing 57
hir@@ 57
hob@@ 57
ima 57
infection 57
inland 57
jas@@ 57
jumper 57
kinson 57
kr@@ 57
landscap@@ 57
legendary 57
leicester 57
licence 57
lighthouse 57
ll@@ 57
lloyd 57
mac 57
mam@@ 57
mania 57
mers 57
methodist 57
metr@@ 57
monit@@ 57
nels 57
neutral 57
oakland 57
oba 57
olic 57
ouring 57
peas@@ 57
photograph@@ 57
plex@@ 57
predomin@@ 57
presby@@ 57
presently 57
presidential 57
presum@@ 57
prison@@ 57
productive 57
protestant 57
push 57
radiation 57
ranch 57
recommend 57
reduction 57
regret 57
retiring 57
rett 57
rian 57
scholarship 57
seconds 57
severely 57
shi 57
simul@@ 57
smen 57
sticks 57
stimul@@ 57
stopping 57
synthesis 57
territorial 57
thinks 57
thursday 57
timing 57
transition 57
tre 57
turb@@ 57
unes 57
uss 57
vene@@ 57
virus 57
vo 57
volcanic 57
wet@@ 57
winds 57
accur@@ 56
achievement 56
acquisition 56
ade@@ 56
adic@@ 56
administrator 56
afghanistan 56
ailed 56
anci@@ 56
anglic@@ 56
anth@@ 56
aph@@ 56
apol@@ 56
automob@@ 56
aver 56
backing 56
barely 56
beam 56
bearing 56
belgian 56
bigger 56
blow 56
brass 56
brisbane 56
bush@@ 56
cal 56
caribbean 56
cheap 56
chorus 56
cies 56
circum@@ 56
circus 56
cloth 56
commerci@@ 56
complic@@ 56
concentration 56
conclusion 56
consequences 56
cornwall 56
crest 56
cuis@@ 56
decides 56
deliber@@ 56
depar@@ 56
deployed 56
dozens 56
eased 56
eck 56
elli@@ 56
endem@@ 56
eted 56
eur@@ 56
evans 56
exerc@@ 56
fluid 56
gains 56
gauge 56
gian 56
gic 56
graffiti 56
herbert 56
holmes 56
ials 56
individu@@ 56
iner@@ 56
influ@@ 56
inium 56
itate 56
itly 56
kirk 56
kov 56
laura 56
leys 56
maced@@ 56
mask 56
metap@@ 56
mint 56
molecular 56
mrs 56
murder@@ 56
nonprofit 56
notice@@ 56
nova 56
ob 56
ooth 56
orbit 56
pal 56
pet@@ 56
philipp@@ 56
plantation 56
po 56
pointing 56
poorly 56
pots 56
pretend 56
promising 56
reconc@@ 56
recycl@@ 56
reporter 56
ribb@@ 56
sacred 56
scores 56
sed@@ 56
sfield 56
sizes 56
sk 56
smart 56
snakes 56
solu@@ 56
sphere 56
state@@ 56
strat@@ 56
theses 56
thon 56
ticated 56
tice 56
tons 56
tress 56
trout 56
tuc@@ 56
turner 56
vegetable 56
vermont 56
veterans 56
visitor 56
visits 56
wires 56
you@@ 56
yours 56
aar@@ 55
aggressive 55
americ@@ 55
antonio 55
appeals 55
argue 55
ario 55
arrangements 55
atop 55
aux@@ 55
aven@@ 55
aying 55
bailey 55
baked 55
berg@@ 55
berland 55
berries 55
broadcasts 55
burnt 55
carni@@ 55
chances 55
charle@@ 55
chau@@ 55
compens@@ 55
competing 55
condition@@ 55
configur@@ 55
constan@@ 55
constantly 55
contents 55
cooked 55
croati@@ 55
deals 55
defend 55
deliver 55
demo@@ 55
denver 55
depicts 55
derby 55
dining 55
diseases 55
disper@@ 55
drives 55
excuse 55
execution 55
exhi@@ 55
expand 55
fertile 55
filming 55
forbid@@ 55
fraternity 55
frequ@@ 55
friendship 55
genera 55
gia 55
girlfriend 55
gym@@ 55
hated 55
hem 55
herald 55
hip@@ 55
hometown 55
hungary 55
igned 55
immer@@ 55
inhi@@ 55
initiative 55
ition 55
kan 55
labels 55
lang@@ 55
marines 55
mented 55
mili@@ 55
ministers 55
monday 55
muhammad 55
myster@@ 55
nak@@ 55
nev@@ 55
ond 55
optical 55
organisations 55
participation 55
peaceful 55
pollution 55
postal 55
pottery 55
prised 55
providing 55
pty 55
pulse 55
rangers 55
rant 55
readers 55
realized 55
resolved 55
restrictions 55
rum 55
sailed 55
sheffield 55
small@@ 55
songwriter 55
soup 55
stem 55
survives 55
sustained 55
sweep@@ 55
switched 55
system@@ 55
tears 55
terror@@ 55
thermal 55
tney 55
trials 55
trick@@ 55
tto 55
tues@@ 55
twit@@ 55
ulous 55
univers@@ 55
uri 55
vacu@@ 55
venice 55
wealthy 55
akers 54
ason 54
classi@@ 54
cris@@ 54
derson 54
grass@@ 54
ib@@ 54
iment 54
maxim@@ 54
parag@@ 54
passi@@ 54
patter@@ 54
pian@@ 54
pill@@ 54
pipes 54
pregnant 54
privil@@ 54
processor 54
pronunciation 54
proven 54
pushing 54
quarters 54
recipient 54
recurring 54
research@@ 54
retreat 54
rosen@@ 54
ruling 54
rushed 54
saga 54
schedul@@ 54
sea@@ 54
sexuality 54
shine 54
shortened 54
simpl@@ 54
socalled 54
spect@@ 54
spur 54
stranger 54
stretch 54
strict 54
surprisingly 54
survivors 54
tear 54
technologies 54
tedly 54
temples 54
temporarily 54
terminus 54
thailand 54
thal 54
theatrical 54
thouse 54
tight 54
tiz@@ 54
trademark 54
tril@@ 54
twi@@ 54
veteran 54
viewing 54
wen@@ 54
wilderness 54
zam@@ 54
appear@@ 53
arily 53
aska 53
atti@@ 53
burgh 53
cana@@ 53
chick@@ 53
cred@@ 53
diary 53
dson 53
feder@@ 53
garden@@ 53
herit@@ 53
invest@@ 53
oppos@@ 53
push@@ 53
riage 53
song@@ 53
transpor@@ 53
affili@@ 52
angel@@ 52
attemp@@ 52
bapti@@ 52
cele@@ 52
challeng@@ 52
church@@ 52
contex@@ 52
crete 52
dani@@ 52
distinc@@ 52
ditions 52
dru@@ 52
every@@ 52
fortunately 52
mathem@@ 52
oud 52
philos@@ 52
poc@@ 52
poin@@ 52
prov@@ 52
scho@@ 52
unity 52
worl@@ 52
ander 51
applic@@ 51
arre@@ 51
bott@@ 51
budd@@ 51
duction 51
equi@@ 51
ggs 51
ignor@@ 51
iller 51
mal 51
manag@@ 51
more@@ 51
oppon@@ 51
resc@@ 51
sop@@ 51
sud@@ 51
tell@@ 51
vised 51
zer@@ 51
bey 50
cir@@ 50
emed 50
employe@@ 50
eties 50
john@@ 50
nel@@ 50
peac@@ 50
recogn@@ 50
ror 50
schol@@ 50
sic 50
thur@@ 50
tural 50
vered 50
volun@@ 50
aband@@ 49
alter@@ 49
custo@@ 49
fing@@ 49
idly 49
ights 49
jon@@ 49
prac@@ 49
rist@@ 49
tment 49
travel@@ 49
vention 49
altern@@ 48
artic@@ 48
diam@@ 48
ease 48
erson 48
evolu@@ 48
fail@@ 48
intro@@ 48
legen@@ 48
lik@@ 48
liqu@@ 48
religi@@ 48
sional 48
theat@@ 48
uments 48
wonder@@ 48
yor@@ 48
aster 47
bourne 47
buddh@@ 47
compan@@ 47
duce 47
effec@@ 47
ire@@ 47
issu@@ 47
istics 47
jim@@ 47
mitted 47
parti@@ 47
pub@@ 47
quick@@ 47
rying 47
secur@@ 47
slow@@ 47
tribu@@ 47
deri@@ 46
ean 46
erly 46
gal 46
improv@@ 46
iter@@ 46
mach@@ 46
meas@@ 46
metho@@ 46
preci@@ 46
thol@@ 46
valent 46
world@@ 46
xim@@ 46
absolu@@ 45
acti@@ 45
atures 45
cost@@ 45
dition 45
histor@@ 45
inclu@@ 45
lean@@ 45
libr@@ 45
oak@@ 45
orities 45
pha@@ 45
regar@@ 45
restric@@ 45
self 45
signific@@ 45
tally 45
therap@@ 45
argent@@ 44
assa@@ 44
belie@@ 44
cle 44
eat@@ 44
gus@@ 44
molec@@ 44
nationally 44
not@@ 44
olym@@ 44
professi@@ 44
regre@@ 44
scot@@ 44
surf@@ 44
tai@@ 44
tau@@ 44
tici@@ 44
tournam@@ 44
comple@@ 43
environ@@ 43
ere@@ 43
ety 43
hot@@ 43
magne@@ 43
phr@@ 43
pron@@ 43
rical 43
tain@@ 43
abor@@ 42
afterno@@ 42
die@@ 42
dney 42
grow@@ 42
jour@@ 42
penn@@ 42
phen@@ 42
poten@@ 42
ured 42
wed@@ 42
yment 42
aggres@@ 41
brig@@ 41
cope 41
deli@@ 41
effici@@ 41
expe@@ 41
fusion 41
industri@@ 41
ingu@@ 41
jose@@ 41
prises 41
republic@@ 41
sue 41
versi@@ 41
convinc@@ 40
dedic@@ 40
figur@@ 40
jective 40
number@@ 40
op 40
prehen@@ 40
promis@@ 40
rab@@ 40
requi@@ 40
sett@@ 40
alties 39
circu@@ 39
comfor@@ 39
dispu@@ 39
dows 39
inking 39
instrum@@ 39
norm@@ 39
oughly 39
plied 39
polo@@ 39
sensi@@ 39
sep@@ 39
solved 39
turk@@ 39
choo@@ 38
cous@@ 38
eva 38
ford@@ 38
gling 38
inha@@ 38
iti 38
jeff@@ 38
know@@ 38
ortho@@ 38
other@@ 38
ould 38
pregn@@ 38
rema@@ 38
rements 38
russi@@ 38
scap@@ 38
sels 38
tball 38
tech@@ 38
yel@@ 38
arrang@@ 37
augu@@ 37
beau@@ 37
dio 37
esia 37
evol@@ 37
excell@@ 37
ince 37
nific@@ 37
opher 37
predec@@ 37
produc@@ 37
purch@@ 37
recur@@ 37
success@@ 37
yon 37
apart@@ 36
austr@@ 36
autonom@@ 36
desp@@ 36
explan@@ 36
forec@@ 36
foun@@ 36
insur@@ 36
isol@@ 36
jap@@ 36
jurisdic@@ 36
labor@@ 36
lati@@ 36
lead@@ 36
matthe@@ 36
nichol@@ 36
nis 36
now@@ 36
occur@@ 36
politici@@ 36
rists 36
rote 36
survi@@ 36
tili@@ 36
abun@@ 35
adel@@ 35
alu@@ 35
ame@@ 35
appar@@ 35
bris@@ 35
cil 35
dioc@@ 35
erous 35
gho@@ 35
hawai@@ 35
iley 35
mas 35
myth@@ 35
perf@@ 35
pharm@@ 35
proble@@ 35
raid 35
sna@@ 35
staf@@ 35
veter@@ 35
vinc@@ 35
youn@@ 35
adem@@ 34
alg@@ 34
brook@@ 34
caf@@ 34
commission@@ 34
copy@@ 34
descend@@ 34
duced 34
icity 34
ilities 34
ounced 34
oxy@@ 34
pied 34
repu@@ 34
reserv@@ 34
temper@@ 34
volunte@@ 34
wee@@ 34
airs 33
ameter 33
ardo 33
aul 33
avail@@ 33
broadca@@ 33
certain@@ 33
ferred 33
franch@@ 33
gau@@ 33
junc@@ 33
micha@@ 33
mp@@ 33
oe 33
onds 33
peg 33
sas@@ 33
stake 33
stances 33
stol 33
treat@@ 33
beauti@@ 32
coast@@ 32
depu@@ 32
eful 32
financi@@ 32
formers 32
imper@@ 32
ject 32
lightly 32
pleas@@ 32
wom@@ 32
administr@@ 31
aliz@@ 31
cardin@@ 31
ceme@@ 31
clas@@ 31
commod@@ 31
dah@@ 31
disci@@ 31
dow 31
garian 31
ied 31
kshire 31
muc@@ 31
nish 31
ologi@@ 31
pher 31
revolu@@ 31
stop@@ 31
tour@@ 31
turer 31
abe@@ 30
asy 30
bean 30
ility 30
nuc@@ 30
occu@@ 30
prise 30
rs 30
specific@@ 30
spirit@@ 30
tum 30
alber@@ 29
anton@@ 29
architec@@ 29
atis@@ 29
cigare@@ 29
claim@@ 29
daugh@@ 29
eting 29
ira@@ 29
juni@@ 29
ld 29
phe@@ 29
refu@@ 29
repres@@ 29
scat@@ 29
sioned 29
spective 29
strate@@ 29
there@@ 29
tial 29
anese 28
aus@@ 28
christi@@ 28
dang@@ 28
dist 28
dition@@ 28
europe@@ 28
freder@@ 28
gency 28
lam 28
lew@@ 28
nmost 28
secu@@ 28
sponsor@@ 28
surviv@@ 28
achers 27
afgh@@ 27
design@@ 27
ership 27
exist@@ 27
expla@@ 27
hamp@@ 27
hed 27
holid@@ 27
inspir@@ 27
lyn 27
possi@@ 27
racy 27
recor@@ 27
represent@@ 27
tana 27
tish 27
uel 27
willi@@ 27
ysis 27
albu@@ 26
bap@@ 26
critici@@ 26
dak@@ 26
dep@@ 26
earing 26
famili@@ 26
honor@@ 26
import@@ 26
kistan 26
notic@@ 26
satell@@ 26
thms 26
twent@@ 26
volu@@ 26
voy@@ 26
atlan@@ 25
beh@@ 25
brief@@ 25
casu@@ 25
chur@@ 25
eme@@ 25
engine@@ 25
exac@@ 25
glas@@ 25
hic@@ 25
kent@@ 25
lyric@@ 25
mary@@ 25
networ@@ 25
ota 25
spectr@@ 25
surpris@@ 25
atmo@@ 24
bene@@ 24
cot 24
gather@@ 24
inks 24
insp@@ 24
invol@@ 24
islam@@ 24
jects 24
keep@@ 24
nasty 24
pics 24
polit@@ 24
pollu@@ 24
recipi@@ 24
recre@@ 24
restor@@ 24
superi@@ 24
teles@@ 24
telev@@ 24
umes 24
yst@@ 24
alex@@ 23
appropri@@ 23
arth@@ 23
beha@@ 23
busin@@ 23
candi@@ 23
dred 23
experi@@ 23
forts 23
game@@ 23
gramm@@ 23
gres@@ 23
knoc@@ 23
lars 23
lieu@@ 23
lish 23
patro@@ 23
scholar@@ 23
stitu@@ 23
suspen@@ 23
through@@ 23
todd@@ 23
ultim@@ 23
comprehen@@ 22
conventi@@ 22
dential 22
ferences 22
forman@@ 22
gare@@ 22
olished 22
ork 22
overse@@ 22
ril 22
rix 22
suppor@@ 22
tempor@@ 22
umbrel@@ 22
activi@@ 21
admini@@ 21
alph@@ 21
bach@@ 21
brilli@@ 21
disco@@ 21
entertain@@ 21
eval 21
exer@@ 21
fundam@@ 21
hammad 21
hosp@@ 21
hurric@@ 21
indon@@ 21
minu@@ 21
oir 21
phenom@@ 21
proli@@ 21
schem@@ 21
scul@@ 21
sug@@ 21
thurs@@ 21
tings 21
vide@@ 21
ayed 20
blin 20
dden 20
elem@@ 20
elizabe@@ 20
ept 20
extrem@@ 20
gery 20
ially 20
jaz@@ 20
kev@@ 20
lincol@@ 20
mexic@@ 20
sie@@ 20
thly 20
tn@@ 20
tob@@ 20
ulty 20
writ@@ 20
amat@@ 19
ark 19
austri@@ 19
braz@@ 19
deta@@ 19
enjo@@ 19
friend@@ 19
horiz@@ 19
ilian 19
intel@@ 19
intellec@@ 19
offici@@ 19
relev@@ 19
seat@@ 19
terr@@ 19
therine 19
uality 19
alian 18
alo 18
beli@@ 18
cancell@@ 18
capac@@ 18
chang@@ 18
conflic@@ 18
egyp@@ 18
emph@@ 18
flic@@ 18
indepen@@ 18
lywood 18
menti@@ 18
nei@@ 18
resp@@ 18
reven@@ 18
sugge@@ 18
taneously 18
techni@@ 18
unci@@ 18
ayl@@ 17
barbar@@ 17
champi@@ 17
emper@@ 17
extre@@ 17
favor@@ 17
guit@@ 17
icide 17
icient 17
inet 17
isco 17
isl@@ 17
leav@@ 17
own@@ 17
paci@@ 17
pens@@ 17
pment 17
tah 17
tenant 17
tten 17
weal@@ 17
abra@@ 16
acu@@ 16
attor@@ 16
dral 16
enna 16
ficial 16
figu@@ 16
harb@@ 16
isition 16
nod@@ 16
phenomen@@ 16
phili@@ 16
pizz@@ 16
traff@@ 16
ause 15
birth@@ 15
cathe@@ 15
cloth@@ 15
controversi@@ 15
drome 15
eeded 15
eliz@@ 15
entially 15
famil@@ 15
inhabit@@ 15
intermedi@@ 15
kore@@ 15
leans 15
mitch@@ 15
mov@@ 15
parliam@@ 15
pren@@ 15
program@@ 15
sylvania 15
tnam 15
weap@@ 15
actu@@ 14
artw@@ 14
asion 14
fore 14
partner@@ 14
quan@@ 14
quie@@ 14
remember@@ 14
supre@@ 14
ulties 14
unti@@ 14
what@@ 14
apos@@ 13
dall@@ 13
distric@@ 13
ditional 13
ember 13
espec@@ 13
hol 13
hundre@@ 13
iden@@ 13
lime@@ 13
monaster@@ 13
pical 13
pitts@@ 13
propos@@ 13
try@@ 13
ypt 13
bachel@@ 12
business@@ 12
califor@@ 12
expos@@ 12
hatt@@ 12
minster 12
neighbour@@ 12
never@@ 12
peninsul@@ 12
pole@@ 12
statis@@ 12
ux 12
ariz@@ 11
bile 11
brew 11
christian@@ 11
cons@@ 11
consequ@@ 11
contri@@ 11
derly 11
frat@@ 11
genous 11
iff 11
inder 11
liver@@ 11
nether@@ 11
perfec@@ 11
profession@@ 11
refuge@@ 11
thous@@ 11
tomor@@ 11
vard 11
virgin@@ 11
wilder@@ 11
aland 10
bec 10
bey@@ 10
chann@@ 10
columb@@ 10
dless 10
gium 10
isions 10
itely 10
ologies 10
orly 10
owa 10
partici@@ 10
peo@@ 10
princi@@ 10
proced@@ 10
risti@@ 10
situ@@ 10
tradem@@ 10
uary 10
whel@@ 10
aide 9
alco@@ 9
aylor 9
bane 9
centur@@ 9
depart@@ 9
dox 9
eases 9
gotten 9
hoc@@ 9
istan 9
langu@@ 9
leice@@ 9
mathematic@@ 9
member@@ 9
opport@@ 9
pover@@ 9
rug@@ 9
selves 9
sibility 9
studi@@ 9
tely 9
thm 9
ularly 9
abs@@ 8
alab@@ 8
amoun@@ 8
arist 8
aut@@ 8
chocol@@ 8
emor@@ 8
essor 8
gow 8
hamil@@ 8
injur@@ 8
margar@@ 8
michi@@ 8
piec@@ 8
ppi 8
repeat@@ 8
resul@@ 8
sas 8
strateg@@ 8
sylvan@@ 8
wart 8
wednes@@ 8
ycl@@ 8
your@@ 8
autum@@ 7
base@@ 7
dipl@@ 7
envir@@ 7
episo@@ 7
esting 7
exi@@ 7
favour@@ 7
fig@@ 7
gress 7
helic@@ 7
issi@@ 7
locomo@@ 7
nowned 7
onship 7
opping 7
performan@@ 7
pion@@ 7
ranean 7
restaur@@ 7
shakespe@@ 7
stantly 7
symp@@ 7
symptom@@ 7
tane@@ 7
tober 7
vehic@@ 7
chall@@ 6
coali@@ 6
como@@ 6
democ@@ 6
demon@@ 6
enem@@ 6
further@@ 6
lish@@ 6
orig@@ 6
pically 6
stren@@ 6
subur@@ 6
ucky 6
acco 5
achus@@ 5
algori@@ 5
asons 5
bol 5
brien 5
dently 5
eler@@ 5
girl@@ 5
homa 5
ingre@@ 5
meet@@ 5
movi@@ 5
neath 5
nephe@@ 5
norwe@@ 5
offic@@ 5
ohi@@ 5
philadelphi@@ 5
seu@@ 5
strum@@ 5
sudden@@ 5
universi@@ 5
versity 5
winni@@ 5
adjac@@ 4
agricul@@ 4
betw@@ 4
dary 4
diffic@@ 4
divor@@ 4
doro@@ 4
exic@@ 4
graff@@ 4
haps 4
juris@@ 4
munici@@ 4
newsp@@ 4
newspap@@ 4
practic@@ 4
primar@@ 4
trous@@ 4
unciation 4
viet 4
acou@@ 3
adelphi@@ 3
again@@ 3
balti@@ 3
baske@@ 3
childre@@ 3
consecu@@ 3
dingly 3
effi@@ 3
enge 3
ernity 3
gentle@@ 3
glas 3
headquar@@ 3
illino@@ 3
inves@@ 3
kyo 3
like@@ 3
lloy@@ 3
maga@@ 3
mississi@@ 3
mosco@@ 3
ontari@@ 3
perman@@ 3
portugu@@ 3
proper@@ 3
provinci@@ 3
puer@@ 3
socc@@ 3
tawa 3
tenance 3
tennes@@ 3
territ@@ 3
victim@@ 3
yester@@ 3
alem 2
along@@ 2
antici@@ 2
astern 2
athan 2
binson 2
boulev@@ 2
bound@@ 2
campa@@ 2
cinc@@ 2
cincinn@@ 2
clos@@ 2
commer@@ 2
ditionally 2
does@@ 2
edin@@ 2
elings 2
enty 2
featur@@ 2
figh@@ 2
immedi@@ 2
infra@@ 2
intell@@ 2
lahoma 2
louisi@@ 2
manhatt@@ 2
massachuset@@ 2
mingham 2
missour@@ 2
montre@@ 2
musici@@ 2
orche@@ 2
passeng@@ 2
portu@@ 2
rainf@@ 2
retur@@ 2
scarec@@ 2
septem@@ 2
sheffi@@ 2
soldi@@ 2
subsequ@@ 2
supp@@ 2
symb@@ 2
thern 2
toge@@ 2
tware 2
unities 2
veland 2
vement 2
zens 2
achuset@@ 1
among@@ 1
archit@@ 1
becom@@ 1
bitions 1
blings 1
carib@@ 1
categ@@ 1
cerem@@ 1
charac@@ 1
compon@@ 1
connectic@@ 1
contro@@ 1
costu@@ 1
daries 1
degre@@ 1
detro@@ 1
devel@@ 1
else@@ 1
estab@@ 1
febru@@ 1
goti@@ 1
increas@@ 1
ineer 1
intellig@@ 1
jerus@@ 1
leep 1
magaz@@ 1
manus@@ 1
mediter@@ 1
nesota 1
occas@@ 1
occasi@@ 1
onships 1
opin@@ 1
oreg@@ 1
paralle@@ 1
pede@@ 1
previ@@ 1
prisoned 1
provinc@@ 1
recog@@ 1
sacrif@@ 1
staur@@ 1
syst@@ 1
thusi@@ 1
vidu@@ 1
whil@@ 1
wides@@ 1
zerland 1
madeupword0000 0
madeupword0001 0
madeupword0002 0
madeupword0003 0
