[pause] 396774
DH-AH0 156366
AH0 72824
IH0-N 42298
AH0-V 41630
IH0-Z 40770
AE1-N-D 39036
T-AH0 37389
AH1-V 33015
W-AH1-Z 31610
DH-IY0 29599
HH-IY1 27690
T-UW1 25525
AH0-N-D 24562
IH1-N 20075
AA1-R 16871
B-AY1 16870
IH0-T 15814
AY1 15620
IH1-Z 14320
AE1-T 13905
AO1-L-S-OW0 13756
DH-IH0-S 13443
AA1-N 13285
DH-EH1-R 12879
EH1-Z 11844
F-ER0 11619
F-AO1-R 11321
Y-UW1 10954
HH-IH0-Z 10917
IH1-T 10744
HH-AE1-Z 10238
EY1 9535
SH-IY1 9535
W-IH0-TH 9413
HH-AE1-V 9277
B-IY0 9056
AH0-N 8830
N-AA1-T 8625
DH-EY1 8329
DH-AE1-T 7842
W-ER0 7715
ER0 7562
HH-AE1-D 6891
HH-IH1-Z 6610
F-ER0-M 6510
Z 6318
AH0-@@ 6188
W-AH1-N 6089
T-S 6058
AO1-L 5876
AO1-N 5861
N 5858
T 5784
DH-AH1 5711
B-AH1-T 5611
D 5543
IH0-T-S 5526
N-OW1 5423
AE1-F-T-ER0 5351
AE1-Z 5231
K 5164
L-@@ 5109
W-AA1-Z 5064
AO1-R 4993
S 4978
DH-AH0-T 4968
F-ER1-S-T 4916
M-AY1 4873
W-IH0-DH 4873
S-AH1-M 4744
F-R-AH1-M 4714
DH-IY1-Z 4638
HH-ER0 4577
AH1-DH-ER0 4568
M-AE1-N 4486
N-Z 4470
S-@@ 4454
K-AH0-N 4430
D-IH0-@@ 4363
M-EH1-N-IY0 4351
R-IY0-@@ 4289
K-S 4260
L 4259
W-IY1 3960
N-@@ 3896
AE1-@@ 3877
S-T 3868
M 3866
T-AY1-M 3838
Y-UW1-Z-D 3822
D-UW1 3794
N-Y-UW1 3791
M-AH0-@@ 3784
S-K-UW1-L 3772
M-IY1 3724
T-@@ 3708
M-AO1-R 3689
K-@@ 3680
W-AO1-Z 3637
AH1-P 3599
HH-AW2-EH1-V-ER0 3588
TH-R-IY1 3560
L-EY1-T-ER0 3483
OW1-N-L-IY0 3464
W-UH1-D 3383
DH-EH1-N 3318
IH0-@@ 3261
DH-IH1-S 3241
P-IY1-P-AH0-L 3235
AW1-T 3203
D-Z 3203
L-Z 3183
HH-IH1-M 3182
EH1-@@ 3178
N-AW1 3118
W-ER1 3117
K-AE1-@@ 3097
N-AH0-@@ 3088
V-EH1-R-IY0 3080
R-IH0-@@ 3052
S-IH1-T-IY0 2997
N-OW1-N 2987
M-@@ 2949
S-EH1-D 2913
AE1-N 2905
S-AH0-@@ 2904
B-OW1-TH 2895
HH-ER1 2893
L-IY0 2876
P 2875
N-EY1-M 2854
M-OW1-S-T 2840
K-AA1-@@ 2835
L-AH0-@@ 2756
B-IH0-N 2751
K-AH0-@@ 2737
B-AE1-@@ 2734
M-AE1-@@ 2724
AH0-B-AW1-T 2670
B-IH1-N 2653
B-IY1 2641
T-AH0-@@ 2630
N-D 2628
R 2619
W-IH1-TH 2613
B-AO1-R-N 2600
L-D 2593
TH-R-UW1 2562
OW1-V-ER0 2559
T-ER0 2554
M-EY1-D 2543
K-T 2535
HH-AE1-@@ 2506
HH-UW1 2498
EH1-R-IY0-AH0 2497
L-AY1-K 2489
S-EH1-@@ 2487
L-IH1-@@ 2475
S-IY1 2467
M-EY1 2457
S-IH1-@@ 2447
M-IH1-@@ 2442
B-EH1-@@ 2434
T-AW1-N 2424
D-@@ 2414
N-EY1-M-D 2411
W-ER1-K 2389
N-IY0 2377
S-OW1 2370
IH1-T-S 2366
R-AH0-@@ 2365
T-IH0-NG 2358
P-AA1-R-T 2341
IH0-N-@@ 2328
P-@@ 2311
K-AO1-L-D 2296
T-IY0 2292
T-IH0-D 2290
N-AH0 2286
W-EH1-L 2277
K-AE1-N 2267
W-AH0-L 2249
M-Z 2247
M-AH0-N 2208
L-AE1-@@ 2205
R-AE1-@@ 2190
P-AE1-@@ 2185
Y-UH1-R 2163
D-EH1-@@ 2151
Y-IH1-R 2145
K-OW1-@@ 2144
Y-IH1-R-Z 2144
V 2141
W-AH1-T 2137
M-EH1-@@ 2112
P-S 2108
K-AH0-N-@@ 2105
S-IY1-@@ 2090
L-OW1-K-EY2-T-AH0-D 2087
JH 2080
IH0-N-T-AH0 2075
R-EH1-@@ 2069
F-R-ER0 2057
HH-AY1 2057
G 2052
S-EH1-V-R-AH0-L 2050
F 2046
D-IH0-D 2032
W-UH1-M-AH0-N 2020
L-EH1-@@ 2013
T-EH1-@@ 1986
IY1-CH 1981
S-AE1-@@ 1969
W-IH1-@@ 1963
S-AH1-CH 1954
Z-@@ 1920
N-IH0-@@ 1918
S-IH0-Z 1917
T-ER0-Z 1916
N-AA1-@@ 1900
G@@ 1897
G-R-UW1-P 1892
EY1-@@ 1864
OW0-@@ 1841
Y-AH1-NG 1835
D@@ 1832
N-EH1-V-ER0 1827
D-AH0-@@ 1822
L-IH0-@@ 1810
M-Y-UW1-Z-IH0-K 1805
P-ER0-@@ 1804
G-@@ 1795
N@@ 1791
HH-IY1-R 1789
T-AE1-@@ 1789
K-UH1-D 1785
S-T@@ 1782
AH0-N-AH1-DH-ER0 1779
B-IH0-K-EY1-M 1779
HH-AW1 1775
B@@ 1772
OW1-@@ 1769
D-IH1-@@ 1767
Y-UW2-N-AH0-V-ER1-S-AH0-T-IY0 1762
M-AA1-@@ 1761
IH1-@@ 1753
T-AH0-N 1750
R-EY1-@@ 1749
TH 1749
D-AW1-N 1741
NG-@@ 1740
R-IY0 1740
S-T-IH1-L 1740
CH-IH1-L-D-R-AH0-N 1738
N-T 1721
HH-W-AH1-N 1712
L-IH1-T-AH0-L 1705
R-IH1-V-ER0 1700
SH 1693
T-IH0 1692
B-AA1-@@ 1690
L-IH0-NG 1690
S-IH0-@@ 1686
EH1-N-IY0 1666
D-EY1 1657
M-AH1-CH 1657
IH0-NG 1648
N-IH0-NG 1642
V@@ 1642
L-ER0 1641
HH-W-AH1-T 1639
P-EH1-@@ 1639
S-M-AO1-L 1638
AH1-N-D-ER0 1636
L-IY1-@@ 1636
Y-UW1-Z 1634
AH0-N-@@ 1630
B-L-AE1-K 1630
S-T-S 1630
R-AA1-@@ 1629
P-AA1-R-K 1622
AE1-L-B-AH0-M 1617
W-IH1-CH 1612
W-AO1-T-ER0 1609
HH-EH1-@@ 1608
IY1-@@ 1606
L@@ 1594
T-AH0-D 1589
F-AO1-R-@@ 1588
F-AW1-N-D 1582
W-ER1-L-D 1582
AA1-@@ 1577
M-IH0-@@ 1577
S-IY0 1574
F-@@ 1570
P@@ 1569
HH-AW1-S 1566
K-AW1-N-T-IY0 1563
HH-OW1-M 1558
W-AY1-T 1554
R-EH1-D 1552
W-AO1-R 1551
S-AW1-TH 1550
S-EY1-M 1549
IH0-N-K-L-UW1-D 1547
R-IH1-@@ 1545
P-IH1-@@ 1544
B 1543
B-IH1-@@ 1539
P-L-EY1 1533
L-AA1-R-JH 1529
T-IH1-@@ 1528
HH@@ 1527
S@@ 1518
P-L-EY1-D 1515
S-T-EY1-SH-AH0-N 1514
B-AH1-@@ 1512
S-T-EY1-T 1512
N-AO1-R-TH 1511
D-IY0 1506
S-AH1-N 1505
B-UH1-K 1504
S-AH0-N 1503
W-EH1-N 1496
T-IH0-V 1491
F-IH1-L-M 1488
W-EY1 1487
L-OW1-@@ 1483
D-IH1-D 1477
SH-AH0-N 1469
B-AE1-K 1468
L-AH0 1468
JH@@ 1467
R-IY1-@@ 1461
R-OW1-@@ 1456
P-AH1-B-L-IH0-K 1453
L-AY1-F 1449
DH-AH0-N 1442
B-IY1-IH0-NG 1441
L-AO1-NG 1441
G-OW1 1439
JH-EH1-@@ 1435
OW0 1432
T-R@@ 1429
T@@ 1428
K-AH1-M-P-AH0-N-IY0 1427
P-T 1426
G-AE1-@@ 1423
M-EY1-N 1423
SH@@ 1421
G-EY1-M 1420
NG 1417
T-AA1-@@ 1415
N-ER0 1408
M-EH1-N 1405
P-L-EY1-IH0-NG 1404
K-AA1-L-IH0-JH 1396
F-IH1-@@ 1394
OW1-L-D 1393
S-AH0-Z 1391
SH-AH0-N-Z 1389
S-AY1-@@ 1388
S-AH1-@@ 1387
TH@@ 1387
CH 1386
G-UH1-D 1374
S-AA1-@@ 1374
M-EY1-@@ 1373
K-IH0-NG 1371
M-AA1-R-@@ 1370
F-AY1-V 1365
L-OW1-K-AH0-L 1364
N-AH1-M-B-ER0 1364
B-IH0-T-W-IY1-N 1362
R-AY1-T 1361
D-IH1-S-T-R-IH0-K-T 1360
N-D@@ 1359
P-AA1-@@ 1350
F-EH1-@@ 1349
T-IH0-@@ 1347
HH-AY1-@@ 1340
M@@ 1340
R-@@ 1336
D-AH1-@@ 1327
R-Z 1326
-AH0-N-T 1325
AO1-F 1325
P-AH0-@@ 1324
W-EH1-R 1322
-IH0-NG 1320
D-Y-UH1-R-IH0-NG 1319
B-ER1-@@ 1311
P-L-EY1-S 1311
N-D-Z 1310
F-AA1-L-OW0-IH0-NG 1309
Z@@ 1309
S-ER1-V-D 1308
S-ER1-@@ 1307
V-IH1-@@ 1303
S-EY1-@@ 1301
B-IY1-@@ 1299
K@@ 1299
W-IH1-L 1294
D-IY1-@@ 1293
S-T-R-IY1-T 1286
-IH0-@@ 1278
L-AY1-@@ 1277
B-EY1-@@ 1273
W-AY1-L 1273
AY1-@@ 1271
AA1-R-@@ 1269
D-AA1-@@ 1269
L-EH1-F-T 1267
D-IH1-F-R-AH0-N-T 1263
K-AA1-R-@@ 1263
B-L-UW1 1260
M-EY1-K 1260
T-UH1-K 1253
OW1-N 1250
SH-OW1 1246
D-IH0-NG 1243
IH0-N-T-UW1 1243
T-AY1-M-Z 1237
K-IH1-@@ 1234
B-IH1-L-D-IH0-NG 1233
S-IH1-S-T-AH0-M 1233
N-AH0-S 1232
N-IH1-R 1232
-AH0-@@ 1231
S-T-EY1-T-S 1231
W-EH1-S-T 1230
F@@ 1226
S-EH1-N-T-ER0 1225
M-EH1-R-IY0-D 1224
HH-AA1-@@ 1223
T-EY1-K 1216
R-AH0 1214
M-AH1-S-T 1212
S-IH1-R-IY0-Z 1212
AE2-@@ 1210
HH-IH1-@@ 1204
K-ER1-AH0-N-T-L-IY0 1202
B-OY1 1200
L-UW1-@@ 1197
N-IY1-D 1197
R-OW1-D 1194
Y-UW1-@@ 1193
AO1-F-AH0-N 1192
K-AH0 1191
V-Z 1191
B-AH0-L 1190
HH-AH1-@@ 1190
B-IH0-@@ 1189
B-@@ 1188
M-AH0 1187
W@@ 1184
K-IY0 1181
W-EH1-N-T 1181
F-AY1-N-D 1179
L-AA1-@@ 1177
T-IY1-M 1177
W-EH1-R-IH0-NG 1172
JH-AA1-N 1170
S-P@@ 1170
S-IH0-NG 1169
P-OW1-@@ 1167
M-OW1-@@ 1165
S-AO1-NG 1165
P-L-IY1-Z 1160
SH-UH1-D 1160
W-AA1-@@ 1160
B-IH0-F-AO1-R 1156
B-AE1-N-D 1151
D-ER0 1150
M-AH0-N-T 1150
TH-IH1-NG-K 1150
-AH0 1148
N-OW1-@@ 1148
ER1-L-IY0 1146
M-AH1-@@ 1146
N-EH1-@@ 1146
K-W@@ 1143
B-EH1-S-T 1142
HH-W-EH1-N 1140
K-AH1-@@ 1139
F-AO1-R-M 1137
W-AH0-Z 1137
DH-EH1-M 1136
HH-W-IH1-CH 1136
-AH0-S 1135
G-R-EY1-T 1135
F-AA1-DH-ER0 1134
-EY2-T-IH0-D 1133
DH-AH0-M 1133
S-IH1-N-S 1131
T-UW1-@@ 1130
K-AO1-@@ 1128
L-AY1-N 1126
N-AE1-@@ 1126
K-ER0 1124
M-ER0 1122
W-AA1-N-T 1122
IH0-F 1119
AA0-@@ 1117
M-EY1-JH-ER0 1116
V-EH1-@@ 1115
W-IH1-DH 1115
F-AE1-@@ 1114
S-T-ER0 1113
AH0-G-EH1-N 1109
T-AY1-@@ 1107
V-ER0 1102
G-ER1-L 1098
K-R@@ 1097
S-EY1-N-T 1097
G-R-AE1-@@ 1095
R-IH0-NG 1094
F-Y-UW1 1090
L-EY1-@@ 1087
AO1-@@ 1086
SH-@@ 1082
P-AA1-P-Y-AH0-L-ER0 1076
P-IY1-@@ 1075
S-IY1-N 1075
D-OW1-N-T 1074
M-EH1-M-B-ER0 1074
-ER0-Z 1059
B-R@@ 1059
F-AE1-M-L-IY0 1059
W-EH1-@@ 1058
P-AA1-R-T-IY0 1057
AH0-L-AO1-NG 1055
F-AH0-@@ 1054
-AE1-@@ 1053
D-AE1-@@ 1053
D-AO1-G 1053
K-AA1-M-AH0-N 1050
G-AA1-T 1048
K-ER1-@@ 1041
D-AH0 1040
JH-AH1-S-T 1037
S-T-R@@ 1037
CH@@ 1034
G-AA1-@@ 1033
IY1-S-T 1031
V-IH0-@@ 1029
K-AO1-R-@@ 1020
V-ER1-@@ 1020
P-EY1-@@ 1019
S-EH1-T 1019
-EY2-T 1018
K-AH1-M 1017
K-AA1-R 1016
M-AH0-N-T-S 1013
V-AE1-@@ 1012
D-AY1-D 1011
B-AH0-@@ 1010
CH-ER1-CH 1007
N-T-S 1006
M-EH1-M-B-ER0-Z 1005
B-EY1-S-T 1004
K-EY1-@@ 1004
HH-AA1-R-@@ 1002
S-AY1-D 1000
D-IH0-S-@@ 998
R-D 997
M-AY1-@@ 996
AY1-M 995
M-D 993
W-AO1-@@ 989
L-AO1-S-T 988
R-AY1-@@ 984
T-AH0-G-EH1-DH-ER0 984
AY1-L-AH0-N-D 983
-AA1-@@ 981
K-SH-AH0-N 979
N-UW1-@@ 979
EH1-N-D 977
R-UW1-@@ 977
K-AH0-N-S-IH1-D-ER0-D 974
W-AY1-@@ 971
D-AH0-N 968
AH0-G-EH1-N-S-T 967
EH1-R 967
IY1-V-IH0-N 967
K-L-AH1-B 965
-AH0-N 964
K-EY1-M 964
F-L@@ 962
R@@ 962
ER0-IH1-JH-AH0-N-AH0-L 961
S-OW1-@@ 959
K-EH1-@@ 958
W-EY1-@@ 957
B-AY1-@@ 954
HH-EH1-L-D 952
G-R-IY1-N 951
T-IH0-K 951
-IY1-@@ 946
HH-EH1-D 946
F-IH0-@@ 937
D-R@@ 934
Y@@ 933
B-IH1-L-T 932
Y-UW1-Z-IH0-NG 932
AH0-V-EY1-L-AH0-B-AH0-L 931
K-L@@ 929
T-AH0-D-EY1 929
S-T-EY1-@@ 925
L-AH0-S 924
S-EY1 924
T-AH0-L 924
IH0-M-P-AO1-R-T-AH0-N-T 923
AO1-L-W-EY2-Z 922
S-K-UW1-L-Z 922
K-AH0-L 921
IH1-F 918
L-AO1-@@ 918
B-AA1-R-@@ 917
D-EH1-TH 917
G-EY1-@@ 917
Y-UW0-N-AY1-T-IH0-D 917
L-IY0-@@ 916
R-IH1-T-AH0-N 916
CH-AY1-L-D 913
G-AH0-@@ 911
Y-AO1-R-K 911
ER0-AW1-N-D 910
R-AH1-@@ 910
T-ER1-@@ 906
OW1-P-AH0-N 905
S-AH1-M-TH-IH0-NG 905
DH-OW1-Z 903
K-ER0-IH1-R 901
L-EY1-K 901
N-AY1-T 901
B-OW1-@@ 900
K-AH0-M-Y-UW1-N-AH0-T-IY0 897
S-P-IY1-SH-IY0-Z 897
N-EY1-@@ 895
T-IY1-@@ 895
F-AY1-@@ 893
G-R@@ 893
HH-W-AY1-L 893
SH-ER1-T 893
P-R-EH1-@@ 892
W-ER1-K-T 890
F-EY1-@@ 888
T-OW1-@@ 887
F-AO1-R-M-ER0 886
K-AA1-N-@@ 886
R-IY0-L-IY1-S-T 886
-ER0 885
W-ER1-K-S 884
OW1 883
N-S 882
B-IH0-K-AH1-M 881
AW1-T-S-AY1-D 879
F-IY1-@@ 879
L-AH1-@@ 879
S-UW1-N 879
N-OW0 878
T-ER0-@@ 877
IH0-M 875
V-EH1-R-IY0-AH0-S 875
-IY0-Z 874
AE1-D 874
-AE2-@@ 873
EH1-V-R-IY0 872
S-K@@ 871
T-ER1-M 871
AH0-M-AH1-NG 868
V-IH1-L-IH0-JH 867
N-T@@ 866
P-AH1-@@ 865
JH-IH0-Z 864
EH0-@@ 862
P-R-AH0-D-UW1-S-T 862
CH-EH1-@@ 860
S-T-AE1-@@ 860
F-R@@ 858
S-ER1-V-AH0-S 858
S-T-@@ 858
G-EH1-T 857
S-AY1-T 856
P-OY1-N-T 855
AH0-M-EH1-R-IH0-K-AH0-N 854
F-R-AH1-N-T 854
W-AY1-F 854
S-EH1-K-AH0-N-D 853
N-AE1-SH-N-AH0-L 852
N-D-IH0-D 852
Y-UW1-ZH-AH0-L-IY0 852
G-R-EY1-@@ 850
S-IH1-K-S 850
-AA2-@@ 849
B-ER0-@@ 848
IH0-N-K-L-UW1-D-IH0-NG 846
W-AH1-N-S 846
T-R-IH1-@@ 845
W-IH1-M-AH0-N 845
N-IH0-K 844
S-T-AE1-N-D-IH0-NG 844
V-AY1-@@ 842
L-AH1-V 839
S-AH1-M-T-AY2-M-Z 838
S-P-EH1-@@ 837
DH-AE1-T-S 835
M-AO1-R-@@ 833
S-EH1-V-ER0-AH0-L 832
B-IH0-G-AE1-N 831
G-OW1-IH0-NG 831
HH-IH0-M-S-EH1-L-F 830
T-R-AE1-@@ 830
Z-IH0-NG 830
F-AA1-@@ 829
L-AO1 829
F-UH1-T-B-AO2-L 828
P-IH0-NG 828
L-UH1-K 827
F-IY1-L-D 826
P-L@@ 826
S-IH1-NG-G-AH0-L 826
-IY0-@@ 825
K-AH0-N-T-IH1-N-Y-UW0-D 825
V-AH0-@@ 825
B-R-IH1-T-IH0-SH 824
M-IY0 824
IY0 823
M-OW1-S 819
N-IY1-@@ 819
AH0-W-EY1 817
T-EY1-@@ 817
G-IH1-V 812
JH-AH0-@@ 812
-EY2-@@ 811
AH0-Z 811
M-AH1-DH-ER0 809
L-AY1-T 807
HH-OW1-@@ 805
SH-EH1-@@ 804
S-UW1-@@ 803
S-T-UW1-D-AH0-N-T-S 801
W-AO1-K-IH0-NG 801
P-AE1-S-T 800
D-UH1-R-IH0-NG 799
OW1-V-ER0-@@ 798
HH-@@ 797
L-AH1-N-D-AH0-N 796
B-EH1-T-ER0 794
-AH0-N-@@ 793
S-IH1-M-AH0-L-ER0 792
-AH0-L 791
S-EH2-@@ 791
D-ER0-Z 788
ER0-@@ 787
-AH0-N-S 785
S-AO1-NG-Z 785
S-IH1-T-IH0-NG 784
ER1-@@ 783
T-IY0-Z 783
P-R-IY0-@@ 782
S-IY1-Z-AH0-N 782
D-EY1-Z 781
S-T-EH1-@@ 781
-AH0-N-Z 780
B-R-AE1-@@ 780
JH-UW1-@@ 780
R-IH0-S-IY1-V-D 779
L-AE1-S-T 778
V-ER0-@@ 777
-ER0-@@ 776
B-R-AW1-N 776
DH-AE1-N 776
N-UW1 776
D-ER1-IH0-NG 775
D-UW1-@@ 775
K-T-S 775
V-ER1-ZH-AH0-N 775
IH0-N-K-L-UW1-D-IH0-D 773
R-AA1-K 773
B-IH1-Z-N-AH0-S 772
L-OW0 772
S-IY1-T 772
AH1-S 769
K-AH1-N-T-R-IY0 769
W-ER1-@@ 768
-AH0-N-T-S 767
D-AH1-Z 767
HH-IY1-@@ 767
ER0-Z 764
G-IH1-@@ 763
L-UH1-K-IH0-NG 762
W-ER1-K-IH0-NG 762
IH2-N-T-ER0-@@ 761
B-UW1-@@ 759
N-IH1-@@ 759
W-EY2 759
M-IY1-@@ 756
M-IH0-NG 755
P-AH1-B-L-IH0-SH-T 753
W-AO1-R-@@ 753
CH-AE1-@@ 752
JH-EH1-N-ER0-AH0-L 752
F-R-EH1-N-CH 751
M-AH0-N-@@ 751
K-AA0-@@ 750
N-T-AH0-@@ 750
S-AO1 749
P-ER1-@@ 747
P-ER1-S-AH0-N 747
TH-R-UW0-AW1-T 747
F-S 746
B-IY2-F-AO1-R 745
G-AH1-V-ER0-M-AH0-N-T 745
HH-EY1-@@ 745
M-ER1-@@ 745
T-OW0 744
P-R-AH0-@@ 742
V-IH0-NG 742
M-UW1-V-IY0 740
NG-K 740
S-T-AO1-R-IY0 740
-EH2-@@ 739
-UW1-@@ 739
M-ER0-@@ 739
Z-AH0-@@ 739
M-AA0-@@ 738
P-AW1-ER0 738
R-OW1-T 738
TH-ER1-D 738
-AY2-@@ 737
N-T-IH0-D 737
Z-D 737
IH1-N-@@ 735
JH-D 735
D-OW1-N 734
-IH2-@@ 733
AH0-T-EH1-N-D-AH0-D 731
F-ER0-@@ 731
M-UW1-V-D 731
V-@@ 731
B-Z 730
S-T-IH1-@@ 729
B-AH0-N 728
W-IH0-TH-IH1-N 728
B-IY0-K-EY1-M 727
AO1-F-AH0-S 725
EH1-R-IY0-AH0-Z 725
R-OW1-L 725
G-EY1-M-Z 724
L-EH1-D 722
P-L-EY1-ER0 720
W-EH1-DH-ER0 720
HH-AE1-N-D 718
IH1-NG-G-L-IH0-SH 718
K-AW1-N-S-AH0-L 715
S-EH1-N-T-R-AH0-L 715
L-AE1-N-D 714
S-EH1-K-AH0-N 714
R-UW1-M 713
AO1-F-T-AH0-N 712
M-IY1-N-Z 712
HH-EH1-L-P 711
AH0-P-AA1-N 710
K-IY1-@@ 710
L-AA1-R-JH-AH0-S-T 710
N-AO1-R-@@ 710
S-T-AH0-@@ 710
-AO1-@@ 708
M-P@@ 708
P-ER0 708
AH1-DH-ER0-Z 706
F-T 706
D-AH0-D 705
P-L-EY1-@@ 704
AH0-N-T-IH1-L 701
M-OW0-@@ 700
SH-AO1-R-T 700
-IY0 699
D-AO1-T-ER0 698
JH-IH0-S-T 698
N-EH1-K-S-T 697
IH1-NG-G-L-AH0-N-D 695
P-R-IH0-@@ 695
T-L-IY0 695
B-R-AH1-DH-ER0 694
IH0-N-K-L-UW1-D-Z 692
-AA0-@@ 691
L-AH0-N 691
-EY1-SH-AH0-N 689
HH-ER1-@@ 689
P-L-AE1-@@ 689
S-EH1-V-AH0-N 688
K-EY1-S 686
W-ER1-D 686
IH2-N-T-ER0-N-AE1-SH-AH0-N-AH0-L 685
T-EH1-L 685
AH0-K-R-AO1-S 683
B-R-IH1-@@ 682
F-OW1-@@ 682
L-ER0-Z 680
-AE0-@@ 679
F-ER0-D 678
TH-@@ 678
-AH0-N@@ 677
G-AH0-N 677
K-AO1-R-T 677
R-AH1-N 677
R-IY1-JH-AH0-N 677
-EY2-T-AH0-D 676
D-L-IY0 675
D-OW1-@@ 675
EH1-V-ER0 675
-IY0-AH0-N 674
AH1-@@ 674
S-L-IY0 673
Y-AO1-R 673
-AH0-L-IY0 672
-EH0-@@ 671
B-UH1-@@ 670
P-IH1-R-IY0-AH0-D 670
AH0-P-IH1-R-D 668
N-D-IH0-NG 668
K-T-IH0-D 667
Y-UW1-S 667
F-IY1-CH-ER0-Z 666
D-AY1-@@ 665
T-R-AH0-@@ 665
K-AH0-L-Z 664
Y-UW0-@@ 664
N-S@@ 663
T-EY1-SH-AH0-N 663
-AO2-@@ 662
-EY2-T-IH0-NG 662
JH-@@ 662
L-IH1-S-T 662
NG-G@@ 662
D-EH2-@@ 661
OW2-@@ 660
Z-IH0-Z 660
K-IH1-NG 659
N-ER0-Z 658
TH-AO1-T 658
-EY1-@@ 657
F-ER1-DH-ER0 656
V-AA1-@@ 655
D-EY1-@@ 654
V-AH0-L 654
AO1-R-@@ 653
G-Z 653
K-AE2-@@ 653
L-T 653
F-ER1-@@ 649
K-AE1-N-T 649
L-EH1-T 649
V-AH0-N 648
W-IY1-@@ 648
B-L@@ 647
IH0-G-Z-AE1-M-P-AH0-L 646
-EY0-@@ 645
CH-IH1-@@ 645
W-IH1-N 645
D-IH0-V-EH1-L-AH0-P-T 644
M-AA1-D-ER0-N 644
M-B@@ 644
W-IH0-DH-IH1-N 644
AA1-R-T 643
CH-ER0 643
N-D-ER0 643
S-IH2-@@ 643
N-AY1-@@ 642
B-UH1-K-S 641
EY1-SH-AH0-N 641
-AH0-M 640
V-OY1-S 639
D-IH0-V-EH1-L-AH0-P-M-AH0-N-T 638
D-IH0-Z-AY1-N 638
K-AE2-L-AH0-F-AO1-R-N-Y-AH0 637
N-D-@@ 635
S-AH0-S 635
T-AH1-@@ 635
JH-AE1-@@ 634
N-EH1-K-S 633
S-T-IH0-NG 633
L-OW1 632
-IY0@@ 631
EY1-T 631
N-AH1-TH-IH0-NG 630
P-R-EH1-Z-IH0-D-AH0-N-T 630
B-AO1-R-D 629
K-L-IH1-@@ 629
K-W-AY1-T 629
L-AH0-N-D 629
P-L-EY1-Z 629
T-EY1-B-AH0-L 629
K-AO1-R-S 628
V-EY1-@@ 628
K-ER0-Z 627
K-L-IY0 627
P-R-OW1-G-R-AE2-M 627
NG-Z 626
G-IH1-T 625
JH-ER1-M-AH0-N 625
P-AA1-R-@@ 625
-IY0-AA1-@@ 624
AE0-@@ 623
G-EY1-V 623
OW2 623
S-ER1 621
S-T-IH0-K 621
T-R-EY1-@@ 620
-@@ 619
B-AA1-D-IY0 619
-AH0-L@@ 618
-IY1-Z 618
G-ER0 618
IH2-@@ 618
S-T-AH0-N 618
F-EY1-S 617
F-R-IY1 617
F-UW1-D 617
CH-@@ 615
-UW0-@@ 614
CH-ER0-Z 614
D-AH1-N 612
T-AW1-N-SH-IH0-P 612
T-R-AE1-K 612
K-AA2-@@ 611
S-ER0 611
UW1-@@ 611
AO1-R-D-ER0 610
N-JH@@ 609
K-ER0-@@ 608
N-AO1-R-DH-ER0-N 608
T-EH1-L-AH0-V-IH2-ZH-AH0-N 608
P-IH0-@@ 607
AH0-D-IH1-SH-AH0-N 605
B-EH1-R-IY0-D 605
K-IH0-@@ 605
P-R-IH1-@@ 604
SH-T 604
T-AH0-S 604
AO1-L-M-OW2-S-T 603
AY1-L 603
TH-IH1-NG-Z 603
D-IY0-@@ 602
N-IH1-R-B-AY1 602
-AH2-@@ 601
-IY2-@@ 601
V-IH2-L 601
B-IH0-HH-AY1-N-D 600
EY1-EH1-M 600
N-AE1-SH-AH0-N-AH0-L 600
P-R-AA1-@@ 600
F-AO1-R-M-D 599
F-UH1-L 597
R-AH0-N 597
S-AH0-L 597
S-AO1-@@ 597
B-IY1-CH 596
W-EH1-S-T-ER0-N 596
B-R-EY1-@@ 595
L-EH1-S 594
P-UH1-T 594
B-IH1-G 593
F-AY1-N-AH0-L 593
R-AH1-N-IH0-NG 593
N-T-@@ 592
P-AY1-@@ 592
D-IH0-Z-AY1-N-D 591
T-AY1-T-AH0-L 591
V-IH1-D-IY0-OW0 591
S-AH1-B-@@ 589
DH-AH1-S 588
Z-ER0 586
HH-W-EH1-R 585
AE1-L-@@ 583
HH-AH0-Z 583
P-AO1-R-@@ 583
HH-IH1-L 580
T-EH1-N 580
W-AA1-N 580
-IY1 579
EH1-R-P-AO2-R-T 579
CH-IH0-Z 578
NG-K-@@ 578
ZH-AH0-N 578
-ER0-AH0-@@ 576
-IY0-AH0 576
SH-AE1-@@ 576
JH-AA1-@@ 575
G-R-UW1-P-S 574
S-IH1-S-T-AH0-M-Z 574
TH-IH1-NG 574
S-AH0-P-AO1-R-T 573
-UW2-@@ 572
S-IH0-V 571
-AO0-@@ 570
CH-T 570
D-IH0-S-K-R-AY1-B-D 570
L-AE1-NG-G-W-IH0-JH 570
S-T-ER0-Z 570
T-W@@ 570
-ER0-D 569
K-R-AE1-@@ 569
S-T-IH0-D 569
CH-EY1-N-JH 568
HH-AO1-L 568
-AH0-N-T-L-IY0 567
F-EY1-M-AH0-S 567
HH-OW1-L-D-IH0-NG 567
K-ER1-AH0-N-T 567
IY0-@@ 565
R-EH2-@@ 565
M-P-@@ 564
R-AH0-L 564
TH-ER1-@@ 564
V-D 564
Y-EH1-L-OW0 564
S-AH0 563
T-EY1-K-AH0-N 563
-EY2 562
N-CH@@ 562
S-AW1-N-D 562
S-T-EY1-JH 561
L-IY1-G 559
CH-EY1-N-JH-D 557
G-R-UW1 557
S-AH1-DH-ER0-N 556
L-EH1-V-AH0-L 555
SH-AH0-N-AH0-L 555
SH-IH1-@@ 555
JH-EH1-N-ER0-AH0-L-IY0 554
K-R-IH1-@@ 553
M-AH0-N-Z 553
K-AH0-N-T-R-OW1-L 552
-EH1-@@ 551
SH-EY1-@@ 551
T-AA1-P 551
P-AH0-Z-IH1-SH-AH0-N 550
N-D-R@@ 549
S-T-AY1-L 548
EH2-@@ 547
JH-IH1-@@ 547
M-AH1-N-TH-S 547
M-EY1-K-S 547
M-AH1-N-IY0 546
R-IY2-@@ 546
F-R-IY1-@@ 545
K-UW1-@@ 545
L-AY1-Z 545
-AY1 544
HH-AE1-F 543
L-IH1-V-D 543
M-AE2-@@ 543
K-IY1-P 541
T-AO1-@@ 541
N-D-AH0-D 540
N-UW1-M-ER0-AH0-S 540
S-T-IY1-@@ 540
W-IY1-K 540
HH-OW1-L 539
K-AH1-M-P-AH0-N-IY0-Z 539
N-T-IH0-@@ 539
R-IY0-AH0 539
S-T-AH1-D-IY0-D 539
AY1-Z 535
SH-UH1-R 535
B-IH0-K-AH1-Z 534
K-AH0-N-S-T-R-AH1-K-SH-AH0-N 534
T-AH0-B-AH0-L 534
F-AO1-R-M-Z 533
R-IH0-Z-AH1-L-T 533
T-AY1-P 531
HH-AE1-V-IH0-NG 530
F-AH0-L 528
JH-AO1-R-JH 527
P-AH0-L-IY1-S 527
R-OW0 527
AH0-L 526
D-AH0-L 526
IH0-V-EH1-N-SH-AH0-L-IY0 526
SH-OW1-Z 526
W-IH0-DH-AW1-T 526
D-ER0-@@ 525
F-R-EH1-@@ 525
-ER0@@ 524
K-T-ER0 524
EY1-JH 523
AA1-R-M-IY0 522
F-AA1-L-OW0-D 522
P-R-OW0-@@ 522
M-IH1-SH-AH0-N 521
K-EH1-R-IH0-K-T-ER0 520
AO2-L-DH-OW1 519
G-AH1-@@ 519
K-S-AH0-@@ 519
JH-IH0-NG 518
K-AW1-@@ 518
EH1-K-@@ 517
JH-OY1-N-D 517
P-R@@ 517
Z-IH0-@@ 517
AY1-V 516
F-IY2-L-D 516
R-IH0-T-ER1-N-D 516
F-IY1-CH-ER0-D 515
G-AH0 515
W-IH1-L-Y-AH0-M 514
Y-EH1-T 514
R-IY0-AH0-N 513
-UW0 512
F-AE1-M-AH0-L-IY0 512
JH-AH1-@@ 512
K-AH0-N-T-EY1-N-Z 511
EH0-N-@@ 510
IH0-N-S-T-EH1-D 509
B-AO1-L 508
Y-UW2-@@ 508
R-EY1-L-W-EY2 507
S-AH0-S-AY1-AH0-T-IY0 507
K-AO1-L 506
L-IH1-V 506
P-L-EY1-ER0-Z 506
AO1-L-@@ 505
M-AW1-N-T-AH0-N 505
T-IY0-@@ 505
B-R-IH1-JH 504
G-R-IH1-@@ 504
K-AH1-V-ER0-D 504
S-T-AA1-@@ 504
-EY2-T-S 503
JH-EY1-M-Z 502
CH-IY1-@@ 501
EH1-R-@@ 501
L-IH1-V-Z 500
N-IY0-@@ 500
R-EY1-Z-D 500
R-EY1-D-IY0-OW2 499
R-IH0-M-EY1-N-Z 499
AH0-B-AH1-V 498
P-ER0-F-AO1-R-M-D 498
SH-AH0-@@ 498
K-AY1-@@ 497
B-EY1-S 496
R-EY1-N-JH 496
EH2-JH-AH0-K-EY1-SH-AH0-N 495
M-IH2-@@ 495
Z-IY0 495
AW1-T-@@ 494
B-AH0-L-Z 493
S-W-IH1-@@ 493
CH-IH0-NG 492
IH1-N-T-UW0 492
R-AH1-N-Z 492
L-ER0-@@ 491
S-AH0-B-@@ 490
ZH@@ 490
B-ER0-G 489
G-ER1-L-Z 489
P-R-AY1-V-AH0-T 489
S-P-IH1-@@ 489
K-OW0 488
T-EY1-K-S 488
K-S-@@ 487
OW1-N-D 487
OY1-@@ 487
-AO0-R-@@ 486
F-AA1-R 486
HH-ER1-D 486
P-EH1-R-AH0-N-T-S 486
K-AE1-P-AH0-T-AH0-L 485
P-EH1-R-AH0-@@ 485
P-R-AY1-M-EH2-R-IY0 485
R-OW0-@@ 485
TH-S 484
V-AE1-L-IY0 484
IH0-N-T-EH1-@@ 483
K-OW0-@@ 483
R-EY1-S 483
F-R-EH1-N-D 482
M-AH0-N@@ 482
ER0-AW1-N 481
M-IH1-D-AH0-L 481
S-P-EY1-S 481
R-IY2-P-L-EY1-S-T 480
AE1-K-T-IH0-V 479
IH1-N-D-AH0-S-T-R-IY0 479
IH2-N-F-ER0-M-EY1-SH-AH0-N 479
TH-IY1-AH0-T-ER0 479
-AW1-@@ 478
-UW1 478
M-IY1-N 478
V-OW1-@@ 478
K-L-AE1-@@ 477
M-ER0-Z 477
P-L-EY1-L-IH0-S-T 477
P-R-AA1-JH-EH0-K-T 477
-IH0-S 476
S-P-AY1-@@ 476
JH-IY1-@@ 475
N-IY0-AH0-N 475
D-OW0 474
S-OW1-SH-AH0-L 474
JH-AH0-N 473
K-AH1-N-T-R-IY0-Z 473
T-IY1-M-Z 473
DH-OW1 472
G-R-AW1-N-D 472
W-ER1-D-Z 472
F-L-AE1-@@ 471
HH-IH1-S-T-ER0-IY0 471
M-EH1-T 471
N-T-AH0-D 471
IH2-N-D-IH0-P-EH1-N-D-AH0-N-T 470
OW0-Z 470
P-AA1-S-AH0-B-AH0-L 470
T-ER1-N-D 470
K-L-AE1-S 468
M-AY1-T 467
AO0-S-T-R-EY1-L-Y-AH0 466
N-AA0-@@ 466
S-OW1-L-D 466
-AH0-T 465
G-AA1-R-@@ 465
G-OW1-@@ 465
K-AE1-N-AH0-D-AH0 465
S-ER0-@@ 465
G-EH1-@@ 464
S-P-EH1-SH-AH0-L 464
B-R-EH1-@@ 463
N-D-ER0-@@ 463
W-IH0-TH-AW1-T 463
M-AO1-@@ 462
T-R-AH1-@@ 462
CH-IY0 461
P-AA2-P-Y-AH0-L-EY1-SH-AH0-N 461
T-R-EY1-N 461
Y-EH1-S 461
IH0-N-V-AA1-L-V-D 460
S-AH0-K-S-EH1-S 460
S-EH1-N-T 460
S-T-IH0-@@ 460
N-AH0-L 459
OW1-L-D-ER0 458
AY0-D-IY1-AH0 455
EY2-T-IH0-D 455
HH-AO1-@@ 455
L-EY1-T 455
HH-AA1-R-T 454
K-R-IY0-EY1-T-IH0-D 454
N-OW0-@@ 454
P-AA1-R-T-S 454
W-AY1 454
HH-AW2-S 453
M-AY1-N-D 453
Z-AA1-@@ 453
K-W-IH1-K-L-IY0 452
N-IY0-AH0 452
P-UH1-@@ 451
AH0-F-IH1-SH-AH0-L 450
SH-IH2-P 450
T-R-AH0-D-IH1-SH-AH0-N-AH0-L 450
-AA1-R-@@ 449
CH-AA1-R-@@ 449
D-IH0-S-P-AY1-T 449
IH0-K-@@ 449
K-IH1-L-D 449
G-L@@ 448
R-IY0-L-IY1-S 448
D-L@@ 447
K-T-AH0-D 447
M-EY1-N-L-IY0 447
DH-EH1-R-F-AO2-R 446
G-R-IY1-@@ 446
M-EY1-K-IH0-NG 446
M-IH1-S-T-ER0 446
SH-IH0-Z 446
-ER0-IY0 445
P-AO1-L 445
S-IH1-T-IY0-Z 445
-AY2-N 444
SH-IY1-@@ 443
T-R-EH1-@@ 443
V-AH0 443
-IY2-N 442
S-AH0-K-S-EH1-S-F-AH0-L 442
S-AH1-N-Z 442
AH0-P-IH1-R-Z 440
M-IY1-T 440
P-IY0 440
S-AH1-M-ER0 440
T-AY2-@@ 440
-AY0-@@ 439
N-AH0-T 439
N-Y@@ 439
W-AO1-L 439
D-IH2-S-AY1-D-IH0-D 438
EH1-L-@@ 438
K-L-OW1-Z-D 438
K-R-AH0-@@ 438
S-AH1-B-S-AH0-K-W-AH0-N-T-L-IY0 438
SH-AE1-L 438
AH0-K-AO1-R-D-IH0-NG 437
R-AY1-T-IH0-NG 437
F-AO1-R-S 436
M-EH2-@@ 436
S-K 436
Y-UH1-R-AH0-P 436
-AY2-Z 435
AW1-@@ 435
ER0-IH1-JH-AH0-N-AH0-L-IY0 435
L-OW0-@@ 435
R-AW1-N-D 435
R-IY1-L 435
B-AE1-T-AH0-L 434
G-IH1-V-IH0-N 434
K-AH1-P-AH0-L 434
P-R-AH0-F-EH1-SH-AH0-N-AH0-L 434
-AH0-D 433
HH-AA1-R-D 433
R-IH0-M-EY1-N-D 433
V-ER0-Z 433
B-R-AO1-T 432
D-AO1-R 432
IH0-N-V-EH1-@@ 432
Z-AH0-N 432
-AY2-Z-D 431
F-AY2-D 431
AH1-P-@@ 430
T-IH0-V-Z 430
W-AO1-T-ER0-@@ 430
AW1-ER0 429
B-IH0-L-OW1 429
B-IH1-L-D-IH0-NG-Z 429
L-IH0-K 429
P-IY1-S 429
S-ER1-V-Z 429
EY1-B-AH0-L 428
N-S-IH0-Z 428
D-AA1-K-T-ER0 427
HH-EH1-R 427
N-D-IH0-@@ 427
N-EY1-T-IH0-V 427
NG-K-S 427
R-OY1-AH0-L 427
S-AE1-N 427
IH0-S-T-AE1-B-L-IH0-SH-T 425
JH-ER0 425
N-ER0-@@ 425
-IY1-N 424
AA2-@@ 424
IH0-T-S-EH1-L-F 424
S-ER1-V-AH0-S-AH0-Z 424
-ER2-@@ 423
K-W-AA1-@@ 423
M-AO1-R-N-IH0-NG 423
S-K-@@ 423
T-OW1-L-D 423
-AY2-T 422
D-AA1-R-K 422
HH-OW2-@@ 422
P-ER0-F-AO1-R-M-AH0-N-S 422
S-AY1-AH0-N-S 422
IY1-S-T-ER0-N 421
L-IY1-S-T 421
P-EY1-P-ER0 421
T-R-AE0-N-S-@@ 421
HH-IH1-S-T-R-IY0 420
S-EH1-L-@@ 420
V-IY1-@@ 420
Y-ER0-Z 420
AH0-M 419
B-EY1 419
K-AH0-T 419
L-UH1-K-T 419
N-D-AH0 419
S-T-OW1-@@ 419
D-UW1-IH0-NG 418
F-IH1-L-M-Z 418
K-AH1-V-ER0 418
L-AO1-S 418
N-T-IH0-NG 418
S-T-AA1-R-T 418
T-AO2-R-IY0 418
W-UH1-@@ 417
-EY1 416
F-AH1-@@ 416
-AA2-R-@@ 415
M-IY1-D-IY0-AH0 415
T-IH0-K-AH0-L 415
K-AA1-M-AH0-N-L-IY0 414
K-R-AA1-@@ 414
IY0-Z 413
L-AH0-N-@@ 413
N-EY1-M-Z 413
S-T-AA1-P 413
TH-AH0-@@ 413
Y-UW1-N-Y-AH0-N 413
L-AY1-B-R-EH2-R-IY0 411
S-AO1-R-S 411
EH1-N-IY0-TH-IH2-NG 410
G-OW1-L-D 410
G-R-AH0-@@ 410
K-IY1 410
V-IY0-@@ 410
D-IH1-R 409
JH-AE2-P-AH0-N-IY1-Z 409
K-L-AY1-@@ 409
L-IH2-@@ 409
N-D-AH0-@@ 409
S-IH1-S-T-ER0 409
T-AW1-N-Z 409
N-Z-@@ 408
R-AY1-T-S 408
-EY0 407
F-IY0 407
F-R-AE1-N-S 407
G-IH0-T-AA1-R 407
K-AW1-N-IY0 407
L-OW1-ER0 407
N-S-@@ 407
S-EH1-M-AH0-T-EH2-R-IY0 407
T-AH0-N-Z 407
T-IY1 407
-IH0-D 406
AH0-W-AO1-R-D 406
K-AH1-M-Z 406
M-AA1-D-AH0-L 406
Y-UH2-R-AH0-P-IY1-AH0-N 406
B-AO1-R-@@ 405
EH1-R-K-R-AE2-F-T 405
D-AO1-@@ 404
M-EH1-R-IY0 404
M-UW1-V-M-AH0-N-T 404
P-R-AH0-V-AY1-D-Z 404
P-R-AY0-M-EH1-R-AH0-L-IY0 404
P-R-AY1-@@ 404
B-AO1-@@ 403
F-AO1-@@ 403
K-AH0-N-S-IH1-S-T-S 403
M-Y-UW1-Z-IH0-K-AH0-L 403
N-AE1-CH-R-AH0-L 403
T-ER0-D 403
HH-AO1-R-@@ 402
K-L-OW1-@@ 402
L-AH0-T 402
N-AY1-N 402
AE1-K-@@ 401
AE1-K-S-EH2-S 401
S-P-EH1-N-T 401
T-R-EY1-N-IH0-NG 401
-IY0-AE1-@@ 400
F-AO1-R-AH0-S-T 400
SH-IH0-NG 400
T-R-AE1-K-S 400
AE1-K-SH-AH0-N 399
D-IY0@@ 399
K-R-UW1-@@ 399
L-IH1-V-IH0-NG 399
S-T-R-AO1-NG 399
Z-EH1-@@ 399
-AH0-Z 398
CH-EY1-@@ 397
K-W-IH1-@@ 397
S-AH0-N-Z 397
S-T-AH0-D 397
HH-AY1-L-IY0 396
L-OW0-K-EY1-SH-AH0-N 396
B-L-AE1-@@ 395
S-AY2-@@ 395
S-T-AE1-N-D-Z 395
DH@@ 394
F-IY1-CH-ER0 394
F-IY1-M-EY2-L 394
K-R-AO1-S 394
S-AY2-D 394
M-EY1-L 393
P-AE2-@@ 393
P-L-EY1-S-T 393
P-R-EH1-Z-AH0-N-T 393
S-EH1-K-SH-AH0-N 393
-UW2 392
K-AH1-L-ER0 392
L-AO1-NG-G-ER0 392
N-D-ER0-Z 392
D-IH2-@@ 391
HH-W-AY1 391
N-AA1-V-AH0-L 391
Z-AH0-M 391
B-OY1-Z 390
D-IH0-V-IH1-ZH-AH0-N 390
L-IY1-V 390
M-IH1-L-AH0-T-EH2-R-IY0 390
P-L-AE1-N-T 390
T-AH0-L-Z 390
Z-IH1-@@ 390
AA1-P-ER0-EY2-T-AH0-D 389
S-IH1-V-AH0-L 389
T-EH0-K-N-AA1-L-AH0-JH-IY0 389
T-IH0-V-L-IY0 389
D-IH0-Z 387
JH-IH0-@@ 387
L-Y@@ 387
W-EH1-L-@@ 387
T-R-AY1-@@ 386
-OW0-@@ 385
B-IH0-L-IY1-V 385
F-AY1-ER0 385
IH0-V-EH1-N-T-S 385
K-AH0-M-ER1-SH-AH0-L 385
K-L-OW1-Z 385
N-IY0-Z 385
S-T-ER0-@@ 385
OW2-Z 384
D-EY2 383
SH-AH0-N@@ 383
-EH2-R-IY0 382
S-IY0-@@ 382
S-T-AE1-N-D 382
T-AY2-M 382
T-R-AE0-N-@@ 382
F-AO1-R-TH 381
OY1-L 381
R-AY1-D-IH0-NG 381
IH0-N-K-L-UW1-D-AH0-D 380
N-S-AH0-@@ 380
S-P-AO1-R-T-S 380
S-T-AH1-@@ 380
T-R-UW1 380
IH1-N-D-IY0-AH0-N 379
IH2-N-@@ 379
W-AY1-D 379
JH-AH0-Z 378
K-R-IY1-@@ 378
M-AH0-L 378
N-ER1-@@ 378
R-AA1-B-ER0-T 378
S-T-EY1-SH-AH0-N-Z 378
F-EH1-L-T 377
JH-ER1-M-AH0-N-IY0 377
S-T-AA1-R-Z 377
S-T-AH1-D-IY0 377
SH-AO1-R-T-L-IY0 377
B-R-UW1-@@ 376
K-AY1-N-D 376
B-L-IY0 375
K-AH0-M-P-L-IY1-T 375
N-CH 375
S-T-R-AH1-K-CH-ER0 375
T-EY1-K-IH0-NG 375
P-AH0-L 374
S-N-OW1 374
S-T-R-AE1-@@ 374
-IH0-N 373
B-AH1-S 373
B-EY1-B-IY0 373
V-IY0 373
HH-IY1-Z 372
K-SH-AH0-N-Z 372
M-AH0-K-@@ 372
T-R-IY1 372
T-R-IY1-@@ 372
W-AY1-D-L-IY0 372
W-UH2-D 372
B-AW1-@@ 371
B-R-AY1-@@ 371
CH-IY1-F 371
F-R-EY1-@@ 371
P-R-OW1-G-R-AE2-M-Z 371
B-IH1-L 370
F-IH1-SH 370
HH-AA1-T 370
HH-Y-UW1-M-AH0-N 370
K-EY1-SH-AH0-N 370
SH-AH0 370
D-EY1-V-IH0-D 369
P-AA2-@@ 369
S-T-AE1-N-D-ER0-D 369
TH-R@@ 369
F-L-AO1-R 368
IH0-N-AH1-F 368
L-IY1-D 368
R-IH1-CH-ER0-D 368
D-AE1-N-S 367
L-EH1-K-@@ 367
M-AA2-@@ 367
S-T-IY0 367
EH1-V-R-IY0-TH-IH2-NG 366
G-R-EH1-@@ 366
L-AY2-@@ 366
P-AH0-L-IH1-T-AH0-K-AH0-L 366
AE1-N-AH0-@@ 365
AY1-S 365
IH0-V-EH1-N-T 365
L-AY1-N-Z 365
N-AH1-@@ 365
N-EY1-SH-AH0-N 365
Y-AA1-@@ 365
B-IH1-L-IH0-T-IY0 364
L-AY1-V 364
N-AH0-L-Z 364
N-EH1-T-W-ER2-K 364
P-R-AA1-B-L-AH0-M-Z 364
S-ER1-T-AH0-N 364
S-IH1-CH-UW0-EY2-T-IH0-D 364
T-EH1-S-T 364
K-L-EH1-@@ 363
L-AH0-T-IY0 363
M-P 363
HH-OW1-L-D-Z 362
L-EY1-D-IY0 362
S-T-OW1-N 362
W-EY1-T 362
AE1-K-T 361
F-Y-UW1-@@ 361
K-AH0-N-Z 361
K-OW1-L-D 361
HH-EH1-L-TH 360
K-OW1-S-T 360
L-T-AH0-N 360
R-AE1-N 360
S-T-AO1-R 360
T-ER1-N 360
-IY2 359
AH1-N-D-ER0-@@ 359
M-AY1-K-AH0-L 359
IH0-N-T-AY1-ER0 358
K-T-IH0-V 358
M-AA1-R-K 358
JH-EY1-@@ 357
K-AH0-M-P-Y-UW1-T-ER0 357
T-AA0-@@ 357
T-EH1-K-S-AH0-S 357
-IH0-K 356
M-AH0-SH-IY1-N 356
Z-AH0-N-@@ 356
JH-OW1-@@ 355
P-R-IY1-@@ 355
R-IY1-S-AH0-N-T 355
P-L-AH0-@@ 354
P-R-AH0-V-AY1-D-IH0-D 354
HH-AE1-T 353
K-R-EY1-@@ 353
P-R-AA1-B-L-AH0-M 353
Z-EY1-SH-AH0-N 353
-EY2-T-ER0 352
D-IH0-P-AA1-R-T-M-AH0-N-T 352
DH-EH1-R-Z 352
P-AO1-R-T 352
B-AE1-N-D-Z 351
SH-R@@ 351
-IH1-@@ 350
AH0-L-AW1-D 350
B-IY0-G-AE1-N 350
B-R-AH1-DH-ER0-Z 350
K-OW1-D 350
M-IH0-K 350
M-Y-UW1-@@ 350
P-AH0-L@@ 350
-ER0-AE1-@@ 349
B-AA0-@@ 349
B-AH0 349
F-AO1-R-S-IH0-Z 349
JH-IY0 349
L-EY1 349
N-AH0-N 349
S-T-AA1-R 349
-UH1-@@ 348
AH2-N-D-ER0-@@ 348
K-T-IH0-NG 348
M-AE1-G-AH0-Z-IY2-N 348
T-AA1-M-AH0-S 348
Y-UW1-Z-IH0-Z 348
G-AO1-N 347
M-AW1-@@ 347
P-IH1-K-CH-ER0 347
SH-AH0-S 347
-AE2-N-D 346
ER1-TH 346
G-R-EY1 346
T-AO1-K 346
TH-IY1-@@ 346
-OW2-@@ 345
AH0-F-EH1-@@ 345
IH0-M-IY1-D-IY0-AH0-T-L-IY0 345
NG-T-AH0-N 345
P-R-IY1-V-IY0-AH0-S-L-IY0 345
R-IH0-T-ER1-N 345
T-AY1-P-S 345
AO0-L-R-EH1-D-IY0 344
D-AO1-G-Z 344
EY2-T 344
HH-AY1-ER0 344
M-AE1-T-ER0 344
N-S-IH0-@@ 344
P-OW1-S-T 344
S-T-AA1-R-T-AH0-D 344
SH-IH1-P 344
Z-AH0 344
-OW0 343
EH1-S 343
K-Y-UW1-@@ 343
N-S-T 343
R-EH1-G-Y-AH0-L-ER0 343
V-ER0-AY1-AH0-T-IY0 343
D-EY1-T-AH0 342
D-R-IH1-@@ 342
F-AY1-N 342
L-IY1-D-ER0 342
P-OY1-N-T-S 342
V-AH0-N-@@ 342
CH-AY0-N-IY1-Z 341
D-AA1-R-@@ 341
IH0-N-IH1-SH-AH0-L-IY0 341
B-AA1-R 340
F-AO0-R-@@ 340
M-IY1-N-IH0-NG 340
M-Y-UW1-Z-IY0-AH0-M 340
N-TH@@ 340
S-P-IY1-K 340
TH-IY0 340
V-AH0-L@@ 340
F-IY1-L 339
K-R-IY1-K 339
M-IH1-N-AH0-@@ 339
N-AH0-M 339
P-R-AH0-D-AH1-K-SH-AH0-N 339
R-AW1-@@ 339
F-Y-UW1-CH-ER0 338
M-OW1-M-AH0-N-T 338
P-IH1-NG-K 338
R-IH0-L-EY1-T-IH0-D 338
T-ER1-M-Z 338
HH-EH1-V-IY0 337
OW1-P-AH0-N-D 337
T-EY2-@@ 337
TH-IH1-R-IY0 337
AY0-@@ 336
D-IH0-F-EH1-@@ 336
K-AE1-S-AH0-L 336
M-AE1-CH 336
N-AH0-S-T 336
P-R-IH1-N-S-AH0-P-AH0-L 336
S-K-IY0 336
D-R-AE1-@@ 335
K-EH1-R-AH0-@@ 335
L-IH0-N 335
S-K-AE1-@@ 335
T-AW2-N 335
AH0-K-AE1-D-AH0-M-IY0 334
B-AE1-K-@@ 334
B-AO1-R-D-ER0 334
HH-IH0-@@ 334
N-JH 334
R-EH1-S-T 334
-AO2-R-@@ 333
K-Y-AH0-@@ 333
M-IH1-K-S-T 333
N-Y-UW1-Z 333
P-R-AH0-V-AY1-D 333
W-IH1-L-@@ 333
HH-AO1-R-S 332
K-AH0-N-T-IH1-N-Y-UW0-Z 332
P-UW1-R 332
R-IY0-S-ER1-CH 332
R-OW1-M-AH0-N 332
D-EY1-T 331
ER0-D 331
F-AY1-R 331
K-AH0-M-@@ 331
N-AH1-M-B-ER0-Z 331
N-EY1-CH-ER0 331
Y-AH1-NG-G-ER0 331
Z-AH0-Z 331
D-ER0-EH1-K-T-ER0 330
S-EH0-@@ 330
G-AA1-D 329
G-UW1-@@ 329
JH-ER1-@@ 329
L-D-@@ 329
R-AH0-S 329
S-EH1-L 329
F-EY1-L-D 328
HH-OW1-L-D 328
S-UW2-P-ER0-@@ 328
T-R-IY1-Z 328
IH1-N-D-IY0-AH0 327
D-R-EH1-S-T 326
K-AE1-TH-L-IH0-K 326
M-AH1-L-T-AH0-P-AH0-L 326
S-IY1-M-Z 326
V-IH1-L-AH0-JH 326
AY1-L-AH0-N-D-Z 325
HH-AA1-S-P-IH2-T-AH0-L 325
HH-IH0-S-T-AO1-R-IH0-K 325
L-F 325
SH-AA1-@@ 325
W-IH1-N-T-ER0 325
-AY2 324
B-AE1-NG-K 324
D-IH0-V-AY1-D-AH0-D 324
F-AH0-K-EY1-SH-AH0-N 324
G-AH1-V-ER0-N-ER0 324
K-AH0-N-EY1-D-IY0-AH0-N 324
N-OW1-T-AH0-B-AH0-L 324
P-R-AA1-S-EH2-S 324
K-AH0-S 323
K-T@@ 323
P-AO1-@@ 323
-AH0-N-S-IY0 322
L-AH0-JH-IY0 322
P-R-EH1-S 322
R-IY1-JH-AH0-N-AH0-L 322
S-IH1-M-P-AH0-L 322
K-AA0-R-@@ 321
L-AA1-R-JH-ER0 321
L-AY2-N 321
M-EH1-TH-AH0-D 321
T-OW0-@@ 321
V-Y-UW1 321
-AA2-N 320
-AH1-@@ 320
D-EH1-D 320
EH1-JH-AH0-K-EY2-T-AH0-D 320
L-UH1-K-S 320
M-AH0-T-IH1-R-IY0-AH0-L 320
SH-OW1-N 320
-AW1 319
AH0-P-IH1-R 319
AO1-F-ER0-Z 319
D-W@@ 319
F-IH1-SH-IH0-NG 319
K-EH1-R 319
M-EH1-T-AH0-L 319
S-AY1-N 319
S-P-AE1-@@ 319
T-IH1-P-IH0-K-L-IY0 319
AA1-R-T-S 318
B-AE2-@@ 318
B-D 318
F-AA1-R-@@ 318
G-AA1-R-D-AH0-N 318
IH0-K-S-P-IH1-R-IY0-AH0-N-S 318
IH0-L-EH1-K-SH-AH0-N 318
M-AY2-@@ 318
S-M-AO1-L-ER0 318
SH-AA1-T 318
AH0-S-EH1-@@ 317
D-AH0-L@@ 317
HH-OW1-P 317
JH-AH0-P-AE1-N 317
M-EY1-ER0 317
M-UW1-V 317
Z-AH0-L 317
AH0-T-AE1-K 316
AO1-N-L-AY2-N 316
B-IH1-T 316
D-IH0-G-R-IY1 316
HH-IH0-S-T-AO1-R-IH0-K-AH0-L 316
HH-Y-UW1-@@ 316
N-SH@@ 316
S-T-AH1-D-IY0-Z 316
-AA0-N 315
-UW0@@ 315
AE1-M 315
F-L-EH1-@@ 315
K-AH0-M-P-OW1-Z-D 315
S-ER1-CH 315
S-P-AE1-N-IH0-SH 315
-AH0-L-Z 314
B-IY0-T-W-IY1-N 314
G-R-AE2-@@ 314
HH-AE1-P-IY0 314
L-AE1-T-AH0-N 314
M-AH0-N-D 314
N-D-IY0 314
S-T-UW1-D-AH0-N-T 314
T-AO1-K-IH0-NG 314
AH2-N-@@ 313
AO1-TH-ER0 313
B-EY1-S-B-AO1-L 313
N-IH1-R-L-IY0 313
R-AE1-DH-ER0 313
T-S-@@ 313
B-AE1-K-G-R-AW2-N-D 312
D-AO1-T-ER0-Z 312
K-AA1-M-P-L-EH0-K-S 312
L-AE2-N-D 312
M-EH1-N-T-AH0-L 312
N-T-R@@ 312
S-AA0-@@ 312
S-K-AA1-@@ 312
Z-AE1-@@ 312
G-R-AE1-S 311
K-L-IH1-R 311
L-IY1-V-Z 311
M-P-S 311
M-UW1-@@ 311
P-L-EY1-N 311
R-IH1-L-IY0 311
S-ER0-V-AY1-V-D 311
T-UH1-R 311
EY1-SH-AH0-N-Z 310
K-AH1-L-CH-ER0 310
B-AH0-N@@ 309
CH-EH1-R 309
F-AY2 309
K-AH0-L-EH1-K-SH-AH0-N 309
L-T-S 309
M-AE1-T-IH0-K 309
S-AH0-N-@@ 309
-OW1-@@ 308
K-AE1-M-P-AH0-S 308
P-R-AA1-P-ER0-T-IY0 308
R-IH0-F-ER1-D 308
R-L-IY0 308
SH-AH1-@@ 308
D-AO1-R-@@ 307
F-AY1-N-AH0-L-IY0 307
P-R-AA1-V-AH0-N-S 307
P-R-IY1-V-IY0-AH0-S 307
T-R-EY1-D 307
-IY0-AH0-@@ 306
AO1-F-ER0-D 306
AO1-R-AH0-JH-AH0-N 306
B-AH0-L@@ 306
F-EH1-L-OW0 306
F-IH1-N-IH0-SH-T 306
HH-IH1-T 306
IH0-G-Z-IH1-S-T 306
IH2-N-T-R-AH0-D-UW1-S-T 306
K-EY1 306
NG-L-IY0 306
P-ER0-Z 306
R-EH1-S-T-R-AA2-N-T 306
F-IH2-@@ 305
K-AA2-M-P-AH0-T-IH1-SH-AH0-N 305
L-IY0-Z 305
R-IY1-D 305
S-IY0-Z 305
AA2-P-ER0-EY1-SH-AH0-N 304
F-R-IY1-K-W-AH0-N-T-L-IY0 304
G-L-AE1-@@ 304
IH1-SH-UW0 304
M-IH1-D-@@ 304
M-UW1-V-IY0-Z 304
P-ER0-T-IH1-K-Y-AH0-L-ER0-L-IY0 304
B-R-AH1-@@ 303
M-AH0-JH-AO1-R-AH0-T-IY0 303
M-AH0-T 303
R-AH0-K-AO1-R-D-AH0-D 303
S-T-AO1-@@ 303
CH-AY1-N-AH0 302
D-IY1-P 302
K-AH0-M-IH1-T-IY0 302
S-AY1-N-D 302
V-IH0-L 302
B-OW1-T 301
JH-UW1-IH0-SH 301
P-OY1-@@ 301
W-AH0 301
IH0-T-AE1-L-Y-AH0-N 300
L-D-Z 300
N-AA1-N-@@ 300
T-W-IH1-@@ 300
F-IH1-SH@@ 299
L-AA0-@@ 299
P-R-OW1-@@ 299
R-EH1-Z-IH0-D-AH0-N-T-S 299
R-EY1-N 299
S-T-AA1-R-@@ 299
W-AO1-K 299
W-IY1-K-S 299
Y-AE1-@@ 299
K-L-OW1-S 298
K-OW2-@@ 298
L-Y-AH0-N 298
R-IH0-K-AO1-R-D-IH0-D 298
R-UW1-T 298
F-EH1-S-T-AH0-V-AH0-L 297
N-L-IY0 297
R-EH1-K-ER0-D-Z 297
F-AY1-T 296
K-AH1-L-ER0-Z 296
V-L@@ 296
-AA1 295
-AW2-@@ 295
-UH2-@@ 295
D-IH1-F-AH0-K-AH0-L-T 295
G-R-IY1-K 295
IY1-T 295
M-EH1-R-IH0-JH 295
M-Y-UW2-N-IH0-S-AH0-P-AE1-L-AH0-T-IY0 295
F-L-AH1-@@ 294
L-AA1-R-JH-L-IY0 294
L-IH0-S-T 294
S-K-AH0-@@ 294
SH-AH0-L 294
AH0-F-EH1-K-T 293
EY1-ZH-AH0-N 293
IH0-K-S-EH1-P-T 293
P-ER0-T-IH1-K-Y-AH0-L-ER0 293
SH-OW1-@@ 293
B-EH1-L 292
B-R-AA1-@@ 292
EH1-N-ER0-JH-IY0 292
K-AH0-M-P-L-IY1-T-L-IY0 292
L-T-IY0 292
M-AW1-TH 292
M-B-R@@ 292
P-R-AA1-D-AH0-K-T 292
S-T-R-EY1-@@ 292
Z-ER0-Z 292
AH0-B-@@ 291
AH0-P-R-OW1-CH 291
EH1-R-AH0-@@ 291
K-OW1-CH 291
K-UH1-@@ 291
N-S-AH0-N 291
NG-IH0-NG 291
P-IY1-T-ER0 291
S-T-AA1-R-T-IH0-D 291
SH-ER0 291
F-L-AO1-@@ 290
G-ER0-@@ 290
IH2-N-D-AH0-V-IH1-JH-AH0-W-AH0-L 290
IY1-DH-ER0 290
K-IH1-NG-D-AH0-M 290
L-AE1-NG-G-W-IH0-JH-IH0-Z 290
L-UW1-IH0-S 290
S-AH1-B-JH-IH0-K-T 290
S-K-S 290
AA2-P-ER0-EY1-SH-AH0-N-Z 289
K-SH@@ 289
L-IY1-D-IH0-NG 289
N-T-AH0-N 289
P-EH1-R-IH0-SH 289
S-T-AO1-R-IY0-Z 289
HH-AY2-@@ 288
R-IY1-L-IY0 288
Y-AH0-@@ 288
-IY0-AH0-L 287
B-L-AH1-D 287
EH1-L-AH0-M-AH0-N-T-S 287
F-EH1-L 287
K-R-AW1-D 287
P-AA2-R-@@ 287
S-AH0-L-Z 287
S-IH1-T-S 287
T-EH1-L-AH0-@@ 287
T-R-AY1-D 287
G-AY1-@@ 286
L-AE1-S 286
M-AW1-N-T-AH0-N-Z 286
M-AY0-@@ 286
P-L-AE1-N 286
-IY0-AH0-S 285
AE1-N-Y-UW0-AH0-L 285
AE1-S-T 285
D-IH0-V-AY1-@@ 285
G-R-AE1-N-D 285
HH-EH1-L-P-T 285
L-D-ER0 285
L-IY1-G-AH0-L 285
N-IH0-NG-Z 285
N-OW1-T 285
N-S-ER0 285
S-T-OW2-N 285
-ER0-AH0-T 284
EH1-L-AH0-@@ 284
IH1-N-T-ER0-N-EH2-T 284
L-EH1-T-ER0 284
P-L-EH1-@@ 284
S-AY1-Z 284
-AE2-K 283
AA1-P-ER0-EY2-T-S 283
AA1-R-M-Z 283
IH1-SH-UW0-Z 283
JH-ER0-Z 283
R-AO1-@@ 283
R-OW1-D-Z 283
AH0-W-AO1-R-D-Z 282
F-R-IH1-@@ 282
P-ER1-S-IH0-N-IH0-L 282
R-IY0-AH0-S 282
S-ER1-V 282
S-T-EY1-D-IY0-AH0-M 282
T-EH1-K-@@ 282
-UH0-@@ 281
D-R-AY1-V 281
F-L-IH1-@@ 281
K-AH0-N-T-IH1-N-Y-UW0 281
K-AH0-T-S 281
K-R-IH1-T-IH0-K-S 281
M-AE1-S-T-ER0 281
S-AA1-K-ER0 281
S-K-IH1-@@ 281
AH0-S-OW2-S-IY0-EY1-SH-AH0-N 280
D-R-EH1-@@ 280
L-ER1-N-IH0-NG 280
M-AY1-N-ER0 280
N-D-AH0-L 280
P-AA1-Z-AH0-T-IH0-V 280
R-EY1-T 280
R-IH0-K 280
S-AH0-T-IY0 280
SH-UW1-@@ 280
V-ER0-JH-IH1-N-Y-AH0 280
-AO1-R 279
B-AY1-K 279
B-OY1-@@ 279
B-R-IY1-@@ 279
F-R-AE1-@@ 279
IH0-M-P@@ 279
L-AH0-M 279
P-L-AE1-N-T-S 279
R-IY0-ER0 279
S-AH0-N-T 279
S-T-R-EH1-@@ 279
T-R-AY1 279
F-AE1-K-T 278
HH-AH0-@@ 278
HH-EH1-N-R-IY0 278
IH0-N-T-AY1-ER0-L-IY0 278
K-AH1-T 278
K-T-ER0-Z 278
M-IH1-N-AH0-S-T-ER0 278
P-R-AA2-@@ 278
S-T-IY1-L 278
S-UW0-@@ 278
T-AE1-K-@@ 278
W-AH1-@@ 278
-ER1 277
IY2-@@ 277
M-EH1-R-AH0-@@ 277
N-UW1-Z-P-EY2-P-ER0 277
S-UW1-T 277
T-EY1-SH-AH0-N-Z 277
T-IH0-K-S 277
-ER0-AA1-@@ 276
AH0-M-EH1-R-IH0-K-AH0 276
B-EH1-L-@@ 276
CH-UW0-@@ 276
IH1-N-F-L-UW0-AH0-N-S 276
K-AH1-M-IH0-NG 276
K-EH1-P-T 276
P-AH0-L-IH1-T-IH0-K-AH0-L 276
R-AA0-@@ 276
R-IH0-Z-AH1-L-T-S 276
T-R-EY1-N-Z 276
Y-UW1-TH 276
AH0-P-IH1-R-AH0-N-S 275
B-EH2-R-IY0 275
B-ER0 275
B-L-EY1-@@ 275
HH-OW0-T-EH1-L 275
L-AH0-S-T 275
L-AY1 275
M-AA1-R-K-T 275
P-R-UW1-@@ 275
S-T-ER1-@@ 275
K-AE1-P-T-AH0-N 274
K-AH1-L-CH-ER0-AH0-L 274
K-EH1-R-IY0-D 274
L-EY1-B-ER0 274
R-AH1-SH-AH0-N 274
R-IY0-Z 274
S-EH1-P-@@ 274
S-ER1-V@@ 274
T-AO1-R-@@ 274
W-IH1-SH 274
-AW1-N-D 273
AH0-N-N-OW1-N 273
HH-ER0-S-EH1-L-F 273
K-W-EH1-@@ 273
OW1-P@@ 273
P-L-AE1-T-F-AO2-R-M 273
S-EH1-N-CH-ER0-IY0 273
S-ER1-F-AH0-S 273
W-EY2-Z 273
AH1-P-ER0 272
M-P-AH0-@@ 272
P-R-AA1-M-AH0-N-AH0-N-T 272
SH-IH1-P-S 272
W-AE1-@@ 272
B-AE1-D 271
N-AO1-@@ 271
S-IY1-M-D 271
AA1-R-T-IH0-S-T-S 270
AE0-D-@@ 270
B-IH1-L-D 270
IH0-N-S-AY1-D 270
K-AH0-M-AE1-N-D 270
K-L-EY1-M-D 270
L-AE1-N-D-@@ 270
M-AE1-N-IH0-JH-D 270
M-AY2-S-EH1-L-F 270
B-AH0-T 269
CH-AA1-R-JH 269
N-OW1-T-IH0-D 269
R-AY1-T-ER0 269
S-T-UH1-D 269
D-EY1-L-IY0 268
D-IH0-K 268
HH-EH1-R-IY0 268
IH0-K-AA1-N-AH0-M-IY0 268
IH0-S-T-EY1-T 268
IY1 268
JH-AA1-B 268
JH-AH1-M-P-IH0-NG 268
L-AE2-@@ 268
T-AH0-N-T 268
T-EH1-K-S-T 268
W-ER1-K-ER0-Z 268
Y-UW0-N-AY1-T-AH0-D 268
Z-IY1-@@ 268
AA0-R-@@ 267
AE1-L-AH0-S 267
AE1-N-S-ER0 267
CH-EY1-N-JH-IH0-Z 267
EH2-K-@@ 267
ER1-L-IY0-ER0 267
G-R-EY1-T-ER0 267
S-K-EH1-@@ 267
S-P-AA1-@@ 267
T-AH0-N-@@ 267
T-R-AA1-@@ 267
D-IH1-S-T-AH0-N-S 266
HH-EH1-L-@@ 266
L-AY1-K-L-IY0 266
M-IH1-S 266
N-T-IY0 266
OW0@@ 266
P-R-EH2-@@ 266
R-EH1-K-ER0-D 266
R-IY1-D-IH0-NG 266
T-AO1-T 266
V-OY1-@@ 266
V-R@@ 266
-IH2-Z-AH0-M 265
AE1-N-AH0-M-AH0-L-Z 265
F-AO1-R-T 265
G-AH1-V-ER0-@@ 265
M-B-ER0-@@ 265
M-EH1-N-T 265
S-IH1-M-P-L-IY0 265
S-L-OW1-@@ 265
SH-AH0-K-AA1-G-OW2 265
-EY2-N 264
AH0-K-ER1 264
B-AE1-S-K-AH0-T-B-AO2-L 264
B-ER1-D 264
B-R-AY1-T 264
D-Y-UW1 264
HH-EH2-@@ 264
L-AA1-R-@@ 264
M-P-L@@ 264
M-R@@ 264
P-AA1-R-T-IY0-Z 264
S-M-IH1-TH 264
S-P-IY1-CH 264
S-T-R-IH1-@@ 264
-AY1-@@ 263
D-R-EH1-S 263
EH1-V-AH0-D-AH0-N-S 263
F-AO1-L-Z 263
G-IH1-V-Z 263
K-AH0-N-T-EH1-@@ 263
K-AH2-@@ 263
K-IH0-T 263
L-IY1 263
P-AA1-L-AH0-T-IH2-K-S 263
P-L-AH1-@@ 263
P-R-AE1-K-T-AH0-S 263
P-R-AH0-F-EH1-S-ER0 263
R-EH1-R 263
AE0-K-T-IH1-V-IH0-T-IY0-Z 262
EH1-P-AH0-S-OW2-D 262
IH0-M-@@ 262
N-EY1-SH-AH0-N-Z 262
S-T-UW1-D-IY0-OW2 262
W-OW1-N-T 262
AW1-ER0-Z 261
D-ER1-@@ 261
IH1-NG-L-IH0-SH 261
IY1-Z-IY0 261
K-R-IH1-S-M-AH0-S 261
P-AA1-L-AH0-S-IY0 261
V-EH2-@@ 261
V-ER1-ZH-AH0-N-Z 261
D-IY1 260
G-IH1-V-AH0-N 260
HH-AW1-@@ 260
HH-AY1-W-EY2 260
K-W-IY1-N 260
N-S-AH0-Z 260
R-EY1-L-R-OW2-D 260
S-IH1-T 260
SH-IH0-@@ 260
EH1-M 259
F-AW0-N-D-EY1-SH-AH0-N 259
HH-AE1-P-AH0-N-D 259
IH0-K 259
L-EH1-T-S 259
P-R-AH0-D-UW1-S 259
P-UW1-L 259
R-IY1-CH-T 259
S-P-IY1-D 259
T-W-AY1-S 259
Y-UH1-@@ 259
AO0-@@ 258
D-AH1-Z-AH0-N 258
F-AE2-@@ 258
G-OW1-Z 258
M-AW1-N-T 258
S-T-AE1-F 258
S-T-AH0 258
Z-UW1-@@ 258
F-AO2-R-@@ 257
IH0-S 257
L-OW1-K-EY2-D 257
P-EH2-@@ 257
P-ER0-F-AO1-R-M-IH0-NG 257
R-AH1-DH-ER0 257
S-K-EH1-JH-UW0-L 257
W-IH1-N-D-OW0-Z 257
AA0-N-T-EH1-R-IY0-OW0 256
AA1-N-ER0 256
D-OW0-@@ 256
DH-ER0-@@ 256
G-OW0 256
HH-AH1-Z-B-AH0-N-D 256
IH0-G-Z-AE1-M-P-AH0-L-Z 256
M-AH1-N-TH 256
M-B-AH0-L 256
P-AA0-@@ 256
S-T-R-IY0 256
-IY2@@ 255
AE1-D-IH0-D 255
B-IH0-L-IY1-V-D 255
D-IY0-Z 255
G-D 255
K-AE1-M-P 255
K-AH0-L-EH1-K-@@ 255
M-AA1-N-AH0-@@ 255
M-IY0-@@ 255
N-AH0-L-IY0 255
NG-G-AH0-L 255
R-IY0@@ 255
S-ER0-Z 255
S-T-R-AY1-@@ 255
T-R-AE1-F-IH0-K 255
-AH0-N-S-IH0-Z 254
-EH2-R@@ 254
-IH0-S-T 254
AE1-F-T-ER0-W-ER0-D-Z 254
AO2-R-G-AH0-N-AH0-Z-EY1-SH-AH0-N 254
B-OW0-@@ 254
B-Y-UW1-T-AH0-F-AH0-L 254
CH-AA1-R-L-Z 254
ER0@@ 254
EY1-N-SH-AH0-N-T 254
K-AH0-N-D-IH1-SH-AH0-N-Z 254
K-IY0-@@ 254
K-R-IH1-T-IH0-K-AH0-L 254
R-ER0 254
S-AH0-S-P-EH1-@@ 254
S-W-IY1-@@ 254
SH-AA1-P-IH0-NG 254
SH-AA1-R-@@ 254
T-R-EY1-L 254
V-EY1-SH-AH0-N 254
AE1-L-AH0-N 253
AO1-F-ER0 253
AW1-R 253
B-IH1-L-AH0-T-IY0 253
CH-IH0-@@ 253
F-AA1-L-OW0 253
F-AO1-R-S-T 253
G-R-OW1-IH0-NG 253
HH-OW1-M-@@ 253
IH0-L-EH1-K-T-IH0-D 253
K-AH0-N-S-IH1-@@ 253
L-AO1-R-D 253
L-AY2-Z-D 253
P-R-AY1-Z 253
B-ER1-D-Z 252
DH-AH0-M-S-EH1-L-V-Z 252
F-AO1-R-W-ER0-D 252
IH0-G-Z-EH1-K-Y-AH0-T-IH0-V 252
K-AA1-N-S-EH0-P-T 252
K-AH0-M-Y-UW1-N-IH0-T-IY0 252
K-W-AA1-L-AH0-T-IY0 252
L-OW1-N 252
M-AH0-S 252
NG-K-T 252
P-AW1-@@ 252
S-AH1-F-ER0-D 252
S-IH1-NG-ER0 252
S-M-AH0-N-T 252
W-IH1-N-D-OW0 252
AE1-N-JH-AH0-L-IH0-S 251
F-L-OW1-Z 251
G-IH0-@@ 251
K-AE1-T-AH0-@@ 251
K-EY1-S-IH0-Z 251
N-D-AH0-N-T 251
N-OW1-Z 251
OW1-SH-AH0-N 251
R-IY1-S-ER0-CH 251
S-AO1-R-T 251
S-EH1-L-F-@@ 251
T-AW1-ER0 251
W-EY1-Z 251
AE1-K-T-ER0 250
B-EH2-@@ 250
G-L-AE1-S 250
JH-IY1-N 250
L-AA1-T 250
L-IH1-T-ER0-AH0-CH-ER0 250
N-T-ER0 250
S-EH1-T-AH0-L-M-AH0-N-T 250
S-K-W-EH1-R 250
TH-R-EH1-@@ 250
-AY2@@ 249
F-OW1-N 249
F-R-AY1-@@ 249
JH-ER1-Z-IY0 249
L-IY1-V-IH0-NG 249
L-UW0-@@ 249
M-L-IY0 249
N-IH0-K-S 249
R-IH0-P-AO1-R-T-AH0-D 249
S-AW2-TH-IY1-S-T 249
-UW2-M 248
D-AH0-N@@ 248
HH-W-AH1-T-S 248
JH-EY1 248
K-AH1-P 248
K-R-EH1-@@ 248
P-OW2-@@ 248
R-IY1-Z-AH0-N 248
S-AO1-R-@@ 248
S-IH1-NG-IH0-NG 248
D-R-AY1 247
M-OW1-S-T-L-IY0 247
N-T-AH0-L 247
P-AH0-L-Z 247
P-IY0-@@ 247
R-OW1-Z 247
-AO2-R 246
-EH2-R-AH0-@@ 246
AH0-S-OW1-S-IY0-EY2-T-AH0-D 246
B-AA1-K-S 246
B-EH1-R 246
D-IY1-L 246
HH-UW1-@@ 246
IH1-N-S-T-AH0-T-UW2-T 246
K-OW1-T 246
L-EH1-V-AH0-L-Z 246
M-EH2-T-R-AH0-P-AA1-L-AH0-T-AH0-N 246
P-ER0-HH-AE1-P-S 246
TH-R-IY1-@@ 246
AA1-R-T-AH0-S-T 245
AY1-R-IH0-SH 245
IH0-K-W-IH1-P-M-AH0-N-T 245
JH-UW1-N-Y-ER0 245
K-AE0-M-P-EY1-N 245
L-IH0-S 245
M-AH0-M-AO1-R-IY0-AH0-L 245
S-EH1-T-AH0-L-D 245
SH-AA1-P 245
B-AA2-@@ 244
F-AH1-NG-K-SH-AH0-N 244
F-IH1-N-IH0-SH 244
F-L-EY1-@@ 244
HH-AE1-N-D-Z 244
K-Y-AH0-L@@ 244
L-IH1-M-IH0-T-IH0-D 244
L-IH1-S-T-AH0-D 244
T-AA2-@@ 244
AO0-S-T-R-EY1-L-Y-AH0-N 243
AY1-ER0-L-AH0-N-D 243
L-EH0-@@ 243
M-EH0-@@ 243
M-OW1-S-L-IY0 243
P-EY1 243
P-UW1-@@ 243
S-L-IH1-@@ 243
S-M@@ 243
T-AW1-@@ 243
B-IH0-G-IH1-N-IH0-NG 242
D-IH0-S-K-AH1-V-ER0-D 242
IH1-N-T-R-AH0-S-T 242
K-EH1-R-AH0-K-T-ER0-Z 242
K-EY2-@@ 242
K-R-AO1-@@ 242
M-AA1-D-AH0-L-Z 242
N-IY1-D-IH0-D 242
P-Y-UW1-@@ 242
R-IH0-M-EH1-M-B-ER0 242
ZH-AH0-N-Z 242
-EY2-K 241
B-R-AE1-N-CH 241
D-IH1-D-AH0-N 241
K-AH1-V-ER0-Z 241
L-AE1-T-ER0 241
M-ER0@@ 241
P-ER0-D-AH1-K-SH-AH0-N 241
S-AO1-L-T 241
S-EH1-K-AH0-N-D-EH2-R-IY0 241
AY1-D 240
B-AE2-K 240
B-L-AA1-@@ 240
D-AH0-M 240
D-IH0-S-IH1-ZH-AH0-N 240
IH0-L-EH1-K-T-R-IH0-K 240
K-AH0-N-EH1-@@ 240
R-EH1-L-AH0-T-IH0-V-L-IY0 240
TH-IH1-@@ 240
B-ER2-@@ 239
N-SH-AH0-N 239
P-AH1-B-L-IH0-@@ 239
R-EH1-G-Y-AH0-L-ER0-L-IY0 239
R-IY0-L-EY1-SH-AH0-N-SH-IH2-P 239
S-AW1-@@ 239
S-P-OW1-K 239
V-AE1-L-Y-UW0 239
V-IH1-ZH-AH0-N 239
Z-L@@ 239
D-AW1-N-@@ 238
K-AH0-L-AH1-M-B-IY0-AH0 238
M-EH1-TH-AH0-D-Z 238
S-L-AE1-@@ 238
T-EH2-R-IY0 238
W-EH1-B-S-AY2-T 238
D-R-UW1 237
F-IY1-T 237
IY1-Z-AH0-L-IY0 237
K-AA1-R-Z 237
K-R-UW1 237
M-AA1-R-K-AH0-T 237
N-IH0-T 237
N-SH-AH0-L 237
SH-AO1-R-@@ 237
-AE1-K-@@ 236
-AO1 236
AA1-P-@@ 236
F-IH1-Z-IH0-K-AH0-L 236
HH-AY1-AH0-S-T 236
P-R-AH0-S-IY1-@@ 236
S-N-OW1-@@ 236
AE1-G-R-IH0-K-AH2-L-CH-ER0 235
AO1-R-AH0-N-JH 235
D-R-IH1-NG-K 235
JH-AH0-N@@ 235
L-AW1-@@ 235
L-OW2-@@ 235
M-AE1-N-AH0-@@ 235
P-SH-AH0-N 235
R-EH2-Z-ER0-V-EY1-SH-AH0-N 235
S-AE2-@@ 235
S-IH1-L-V-ER0 235
AH2-N-D-ER0-S-T-AE1-N-D 234
B-L-EH1-@@ 234
CH-AH0-@@ 234
D-IH0-F-EH1-N-S 234
IH0-N-D@@ 234
M-UW1-V-IH0-NG 234
N-AO1-R 234
N-EY1-V-IY0 234
NG-K-IY0 234
P-R-AY1-M 234
R-IY0-K-W-AY1-ER0-D 234
S-AH1-M-W-AH2-N 234
S-CH@@ 234
B-R-OW1-K-AH0-N 233
G-AY1 233
IH0-G-Z-AE1-@@ 233
K-AE1-L-@@ 233
OW1-L-D-AH0-S-T 233
S-IH0-K-Y-UH1-R-AH0-T-IY0 233
S-K-R-IY1-@@ 233
T-ER0@@ 233
Y-AH0-L-ER0 233
AH0-L-OW1-N 232
AH0-T-EH1-M-P-T 232
EH1-N-JH-AH0-N-IH1-R-IH0-NG 232
G-ER1-@@ 232
G-N@@ 232
N-IY1-D-Z 232
P-R-AA1-B-AH0-B-L-IY0 232
S-OW1-L 232
V-AH0-L-Z 232
-ER1-@@ 231
F-IH1-L-D 231
G-AH0-L 231
G-EY1-N-D 231
G-R-AE1-F-IH0-K 231
K-EY2-T 231
L-AO1-NG-@@ 231
N-AO1-R-M-AH0-L 231
P-EY1-N-T-IH0-NG 231
S-AY1-D-Z 231
S-ER0-AW1-N-D-IH0-NG 231
S-IY1-M 231
T-IY1-CH-ER0 231
W-AO1-R-D 231
G-AH1-V-ER0-N-M-AH0-N-T 230
K-R-EY1-T-ER0 230
K-R-IH1-S-CH-AH0-N 230
R-IY1-S-AH0-N-T-L-IY0 230
T-R-IY1-T-M-AH0-N-T 230
Y-OW1-@@ 230
-AA0-R-@@ 229
-AW1-T 229
AE1-L-B-AH0-M-Z 229
D-IH0-S-K-AH1-@@ 229
EH1-N-@@ 229
F-AY2-@@ 229
F-ER0-Z 229
F-R-EH1-N-D-Z 229
N-AA0-N-@@ 229
NG-G-@@ 229
OW0-HH-AY1-OW0 229
R-OW0-Z 229
S-AO1-R-S-AH0-Z 229
B-L-UW1-@@ 228
D-AH0-S-T 228
D-IH0-S-T-R-OY1-D 228
D-R-EY1-@@ 228
HH-AE1-N-D-@@ 228
IH0-N-D-AH1-S-T-R-IY0-AH0-L 228
JH-OW1-N-Z 228
N-T-ER0-@@ 228
R-EY1-L 228
S-W-IH1-M-IH0-NG 228
W-IH0-@@ 228
B-AE0-@@ 227
B-ER1-OW2 227
B-R-AW1-@@ 227
B-R-IH1-T-AH0-N 227
D-IH0-P-IH1-@@ 227
K-L-AE1-S-IH0-K-AH0-L 227
M-IY1-T-IH0-NG 227
P-OW0-@@ 227
R-UH1-R-AH0-L 227
T-R-UW1-@@ 227
Y-UW0-N-IY1-K 227
AE1-K-T-IH0-NG 226
CH-EH1-R-M-AH0-N 226
D-IY0-AH0-N 226
D-R-AA1-P-T 226
F-L-AW1-ER0-Z 226
F-R-UW1-T 226
K-AA1-Z 226
P-R-UW1-V-D 226
R-IH0-M-EY1-N 226
S-EH1-L-Z 226
-AH0-N-S-AH0-Z 225
B-EH0-@@ 225
B-IH1-SH-AH0-P 225
F-IH1-G-Y-ER0 225
G-EY2-T 225
HH-IH1-L-Z 225
K-AO1-R 225
K-L-AH1-@@ 225
M-EH1-N-SH-AH0-N-D 225
P-R-AY1-ER0 225
R-IH1-NG 225
S-W-AA1-@@ 225
AE0-M-@@ 224
AH0-G-OW1 224
B-IH0-K-AH1-M-Z 224
CH-ER0-@@ 224
D-EH1-D-AH0-K-EY0-T-AH0-D 224
F-AA1-R-M 224
G-IY0 224
HH-EH1-V-AH0-L-IY0 224
M-AH0-Z 224
NG@@ 224
P-AA1-R-K-S 224
P-ER0-F-AO1-R-M 224
S-AH0-L@@ 224
S-L-AY1-T-L-IY0 224
S-T-AE2-@@ 224
-EY1-SH-AH0-N-Z 223
D-AW1-@@ 223
EH0-K-S-T-R-IY1-M-L-IY0 223
JH-OW1 223
K-AH0-M-IH1-@@ 223
K-AO0-@@ 223
OW1-P-AH0-N-IH0-NG 223
P-R-AH0-V-AY1-D-AH0-D 223
S-IH1-L-@@ 223
-AY2-Z-IH0-NG 222
B-IY2-AO1-N-D 222
F-AO1-R-M-ER0-L-IY0 222
L-OY1-@@ 222
M-AA1-R-K-IH0-T 222
S-EH1-Z 222
SH-EY1-P 222
T-R-AY1-IH0-NG 222
-IH0-JH 221
F-IH1-L-@@ 221
G-EY1-SH-AH0-N 221
N-AA2-@@ 221
N-AO2-R-TH-W-EH1-S-T 221
S-AY1-D-W-AO2-K 221
S-T-AH0-N-T 221
T-M-AH0-N-T 221
T-UH1-R-N-AH0-M-AH0-N-T 221
W-EH2-R 221
AE2-N-AH0-@@ 220
CH-AH0-Z 220
HH-AA1-K-IY0 220
K-AH1-L-@@ 220
K-AO1-R-N-ER0 220
K-EY2-T-IH0-D 220
R-IY0-M-UW1-V-D 220
S-EH1-N-S 220
S-IH0-S 220
T-UW1-N 220
-EY1-M 219
AH0-P-OY1-N-T-IH0-D 219
F-AW1-@@ 219
K-IH1-D-Z 219
M-IH0-N 219
N-OW1-T-AH0-D 219
P-EH2-N-S-AH0-L-V-EY1-N-Y-AH0 219
S-T-R-EY1-T 219
V-ER0-IY0 219
W-IH1-T-@@ 219
AE2-L-@@ 218
AH0-N-L-AY1-K 218
D-AH0-N-T 218
D-R-AY1-V-IH0-NG 218
G-AO1-@@ 218
G-R-OW1-@@ 218
K-AA1-L-AH0-@@ 218
K-AH0-N-T-R-IH1-B-Y-UW0-T-IH0-D 218
M-Y-UW0-Z-IY1-AH0-M 218
R-OW1-L-Z 218
R-UW1-L 218
S-AY1-T-S 218
S-IH0-G-N-IH1-F-IH0-K-AH0-N-T 218
V-AE1-N 218
D-ER0-AY1-V-D 217
G-OW1-L 217
K-AH0-M-P@@ 217
L-EY1-B-AH0-L 217
N-TH 217
P-L-AE1-N-Z 217
R-AH0-N-@@ 217
R-IH0-L-IH1-JH-AH0-S 217
R-IY0-AH0-L 217
R-IY0-S-IY1-V-D 217
S-K-AA1-T-IH0-SH 217
S-P-AO1-R-T 217
B-ER0-T 216
K-AH0-M-Y-UW1-N-AH0-T-IY0-Z 216
N-ER0-D 216
P-AE1-S 216
P-EY1-D 216
S-P-L-IH1-T 216
T-R-AH1-S-T 216
-EH0-K-@@ 215
K-AE1-S-T 215
K-AH0-N-T-EY1-N 215
L-Z-@@ 215
M-AY1-K-R-AH0-@@ 215
M-EH1-K-S-AH0-K-OW2 215
P-AA1-R-L-AH0-M-AH0-N-T 215
P-R-AH0-T-EH1-@@ 215
R-EY1-S-IH0-NG 215
S-AH0-K-S-IY1-D-IH0-D 215
W-AA1-CH 215
AH0-B-Z-ER1-@@ 214
AH0-L-AW1 214
B-EY2-S-T 214
B-IH0-G-IH1-N-Z 214
B-R-AH0-@@ 214
B-R-EY1-K 214
D-AO2-R 214
P-R-AO1-S-EH2-S 214
S-AY2-Z-D 214
S-L@@ 214
V-ER1-S 214
-EH2-R 213
AH0-K-ER1-Z 213
B-IH0-K 213
D-AH0-N-S 213
D-IH0-T-EH1-@@ 213
DH-ER0 213
F-AA1-L-OW0-Z 213
IH1-T-AH0-L-IY0 213
K-AO2-R-@@ 213
L-EY1-D 213
N-AH1-N 213
N-W@@ 213
P-EY1-JH 213
R-AH0-N-S 213
T-R-IY0 213
W-UW1-@@ 213
-EY2-Z 212
AH0-T-EH1-N-SH-AH0-N 212
F-AO1-R-AH0-N 212
HH-W-AY1-T 212
JH-ER0-@@ 212
K-AE1-P-@@ 212
K-AH0-N-D-IH1-SH-AH0-N 212
K-AO2-@@ 212
K-R-IY0-EY1-T 212
M-AE1-N-ER0 212
M-OW1-SH-AH0-N 212
N-AO2-R-TH-IY1-S-T 212
N-Y-AH0 212
P-AE1-TH 212
R-IY1-AH0-@@ 212
S-T-AA1-P-T 212
SH-IY0 212
T-EH2-@@ 212
T-IH2-@@ 212
D-IH0-Z-AY1-@@ 211
F-AY2-N-AE1-N-SH-AH0-L 211
HH-ER0-@@ 211
K-L-AH1-B-Z 211
NG-G-ER0 211
S-T-AY1-@@ 211
TH-IY1-M 211
-IY0-AH0-N-Z 210
AE0-L-@@ 210
AH0-D-AA1-P-T-AH0-D 210
AH0-TH-AO1-R-AH0-T-IY0 210
EH1-L-S 210
ER1-B-AH0-N 210
ER1-N-D 210
G-AE1-S 210
JH-EH1-N-AH0-@@ 210
SH-AH0-N-D 210
TH-EH1-@@ 210
-AO1-R-@@ 209
F-IY1-L-D-Z 209
F-R-AE1-NG-K 209
F-R-EH1-N-Z 209
JH-AE1-K 209
JH-AE1-Z 209
K-AE1-M-ER0-AH0 209
K-AH0-L-IY0 209
L-IH1-R-IH0-K-S 209
L-R@@ 209
P-IH0-K 209
P-OW1-S-T-@@ 209
P-R-IH1-N-S 209
S-AH1-N-D-EY2 209
S-K-EY1-@@ 209
T-OW1-T-AH0-L 209
V-EY2-T-IH0-D 209
W-AO1-L-Z 209
B-AH0-L-D 208
F-L-AY1-T 208
G-AA0-@@ 208
G-R-UW1-@@ 208
JH-AA1-N-S-AH0-N 208
K-AE1-T 208
L-ER0-IY0 208
N-ER0-IY0 208
R-IY0-S-P-AA1-N-S-AH0-B-AH0-L 208
T-AE2-@@ 208
T-AO1-P 208
T-EH1-M-P-AH0-L 208
T-EY1-L 208
AE1-D-AH0-D 207
AH0-S 207
AO1-F-AH0-S-ER0 207
B-AY0-@@ 207
F-AO1-L 207
F-UH1-T 207
G-R-AW1-@@ 207
HH-OW1-L-@@ 207
K-AA1-N-T-R-AE2-K-T 207
M-EH1-M-ER0-IY0 207
P-AH0-S-IH1-F-IH0-K 207
R-IH1-V-ER0-Z 207
S-P-EY1-@@ 207
S-T-UW1-@@ 207
SH-AO1-R 207
T-OW2 207
W-AO1-L-@@ 207
-AO2-R@@ 206
AH1-NG-K-AH0-L 206
D-AY1 206
D-IH0-S-P-L-EY1 206
F-AH1-NG-K-SH-AH0-N-Z 206
G-R-OW1-TH 206
HH-OW1-S-T-S 206
M-IH1-N-IH0-@@ 206
N-AH0-B-AH0-L 206
N-EH1-T 206
N-S-IY0 206
P-R-AH0-D-UW1-S-ER0 206
P-R-AH0-P-OW1-Z-D 206
P-R-EH1-S-T 206
S-AH0-P-OW1-Z 206
T-AO1-R-D-Z 206
T-W-EH1-L-V 206
-AH0-N-D 205
EY1-ZH-AH0 205
IH1-N-F-L-UW0-AH0-N-S-T 205
K-AH0-N-K-L-UW1-@@ 205
K-R-AH1-@@ 205
K-R-AW1-@@ 205
K-W-AO1-R-@@ 205
M-EY1-SH-AH0-N 205
R-IY1-JH-AH0-N-Z 205
W-EY1-T-IH0-NG 205
Y-UW1-V 205
AE0-N-T-IH1-@@ 204
AE1-L-AH0-@@ 204
AE1-N-AH0-M-AH0-L 204
B-ER1-TH 204
EH1-N-D-IH0-D 204
F-AE1-S-T 204
F-AY1-T-IH0-NG 204
IH0-M-P-L-OY1-@@ 204
K-EH2-R-AH0-L-AY1-N-AH0 204
M-AH0-N-EY1-SH-AH0-N 204
P-AH0 204
R-AH0-F-ER1-D 204
R-IY2@@ 204
S-UW2-@@ 204
T-IY1-N 204
W-UH1-D-AH0-N-T 204
Z-AY1-@@ 204
-IY0-AA1-L-AH0-JH-IY0 203
AH0-K-AW1-N-T 203
AY1-DH-ER0 203
F-R-AH1-@@ 203
IH0-N-K-R-IY1-S-T 203
K-EH1-R-IY0-IH0-NG 203
M-AE2-S-AH0-CH-UW1-S-AH0-T-S 203
P-AO1-R-SH-AH0-N 203
P-L-EY1-L-IH1-S-T 203
R-IY0-N-EY1-M-D 203
S-ER1-V-IH0-NG 203
S-IH2-CH-UW0-EY1-SH-AH0-N 203
S-K-AA1-R-@@ 203
T-AA1-M 203
T-W-EH1-@@ 203
AA1-R-M 202
AH0-K-ER1-D 202
AH0-L-AW1-Z 202
AH0-P-OW1-@@ 202
AH0-V-OY1-D 202
D-IH0-L-IH1-@@ 202
F-AE1-N-Z 202
HH-UW1-M 202
JH-EH1-N-R-AH0-L 202
K-W-AH0-@@ 202
K-Y-UW0-@@ 202
L-AY1-T-@@ 202
P-R-IH1-Z-AH0-N 202
S-K-AA1-T-L-AH0-N-D 202
AH0-G-EY1-N 201
AY1-ER0-N 201
B-EY1-S-IH0-K 201
CH-OY1-S 201
D-AH1-B-AH0-L 201
EH1-D-W-ER0-D 201
EH1-V-R-IY0-W-AH2-N 201
F-EH1-R 201
K-AE1-N-S-ER0 201
L-M 201
P-R-IH1-T-IY0 201
R-IH1-CH 201
S-K-AO1-R 201
S-P-IY1-K-IH0-NG 201
SH-AY1-@@ 201
TH-AH0-N 201
W-EY1-L-Z 201
Y-AH0 201
Z-IY1-L-AH0-N-D 201
AE1-M-@@ 200
B-AO2-R-D 200
B-EH1-N-CH 200
CH-EY1-N 200
F-L-UW1-@@ 200
G-R-AH0-F-IY0 200
HH-OW1-S-T 200
K-AE0-@@ 200
K-L-EY1-M-Z 200
K-L-OW1-S-L-IY0 200
K-R-AY1-D 200
M-AE0-@@ 200
N-JH-ER0 200
P-ER1 200
R-EH1-K-AH0-G-N-AY2-Z-D 200
S-M-AH0-N 200
S-P-IY1-@@ 200
SH-OW1-IH0-NG 200
-AH0-L-AA1-JH-IH0-K-AH0-L 199
AE0-K-T-IH1-V-IH0-T-IY0 199
D-R-IH1-NG-K-IH0-NG 199
EH1-N-D-Z 199
EH2-R-IY0 199
G-AH1-N 199
K-AA2-N-@@ 199
OY1 199
R-UW1-T-S 199
S-IY1-N-Y-ER0 199
S-L-EY1-@@ 199
T-AY1-T-AH0-L-Z 199
W-AA1-CH-IH0-NG 199
AH0-M-EH1-R-AH0-K-AH0-N 198
AH0-P-L-AY1-D 198
F-AW1-N-D-ER0 198
F-T-S 198
G-IH0-NG 198
G-IH1-T-IH0-NG 198
HH-AW1-S-AH0-Z 198
K-AE1-N-AA0-T 198
K-EH1-R-IY0 198
K-IH0-N 198
K-R-OW0-@@ 198
L-IY0-AH0-N 198
Y-UW1-S-F-AH0-L 198
B-AY1-S-IH0-K-AH0-L 197
B-R-OW1-K 197
F-OW1-K-AH0-S 197
HH-AE2-@@ 197
IH0-S-K-EY1-P 197
K-AE1-N-AH0-@@ 197
K-AH0-N-S-ER1-V-AH0-T-IH0-V 197
K-AO2-R-P-ER0-EY1-SH-AH0-N 197
K-R-IH0-@@ 197
L-Y-AH0 197
M-OW0 197
N-D-ER0-D 197
R-EH1-D-IY0 197
R-IH0-S 197
S-ER1-V-IH0-S-IH0-Z 197
S-P-AA1-R-@@ 197
TH-IY1-AH0-T-ER0-Z 197
V-IH2-@@ 197
W-AO1-K-S 197
-AE0-K 196
AH0-D-@@ 196
B-OW0 196
D-AW1-N-T-AW1-N 196
D-IH0-F-AY1-N-D 196
F-AE1-K-T-ER0-IY0 196
F-UH1-L-IY0 196
L-IY1-D-Z 196
R-AY1-D 196
R-EY1-N-JH@@ 196
S-K-AH0 196
CH-AA1-@@ 195
F-IH1-F-T-IY0 195
IH1-N-S-T-R-AH0-M-AH0-N-T-S 195
JH-AH1-M-P 195
JH-IY1-N-AH0-S 195
K-AA1-M-AH0-N-@@ 195
K-AH0-L-AE1-@@ 195
M-AA1-R-SH-AH0-L 195
M-OW2-@@ 195
P-OW1-AH0-T-R-IY0 195
S-AO1-F-T 195
S-EY1-L-Z 195
S-K-OW1-@@ 195
S-M-AY1-L-IH0-NG 195
T-AH0-N-D 195
W-AY1-N 195
Y-UW2-N-AH0-V-ER1-S-AH0-T-IY0-Z 195
AE0-D-M-IH2-N-IH0-S-T-R-EY1-SH-AH0-N 194
AH0-S-P-EH1-SH-L-IY0 194
B-AO1-R-D-ER0-Z 194
B-R-AH0 194
CH-AE1-N-AH0-L 194
EH1-N-JH-AH0-N 194
F-IH1-R 194
IH0-K-S-@@ 194
JH-AO1-R-@@ 194
K-L-AO1-@@ 194
L-IH1-S-T-IH0-D 194
N-IH0-S 194
N-IH2-@@ 194
P-R-AA1-D-AH0-K-T-S 194
T-IH0-K-L-IY0 194
W-AH1-N-Z 194
Z-OW1-@@ 194
AE1-V-AH0-N-UW2 193
F-IH1-K-SH-AH0-N 193
G-R-AE1-N-D-@@ 193
G-R-OW1 193
IH0-K-S-T-EH1-N-S-IH0-V 193
IY1-T-IH0-NG 193
IY1-V-N-IH0-NG 193
JH-IY1-N-Z 193
K-AO1-Z-D 193
N-S-IH0-NG 193
N-Y-AH0-N-Z 193
R-IH0-P-L-AY1-D 193
S-AH1-B-S-AH0-K-W-AH0-N-T 193
T-ER0-IH0-NG 193
Y-UW1-L 193
-AH0-L-IH0-NG 192
-AY2-Z-IH0-Z 192
AE2-F-T-ER0-N-UW1-N 192
AH0-D-IH1-SH-AH0-N-AH0-L 192
AH0-D-M-IH1-N-AH0-S-T-R-EY2-T-IH0-V 192
F-EH1-R-IY0 192
G-OW1-L-D-AH0-N 192
HH-AE1-N-Z 192
IH0-N-IH1-SH-AH0-L 192
K-AH0-M-P-L-IY1-T-IH0-D 192
K-Y-AH0-L-ER0 192
M-P-T 192
N-EY1-B-ER0-HH-UH2-D 192
N-IH1-R-AH0-S-T 192
R-IY0-AH0-@@ 192
S-AH1-B-ER0-B 192
S-EH1-K-R-AH0-T-EH2-R-IY0 192
TH-AE1-@@ 192
W-AA1-SH-IH0-NG-T-AH0-N 192
AE1-K-T-R-AH0-S 191
AH0-P-R-OW1-@@ 191
AH0-T-EH1-@@ 191
B-ER0-N 191
D-IH1-N-ER0 191
EH1-N-T-ER0-D 191
HH-AE1-F-@@ 191
M-AY1-N 191
N-AE2-@@ 191
S-T-EY1-T-IH0-D 191
T-ER1-N-Z 191
T-UH1-@@ 191
W-AA1-N-T-AH0-D 191
W-ER0-D 191
AH0-D-V-AE1-N-S-T 190
AH0-JH-EY1-S-AH0-N-T 190
B-IY0-@@ 190
D-IH0-S-EH1-N-T 190
F-ER1 190
OW1-N-ER0 190
T-EH1-R-IH0-T-AO2-R-IY0 190
-EY2-L 189
AH0-D-V-AE1-@@ 189
B-L-AE1-K-@@ 189
D-EY2-L 189
EH1-JH 189
EH1-M-P-AY0-ER0 189
EY2-T-IH0-NG 189
F-IH1-F-TH 189
HH-UW1-Z 189
JH-IH1-M 189
K-AH0-N-T-EH1-M-P-ER0-EH2-R-IY0 189
M-AH0-T-IH1-R-IY0-AH0-L-Z 189
NG-K-IH0-NG 189
P-L-AE1-N-D 189
S-AY2-AH0-N-T-IH1-F-IH0-K 189
S-K-AY1 189
T-ER0-IY0 189
T-R-AE1-V-AH0-L 189
V-IY0-AH0 189
AH0-G-EY1-N-S-T 188
AH0-N-AW1-N-S-T 188
AO1-F-@@ 188
D-R-AY1-@@ 188
K-AO1-L-Z 188
K-R-AW1-N 188
K-T-IH0-@@ 188
M-AE1-G-@@ 188
M-EH1-D-AH0-L 188
M-IH1-N-AH0-T-S 188
N-AA1-V-AH0-L-Z 188
N-D-L@@ 188
S-AH0-L-UW1-SH-AH0-N 188
S-AH0-P-AO1-R-T-AH0-D 188
S-T-AO1-R-@@ 188
SH-AH0-N-EH2-R-IY0 188
T-AH0-M 188
-ER0-AH0-S 187
D-R-AO1-N 187
EH2-K-AH0-N-AA1-M-IH0-K 187
F-IH0-K 187
G-EH1-S-T 187
JH-OY1-N 187
K-AH0-M-IH1-SH-AH0-N 187
K-AH0-N-T-EY1-N-D 187
L-EY1-K-S 187
L-IH1-S-AH0-N 187
M-EY0-N-T-EY1-N-D 187
N-IH0-S-T 187
P-AW1-ER0-F-AH0-L 187
S-L-IY1-P 187
S-OW0 187
AE2-P-L-AH0-K-EY1-SH-AH0-N-Z 186
B-L-AH1-@@ 186
D-AY0-R-EH1-@@ 186
D-IH1-D-AH0-N-T 186
D-IY1-T-EY0-L-Z 186
F-AE1-M-L-IY0-Z 186
HH-AW1-S-IH0-Z 186
HH-OW1-M-Z 186
L-AY0-@@ 186
M-AA0-R-@@ 186
N-EH1-S-AH0-S-EH2-R-IY0 186
P-R-AA0-@@ 186
P-R-EH1-Z-AH0-N-S 186
S-AW2-TH-W-EH1-S-T 186
Z-AH0-N-Z 186
D-ER0-EH1-K-T-L-IY0 185
F-AH0-S-IH1-L-IH0-T-IY0 185
F-L-AE1-T 185
IH0-N-IH1-@@ 185
IH0-N-T-IH1-R-IY0-ER0 185
IH0-N-V-AY1-R-AH0-N-M-AH0-N-T 185
K-AH1-L-ER0-D 185
K-AO1-Z 185
K-W-IH0-@@ 185
L-D-IH0-NG 185
M-AY1-K 185
S-AE1-N-D 185
S-T-EY1 185
T-R-AE1-N-S-P-AO0-R-T 185
T-R-AH0-D-IH1-SH-AH0-N 185
V-Y-UW1-Z 185
W-IH1-L-Y-AH0-M-Z 185
-ER0-AH0-L 184
AE2-K-AH0-D-EH1-M-IH0-K 184
AH0-S-P-EH1-SH-AH0-L-IY0 184
AH1-DH-ER0-W-AY2-Z 184
AH2-@@ 184
D-AE1-N-S-IH0-NG 184
G-R-EY1-D 184
K-AA1-N-T-EH0-N-T 184
L-EY1-N 184
P-EH1-R-IH0-S 184
S-AH1-M-W-AH1-T 184
S-T-AH0-L 184
W-IH1-N-D 184
Z-AH0-M-Z 184
AE1-B-@@ 183
D-EH1-L-AH0-@@ 183
D-IH1-S-T-R-IH0-K-T-S 183
EH1-R-AH0 183
F-IH1-L 183
K-AE1-P-CH-ER0-D 183
L-AE1-K 183
M-AE1-N-IH0-JH-M-AH0-N-T 183
M-EH1-D-AH0-K-AH0-L 183
N-D-AH0-N 183
P-AA1-P 183
S-AH0-V-IH1-@@ 183
S-EH1-P-R-AH0-T 183
-EH2-R-IH0-@@ 182
CH-AE1-N-S 182
D-IH0-Z-IY1-Z 182
F-R-EH1-SH 182
IH0-N-T@@ 182
L-IH0-T 182
M-IH1-S-IH0-NG 182
M-UH1-@@ 182
N-AH0-Z 182
R-AO1-NG 182
R-OW1 182
SH-ER1-@@ 182
-AO1-R-Z 181
-AY2-D 181
G-IH1-V-IH0-NG 181
IH0-G-@@ 181
JH-AH1-JH 181
K-AH0-N-S-IH1-D-ER0 181
K-OW1-L 181
L-AY2-T 181
N-AY1-S 181
P-EH1-R 181
P-ER1-P-AH0-S 181
P-EY1-P-ER0-Z 181
P-L-EY1-S-IH0-Z 181
P-L-IY1-@@ 181
P-R-AH0-M-OW1-@@ 181
R-UW1-L-Z 181
S-T-AY2-L 181
-AH0-N-IH1-@@ 180
-ER0-AH0-B-AH0-L 180
AY1-T-AH0-M-Z 180
CH-AE1-M-P-IY0-AH0-N-SH-IH2-P 180
D-UW0-@@ 180
ER0-AY1-V-D 180
ER0-IH1-JH-N-AH0-L-IY0 180
F-AO1-R-AH0-@@ 180
F-AW1-N-D-AH0-D 180
IH0-M-P-R-UW1-@@ 180
JH-IY2-AH0-@@ 180
M-AA1-R-K-S 180
M-AH0-TH 180
M-EH1-N-@@ 180
N-IH0-T-IY0 180
P-R-EH1-SH-ER0 180
R-IH0-F-L-EH1-@@ 180
R-IH0-S-P-AA1-N-S 180
R-IY1-Z-AH0-N-Z 180
S-EH1-SH-AH0-N 180
S-IH0-K-S 180
S-IY1-Z-AH0-N-Z 180
S-K-UW1-@@ 180
T-R-EY1-N-D 180
W-ER2-@@ 180
AO1-R-IH0-N-JH 179
F-IY1-L-IH0-NG 179
L-EH1-T-ER0-Z 179
L-M-AH0-N 179
M-IY1-N-W-AY2-L 179
N-OW1-T-S 179
NG-G-AH0-@@ 179
P-R-EY1-@@ 179
S-AA1-R-@@ 179
S-K-R@@ 179
S-K-W-AA1-@@ 179
V-IH1-Z-AH0-B-AH0-L 179
AE1-S-K-T 178
AE2-P-L-AH0-K-EY1-SH-AH0-N 178
B-AA1-B 178
B-IH1-L-@@ 178
D-AH1-CH 178
F-L-AE1-G 178
G-AH0-N-Z 178
G-R-AE1-JH-UW0-EY2-T-IH0-D 178
G-R-EY1-T-AH0-S-T 178
IH1-M-IH0-JH 178
IH1-N-D-AH0-S-T-R-IY0-Z 178
K-L-EY1-M 178
K-OW0@@ 178
L-AO0-@@ 178
L-IH1-T-ER0-EH2-R-IY0 178
L-OW2 178
L-Y-AH0-N-Z 178
M-EY1-L-Z 178
P-EY1-N 178
R-AA1-K-S 178
S-AA1-R-IY0 178
W-UH1-D-AH0-N 178
-EY2-T-ER0-Z 177
-Z 177
AH2-N-AH0-@@ 177
AO0-L-T-ER1-N-AH0-T-IH0-V 177
AO1-R-D-ER0-D 177
B-EH1-D 177
CH-EH1-K 177
CH-ER1-@@ 177
F-AH0-L-IY0 177
HH-AE1-M-@@ 177
IH2-N-D-AH0-V-IH1-JH-AH0-W-AH0-L-Z 177
JH-AH1-S-T-AH0-S 177
JH-IY1-V-Z 177
K-AA1-R-D 177
K-AA1-R-D-Z 177
M-IH0-K-S 177
N-AY2-T 177
R-IY0-S-T-R-IH1-@@ 177
S-EH1-L-IH0-NG 177
S-P-AA1-T 177
S-UW1-P-ER0-@@ 177
T-AO1-L 177
W-AY1-L-D 177
-AO1-R-AH0-@@ 176
AH0-D-AE1-@@ 176
AO1-F-AH0-S-ER0-Z 176
AO2-@@ 176
B-IY2-@@ 176
B-L-IH1-@@ 176
CH-AE1-M-P-IY0-AH0-N 176
D-IH0-F-IY1-T-IH0-D 176
EH1-M-@@ 176
G-AH0-N@@ 176
HH-EH1-D-@@ 176
JH-IY0-AA1-@@ 176
K-W-EH1-S-CH-AH0-N-Z 176
M-IH1-SH-IH0-G-AH0-N 176
M-UW1-N 176
P-T-IH0-D 176
S-AE1-T 176
S-IH1-N-AH0-@@ 176
S-T-AO1-R-M 176
S-T-R-IY1-M 176
SH-EH1-R 176
T-R-IH1-P 176
T-R-UW1-TH 176
W-AO1-R-N 176
W-EH0-@@ 176
W-ER1-TH 176
W-IY1-K-L-IY0 176
D-IH0-Z-AY1-N-Z 175
DH-EH0-R-AE1-F-T-ER0 175
IH0-M-P-R-UW1-V-D 175
IH0-N-D-IY1-D 175
JH-AO1-R-JH-AH0 175
K-ER0-IH1-@@ 175
OW2-V-ER0-@@ 175
P-L-AE1-T-F-AO2-R-M-Z 175
S-EY1-F-T-IY0 175
S-OW1-V-IY0-AH0-T 175
SH-EH1-L-@@ 175
SH-IY0-@@ 175
V-AE2-@@ 175
-AH0-N-EH1-@@ 174
-AW0-@@ 174
-IY0-AH0-M 174
AH0-P-IH1-R-AH0-N-S-AH0-Z 174
AO2-R-G-AH0-N-AH0-Z-EY1-SH-AH0-N-Z 174
D-IH0-S-EH1-@@ 174
D-R-AA1-@@ 174
D-R-AO1-@@ 174
F-AH0-L-AA1-S-AH0-F-IY0 174
F-AO1-R-M-AE2-T 174
F-AO1-R-M-AH0-L 174
K-W-IY1-@@ 174
L-OW0-Z 174
M-IH1-L-IH0-T-EH2-R-IY0 174
P-R-AY1-S 174
P-R-EH1-Z-AH0-D-EH2-N-T 174
P-R-IY2-@@ 174
R-AH1-SH-AH0 174
S-EH1-T-S 174
S-T-AH0-T-IH1-S-T-IH0-K-AH0-L 174
T-EH1-R-AH0-@@ 174
W-EH1-S-T-@@ 174
0@@ 173
AH0-S-EH1-M-B-L-IY0 173
D-IH0-NG-Z 173
EH1-F-ER0-T-S 173
G-L-AO1-@@ 173
K-AH0-N-EH1-K-T-IH0-D 173
S-AH0-G-N-IH1-F-IH0-K-AH0-N-T 173
S-ER0-V-AY1-@@ 173
S-P-EH2-@@ 173
T-EH1-K-N-IH0-K-AH0-L 173
W-IH1-M-AH0-N-Z 173
W-UH1-D-@@ 173
-IH0-Z 172
AE2-L-AH0-@@ 172
D-AE1-M 172
L-AH0-T-S 172
L-T-IY0-Z 172
M-AE1-S 172
M-EH1-D-AH0-S-AH0-N 172
M-EH1-L-@@ 172
N-EH1-G-AH0-T-IH0-V 172
S-IH1-S-T@@ 172
T-IY1-CH-IH0-NG 172
AE1-D-@@ 171
AE1-D-V-AH0-@@ 171
AH0-M-AW1-N-T 171
AY0-D-IY1-AH0-Z 171
EH0-N-G-EY1-JH-D 171
EY0-@@ 171
F-AA1-R-M-IH0-NG 171
F-AO1-R-D 171
F-L-AO1-R-AH0-D-AH0 171
N-EH2-@@ 171
N-UW0-@@ 171
NG-ER0 171
NG-K-ER0 171
R-IY1-CH 171
S-L-IY1-@@ 171
S-P-R@@ 171
S-T-R-AO1-@@ 171
S-W-IY1-T 171
T-EH1-M-P@@ 171
T-IH0-S 171
V-AH0-S 171
-AH0-N-AH0-L 170
-OW1-Z 170
AH0-G-R-IY1-D 170
F-EH0-@@ 170
F-UH1-@@ 170
F-UH1-T-@@ 170
F-UW1-@@ 170
HH-AE1-P-AH0-N 170
JH-EH2-N-ER0-EY1-SH-AH0-N 170
JH-IH0-K 170
K-AH0-N-V-IH1-@@ 170
K-L-AE1-S-IH0-K 170
L-OW0-K-EY1-SH-AH0-N-Z 170
P-R-AE1-K-T-IH0-S 170
R-EH1-R-L-IY0 170
R-ER0-Z 170
R-IH1-S-K 170
S-AO1-F-T-W-EH2-R 170
S-K-ER1-@@ 170
S-K-OW0 170
S-K-R-IY1-N 170
V-IH0-K-T-AO1-R-IY0-AH0 170
W-AO2-T-ER0 170
-AH0-N-S-IY0-Z 169
-AY0 169
2-R@@ 169
AA1-K-S-F-ER0-D 169
AH0-L-Z 169
B-L-AA1-K 169
F-AH0-S-IH1-L-AH0-T-IY0-Z 169
F-OW1-K 169
G-OW1-IH0-N 169
IH0-K-S-P-AE1-@@ 169
IH0-K-S-P-EH1-@@ 169
IH1-L-AH0-S-T-R@@ 169
IH1-N-AH0-@@ 169
L-IH0-NG-T-AH0-N 169
L-IH1-M-AH0-T-AH0-D 169
M-AY1-L-Z 169
R-IY0-V-Y-UW1-Z 169
S-OW0-@@ 169
S-T-AO1-R-Z 169
S-T-UW1-D-IY0-OW2-Z 169
T-EH0-K-N-IY1-K-S 169
T-OW1-N 169
AO1-R-G-AH0-N-AY2-Z-D 168
B-AE1-NG-K-S 168
D-EH2-M-AH0-K-R-AE1-T-IH0-K 168
EH1-D-@@ 168
F-L-IY0 168
G-AH0-S 168
G-ER0-Z 168
G-W@@ 168
IH0-L-IH1-@@ 168
K-AA1-N-T@@ 168
K-S-IH0-Z 168
L-EH2-@@ 168
M-IH1-L-K 168
M-IH1-R 168
P-AH0-Z-EH1-@@ 168
R-IY0-AH0-M 168
R-UW0-@@ 168
S-EY1-IH0-NG 168
S-T-EH1-P 168
S-T-R-AH0-@@ 168
SH-OW1-D 168
V-AY1-AH0 168
V-IH1-Z-AH0-@@ 168
Y-UW1-N-AH0-T-S 168
AA1-R-K-AH0-T-EH2-K-CH-ER0 167
B-R-UH1-@@ 167
HH-AY0-@@ 167
HH-IY1-T 167
K-R-OW1-@@ 167
M-AA1-R-CH 167
M-AE1-N-@@ 167
M-ER1-D-ER0 167
S-IH1-D-N-IY0 167
S-K-R-AE1-@@ 167
Y-EH1-@@ 167
Z-ER0-@@ 167
AA1-B-JH-EH0-K-T 166
AE2-G-R-AH0-K-AH1-L-CH-ER0-AH0-L 166
AH0-B-JH-EH1-@@ 166
AH0-K-S-EH1-P-T-AH0-D 166
AH0-S-IH1-S-T-AH0-N-T 166
B-IH0-K-AH1-M-IH0-NG 166
B-R-AE1-N-D 166
IH0-N-S-P-AY1-ER0-D 166
JH-OY1-@@ 166
L-EH1-NG-K-TH 166
M-AE1-N-IH0-JH-ER0 166
M-EH1-R-IH0-@@ 166
M-OW1-D 166
R-EH2-K-AH0-M-EH1-@@ 166
R-IH0-F-Y-UW1-Z-D 166
R-IY0-P-AH1-B-L-IH0-K 166
S-EH1-K-SH-AH0-N-Z 166
T-OW1-N-IY0 166
T-R-UW1-P-S 166
V-AH0-N-Z 166
-ER0-AY2-Z-D 165
AA1-R-T-IH0-S-T 165
AH1-L-T-AH0-M-AH0-T-L-IY0 165
AY2-@@ 165
B-IH0-G-IH1-N 165
B-R-IH1-NG 165
D-EY1-SH-AH0-N 165
EH1-L 165
F-IH1-G-Y-ER0-Z 165
F-R-AH0-@@ 165
G-R-EY1-T-L-IY0 165
HH-OW1-L-IY0 165
IH0-K-S-P-L-OW1-@@ 165
K-AH0-M-P-EH1-@@ 165
K-AH2-P 165
K-L-AA1-@@ 165
L-AY2-K 165
M-IH1-L-@@ 165
R-IY0-AE1-K-SH-AH0-N 165
S-AA1-L-AH0-@@ 165
S-ER0-AW1-N-D-AH0-D 165
S-IH1-R-IY0-AH0-S 165
S-L-OW1-L-IY0 165
S-T-R-AH1-@@ 165
S-T-R-AH1-K 165
S-T-R-EY1-N-JH 165
T-W-EH2-N-IY0-@@ 165
Z-EY1-@@ 165
AE1-S-K 164
AH0-CH-IY1-V-D 164
B-AY2-@@ 164
B-IH1-Z-IY0 164
D-R-AY1-V-ER0 164
EH1-M-P-ER0-ER0 164
F-L-AA1-@@ 164
IH1-N-S-AH0-D-AH0-N-T 164
K-AH0-M 164
K-AH0-N-EH1-K-SH-AH0-N 164
K-IH1-NG-@@ 164
N-AH0-M-IY0 164
N-IH0-K-AH0-L 164
N-OW1-B-AH0-D-IY0 164
P-AE1-K-IH0-@@ 164
S-AH0-M 164
S-IH1-NG-G-AH0-L-Z 164
S-K-AY1-@@ 164
SH-AO1-R-T-S 164
T-AH0-L-IY0 164
TH-AH1-@@ 164
W-AH1-T-S 164
AH0-T-IY0 163
B-R-AO1-D-K-AE2-S-T 163
HH-AA1-R-B-ER0 163
HH-AW2-@@ 163
IH1-N-D@@ 163
JH-UW0-@@ 163
M-IH1-N-AH0-T 163
NG-G-AH0 163
P-AE1-S-AH0-N-JH-ER0 163
R-EH2-V-AH0-L-UW1-SH-AH0-N 163
R-IY0-ER0-Z 163
S-EY1-V 163
S-IH0-T-IY0 163
S-P-AH0-S-IH1-F-IH0-K 163
S-P-OW1-K-AH0-N 163
T-AH0-W-AO1-R-D-Z 163
W-IH1-N-IH0-NG 163
2 162
AE0-B-@@ 162
D-IH0-N 162
D-IH2-S-T-R-AH0-B-Y-UW1-SH-AH0-N 162
F-EY1-L-Y-ER0 162
F-L-AW1-ER0 162
F-OW2-N 162
HH-AH1-N-D-ER0-D 162
HH-AO1-NG 162
HH-Y-UW1-JH 162
JH-AE1-K-S-AH0-N 162
K-L-IY1-N 162
K-R-AO1-S-IH0-NG 162
P-IH1-K-CH-ER0-Z 162
S-EH1-L-AH0-B-R@@ 162
S-EY1-L 162
S-T-R-IY1-T-S 162
T-EH1-R-IY0-AH0-N 162
T-EY1-L-ER0 162
UW1 162
W-EH1-R-@@ 162
W-ER1-L-D-Z 162
W-ER2-K 162
W-IH1-N-ER0 162
Z-IH1-SH-AH0-N 162
-AH2-N 161
AH0-P-R-AA1-K-S-AH0-M-AH0-T-L-IY0 161
B-Y-UW1-@@ 161
D-IH0-T-ER1-M-AH0-N-D 161
G-AO1-R-@@ 161
IH0-G-Z-IH1-S-T-S 161
IH1-N-S-T-R-AH0-M-AH0-N-T 161
JH-AH0-N-T 161
K-AA1-N-S-ER0-T 161
K-IH1-NG-Z 161
K-R-IH1-S 161
L-IH1-S-AH0-@@ 161
M-IH0-S-@@ 161
P-IY1-K 161
P-R-OW1-G-R-AE2-M-IH0-NG 161
R-OW1-M 161
S-ER1-K-AH0-L 161
S-T-EH1-R-Z 161
SH-AH0-N-AH0-L-IY0 161
T-AE1-K-S 161
T-EH0-K-N-IY1-K 161
T-IH0-NG-Z 161
V-OW1-T 161
Y-UW1-N-AH0-T 161
Y-UW1-R 161
AW1-T-D-AO2-R 160
CH-IH1-L-D-R-AH0-N-Z 160
F-AA1-K-S 160
F-L-AY1-IH0-NG 160
G-EH1-T-IH0-NG 160
K-AE1-CH 160
K-AH0-M-AE1-@@ 160
K-AH0-M-P-L-IY1-@@ 160
L-AY1-IH0-NG 160
M-AY1-N-IH0-NG 160
M-IH1-L 160
N-AH0-M-AH0-S 160
N-T-EH1-@@ 160
OW2-N 160
P-AH0-N-@@ 160
P-R-AA1-D-AH0-K-S 160
R-IY0-L-EY1-SH-AH0-N-Z 160
S-P-IH1-R-IH0-@@ 160
Y-AA2-R-D 160
-AW2-T 159
AH0-B-AE1-N-D-AH0-N-D 159
AH0-L-AO1-NG-S-AY1-D 159
D-EH1-Z-IH0-G-N-EY2-T-IH0-D 159
F-IH1-K-S-T 159
F-OW2-@@ 159
IH0-JH 159
IH2-Z-AH0-M 159
K-AA1-NG-G-R-AH0-S 159
K-L-OW1-S-AH0-S-T 159
K-R-EH1-D-AH0-@@ 159
N-IH1-K-N-EY2-M 159
R-AW1-T 159
R-IY2-V-Y-UW1 159
S-AH0-P-L-AY1 159
T-AO1-R-IY0-AH0-L 159
-IH0-K-S 158
AA2-P-AH0-Z-IH1-SH-AH0-N 158
AH0-N-AE1-L-AH0-S-AH0-S 158
B-ER0-OW0 158
D-ER0-EH1-K-SH-AH0-N 158
F-AW1-N-D-IH0-NG 158
F-AY1-L 158
IH0-L-EH1-K-T-AH0-D 158
IH0-N-T-EH1-L-AH0-JH-AH0-N-S 158
IH2-N-D-IH0-P-EH1-N-D-AH0-N-S 158
K-W-EH1-S-CH-AH0-N 158
L-V-D 158
M-Y-UW0-Z-IH1-SH-AH0-N-Z 158
N-CH-AH0-L 158
N-D-L-IY0 158
P-AA1-Z-AH0-@@ 158
P-ER0-EY1-SH-AH0-N 158
R-UW1-F 158
T-AH0-S-T 158
T-UW0-@@ 158
TH-AE1-NG-K 158
V-IY1-AH0 158
W-EH1-B 158
Y-IY1-@@ 158
Y-UW0-Z 158
Y-UW1-Z-ER0-Z 158
B-AA1-K-@@ 157
D-AH1-K-SH-AH0-N 157
EH1-N-JH-AH0-N-Z 157
IH0-K-S-AY1-@@ 157
K-AA2-N-T-R-AH0-V-ER1-SH-AH0-L 157
K-AH0-N-AA1-T 157
K-EY1-M-B-R-IH0-JH 157
K-L-IY1-@@ 157
M-EH1-N-SH-AH0-N 157
OW1-V-ER0-AO2-L 157
P-R-AA1-P-ER0-T-IY0-Z 157
P-R-OW1-T-AH0-@@ 157
R-IH0-P-AO1-R-T 157
S-EH1-N-T-ER0-Z 157
S-P-R-IH1-NG 157
S-T-AA1-K 157
S-T-R-AH1-K-CH-ER0-Z 157
V-AH0-N@@ 157
V-IY1-IH0-K-AH0-L 157
-UW2-Z 156
AA1-R-G-@@ 156
AH0-P-OW1-Z-D 156
B-R-IH1-K 156
D-IH0-T-ER1-@@ 156
D-IH1-JH-IH0-T-AH0-L 156
D-R-AO1 156
F-AO1-R-K-AE2-S-T 156
F-EH2-@@ 156
F-IY0-L-D 156
K-AA1-N-F-R-AH0-N-S 156
K-IH1-L 156
K-R-AO1-S-@@ 156
K-R-IY1-M 156
K-T-AH0-@@ 156
L-AE1-NG-G-W-AH0-JH 156
M-OW1-B-AH0-L 156
N-IH0-SH 156
P-ER1-P-AH0-L 156
P-SH-AH0-N-Z 156
R-IH0-M-EY1-N-IH0-NG 156
T-AH0-M-AA1-R-OW2 156
T-R-IY1-T-IH0-D 156
T-UH1-R-IH2-Z-AH0-M 156
V-AY1-S 156
W-IH0-N 156
-AH0-L-EY1-SH-AH0-N 155
-EY2-D 155
0 155
AE1-R-AH0-@@ 155
D-AH0-N-@@ 155
EH1-D-AH0-@@ 155
F-L-OW1-@@ 155
K-AH1-Z-AH0-N 155
N-AA1-L-IH0-JH 155
R-AY1-T-ER0-Z 155
S-AH1-M-@@ 155
S-K-EY1-L 155
T-ER2-@@ 155
T-R-AE1-N-S-@@ 155
-AA2-P 154
AO0-R-@@ 154
B-IH0-L-IY1-@@ 154
CH-ER0-D 154
D-IH0-S-T-IH1-NG-K-T 154
D-UH1-@@ 154
EH1-N 154
ER0-AY1-@@ 154
HH-EH1-D-K-W-AO2-R-T-ER0-Z 154
IH1-SH-UW0-D 154
M-Y-UW0-N-IH1-S-AH0-P-AH0-L 154
OW1-K 154
R-AE1-NG-K 154
R-EH1-D-@@ 154
S-EH1-T-IH0-NG 154
SH-L@@ 154
T-B@@ 154
W-AA1-Z-AH0-N-T 154
W-EH1-T 154
Y-AO1-R-@@ 154
AH0-P-IH1-N-Y-AH0-N 153
EH2-N-T-ER0-T-EY1-N-M-AH0-N-T 153
F-AO0-R-M-EY1-SH-AH0-N 153
G-R-EY1-SH-AH0-N 153
IH0-L-EH1-K-SH-AH0-N-Z 153
JH-EH1-N-ER0-@@ 153
M-B-AH0-@@ 153
N-AH0-T-IY0 153
N-AO1-R-TH-@@ 153
N-EH2-V-ER0-DH-AH0-L-EH1-S 153
R-EH2-P-R-IH0-Z-EH1-N-T-IH0-D 153
S-AH1-D-AH0-N-L-IY0 153
S-CH-AH0-N 153
S-IH1-NG 153
S-L-OW1 153
S-OW1-L-OW2 153
S-P-EY1-N 153
SH-IY1-Z 153
T-EH1-N-D 153
T-R-AA1-P-IH0-K-AH0-L 153
T-R-AE1-V-AH0-L-D 153
W-EY1-V 153
-UH2-D 152
AO1-R-G-AH0-N@@ 152
B-R-EY1-N 152
CH-OW1-Z-AH0-N 152
CH-UW0-AH0-L 152
D-AW1-T 152
D-AW2-N 152
D-IH0-S-K-R-AY1-B-Z 152
EH1-N-T-R-AH0-N-S 152
HH-AW1-Z-IH0-NG 152
HH-EH1-R-AH0-@@ 152
IH1-N-F@@ 152
K-AO2-R-AH0-S-P-AA1-@@ 152
K-AW1-N-T@@ 152
M-AH1-Z-L@@ 152
N-IY0-AH0-M 152
P-L-IH1-@@ 152
R-IY0-T-AY1-ER0-D 152
S-IH1-G-@@ 152
S-T-R-IY1-@@ 152
SH-AO1-R-T-@@ 152
SH-UH1-@@ 152
T-R-AE2-N-S-P-ER0-T-EY1-SH-AH0-N 152
T-UW0-D-EY1 152
TH-AO1-R-@@ 152
W-AO1-R-M 152
Y-UW1-N-AH0-@@ 152
-EH2-R-IY0-Z 151
2@@ 151
B-AO1-L-@@ 151
B-IH0-HH-EY1-V-Y-ER0 151
CH-UW1-Z 151
D-IH0-N-AY1-D 151
F-OW1-K-AH0-S-T 151
G-R-EY1-T-@@ 151
HH-AA1-L-AH0-@@ 151
IH1-N-T-AH0-G-R@@ 151
L-AA1-JH-IH0-K-AH0-L 151
L-ER1-N-D 151
L-EY1-SH-AH0-N 151
M-IH1-SH-AH0-N-Z 151
M-IY0-AH0 151
M-OY1-@@ 151
NG-G-OW0 151
OW2@@ 151
P-AE1-K 151
P-ER0-EY2-T 151
P-OW0 151
S-IY1-V-D 151
S-OY1-L 151
S-P-R-EH1-D 151
S-T-IY1-V-AH0-N 151
T-IH0-S-T 151
W-IH1-NG-Z 151
Y-UW0 151
Z-ER1-@@ 151
ZH 151
-AO0-F 150
AH0-B-Z-ER1-V-D 150
ER1-L-IY0-AH0-S-T 150
F-AY2-IH0-NG 150
G-R-IY1-N-@@ 150
G-R-OW1-N 150
HH-EH1-D-K-AO2-R-T-ER0-Z 150
IH0-G-Z-IH1-S-T-AH0-N-S 150
IH0-NG-Z 150
K-IH0-N-Z 150
K-UW0-@@ 150
OY2-@@ 150
P-AH0-Z-IH1-SH-AH0-N-Z 150
R-IH0-S-IY1-@@ 150
S-AH0-N-S 150
S-AY0-@@ 150
S-OW1-L-JH-ER0-Z 150
S-P-IH0-S-IH1-F-IH0-K 150
T-R-OW1-@@ 150
-EH2-D 149
-IH0-K-AH0-L 149
AH0-N-AW1-@@ 149
AH0-T-AE1-@@ 149
D-AE1-M-IH0-JH 149
D-ER0-EH1-K-@@ 149
EH1-K-S 149
EH1-M-F-AH0-@@ 149
F-AY1-N-D-Z 149
G-R-AE1-N-@@ 149
G-R-IH0-@@ 149
IH0-M-P-AO1-R-T-AH0-N-S 149
IH1-N-JH-ER0-IY0 149
IH2-N-T-ER1-D 149
K-AH0-N-D-AH1-K-T-AH0-D 149
K-S-IH0-@@ 149
M-AE2-N 149
M-EH1-T-R-IH0-K 149
P-R-EH1-D-AH0-@@ 149
R-EH2-P-Y-AH0-T-EY1-SH-AH0-N 149
S-ER0-IY0 149
S-T-AA1-R-D 149
-AA2-R 148
-AW0 148
AA1-R-T-AH0-K-AH0-L 148
AH0-D-V-AY1-@@ 148
B-Y-AH0-L@@ 148
D-IH0-V-EH1-L-AH0-P 148
D-S-AH0-N 148
F-AE1-S-T-ER0 148
F-IH1-L-IH0-P 148
F-L-OW1 148
F-UH1-L-@@ 148
IH0-M-ER1-@@ 148
IH0-N-F-EH1-@@ 148
K-AA1-M-AH0-D-IY0 148
K-AA1-N-S-AH0-@@ 148
K-AA1-N-T-AE2-K-T 148
K-L-AA1-R-K 148
K-R-IH1-K-AH0-T 148
L-AY1-F-@@ 148
N-AA1-M-AH0-N-EY2-T-AH0-D 148
N-AH0-T-L-IY0 148
R-AY1-Z 148
R-IH0-S-P-AA1-@@ 148
S-EH1-M-IH0-T-EH2-R-IY0 148
S-IH1-S-T-ER0-Z 148
T-EH1-L-Z 148
V-IH0-K 148
W-AO1-T-ER0-Z 148
-AA2-K 147
-AY2-AH0-@@ 147
AH0-T-EH1-N-D 147
AH0-T-R-AE1-@@ 147
B-AH0-L-@@ 147
D-AY0-@@ 147
D-EH0-@@ 147
EH0-K-@@ 147
EH1-D-AH0-T-ER0 147
EH1-N-AH0-M-IY0 147
EH1-S-T-AH0-@@ 147
EY1-JH-AH0-N-T 147
HH-AH1-N-D-R-AH0-D 147
HH-EH1-N-S 147
HH-EH2-D 147
IH1-N-JH-ER0-D 147
JH-AY1-@@ 147
K-L-AH0-@@ 147
K-L-AH0-N-D 147
K-W-IH1-K 147
M-EH1-N-T@@ 147
P-L-AE1-N-IH0-NG 147
P-OW1-AH0-T 147
P-R-AE1-K-@@ 147
R-EY1 147
R-IH0-Z-EH1-@@ 147
S-ER1-V-IH0-S 147
S-P-ER0-@@ 147
T-IY1-N-EY2-@@ 147
W-IH0-TH-@@ 147
B-AH1-L-@@ 146
B-R-AO1-@@ 146
D-AA1-T 146
D-IH0-S-T-IH1-NG-G-W-IH0-SH-T 146
F-AY1-ER0-@@ 146
F-EY1-S-T 146
F-R-IY1-K-W@@ 146
K-AA1-N-T-R-AH0-V-ER2-S-IY0 146
K-R-AY1-@@ 146
K-R-EH1-D-IH0-T-IH0-D 146
N-AH0-N-T-S 146
N-OW2-@@ 146
N-UH1-@@ 146
P-EH2-R-AH0-@@ 146
P-ER0-AE1-@@ 146
S-IH1-K-S-TH 146
SH-AH0-Z 146
T-R-AE0-N-S-L-EY1-T-IH0-D 146
AE1-N-AH0-M-EY2-T-IH0-D 145
B-ER1-T-IY0 145
B-IH0-NG 145
D-IH0-V-AY1-S 145
EY1-CH 145
IH0-G-Z-AE1-K-T-L-IY0 145
IH0-K-S-CH-EY1-N-JH 145
L-IY1-D-ER0-Z 145
N-IY1-L 145
P-AA1-S-AH0-B-L-IY0 145
P-AY1-L-AH0-T 145
R-AY1-S 145
S-K-AA1-T 145
S-L-AY1-@@ 145
S-T-AE1-T-AH0-S 145
T-EH2-N-AH0-S-IY1 145
V-Y-UW1-@@ 145
AH0-T-EH1-M-P-T-AH0-D 144
AO1-T 144
F-AH0-K-EY1-SH-AH0-N-Z 144
F-ER1-M 144
G-UH1-D-Z 144
HH-AA0-@@ 144
IH0-K-S-P-EH1-N-S-IH0-V 144
IH0-N-K-AO1-R-P-ER0-EY2-T-IH0-D 144
K-AA1-M-IH0-K 144
K-AH0-M-P-Y-UW1-@@ 144
K-L-AY1-M-IH0-NG 144
L-EH1-G-Z 144
L-IH0-T-IY0 144
L-IY0-AH0 144
M-ER0-IY1-N 144
M-IY2-@@ 144
N-AH0-T-S 144
N-UW1-Z-P-EY2-P-ER0-Z 144
P-ER1-M-AH0-N-AH0-N-T 144
R-IH0-D-UW1-S-T 144
S-IY1-N-Z 144
S-T-AA1-R-T-IH0-NG 144
S-T-AY1-L-Z 144
S-T-R-AO1-NG-L-IY0 144
V-AA0-L-@@ 144
V-IH1-Z-IH0-T-IH0-D 144
W-IY1-L 144
-ER0-AH0-L-Z 143
-ER0-EY1-SH-AH0-N 143
B-UH2-K 143
D-ER0-EH1-K-T 143
D-IH0-V-EH1-L-AH0-@@ 143
D-IH1-F-ER0-AH0-N-T 143
D-IY0-AH0 143
F-AO1-T 143
G-OW0-@@ 143
IH0-K-S-T-IH1-@@ 143
IH0-L-EH1-K-T-R@@ 143
IH0-M-P-AA1-S-AH0-B-AH0-L 143
JH-ER1-N-AH0-L 143
K-L-OW1-DH-IH0-NG 143
K-OW1-L-@@ 143
M-AE2-TH-AH0-M-AE1-T-IH0-K-S 143
N-AH0-N-T 143
NG-TH 143
P-T-S 143
S-EH2-T 143
S-IY1-T-S 143
S-T-R-AH1-K-@@ 143
V-EH0-@@ 143
Y-UH1-R-AH0-@@ 143
-AO2-G 142
-OY1-@@ 142
-R@@ 142
AA1-K-Y-AH0-P-AY2-D 142
CH-IY1-Z 142
D-AH0-M-EH1-S-T-IH0-K 142
D-EY1-B-Y-UW0 142
EH1-L-D-ER0-L-IY0 142
HH-Y-UW1-M-AH0-N-Z 142
K-L-EY1-@@ 142
L-AH0-D 142
L-AO1-Z 142
L-T-AH0-@@ 142
N-IY0-AH0-S 142
P-R-AA1-P-ER0 142
P-R-AH0-M-OW1-T-AH0-D 142
P-R-IY0-P-EH1-R-D 142
R-UW1-M-Z 142
S-AH0-G-JH-EH1-@@ 142
S-IY1-K-W@@ 142
SH-AW1-@@ 142
W-EH1-R-Z 142
W-UH1-L-@@ 142
Y-AH0-L@@ 142
-EH1-T-IH0-K 141
AH0-N-L-EH1-S 141
B-R-IH0-@@ 141
D-IH0-Z-ER1-@@ 141
EY1-D 141
F-EH1-D-ER0-AH0-L 141
G-R-AH1-@@ 141
K-AH0-N-AE1-L 141
K-AH0-N-T-R-OW1-L-D 141
L-IH1-NG-K 141
N-AW1-@@ 141
N-EH0-@@ 141
N-T-IH0-JH 141
R-EH2-Z-IH0-D-EH1-N-CH-AH0-L 141
R-IH0-K-AA1-R-D-OW0 141
R-IH0-K-AO1-R-D-IH0-NG-Z 141
S-AH0-B-S-T-AE1-@@ 141
S-EH1-R-AH0-M-OW2-N-IY0 141
S-T-AE1-CH-UW2 141
T-AE0-@@ 141
T-OY1 141
V-IH1-L-IH0-JH-IH0-Z 141
-ER0-D-Z 140
-IH0-Z-EY1-SH-AH0-N 140
AA1-R-K-AH0-T-EH2-K-T 140
AE1-N-D-R@@ 140
AH0-T-EH1-M-P-S 140
B-IH1-R 140
CH-EY1-N-JH-IH0-NG 140
D-EY0-@@ 140
EH0-N-G-EY1-@@ 140
EH1-K-S-AH0-L-AH0-N-T 140
F-EH1-R-L-IY0 140
F-ER0-G-EH1-T 140
K-AE1-SH 140
K-AH0-N-S-EH1-@@ 140
K-AH0-TH-IY1-D-R-AH0-L 140
K-R-AY1-M 140
K-R-IH1-M-AH0-N-AH0-L 140
M-EH1-R-AH0-L-AH0-N-D 140
N-EY1-B-ER0-IH0-NG 140
N-IH0-D 140
N-S-ER0-Z 140
N-T-AE1-@@ 140
P-R-AH0-F-ER1 140
R-IY0-M-EY1-N-D 140
R-IY0-T-ER1-N-D 140
S-K-AO1-R-D 140
T-EH0-@@ 140
TH-R-OW1-N 140
V-M-AH0-N-T 140
W-EH1-D-IH0-NG 140
AH0-N-Y-UW1-ZH-UW2-AH0-L 139
AH0-N-Z 139
D-IH1-F-R-AH0-N-S 139
D-IY1-N 139
ER0-EY1-N-JH-D 139
EY2-@@ 139
F-AE1-N 139
F-EY1-V-ER0 139
F-R-AE0-N-S-IH1-S-K-OW0 139
IH0-K-S-T-EH1-N-S-IH0-V-L-IY0 139
IH0-N-K-AO1-R-@@ 139
K-AH0-M-Y-UW1-@@ 139
L-D-ER0-Z 139
M-AA1-R-T-AH0-N 139
M-IH2-N-IH0-S-OW1-T-AH0 139
NG-K-AH0-@@ 139
P-IY1-S-IH0-Z 139
S-AO1-T 139
S-EH1-N-D 139
S-T-IY1-V 139
T-AA1-R-@@ 139
T-AY1 139
Z-AH0-T 139
-EY0-T 138
AE0-K-S-EH1-@@ 138
AH0-T-AE1-CH-T 138
B-ER0-L-IH1-N 138
B-ER0-Z 138
B-R-EH1-D 138
D-AA0-@@ 138
D-IH0-R-EH1-@@ 138
D-IH2-S-AH0-@@ 138
G-AA1-R-D 138
K-AH0-N-S-IH1-D-ER0-AH0-B-AH0-L 138
K-AO1-NG 138
P-AW1-ER0-Z 138
S-EY1-F 138
S-EY1-SH-AH0-N 138
S-IH1-G-N-AH0-L 138
S-IY1-L-Y-AH0 138
SH-EH1-R-D 138
T-ER1-N-AH0-L 138
W-ER1-L-D-W-AY1-D 138
ZH-@@ 138
AA0-N-ER0 137
AE1-N-@@ 137
AH0-D-IH1-SH-N-AH0-L 137
AH1-N-D-ER0-G-R-AW2-N-D 137
B-AA1-S-T-AH0-N 137
B-AE1-G 137
CH-EH1-S 137
F-AH1-N 137
F-R-AO1-@@ 137
G-AY1-Z 137
K-AO1-R-T-S 137
M-AH0-Z-UH1-R-IY0 137
M-EH2-D-AH0-@@ 137
M-EH2-T-AH0-@@ 137
N-AA1-R-@@ 137
N-D-IH0-NG-Z 137
N-IH0-SH-T 137
N-IY1-DH-ER0 137
P-AA1-R-T-N-ER0 137
P-AO2-R-T 137
R-AH0-K-AO1-R-D-IH0-NG 137
S-EH1-K-SH-UW0-AH0-L 137
S-IH0-G-N-IH1-F-IH0-K-AH0-N-T-L-IY0 137
SH-AH0-N-@@ 137
T-ER1-M-AH0-N-AH0-L 137
V-IH1-K-T-ER0-IY0 137
V-Y-UW2 137
W-EH2-L 137
Z-AH0-B-AH0-L 137
Z-B-ER0-G 137
-AH2-P 136
-AO2-L 136
AE1-F-R-AH0-K-AH0-N 136
AE1-N-D-R-UW0 136
AE2-B-S-AH0-L-UW1-T-L-IY0 136
B-L-AA1-N-D 136
D-UW1-K 136
EH1-P-AH0-S-OW2-D-Z 136
ER1-L 136
G-L-AE1-D 136
IH0-K-S-K-L-UW1-@@ 136
IH2-L-AH0-N-OY1 136
JH-IY0-Z 136
K-ER1-N-AH0-L 136
K-OY1-@@ 136
L-AA1-T-S 136
N-AH0-N-@@ 136
N-AY1-T-S 136
N-D-OW0 136
N-EY1-V-AH0-L 136
N-JH-AH0-@@ 136
N-OY1-Z 136
N-T-ER0-Z 136
OW0-L-IH1-M-P-IH0-K 136
P-ER2-@@ 136
R-AE1-P-AH0-D-L-IY0 136
S-AH1-L-@@ 136
S-AH1-N-@@ 136
S-EH1-K-AH0-N-@@ 136
S-T-AE2-N 136
SH-EY1-P-T 136
V-AA0-@@ 136
V-IH0-N 136
-AA2-R-Z 135
-D 135
AA1-L-AH0-@@ 135
AE1-K-S-AH0-D-AH0-N-T 135
AE1-N-S-ER0-D 135
AH0-P-AA1-R-T 135
AH0-W-AO1-R-D-AH0-D 135
B-R-OW1-@@ 135
CH-AH1-@@ 135
D-ER0-EH1-K-T-IH0-D 135
EH1-F-ER0-T 135
ER0-IY0 135
F-AW1-N-D-IH0-D 135
F-IH1-L-M-D 135
F-T-IH0-D 135
G-L-EH1-@@ 135
IH0-M-P-IH1-R-IY0-AH0-L 135
IH2-N-ER0-N-AE1-SH-AH0-N-AH0-L 135
JH-UW1-N 135
K-ER0-EH1-K-T 135
M-AE1-S-T-ER0-Z 135
M-IH1-L-Y-AH0-N 135
M-OW1-T-ER0-@@ 135
P-ER1-CH-AH0-S-T 135
R-AH0-V-Y-UW1-Z 135
S-K-IH1-L-Z 135
T-ER0-AA1-N-T-OW0 135
TH-IH1-NG-K-IH0-NG 135
W-IH1-L-S-AH0-N 135
Y-UW2-Z 135
-AO1-NG 134
-EY2@@ 134
AH0-CH-IY1-@@ 134
AO2-T-AH0-@@ 134
CH-AA1-R-L-IY0 134
D-IH0-S-T-R-IH1-B-Y-AH0-T-AH0-D 134
D-IH1-K-@@ 134
D-IH1-S-K 134
D-R-AA1-M-AH0 134
EH2-L-AH0-M-EH1-N-T-R-IY0 134
F-IH1-T 134
G-L-OW1-@@ 134
G-OW2 134
IY1-T-AH0-N 134
JH-EH1-N-ER0@@ 134
K-W-OW1-@@ 134
L-AO1-N-CH-T 134
M-AH0-SH-IY1-N-Z 134
M-AO0-@@ 134
P-IH2-@@ 134
P-R-AH0-V-IH1-N-SH-AH0-L 134
R-IH0-P-AO1-R-@@ 134
S-AE1-N-T-AH0 134
S-ER1-JH-ER0-IY0 134
S-IY1-IH0-NG 134
S-K-AH1-@@ 134
S-W-EH1-@@ 134
T-AE1-NG-K 134
W-IH1-NG 134
Y-IH1-@@ 134
AO1-F@@ 133
B-R-AY1-AH0-N 133
D-AH0-N-T-S 133
D-ER0-D 133
D-ER1-T 133
F-AO1-R-AH0-S-T-S 133
G-EY1-T 133
IH1-M-AH0-@@ 133
JH-AH0-N-Z 133
JH-EH1-N-R-AH0-L-IY0 133
K-AA2-M-P-AH0-Z-IH1-SH-AH0-N 133
K-S-IH0-NG 133
M-AE1-N-CH-EH2-S-T-ER0 133
M-IH1-S-IH0-Z 133
M-IY0-Z 133
N-T-AH0 133
P-AA1-P-Y-AH0-L@@ 133
P-AO0-R-@@ 133
P-R-AH0-JH-EH1-@@ 133
R-AH0-N-T 133
S-ER1-T-AH0-N-L-IY0 133
S-IY1-D-Z 133
S-UW1-D 133
T-AA2-P 133
T-AE1-S-K 133
T-AY1-M-@@ 133
V-EH1-R-IY0-Z 133
V-EH2-R-IY0-EY1-SH-AH0-N-Z 133
AA1-P-AH0-Z-AH0-T 132
AH0-HH-EH1-D 132
AW0-@@ 132
CH-AA1-R-JH-D 132
CH-UW0@@ 132
D-IY0-AH0-M 132
EH1-L-AH0-M-AH0-N-T 132
F-R-IY1-D-AH0-M 132
HH-EH0-@@ 132
JH-AH0-S 132
JH-IY1 132
K-AH0-M-P-EH1-R-D 132
K-AH0-N-S-UW1-@@ 132
K-EH1-M-IH0-@@ 132
K-L-AE2-S 132
K-W-AY1-AH0-T 132
K-W-EY1-@@ 132
L-AH0-N-Z 132
L-AY1-S-AH0-N-S 132
M-EH1-R-AH0-K-AH0-N 132
N-AH0-D 132
N-D-AH0-N-S 132
N-S-IH0-V 132
N-T-R-AH0-@@ 132
NG-R@@ 132
P-AA1-R-K-IH0-NG 132
P-EH1-N-AH0-@@ 132
R-AH0-T 132
R-IH0-P-EH1-@@ 132
R-IH0-V-AY1-@@ 132
S-P-EH1-K-@@ 132
S-P-R-IH1-NG-Z 132
S-T-EH1-P-S 132
S-T-IH0-K-S 132
SH-UH1-G-ER0 132
SH-UW1-Z 132
Y-UH0-R-S-EH1-L-F 132
AE1-K-T-ER0-Z 131
AE1-V-R@@ 131
AH0-B-IH1-L-AH0-T-IY0 131
AH0-V-OY1-@@ 131
B-IY0-AH0-N 131
B-L-AY1-@@ 131
D-R-AH0-@@ 131
F-IH0-NG 131
G-AA1-R-D-AH0-N-Z 131
G-L-AH1-@@ 131
G-L-EY1-@@ 131
G-L-IH1-@@ 131
IH1-N-T-ER0-AH0-@@ 131
K-AA1-NG-@@ 131
K-EY1-SH-AH0-N-Z 131
K-R-AO1-S-T 131
L-AA1 131
L-IH0-SH 131
M-AE1-N-IH0-@@ 131
M-AE1-S-K-AA2-T 131
M-EH1-N-T-ER0-IY0 131
M-IY1-L 131
N-AO2-R-@@ 131
N-AY1-T-@@ 131
P-ER1-P-AH0-S-AH0-Z 131
R-EH0-@@ 131
S-AH0-V-IH1-R 131
S-AW2-@@ 131
S-AY1-K-AH0-L 131
S-K-IH1-N 131
T-AH0-N-AY1-T 131
T-EH1-N-AH0-S 131
T-R-AH0 131
T-UW1-L-Z 131
V-AE1-L-Y-UW0-Z 131
V-IH1-K-@@ 131
V-IH1-Z-IH0-T 131
V-OW0-@@ 131
Z-IY0-@@ 131
ZH-ER0 131
AA1-P-ER0-EY2-T-IH0-NG 130
AE1-S-AH0-D 130
AH0-G-R-IY1-M-AH0-N-T 130
AH0-T-R-AE1-K-T-AH0-D 130
AH0-W-AO1-R-D-IH0-D 130
B-AA1-T-AH0-M 130
B-IH1-G-AH0-S-T 130
B-L-OW1-@@ 130
B-R-IY1-D-IH0-NG 130
B-R-IY1-F-L-IY0 130
D-UW1-T-IY0-Z 130
EH1-G-Z 130
F-AA1-DH-ER0-Z 130
F-L-AY1 130
HH-EH1-D-Z 130
IH0-N-V-EH1-S-T-AH0-G@@ 130
K-AH0-M-P-OW1-Z-ER0 130
K-AH0-N-S-T-R-AH1-K-T-IH0-D 130
L-AH1-V-D 130
L-IY1-D-ER0-SH-IH2-P 130
M-AE1-JH-IH0-K 130
M-Y-UW0-@@ 130
N-AO1-R-M-AH0-L-IY0 130
N-S-T@@ 130
NG-HH-AE2-M 130
OY2-D 130
P-IY1-P-AH0-L-Z 130
R-IH1-JH 130
S-AE0-@@ 130
S-AH1-M-ER0-@@ 130
S-AY1-K-L@@ 130
S-IH0-K-@@ 130
S-N-AE1-@@ 130
SH-OW1-L-D-ER0 130
T-EH1-S-T-IH0-NG 130
T-IY1-TH 130
W-OW1-@@ 130
ZH-AH0 130
-IY0-AH0-S-T 129
AA1-B-JH-EH0-K-T-S 129
AA1-K-Y-AH0-P@@ 129
AE1-K-SH-AH0-N-Z 129
AH0-B-T-EY1-N-D 129
AH0-P-L-AY1 129
B-EH1-R-IY0 129
F-EY1-TH 129
F-L-EH1-D 129
HH-AA2-@@ 129
HH-AE1-M-AH0-L-T-AH0-N 129
HH-IH1-T-S 129
HH-Y-UW0-@@ 129
IH0-N-D-AH1-@@ 129
IH0-N-F-AO1-R-@@ 129
IH2-N-T-R-AH0-@@ 129
K-AA1-N-K-R-IY0-T 129
K-L-IH1-R-L-IY0 129
K-R-EH1-D-IH0-T-S 129
K-R-IY0-EY1-SH-AH0-N 129
K-R-IY0-EY1-T-IH0-V 129
K-S-T 129
L-IH1-NG-K-S 129
L-IH2-Z-AH0-M 129
L-UW1-Z 129
M-AA1-R-K-AH0-@@ 129
NG-K-AH0 129
P-IY1 129
R-EH1-F-R-AH0-N-S 129
R-IH0-Z-AY1-D-Z 129
R-IY0-OW0 129
S-T-L-IY0 129
T-AY1-T-AH0-L-D 129
Y-UW1-N-IH0-@@ 129
Y-UW2 129
AA1-R-T-AH0-K-AH0-L-Z 128
AA2-R-@@ 128
AE1-K-SH-AH0-L-IY0 128
AE2-N-T-AY0-@@ 128
AH0-S-AY1-N-D 128
B-AE1-P-@@ 128
CH-UW1-@@ 128
D-AH0-L-IY0 128
D-AH0-S 128
D-IH0-G-R-IY1-Z 128
F-AH0-N 128
G-IY1-@@ 128
HH-AA1-L-IY0-W-UH2-D 128
IH1-N-K-AH2-M 128
IH1-N-T-ER0-@@ 128
IY0-V-EH1-N-T-S 128
JH-AE1-K-IH0-T 128
JH-IH0-K-AH0-L 128
K-AA1-N-S-T-AH0-N-T 128
K-AH0-M-Y-UW2-N-AH0-K-EY1-SH-AH0-N 128
K-AW1-N-T-ER0-@@ 128
K-IH1-CH-AH0-N 128
M-B-AH0-L-D 128
M-EY0-N-T-EY1-N 128
M-EY2-T-IH0-D 128
M-S-AH0-N 128
P-AE1-S-AH0-N-JH-ER0-Z 128
P-AH2-B-L-IH0-K-EY1-SH-AH0-N 128
P-L-AY1-@@ 128
R-IH0-Z-IH1-@@ 128
R-IH1-R 128
R-IY0-M-EY1-N-Z 128
S-EH1-N-AH0-T-ER0 128
S-ER0-AW1-@@ 128
S-IY1-K 128
S-K-OW2-P 128
T-AO0-R-@@ 128
TH-L@@ 128
AA1-P-R-AH0 127
AH0-N-AE1-@@ 127
AH0-N-EY1-B-AH0-L 127
D-AE1-N 127
EH1-K-S-T-R-AH0 127
EH1-N-JH-AH0-N-IH1-R 127
G-AH0-N-@@ 127
IH0-K-S-P@@ 127
IH0-K-S-T-EH1-N-SH-AH0-N 127
IH0-L-EH2-K-T-R-AA1-N-IH0-K 127
IH0-M-P-L-OY1-D 127
IH0-N-HH-EH1-R-AH0-@@ 127
JH-AE1-K-AH0-T 127
K-AA1-M-B-AE0-T 127
K-AA1-R-AH0-N-T 127
K-AE1-P 127
K-IH0-T-S 127
K-L-OW1-DH-Z 127
K-W-AO1-@@ 127
M-AE1-N-AH0-JH-ER0 127
M-EH1-D-IH0-K-AH0-L 127
M-OW1-T-ER0 127
P-OW1-L 127
P-R-EY1 127
P-R-IH1-N-T 127
R-EH1-L-AH0-@@ 127
S-AH2-B-@@ 127
S-L-AA1-@@ 127
SH-AA1-P-S 127
T-R-IY1-T 127
V-IH0-T-IY0 127
-AA1-L-AH0-JH-IY0 126
-AO2-NG 126
AH0-K-EY1-ZH-AH0-N-Z 126
AH0-S-AY1-@@ 126
CH-AY1-L-D-HH-UH2-D 126
D-OW2 126
ER0-IY1-N-AH0 126
F-IH1-N-IH0-@@ 126
F-R-IY1-K-W-AH0-N-S-IY0 126
G-AH0-N-AH0-@@ 126
G-AO1-L-F 126
IH0-K-W-IH1-V-AH0-L-AH0-N-T 126
IH1-N-ER0 126
IY0-V-EH1-N-SH-AH0-L-IY0 126
K-AH0-M-AE1-N-D-ER0 126
K-AH0-N-F-ER1-M-D 126
K-L-AE1-S-AH0-Z 126
L-AY1-T-S 126
L-IH1-B-ER0-AH0-L 126
L-IH1-NG-K-AH0-N 126
M-AO0-R 126
M-UW1-V-Z 126
N-EH1-DH-ER0-L-AH0-N-D-Z 126
P-EY1-N-T-IH0-NG-Z 126
R-AH0-K-AO1-R-D 126
S-AH0-P-AO1-R-T-S 126
S-EH1-R-AH0 126
S-P-ER1-@@ 126
S-T-R-OW1-@@ 126
S-TH@@ 126
SH-N-AH0-L-IY0 126
V-AY0-@@ 126
V-IY1-IH0-K-AH0-L-Z 126
W-AH1-N-D-ER0 126
W-IH0-CH 126
-AH0-L-AY2-Z-D 125
AH0-B-AH0-L 125
CH-AE1-L-AH0-N-JH 125
F-AH0 125
F-ER0-IH0-NG 125
F-IH1-Z-IH0-K-S 125
F-L-AY1-@@ 125
G-AA1-D-@@ 125
HH-AA1-L-AH0-D-EY2 125
IH0-F-EH1-K-T-IH0-V 125
IH0-G-Z-AE1-K-T 125
IH0-N-V-AY2-R-AH0-N-M-EH1-N-T-AH0-L 125
IH2-R@@ 125
K-AA1-Z-D 125
K-AE1-N-Z-AH0-S 125
K-S-AH0-N 125
K-Y@@ 125
L-AO1-R-AH0-N-S 125
M-EY2-T 125
M-IH1-T 125
N-T-OW0 125
N-Y-AH0-@@ 125
NG-D 125
P-AH1-B 125
P-R-OW1-T-EH2-@@ 125
R-IH0-S-T-AO1-R-D 125
R-IH0-Z-ER1-V 125
S-AH0-P-AO1-R-T-IH0-NG 125
S-EH1-G-@@ 125
S-L-IY1-P-IH0-NG 125
S-T-R-IH1-NG 125
S-W-IY1-D-IH0-SH 125
T-IH1-P-IH0-K-AH0-L-IY0 125
T-UW1-N-Z 125
V-AA1-L-Y-UW0-M 125
W-AA1-N-T-S 125
-AE1-L-AH0-T-IY0 124
AA1-N-T-UW0 124
AH0-F-R-EY1-D 124
AH0-T-AE1-K-S 124
B-IH2-@@ 124
D-IH0-Z@@ 124
F-IY1-D 124
G-AH0-L-Z 124
IH0-N-AE1-@@ 124
IH1-M-IH0-JH-IH0-Z 124
JH-AH1-NG-K-SH-AH0-N 124
K-AA2-N-V-ER0-S-EY1-SH-AH0-N 124
K-EH1-R-F-AH0-L-IY0 124
K-EY2-T-AH0-D 124
K-EY2-T-S 124
K-UH1-K-IH0-NG 124
L-AY1-V-Z 124
L-ER1-@@ 124
L-ER1-N 124
P-EY2-@@ 124
R-EY1-N-@@ 124
R-IY2-AE1-L-AH0-T-IY2 124
S-IH1-N-AH0-M-AH0 124
T-IH0-N 124
TH-IY1-S-T-ER0-N 124
V-AH0-T-IY0 124
V-OW1-K-AH0-L-Z 124
Y-UW1-N-AH0-F-AO2-R-M 124
Z-AA0-@@ 124
-UH2-K 123
AE1-F-ER0-K-AH0 123
AO1-R-D-ER0-Z 123
AO1-TH@@ 123
B-IY0-AH0 123
B-UH1-SH 123
D-IY2-@@ 123
D-R-IY1-M 123
DH-ER0-Z 123
F-IH1-NG-G-ER0-Z 123
IH0-G-Z-IH1-S-T-IH0-NG 123
IY1-S-T-@@ 123
JH-AA1-N-IY0 123
JH-EY1-N 123
K-AH0-N-F-EH1-@@ 123
K-AO0-R-@@ 123
K-EY1-P 123
K-Y-UH1-@@ 123
L-UW0-T-EH1-N-AH0-N-T 123
N-M-AH0-N-T 123
P-AE1-L-AH0-S 123
P-AH0-N@@ 123
P-L-AE2-@@ 123
R-AH0-M 123
R-AH1-G-B-IY0 123
S-AW1-N-D-T-R-AE2-K 123
S-IY1-K-R-IH0-T 123
S-K-AA1-L-ER0-Z 123
S-T-IY1-M 123
TH-AO1-@@ 123
W-AO1-R-Z 123
AE1-L-IH0-S 122
AE1-P-AH0-L 122
AH0-B-AH1-@@ 122
AH0-D-IH1-SH-AH0-N-AH0-L-IY0 122
AH0-M-EH1-R-IH0-K-AH0-N-Z 122
AH0-N-F-AO1-R-CH-AH0-N-AH0-T-L-IY0 122
AH0-P-IY1-L 122
AH0-TH-AO1-R-AH0-T-IY0-Z 122
B-IY0-Z 122
CH-AE1-P-AH0-L 122
D-AY1-AH0-@@ 122
EH1-TH-N-IH0-K 122
F-AH1-N-D-IH0-NG 122
F-EY1-Z 122
F-IY0-@@ 122
G-EY1-N 122
G-R-AE1-JH-UW0-@@ 122
HH-AH1-N-T-IH0-NG 122
IH0-K-S-EH1-P-@@ 122
IH0-K-W-EY1-@@ 122
IH0-N-K-R-IY1-S-IH0-NG 122
K-AA1-L-IH0-@@ 122
K-AH0-M-AE1-N-D-Z 122
K-AW1-N-T-IY0-Z 122
K-UH1-D-AH0-N 122
K-UH1-K 122
L-AH1-V-Z 122
M-B-EH1-@@ 122
N-T-L-IY0 122
P-ER0-EY2-T-AH0-D 122
R-EH1-N-AH0-@@ 122
R-EH1-Z-IH0-D-AH0-N-S 122
R-IH0-P-AH1-B-L-IH0-K-AH0-N 122
R-IY0-Z@@ 122
S-T-EY1-D 122
T-M-AH0-N-T-S 122
W-AO1-N-T 122
-UH1-R 121
AA1-R-TH-ER0 121
AE1-L-B-ER0-T 121
AH0-K-W-AY1-ER0-D 121
B-AH2-@@ 121
D-AH1-Z-AH0-N-T 121
D-AY2-AH0-@@ 121
D-EH1-K-EY0-D-Z 121
D-EH2-F-AH0-N-IH1-SH-AH0-N 121
EH2-K-S-@@ 121
F-OW1-T-OW2 121
G-OW2-@@ 121
HH-EH1-L-P-S 121
IH0-K-S-P-R-EH1-@@ 121
IH0-K-S-T-EH1-@@ 121
IH0-K-S-T-EH1-N-D-IH0-D 121
IH0-L-UW1-@@ 121
IH0-N-T-EH1-N-D-IH0-D 121
IH0-N-T-R@@ 121
K-AA1-T 121
K-AE1-T-AH0-L 121
K-AH0-N-V-ER1-T-IH0-D 121
K-AW1-N-T 121
K-L-AE1-S-AH0-F-AY2-D 121
L-AE1-N-D-IH0-NG 121
L-IH1-NG-K-T 121
M-AA1-D-ER0-@@ 121
M-Y-AH0-L@@ 121
N-Y-AH0-N 121
P-AO1-R-CH-AH0-G-IY2-Z 121
P-L-EY1-N-Z 121
S-AE1-N-D-@@ 121
S-AH0-L-EH1-K-T-IH0-D 121
S-AW1-TH-@@ 121
S-EH1-K-S 121
S-P-EH1-N-D 121
S-P-OW1-@@ 121
S-T-EY1-B-AH0-L 121
T-IY2-N 121
T-R-AE0-N-Z-@@ 121
Y-UW1-Z-ER0 121
Z-AH0-N-T 121
-AO1-R-AH0-T-IY0 120
-AO2-T-ER0 120
-ER0-AH0 120
AH0-S-OW1-SH-IY0-EY2-T-AH0-D 120
B-AA0-R-@@ 120
D-AE1-M-AH0-@@ 120
D-AH0-B-EY1-T 120
D-IH0-K-L-AY1-N-D 120
F-EY1-M 120
G-AH1-S-IY0 120
G-R-AE1-N-D-F-AA2-DH-ER0 120
HH-W-IH1-N 120
IH0-N-V-AY1-@@ 120
K-AW2-T 120
K-OW2@@ 120
L-AH0-N-D-Z 120
M-AH1-L-T-AH0-@@ 120
M-AW1-S 120
M-IY1-T-S 120
N-EH1-K 120
P-ER0-F-AO1-R-@@ 120
R-IY2-IH0-N-@@ 120
S-L-EH1-@@ 120
S-UW1 120
T-OW0-Z 120
V-AH1-L-@@ 120
W-EH1-L-N-OW1-N 120
-AY2-R 119
AA2-R-T-AH0-F-IH1-SH-AH0-L 119
AH0-L-AY1-V 119
AH0-P-EH1-R-AH0-N-T-L-IY0 119
AH0-P-IY1-@@ 119
AH2-N-IH0-@@ 119
AO2-R-G-AH0-N-IH0-Z-EY1-SH-AH0-N 119
D-EH1-M-AH0-N-S-T-R@@ 119
D-IH0-M-AE1-@@ 119
D-R-AH1-@@ 119
D-R-AO1-IH0-NG 119
EH1-K-S-@@ 119
EY2-T-AH0-D 119
F-EY1-V-UH1-R-AY0-T 119
F-L-AY1-T-S 119
F-R-AA1-@@ 119
G-AH1-V-ER0-N-D 119
G-R-AE1-N-T 119
IH0-L-EH1-V-AH0-N 119
IH1-N-T-R-AH0-@@ 119
K-AH0-L-EH1-K-T-AH0-D 119
K-AH0-M-P-OW1-N-AH0-N-T-S 119
K-AH0-N-S-ER1-N-D 119
K-ER0-R-IY1-@@ 119
K-L-AW1-@@ 119
N-T-IY0-@@ 119
P-R-OW2-@@ 119
R-OW2-@@ 119
S-EH0-P-T-EH1-M-B-ER0 119
S-EH1-N-ER0 119
S-M-AY1-L 119
S-M-UW1-DH 119
T-EH1-L-AH0-F-OW2-N 119
T-EH1-M-P-R-AH0-CH-ER0 119
T-R-AH1-B-AH0-L 119
TH-AA1-@@ 119
-IH2-R@@ 118
AA2-B-@@ 118
CH-OW1-Z 118
D-AA1-N 118
D-AE1-T-AH0 118
D-IH0-K-L-EH1-R-D 118
D-IH0-P-EH1-N-D-IH0-NG 118
D-IH1-S-AH0-P-L@@ 118
EH1-D-AH0-N-B-ER0-OW0 118
EY2-T-ER0 118
F-AE1-K-T-ER0-Z 118
G-AE1-L-ER0-IY0 118
G-OW1-L-D-@@ 118
G-R-AE1-JH-AH0-W-AH0-T 118
JH-IY0-@@ 118
K-AH0-M-B-AY1-N-D 118
K-CH-ER0 118
K-IH2-@@ 118
K-IY0-Z 118
L-AH0-Z 118
M-AE1-P 118
M-EY2-@@ 118
N-T-EY1-SH-AH0-N 118
P-AE1-S-IH0-NG 118
P-EY1-N-T-IH0-D 118
R-AH0-N@@ 118
R-AH1-F 118
R-EH2-P-R-IH0-Z-EH1-@@ 118
S-IH1-K-S-T@@ 118
S-P-AH0-S-IH1-F-IH0-K-L-IY0 118
S-P-IY1-K-ER0 118
S-T-AH1-F 118
SH-EH1-L 118
T-AO0-@@ 118
T-IY1-N-AH0 118
T-W-EH1-N-T-IY0 118
TH-ER0-@@ 118
W-ER1-S 118
W-IH2-@@ 118
Y-UW0@@ 118
-AO2-N 117
AE1-K-T-IH0-@@ 117
AE1-S-AH0-@@ 117
AH0-L-UW1-@@ 117
AH0-T-AE1-K-T 117
AH2-N-IH0-N-K-AO2-R-P-ER0-EY2-T-IH0-D 117
B-IH0-K-AO1-Z 117
D-AO1-R-Z 117
D-IH0-S-K-R-AY1-B 117
D-IH0-S-P-Y-UW1-@@ 117
F-OW2-N-Z 117
G-AA2-R-@@ 117
K-AA1-M-AH0-@@ 117
K-AH0-M-P-AE1-@@ 117
K-AH0-N-S-IH1-S-T-AH0-D 117
K-L-ER1-@@ 117
M-ER0-IY1-@@ 117
N-AE1-V-AH0-@@ 117
N-AO2-@@ 117
OY2 117
P-R-IH0-V-EH1-N-T 117
R-EH1-S-T-ER0-AA2-N-T 117
R-IY1-S-AO0-R-S-IH0-Z 117
S-AE1-M 117
S-AH0-P-AO1-R-T-IH0-D 117
S-EH1-P-SH-AH0-N 117
S-ER1-K-AH0-T 117
S-M-OW1-K-IH0-NG 117
S-T-AE1-N-D-ER0-D-Z 117
T-ER1-N-AH0-@@ 117
T-UW2-@@ 117
UH1-@@ 117
V-IY0-AH0-N 117
-AE0-K-T 116
-AH0-L-IH2-Z-AH0-M 116
-UH2-R@@ 116
AA1-L-@@ 116
AE1-F-R-AH0-@@ 116
AH0-S-IH1-S-T@@ 116
B-AA1-D-IY0-Z 116
B-AE1-NG-@@ 116
D-AY0-R-EH1-K-T-ER0 116
D-IH0-S-P-L-EY1-D 116
EY1-P-R-AH0-L 116
F-L-IY1-T 116
G-AA1-R-D-IY0-AH0-N 116
IH0-K-S-P-R-EH1-S 116
IH0-N-K-R-IY1-S-IH0-NG-L-IY0 116
JH-AH0-L 116
JH-AH1-M-P-S 116
K-AA1-N 116
K-AA2-N-S-T-AH0-T-UW1-SH-AH0-N 116
K-L-UW1-@@ 116
K-R-AH0-S-IY0 116
M-AH0-K-AE1-@@ 116
N-AH2-T 116
P-R-AH0-F-EH1-@@ 116
R-AA1-K-IY0 116
S-AH0-B-AH0-L 116
S-IY1-S-T 116
S-K-AH1-L-P-@@ 116
S-T-AA1-R-T-S 116
SH-IH0-P 116
T-AH0-F-AY2-D 116
TH-AW1-Z-AH0-N-Z 116
TH-IH1-N 116
W-IH0-K 116
Y-UW1-M-AH0-N 116
Z-D-EY2 116
AA1-R-CH-@@ 115
AH0-F-EH1-R-Z 115
AH0-M-EH1-@@ 115
AO1-TH-ER0-Z 115
B-AE1-TH 115
B-IY1-T 115
B-OW1 115
D-EH1-R 115
D-R-IY1-@@ 115
F-IH2-SH 115
F-IY1-M-EY2-L-Z 115
G-AH1-N-Z 115
G-EY1 115
G-L-OW1-B-AH0-L 115
HH-AE1-N-D-AH0-L 115
HH-AH0-M 115
IH0-K-S-P-R-EH1-S-T 115
K-AH0-M-P-IY1-T-IH0-D 115
K-AH0-N-V-EH1-N-SH-AH0-N 115
K-EY1-S-AH0-Z 115
K-IY1-P-S 115
L-AH0-N-T 115
L-AO1-T 115
L-S-AH0-N 115
M-AA1-T-OW0 115
M-AH0-L-EH1-@@ 115
M-B-AA1-@@ 115
M-IH1-R-L-IY0 115
N-IY1 115
P-AE1-R-IH0-SH 115
P-L-EY1-S-AH0-Z 115
P-OW1-L-IH0-SH 115
P-OW1-Z 115
R-EH1-Z-IH0-D-AH0-N-T 115
R-EH2-P-R-IH0-Z-EH1-N-T 115
R-IH0-S-IY1-V 115
R-IH1-NG-Z 115
S-AY1-N-Z 115
S-EH1-L-F 115
S-IH1-M-AH0-L-ER0-L-IY0 115
S-T-R-EY1-SH-AH0-N 115
SH-AA1-R-P 115
T-OW2-@@ 115
T-R-OW0-@@ 115
W-AH0-N 115
W-AH1-N-@@ 115
W-AO1-N-IH0-D 115
W-IY1-V 115
Y-AA1-R-@@ 115
Z-ER0-D 115
-AA0 114
AA1-D-IY0-OW2 114
AY0-D-EH1-N-AH0-@@ 114
B-OY2 114
B-R-AA1-N-Z 114
B-R-EY1-K-S 114
CH-EH1-R-IH0-T-IY0 114
D-AA2-K-Y-AH0-@@ 114
D-EY1-N-JH-ER0-AH0-S 114
D-IH0-M-AE1-N-D 114
G-AA1-D-Z 114
G-IH1-L-@@ 114
HH-AW1-ER0-D 114
HH-IH1-L-@@ 114
IH0-N-S-T-AO1-L-D 114
IH0-S-K-EY1-P-T 114
JH-OW1-S-AH0-F 114
K-AA1-T-AH0-N 114
K-AE1-N-S-AH0-L-D 114
K-AH0-N-EH1-T-AH0-K-AH0-T 114
K-L-AE2-S-AH0-F-AH0-K-EY1-SH-AH0-N 114
K-R-IY0-EY1-T-AH0-D 114
K-W-AA1-L-AH0-F-AY2-D 114
M-AH0-N-EY2-T 114
M-EH1-M-B-ER0-SH-IH2-P 114
N-S-ER0-@@ 114
P-OY2-N-T 114
R-IH0-Z-AY1-@@ 114
R-IY0-L-IH1-@@ 114
S-AH0-P@@ 114
S-AH0-S-T-EY1-@@ 114
S-EH1-T-AH0-L-M-AH0-N-T-S 114
S-IH1-K 114
S-M-AY1-@@ 114
S-T-IH1-K 114
SH-IH2-P-S 114
T-IH1-P-AH0-K-AH0-L 114
W-EY1-K 114
-AO2 113
-AO2-R-Z 113
AE1-N-D-ER0-S-AH0-N 113
B-EH1-N 113
B-R-AO1-D 113
CH-AY1-@@ 113
D-AY2-@@ 113
D-EY1-T-S 113
D-R-AA1-P 113
EH0-N-D@@ 113
EH1-N-D-AH0-D 113
F-AE1-SH-AH0-N 113
IH0-K-S-P-IH1-R-IY0-AH0-N-S-T 113
IH0-L-AE1-@@ 113
IH0-N-T-ER1-N-AH0-L 113
K-AA1-R-L 113
K-AA2-M-B-AH0-N-EY1-SH-AH0-N 113
K-AH1-M-F-ER0-T-AH0-B-AH0-L 113
K-EY2-S 113
K-OW1-D-IH0-NG 113
L-AH0-T-IY0-Z 113
L-IH0-NG-Z 113
M-AH0-N-IH1-@@ 113
M-IH1-L-ER0 113
OW1-L-@@ 113
P-AH1-L-@@ 113
P-IY0-AE1-N-OW0 113
P-R-AA1-S-EH0-S-IH0-NG 113
P-R-IY0-Z-EH1-@@ 113
R-AH0-B-AH0-L 113
R-IY0-L-EY1-@@ 113
R-OW1-L-IH0-NG 113
S-AH1-B-W-EY2 113
S-EH1-R-AH0-@@ 113
S-ER0-V-AY1-V 113
S-ER0-V-AY1-V-IH0-NG 113
S-T-AA2-R 113
S-T-R-AY1-K 113
S-T-R-EH1-S 113
SH-IY1-P 113
T-AY0-@@ 113
T-IY1-N-TH 113
V-IH1-ZH-AH0-W-AH0-L 113
W-EH1-B-@@ 113
W-EH1-P-AH0-N-Z 113
Y-UW1-Z@@ 113
-AH0-N-IH0-NG 112
-AH0-N-IY0 112
AA0-R-T-IH1-@@ 112
AA1-N-@@ 112
AH0-L@@ 112
AH0-N-T 112
AY0-D-EH1-N-T-AH0-F-AY2-D 112
B-ER1-N-D 112
CH-AO1-K-L-AH0-T 112
D-IH0-L-IH1-V-ER0-D 112
EH1-N-T-ER0 112
ER0-EH1-S-T-AH0-D 112
EY1-JH-AH0-N-S-IY0 112
F-IH0-N 112
IH0-F-EH1-K-T-S 112
IH0-M-P-R-UW1-V 112
IH2-N-S-T-IH0-T-UW1-SH-AH0-N 112
JH-AH0 112
K-AH0-N-S-AH1-L-@@ 112
K-AH0-N-S-T-R-AH1-@@ 112
K-AH1-S-T-AH0-@@ 112
L-AO1-Y-ER0 112
M-AE1-G-AH0-Z-IY2-N-Z 112
M-EH1-ZH-ER0-@@ 112
M-ER1-JH-D 112
M-EY1-SH-AH0-N-Z 112
M-P-AH0-L-Z 112
N-UW1-T-R@@ 112
OW1-N-ER0-Z 112
P-AH2-B-L-IH0-K-EY1-SH-AH0-N-Z 112
P-EY1-T-R@@ 112
P-IH1-R-@@ 112
P-L-EY2-S 112
P-R-AH0-V-AY1-@@ 112
P-R-EH1-SH-AH0-N 112
P-Y-UH1-R 112
R-IH0-V-ER1-@@ 112
S-AH0-K-S-EH1-S-F-AH0-L-IY0 112
S-ER1-K-AH0-M-S-T-AE2-@@ 112
SH-L-IY0 112
T-ER1-N-IH0-NG 112
T-IH0-JH 112
W-EY1-V-Z 112
W-UH1-D-Z 112
-AE@@ 111
AE1-M-AH0-@@ 111
AH0-K-AW1-N-T@@ 111
B-L-UW1-Z 111
B-OW2-@@ 111
D-IH0-F-IY1-@@ 111
D-R-IH0-K 111
EH1-F 111
F-EY1-V@@ 111
F-IH2-L-AH0-D-EH1-L-F-IY0-AH0 111
F-L-UW1 111
F-R-EY1-M 111
G-AH0-L@@ 111
HH-AA0-R-@@ 111
HH-AA1-R-T-@@ 111
HH-EH1-L-M-AH0-T 111
IH0-N-SH-UH1-R-AH0-N-S 111
IY0-V-EH1-N-T 111
JH-OY1 111
K-AA2-M-P@@ 111
K-AH0-N-S-T-IH1-CH-UW0-AH0-N-S-IY0 111
K-AH1-L-ER0-F-AH0-L 111
K-ER0-D 111
L-AH1-N-CH 111
M-IH1-S-T 111
N-D-R-AH0 111
N-UW1-K-L-IY0-ER0 111
P-ER1-S-AH0-N-Z 111
P-L-AE1-S-T-IH0-K 111
P-OW1-AH0-M-Z 111
P-R-AE1-@@ 111
R-IH0-T-AY1-ER0-M-AH0-N-T 111
S-AA1-L-@@ 111
S-AY1-AH0-@@ 111
S-EH1-N-CH-ER0-IY0-Z 111
T-AH0-L-@@ 111
V-OW0 111
V-Y-UW1-D 111
W-AY1-L-D-L-AY2-F 111
W-ER0-D-Z 111
ZH-AA1-N-R-AH0 111
-AO0-L 110
AA1-P-ER0-EY2-T 110
AE1-D-V-ER0-T-AY2-Z-IH0-NG 110
AH0-F-IH1-SH-AH0-L-IY0 110
AH0-K-AH1-M-P-AH0-N-IY0-D 110
AO2-R-@@ 110
AW2-T-S-T-AE1-N-D-IH0-NG 110
B-OW2 110
CH-AA1-R-AH0-L-Z 110
D-IH0-P-EH1-N-D-AH0-N-T 110
EY2-T-S 110
F-ER0-M-EY1-SH-AH0-N 110
F-IH1-L-AH0-P 110
F-R-IY2 110
G-AA2-N 110
G-UH1-D-@@ 110
HH-UH1-@@ 110
IH0-K-S-P-EH1-K-T 110
K-AE2-T-AH0-@@ 110
K-AH0-N-T-AH1-K-IY0 110
K-L-AY1-M-IH0-T 110
L-AH0-N-D-ER0 110
M-AA2-R-K 110
M-AH0-K-AA1-R-@@ 110
M-UW1-V-M-AH0-N-T-S 110
N-CH-@@ 110
P-AA2-P-Y-AH0-L-EH1-R-AH0-T-IY0 110
P-IH1-K 110
P-IY1-T-ER0-@@ 110
P-UH1-L 110
R-AY1-D-Z 110
R-EH2-P-R-AH0-Z-EH1-@@ 110
R-IH0-N 110
R-IH0-P-AO1-R-T-S 110
S-AH0-G-JH-EH1-S-T-S 110
S-AH1-B-JH-IH0-K-T-S 110
S-K-IY1-M 110
S-T-ER0-D 110
SH-AY2-R 110
T-S-IY0 110
Y-UW1-N-IH0-T 110
Z-R@@ 110
-AH0-N-AA1-@@ 109
-ER0-AH0-N 109
-IY2-OW0-@@ 109
AH0-D-AH1-L-T-S 109
AH0-S-T-R-AA1-@@ 109
AO1-N-T 109
AO1-R-AH0-@@ 109
B-OW1-T-S 109
D-IH0-F-IY1-T 109
EH1-T 109
EH2-R@@ 109
EY1-T-IY1-N 109
F-AH0-N@@ 109
F-EY1-S-IH0-NG 109
G-R-EY1-V 109
HH-AO1-R-AH0-@@ 109
IH0-N-K-R-IY1-S 109
JH-AA1-B-Z 109
K-AE1-N-AH0-N 109
K-AE1-R-IH0-K-T-ER0-Z 109
K-AH0-L-EH1-K-SH-AH0-N-Z 109
K-AH0-M-IH1-T-AH0-D 109
L-EY1-D-IY0-Z 109
M-AA1-D-AH0-@@ 109
M-AA2-N-T 109
M-AE1-S-IH0-V 109
M-IH1-L-Z 109
M-Y-UW0-Z-IH1-SH-AH0-N 109
N-CH-IH0-Z 109
N-EY2-@@ 109
NG-G-W-IH0-@@ 109
P-AE1-N-T-S 109
P-AH0-T-EY1-@@ 109
P-OW1-AH0-M 109
P-R-EH0-@@ 109
R-IH0-S-T 109
S-AA1-L-AH0-D 109
S-AE1-NG 109
S-AE1-T-ER0-@@ 109
S-AH0-T 109
S-AO1-L-@@ 109
S-AY2-T-S 109
S-EH1-N-T-AH0-N-S 109
S-M-AA1-R-@@ 109
S-T-AH0-M 109
T-AA1-R-G-AH0-T 109
T-AH0-V@@ 109
T-EH1-S-T-S 109
T-IY1-CH-ER0-Z 109
V-AA1-L-@@ 109
Z-OW1-N 109
-L-IY0 108
-UW2-T 108
AE1-L-K-AH0-HH-AA2-L 108
AH0-P-AA1-@@ 108
B-AE1-L-AH0-N-S 108
B-IH1-L-IY0 108
CH-AE1-L-AH0-N-@@ 108
D-ER0-IH0-NG 108
D-EY1-V@@ 108
D-IH0-S-AO1-R-@@ 108
D-IH0-V-IH1-ZH-AH0-N-Z 108
F-AY1-ER0-D 108
F-T-IH0-NG 108
G-OW1-L-Z 108
G-R-AW2-N-D 108
IH0-N-V-EH2-S-T-AH0-G-EY1-SH-AH0-N 108
IH0-R-EH1-@@ 108
IH1-L 108
K-AH0-N-V-ER1-@@ 108
K-AO1-S-T 108
K-IY1-N 108
L-UH1-@@ 108
M-AH0-L-EY1-@@ 108
M-AO1-R-AH0-@@ 108
N-AH0-N-S 108
N-S-AH0-L 108
P-AY2-AH0-N-IH1-R 108
R-EY1-Z 108
R-IH0-D-UW1-S 108
R-IH0-JH-EH1-K-T-IH0-D 108
S-AA0-R-@@ 108
S-AH0-B-JH-EH1-@@ 108
S-IH0-JH-IH0-Z 108
S-IH1-M-B-AH0-L 108
S-K-R-IH1-@@ 108
S-T-EY1-T-M-AH0-N-T 108
S-W-IY1-D-AH0-N 108
SH-EH1-R-Z 108
T-IY1-CH 108
TH-ER1-D-IY0 108
V-AO1-@@ 108
V-AY1-AH0-L-AH0-N-S 108
W-ER1-K-ER0 108
Y-ER0-@@ 108
Y-UW2-N-AH0-V-ER1-S-AH0-L 108
Z-L-IY0 108
-IY2-D 107
-IY2-N-Z 107
AA1-N-ER0-EH2-R-IY0 107
AH0-D-M-IH1-@@ 107
AH0-K-S-EH1-P-T 107
AH2-N-D-IH0-@@ 107
B-AH0-T-S 107
B-L-AH0-@@ 107
B-L-AY1-N-D 107
B-R-IH2-JH 107
CH-L@@ 107
D-EH1-V-AH0-L 107
D-EY1-V 107
D-EY2-Z 107
D-IH2-S-AH0-P-IH1-@@ 107
D-R-AH1-G 107
EH1-N-IY0-@@ 107
EH2-JH-AH0-K-EY1-SH-AH0-N-AH0-L 107
F-EH2-D-ER0-EY1-SH-AH0-N 107
HH-AO1-R-S-AH0-Z 107
IH0-K-S-P-AE1-N-SH-AH0-N 107
IH0-M-IY1-D-IY0-AH0-T 107
IH0-N-V-EY1-@@ 107
IH1-N-T-R-IH0-@@ 107
K-AA1-M 107
K-AH0-L-OW1-N-IY0-AH0-L 107
K-AH0-M-P-OW1-N-AH0-N-T 107
K-AH0-Z 107
K-OY1-N-Z 107
K-R-IH1-T-IH0-@@ 107
K-R-UW1-Z 107
L-IY1-N 107
L-UW1-Z-IH0-NG 107
M-AA2-R-@@ 107
M-AE1-L-@@ 107
M-AH0-L-IY0 107
M-AH0-T-AE1-@@ 107
M-IH2-S-IH0-S-IH1-P-IY0 107
M-OW1-T-ER0-S-AY2-K-AH0-L 107
P-EH0-@@ 107
P-ER0-EY2-T-IH0-NG 107
P-L-AA1-@@ 107
P-R-IH0-V-EH1-@@ 107
R-AH0-K-AO1-R-D-Z 107
R-IH0-L-IH1-JH-AH0-N 107
R-IH0-L-IY1-F 107
R-IH0-T-AY1-R-D 107
R-IY0-AH0-N-Z 107
S-AH0-L-EH1-@@ 107
S-B-ER0-G 107
S-EH1-N-AH0-T 107
S-EH2-M-IY0-@@ 107
S-IH0-T 107
S-IY0-AH0 107
SH-UH1-K 107
T-AH0-L-D 107
T-EH2-R-IY0-Z 107
TH-R-AY1-@@ 107
V-AW1-@@ 107
W-IH1-N-@@ 107
Y-AH1-NG-G-AH0-S-T 107
-AA2-T 106
-AH0-N-EY1-SH-AH0-N-Z 106
-ER0-N 106
-IY2-AH0-@@ 106
-IY2-T 106
AA1-R-M-D 106
AH0-K-AW1-N-T-S 106
AH0-S-T 106
AH0-T-R-IH1-B-Y-AH0-T-AH0-D 106
AO1-N-@@ 106
AO1-R-TH-AH0-D-AA2-K-S 106
B-R-UW0-@@ 106
B-Y-AH0-@@ 106
D-EH1-N-@@ 106
D-IH0-P-L-OY1-@@ 106
D-R-AH1-M-Z 106
EH0-K-S-T-R-IY1-M 106
EY1-N-CH-AH0-N-T 106
F-Y-UW1-N-ER0-AH0-L 106
H@@ 106
HH-AE2-M 106
IY1-K-W-AH0-L 106
K-AE0-M-P-EY1-@@ 106
K-ER0-AH1-@@ 106
K-L-IH0-@@ 106
K-R-AA1-P-S 106
K-UW1-L 106
L-AO1-N-CH 106
L-AY1-AH0-N 106
L-AY1-K-T 106
M-ER0-AH0-L 106
M-IH1-D-AH0-L-@@ 106
M-IH1-S-T-ER0-IY0 106
OW2-K-L-AH0-HH-OW1-M-AH0 106
P-ER1-F-IH2-K-T 106
P-R-AH0-D-UW1-S-IH0-NG 106
P-R-AH0-D-UW1-S-IH0-Z 106
R-OW1-P 106
S-AH0-G-JH-EH1-S-T-AH0-D 106
S-ER0@@ 106
S-IY1-Z 106
S-K-AO1-@@ 106
S-OW2-@@ 106
S-W-IH1-T-S-ER0-L-AH0-N-D 106
T-AY1-D 106
T-R-AH1-K 106
TH-IH1-K 106
Y-UH0-@@ 106
-AO1-N 105
0-AA1-@@ 105
AH0-D-AA1-@@ 105
B-EY1-S-AH0-S 105
B-IH1-L-AH0-T-IY0-Z 105
B-IH1-Z-N-AH0-S-AH0-Z 105
B-R-AO1-D-W-EY2 105
D-AH0-L-Z 105
D-AY2-AH0-G-N-OW1-@@ 105
D-IH0-K-L-AY1-N 105
D-IH0-S-K-AH1-SH-AH0-N 105
EH2-K-S-P-L-AH0-N-EY1-SH-AH0-N 105
F-AA1-R-M-ER0-Z 105
F-AE1-K-T-ER0 105
F-EH1-N-S 105
F-ER0-EH1-V-ER0 105
F-EY2-S 105
G-EY1-SH-AH0-N-Z 105
HH-AO2-R-@@ 105
IH2-N-S-T-IH0-T-UW1-SH-AH0-N-Z 105
JH-AY1-AH0-N-T 105
JH-IY1-Z-AH0-S 105
K-AA1-M-P-L-AH0-@@ 105
K-AA1-N-F-L-IH0-K-T 105
K-AA1-N-T-EH0-K-S-T 105
K-AA1-Z-AH0-Z 105
K-EH1-R-IY0-Z 105
K-IY1-Z 105
K-OW2 105
L-AY1-D 105
L-OW1-G-OW0 105
N-OW0-V-EH1-M-B-ER0 105
R-IH0-F-@@ 105
R-IH0-F-ER1-Z 105
R-IH0-K-AO1-R-D-IH0-NG 105
R-IH0-S-P-EH1-@@ 105
R-IY0-Z-AA1-@@ 105
S-AO1-F-W-EH2-R 105
S-AY1-L-AH0-N-T 105
S-IH1-M-@@ 105
S-UW1-P-ER0 105
SH-IY0-EY2-T-IH0-D 105
T-AH1-NG 105
TH-AW1-Z-AH0-N-D 105
TH-EH1-R-AH0-P-IY0 105
V-EH1-S-AH0-L-Z 105
-AY2-K 104
-AY2-T-S 104
AE1-F-R-IH0-K-AH0-N 104
AE1-N-Y-UW0-AH0-L-IY0 104
AH0-D-AH1-L-T 104
AH0-P-@@ 104
AH0-P-OY1-@@ 104
AO1-R-K-AH0-S-T-R-AH0 104
B-AH1-S-IH0-Z 104
B-AO2-R-N 104
B-L-AA1-K-S 104
B-UW0-@@ 104
CH-ER1-CH-IH0-Z 104
D-EH1-Z-ER0-T 104
D-EY1-T-AH0-@@ 104
D-IH0-S-AH0-@@ 104
D-IH0-V-EH1-L-AH0-P-IH0-NG 104
EH1-N-T-ER0-IH0-NG 104
EH1-R-ER0 104
EH2-JH-Y-UW0-K-EY1-SH-AH0-N 104
F-ER0-AH0-N-S 104
G-OW1-L-@@ 104
G-R-AE1-M-ER0 104
G-R-EH1-G-S-AH0-N 104
G-R-IY1-S 104
IH0-F-EH1-K-S 104
IH0-K-S-P-R-EH1-SH-AH0-N 104
IH1-N-JH-AH0-N 104
JH-AH0-N-EH1-@@ 104
K-EH1-R-AH0-K-T-ER0-AY2-Z-D 104
K-ER0-AA1-@@ 104
K-L-AY1-M-AH0-T 104
K-OW1-S-T-AH0-L 104
K-R-AE1-SH 104
L-EH1-JH-AH0-N-@@ 104
L-UW0 104
M-AE1-T-ER0-Z 104
M-AH0-N-AH0-N-T-L-IY0 104
M-AH2-@@ 104
M-ER0-D 104
M-IH1-N-IH0-S-T-ER0 104
P-AA1-L-AH0-@@ 104
P-AH0-N-IH1-N-S-AH0-L-AH0 104
P-EH1-N 104
P-ER0-Z-EH1-N-T-AH0-D 104
P-L-AE1-N-AH0-T 104
P-L-IY0 104
P-R-IH1-N-S-EH0-S 104
S-AH0-L-EH1-K-SH-AH0-N 104
S-ER0-EH1-@@ 104
S-K-AO1-R-@@ 104
S-OW1-L-ER0 104
S-T-AH0-N-T-L-IY0 104
S-T-AH0-T-UW2-@@ 104
S-T-AH1-D-IY0-IH0-NG 104
S-T-R-EH1-NG-K-TH 104
S-W-EY1-@@ 104
T-S-AH0-N 104
V-EH1-N-CH@@ 104
V-IH0-S 104
V-IH1-Z-IH0-T-ER0-Z 104
W-AA0-@@ 104
W-AH1-Z-AH0-N-T 104
W-AO1-K-T 104
W-UH1-L-F 104
Y-ER1-@@ 104
-AY2-T-ER0 103
AE0-K-S-EH1-S-AH0-B-AH0-L 103
AE0-TH-L-EH1-T-IH0-K 103
CH-EH1-R-AH0-@@ 103
D-EH1-K-ER0-@@ 103
D-R-AY1-V-ER0-Z 103
EH1-L-S-W-EH2-R 103
EH1-N-IY0-B-AH0-D-IY0 103
F-AH0-N-IY0 103
F-ER0@@ 103
HH-EH1-R-AH0-L-D 103
HH-EY1 103
IY0-D 103
JH-AH0-S-T 103
K-AE1-N-Y-AH0-N 103
L-AA1-K 103
L-AE1-N-D-Z 103
L-AH0-JH-IY0-Z 103
M-EH1-K-AH0-N-IH2-Z-AH0-M 103
M-EY1-N-@@ 103
M-EY1-N-IY0-AH0 103
M-IH0-D 103
M-P-R-AH0-@@ 103
N-IH1-K-AH0-@@ 103
N-IH1-K-N-EY2-M-D 103
N-S-AH0-S 103
NG-L@@ 103
P-AA0-R-@@ 103
P-ER0-F-AO1-R-M-Z 103
P-L-AA1-T 103
P-R-EH1-Z@@ 103
R-IH0-S-P-EH1-K-@@ 103
R-IY1-T-EY2-L 103
R-IY2-AH0-@@ 103
S-AE1-M-Y-UW0-L 103
S-K-R-IH1-P-T 103
T-R-AH0-S 103
UH0-@@ 103
V-M-AH0-N-T-S 103
W-AH0-@@ 103
-AW1-N 102
-IY0-ER0 102
-UW1-SH-AH0-N 102
AE1-B-IY0 102
AH0-F-IH1-SH-AH0-L-Z 102
AO1-D-IY0-AH0-N-S 102
AW1-T-P-UH2-T 102
B-AH0-N-@@ 102
D-AY0-AE1-@@ 102
D-IH0-S-T-R-OY1-@@ 102
D-OW0-M-EY1-N 102
D-R-AH1-M-ER0 102
EH1-G 102
EH1-R-IH0-K 102
F-EH2-R 102
F-ER1-D 102
HH-ER1-T 102
IH0-G-Z-IH1-B-IH0-T 102
IH0-L-IH1-Z-AH0-B-IH0-TH 102
IH0-N-JH-OY1 102
IH0-N-S-P-EH1-@@ 102
JH-ER1-N-IY0 102
K-AA2-N-T-R-AH0-B-Y-UW1-SH-AH0-N-Z 102
K-AO1-R-T-@@ 102
K-ER0-EH1-K-@@ 102
L-IH1-F-T 102
L-Y-ER0 102
M-AE1-CH-IH0-Z 102
N-AY1-N-T@@ 102
N-Z-IY0 102
NG-G-AA1-@@ 102
P-ER0-T-EH1-K-SH-AH0-N 102
P-EY1-N-T 102
P-L-EY2 102
R-AH0-L-D 102
R-EH1-JH-IH0-S-T-ER0-D 102
R-EH2-K-AH0-@@ 102
R-IH0-L-IY1-S-IH0-Z 102
R-OW0-M-AE1-N-T-IH0-K 102
R-UW1-L-D 102
S-AH0-P-R-AY1-Z 102
S-AH0-P-R-IY1-M 102
S-IY1-K-W-AH0-N-S 102
S-K-R-AY1-@@ 102
S-P-EH1-K-T-IH0-V 102
SH-UW1-T-IH0-NG 102
T-R-AY1-B 102
TH-IY0-@@ 102
TH-R-IH1-@@ 102
V-AH0-L-R-IY0 102
-EH2-L 101
AA0-R-S-EH1-L-V-Z 101
AA1-R-T-AH0-@@ 101
AH0-L-AE1-@@ 101
AH0-M-AH1-NG-S-T 101
B-R-IY1-F 101
CH-IY0-@@ 101
D-IH0-S-T-IH1-NG-K-T-IH0-V 101
EH1-D-IH0-T-IH0-D 101
EH1-TH@@ 101
G-ER0-AA1-ZH 101
IH0-F-EH1-K-T 101
IH0-N-JH-OY1-D 101
JH-OY1-N-T 101
K-AA1-S-T 101
K-AH0-L-D 101
K-AH0-N-D 101
K-AH0-N-S-ER1-@@ 101
K-L-EH1-R 101
K-L-OW1-ZH-ER0 101
L-AA1-K-T 101
L-EH1-G 101
L-ER0@@ 101
L-IH1-S-T-S 101
M-AH0-T-IH1-@@ 101
M-EY1-B-IY0 101
N-AO1-R-W-EY2 101
N-EH1-T-W-ER2-K-S 101
N-IY0-AH0-@@ 101
P-AE1-S-IH0-Z 101
P-IH1-K-T 101
P-OW1-L-AH0-N-D 101
R-AH0-Z 101
R-UW0 101
S-ER1-V-ER0 101
S-EY1-V-D 101
S-IH0-K 101
S-IH1-M-AH0-@@ 101
S-IY1-D 101
S-P-EH1-S-AH0-@@ 101
S-T-R-IH1-P 101
S-W-IH1-NG 101
T-L-AH0-S 101
T-UH1-R-AH0-S-T-S 101
TH-IY2@@ 101
V-EH1-JH-T-AH0-B-AH0-L-Z 101
W-ER1-K-@@ 101
Z-IH1-R-OW0 101
-AO0-R 100
-UH2-D-Z 100
AH0-K-L-AA1-K 100
AO0-T-AA1-@@ 100
B-AA1-R-Z 100
B-AO0-R-@@ 100
CH-AA1-R-T-ER0 100
D-ER0-EH1-K-T-AH0-D 100
D-IH0-M-AA1-@@ 100
DH-IH0-NG 100
EH0-M-@@ 100
EH2-V-AH0-L-UW1-@@ 100
F-AY1-N-AH0-L-Z 100
F-EH1-R-@@ 100
G-EH1-T-S 100
G-IH0-D 100
G-R-IY2-N 100
HH-AE1-M-P-@@ 100
IH0-K-S-P-L-EY1-N-D 100
IH0-K-S-P-L@@ 100
IH0-L-EH1-K-T-ER0-AH0-L 100
IH0-M-OW1-@@ 100
IH1-N-JH-ER0-IY0-Z 100
IH1-N-S-T-AH0-N-S 100
K-AH0-D 100
K-AH0-M-P-L-EY1-@@ 100
K-AO2-R@@ 100
K-EY1-N 100
K-R-IY0-EY1-@@ 100
K-T-IH1-@@ 100
L-OW1-D 100
M-AO1-L 100
M-EH1-ZH-ER0 100
N-IY0@@ 100
NG-G-Y-AH0-L-ER0 100
P-AA1-K-AH0-T 100
P-AE0-@@ 100
P-AE1-T-ER0-N 100
P-EH1-R-AH0-L-EH2-L 100
P-L-EY1-T 100
P-R-AH0-T 100
P-R-IH0-Z-ER1-V-D 100
P-S-T 100
P-UH1-L-D 100
R-AA1-N 100
R-AH0-T-IY0 100
R-IH0-V-IY1-L-D 100
R-IH0-Z-IH1-S-T-AH0-N-S 100
S-AY0-K-AA1-L-AH0-JH-IY0 100
S-AY2-T 100
S-EH1-P-ER0-EY2-T-IH0-D 100
S-EH1-P-ER0-IH0-T 100
S-IH1-K-@@ 100
S-IH1-N-TH-AH0-@@ 100
S-IH2-Z-AH0-M 100
S-N-AH0-S 100
SH-AH0-N-AH0-@@ 100
T-AE1-N 100
T-AH1-N-AH0-L 100
TH-R-OW1-@@ 100
W-AY1-D-S-P-R-EH1-D 100
Y-AA1-R-D 100
-AE2-K-T 99
-IH2-NG 99
AA0-K-T-OW1-B-ER0 99
AA1-R-G-Y-AH0-M-AH0-N-T 99
AE1-L-G-ER0-IH2-DH-AH0-M 99
AE2-N-T@@ 99
AH0-B-Z-AO1-R-@@ 99
B-IH1-R-@@ 99
B-L-IY1-@@ 99
D-AY1-AH0-S-IY2-Z 99
D-EH1-M-AH0-K-R-AE2-@@ 99
D-L-AH0-N-D 99
EH1-V-R-IY0-B-AA2-D-IY0 99
EY1-JH-AH0-N-T-S 99
F-AO1-L-S 99
F-IH2-L-AH0-@@ 99
F-R-IY1-K-W-AH0-N-T 99
HH-AA1-R-D-@@ 99
HH-AH1-N-D-R-AH0-D-Z 99
IH0-K-S-P-EH1-K-T-IH0-D 99
JH-AH0-B-AH0-L 99
JH-IH0-N 99
K-AA1-M-EH0-@@ 99
K-AA1-N-S-ER0-T-S 99
K-EH1-N-T 99
K-R-IH1-T-IH0-S-IH2-Z-AH0-M 99
L-IH1-P-S 99
N-AH0-L-D 99
N-AO2-R-W-IY1-JH-AH0-N 99
OY1-Z 99
P-AH0-L-IY0 99
P-R-IH1-Z-AH0-N@@ 99
P-UH1-T-IH0-NG 99
R-AH1-F-L-IY0 99
R-IY1-S-AH0-N-L-IY0 99
R-OW1-L-D 99
R-OY1-@@ 99
S-AH1-N-IY0 99
S-IH1-T-IH0-Z-AH0-N-Z 99
S-T-AH0-S 99
SH-AH0-L-Z 99
T-IH2-Z-AH0-M 99
Y-ER0 99
Y-UW0-K-R-EY1-@@ 99
-AY2-M 98
-ER0-AH0-T-L-IY0 98
AE1-T-AH0-T-UW2-D 98
AH0-G-R-EH1-@@ 98
AH0-N-T-S 98
AH2-N-IH0-N-@@ 98
AW1-T-ER0 98
B-AH0-S 98
B-AY1-B-AH0-L 98
B-R-IY1-D 98
B-Y-UW1-T-IY0 98
D-AE1-N-Y-AH0-L 98
D-L-AY2-@@ 98
DH 98
EH1-D 98
EH1-G-@@ 98
EH1-N-IY0-W-AH2-N 98
F-AH1-N-D-Z 98
F-AO1-R-M-IH0-NG 98
G-L-AY1-@@ 98
HH-AA1-R-D-L-IY0 98
HH-AH0-L-IY1-N 98
HH-EH1-R-@@ 98
HH-UH2-D 98
IH0-K-S-P-IH1-R-IY0-AH0-N-S-IH0-Z 98
IH0-SH 98
IH1-N-S-EH2-K-T-S 98
JH-OW1-Z-AH0-F 98
K-AA1-L-AH0-M 98
K-AH0-N-D-AH1-@@ 98
K-AO1-R-AH0-@@ 98
M-AE1-N-Y-AH0-S-K-R-IH2-@@ 98
M-AE2-N-Y-AH0-F-AE1-K-CH-ER0-IH0-NG 98
M-AH0-K-AE1-N-IH0-K-AH0-L 98
M-AY1-K-R-AH0-F-OW2-N 98
M-ER0-IY1-AH0 98
M-R 98
N-IY0-AH0-L 98
P-OW1-Z-IH0-NG 98
P-R-AE1-K-T-AH0-@@ 98
P-R-EY1-Z-D 98
R-IH0-K-AH0-L 98
R-IH0-Z-AH1-L-T-IH0-NG 98
S-IH1-R-IY0-AH0-S-L-IY0 98
S-K-EH1-JH-UW0-L-D 98
T-OY1-@@ 98
T-R-IH1-K 98
V-EH1-R-IY0-AH0-N-T 98
V-ER0-IH0-JH 98
W-AO1-L-T-ER0 98
W-IH1-R 98
-ER0-L-IY0 97
-IY2-Z 97
-OW1-N 97
AA2-P-ER0-T-UW1-N-AH0-T-IY0 97
AH0-P-R-EH1-@@ 97
AO1-F-AH0-S-IH0-Z 97
AO1-R-AH0-JH-IH0-N-Z 97
B-AA2-K-S 97
B-R-UW1-S 97
CH-EY1-M-B-ER0 97
D-EH1-S-K 97
D-IH0-P-R-EH1-SH-AH0-N 97
D-IH0-S-EH1-M-B-ER0 97
EY1-N-JH-AH0-L 97
F-AY1-R-@@ 97
F-EY1-T 97
HH-AO1-L-@@ 97
HH-AO1-R-N 97
IH0-S-EH1-N-SH-AH0-L-IY0 97
IH1-N-T-R-AH0-S-T-S 97
IH2-N-F-L-UW0-EH1-N-CH-AH0-L 97
IY1-Z 97
JH-EH1-N@@ 97
K-AA1-N-T-R-AE0-S-T 97
K-AH0-L-AE1-B-ER0-@@ 97
K-AH0-L-IH1-@@ 97
K-IY1-P-IH0-NG 97
K-T-L-IY0 97
L-AH1-V-L-IY0 97
L-AY2-Z 97
M-AH0-D 97
M-IH1-K-S 97
N-EH1-F-Y-UW0 97
N-OW1-T-AH0-B-L-IY0 97
OY0-D 97
P-L-EY1-AO2-@@ 97
R-EH1-JH-IH0-S-T-ER0 97
R-EH2-G-@@ 97
R-EH2-P-R-IH0-Z-EH1-N-T-S 97
R-IH1-M 97
S-AE1-K-S-AH0-@@ 97
S-AH0-P-OW1-Z-D 97
S-AH1-N-D@@ 97
S-AH2-@@ 97
S-IH0-V-L-IY0 97
S-IH1-M-P-T-AH0-M-Z 97
SH-ER0-Z 97
T-AY2-P 97
T-F-AH0-L 97
T-R-AY1-L 97
T-UW2-D 97
W-AA2-@@ 97
W-EH2-@@ 97
AE1-K-Y@@ 96
AH0-S-OW1-@@ 96
AO1-N-T-UW0 96
B-OW1-L 96
B-R-EH1-K-F-AH0-S-T 96
B-R-IH1-JH-IH0-Z 96
D-AH1-K-SH-AH0-N-Z 96
EH1-N-IY0-W-EH2-R 96
F-AO2-L 96
F-IH1-F-@@ 96
F-T-@@ 96
G-IH1-L-T-IY0 96
G-R-AE1-JH-AH0-W@@ 96
HH-EH1-R-IH0-T-IH0-JH 96
IH0-G-Z-EH1-@@ 96
IH0-M-AE1-@@ 96
IH0-M-P-EH1-@@ 96
IH2-M-P-L-AH0-@@ 96
IH2-N-AH0-@@ 96
K-AA1-F-IY0 96
K-AA1-N-S-AH0-N-T-R@@ 96
K-AE1-L-K-Y-AH0-L@@ 96
K-AE1-P-IH0-T-AH0-L 96
K-AH0-N-T-IH1-N-Y-UW0-AH0-S 96
K-AO1-T 96
K-ER1-N-T 96
K-R-AO1-S-IH0-Z 96
K-R-IH2-S-CH-IY0-AE1-N-IH0-T-IY0 96
L-AE0-@@ 96
L-AO2-G 96
M-AH0-L-IH1-@@ 96
M-AH0-N-EY1-SH-AH0-N-Z 96
M-AH2-L-T-IY0-@@ 96
M-IH0-S-T-EY1-K 96
M-IY1-T-IH0-NG-Z 96
N-AY1-DH-ER0 96
N-IH0-K-L-IY0 96
N-UW1-L-IY0 96
OW1-V-ER0-L-UH2-@@ 96
P-ER0-F-AO1-R-M-AH0-N-S-AH0-Z 96
P-IY0-EH1-R 96
R-EY0-@@ 96
R-IY0-T-AY1-@@ 96
S-AH0-L-EH1-B-R-IH0-@@ 96
S-AY1-L-AH0-N-S 96
S-AY1-T-IH0-D 96
S-P-EH1-SH-AH0-L@@ 96
S-P-IY1-K-S 96
T-AY1-N-IY0 96
T-L-ER0 96
V-AA1-L-V-D 96
V-ER1-CH-UW0-AH0-L 96
W-IH1-S-P@@ 96
Y-AH1-@@ 96
Y-EH1-S-T-ER0-D-EY2 96
-AE2-K-S 95
-AO2-K 95
-EH0-K-T-AE1-@@ 95
AE0-K-S-EH1-P-@@ 95
AE1-NG-@@ 95
AH0-K-Y-UW1-@@ 95
AH0-P-IH1-@@ 95
AO1-G-AH0-S-T 95
AO2-L-@@ 95
B-EH1-L-T 95
B-EY1-S-@@ 95
B-OW1-N 95
B-R-AH0-Z-IH1-L 95
D-AH0-N-Z 95
D-AH1-B-L-IH0-N 95
D-F-ER0-D 95
D-IH0-S-K-R-IH1-P-SH-AH0-N 95
D-R-OW1-V 95
EH0-M-P-L-OY1-@@ 95
ER0-EH1-@@ 95
EY1-JH@@ 95
G-R-AE2-M 95
HH-AO2-@@ 95
HH-Y-UW2-@@ 95
IH0-G-Z-IH1-S-T-AH0-D 95
IH1-M-P-L-AH0-@@ 95
IH1-N-F-L-UW2-AH0-N-S-IH0-Z 95
IH1-N-S-AY2-D 95
IH2-N-D-IY0-AE1-N-AH0 95
K-AE1-P-CH-ER0 95
K-AH0-N-S-T-R-AH1-K-T-AH0-D 95
K-AH0-N-T-IH1-N-@@ 95
K-EY1-K 95
K-R-AE2-F-T 95
K-R-AY1 95
K-R-IY0-EY1-T-IH0-NG 95
M-AA1-R 95
M-AE2-N-Y-AH0-F-AE1-K-CH-ER0-D 95
M-AE2-S-T-ER0 95
M-B-AH0-L-Z 95
M-ER1-CH@@ 95
M-UW0-@@ 95
N-IH0-N 95
P-AW1-ER0-D 95
P-AY2-AH0-N-IH1-@@ 95
P-EH2-R@@ 95
P-IH1-R-IY0-AH0-D-Z 95
P-R-AA1-B-L-IY0 95
P-R-EH0-M-IH1-R 95
R-IH0-G-AA1-R-D-IH0-D 95
R-IH0-K-W-AY1-ER0 95
S-ER1-K-Y-AH0-L-ER0 95
S-ER1-N-EY2-M 95
S-IH0-S-T 95
S-IH1-NG-AH0-P-AO2-R 95
S-M-IH1-@@ 95
S-P-R-IH1-NG-@@ 95
S-T-IH0-K-L-IY0 95
S-T-UW1-ER0-T 95
T-AH0-JH 95
T-AO1-R-D 95
T-ER0-AH0-L 95
T-OW1 95
V-EH1-R-IY0-AH0-B-AH0-L 95
W-AY1-Z 95
W-IH0-S-K-AA1-N-S-AH0-N 95
AA0-L-@@ 94
AE1-D-AH0-M-Z 94
AE1-S-T-ER0-@@ 94
AH0-P-R-UW1-@@ 94
AY1-AH0-@@ 94
B-EH1-R-Z 94
B-ER1-N 94
B-IH0-G-AH1-N 94
D-AY0-N-AE1-M-IH0-K 94
D-SH@@ 94
EH2-D-AH0-@@ 94
F-AH0-L@@ 94
F-EH1-D-R-AH0-L 94
F-L-EY1-V-ER0 94
F-R-AE1-NG-K-L-IH0-N 94
HH-AE1-T-S 94
HH-EH1-R-IH0-S 94
HH-Y-UW1-S-T-AH0-N 94
IH0-N-HH-AE1-B-AH0-T-AH0-N-T-S 94
IH0-N-S-T-R-AH1-@@ 94
IH0-S-T-AE1-B-L-IH0-@@ 94
K-R-IH1-T-AH0-S-AY2-Z-D 94
K-T-IH0-K 94
K-W-IY1-N-Z 94
M-AH0-CH@@ 94
M-EH0-N-T 94
M-EH0-N-T-EY1-SH-AH0-N 94
M-EH1-S-IH0-JH 94
N-AE0-@@ 94
N-IY0-AH0-S-L-IY0 94
N-T-EY1-@@ 94
NG-K-OW0 94
OY2-Z 94
P-AA1-N-D 94
P-ER1-P-AH0-@@ 94
P-L-EY2-N 94
P-R-IH1-N-S-AH0-P-AH0-L-Z 94
P-S-IY0 94
R-AE0-@@ 94
R-EH1-S-T-R-AA2-N-T-S 94
R-IH0-T-ER1-N-Z 94
R-IH0-Z-AH1-L-T-IH0-D 94
S-AH1-M-W-EH2-R 94
S-AH1-N-G-L-AE2-S-IH0-Z 94
S-IY1-L 94
SH-AE1-L-OW0 94
T-AH0-K-AH0-L 94
TH-ER1-T-IY1-N 94
TH-IH0-K 94
V-AE1-L-@@ 94
V-EH1-R-IY0-D 94
V-OW1-K-AH0-@@ 94
W-AH2-T-EH1-V-ER0 94
AE1-L-F-AH0 93
AH0-D-V-AE1-N-S 93
AH0-JH-AH1-@@ 93
AH0-N-K-L-IH1-R 93
AH0-S-OW2-SH-IY0-EY1-SH-AH0-N 93
B-AA1-K-S-IH0-NG 93
B-AH0-L-UW1-@@ 93
B-IY0-L-OW1 93
CH-AA1-R-T 93
D-IH0-S-K-AH1-V-ER0-IY0 93
D-IH0-V-AO1-R-S-T 93
D-IH1-F-R-AH0-N-S-AH0-Z 93
G-AE1-DH-ER0-D 93
HH-AY1-T 93
HH-IH2-@@ 93
HH-OW1-S-T-AH0-D 93
K-AA1-P-IY0-Z 93
K-AE1-N-@@ 93
K-AE1-T-AH0-G-AO2-R-IY0 93
K-AH0-M-B-AY1-@@ 93
K-AH0-M-Y-UW2-N-AH0-K-EY1-SH-AH0-N-Z 93
K-AH0-N-F-IH2-G-Y@@ 93
K-AH0-N-T-R-AE1-@@ 93
K-AH2-M 93
K-AO1-F-IY0 93
K-L-AA1-K 93
L-AO1-N 93
M-AE1-T 93
M-AH0-S-L-IY0 93
M-AH2-L-@@ 93
N-AE1-CH-ER0-AH0-L 93
OW1-N-ER0-SH-IH2-P 93
P-AO1-R-T-S 93
P-ER0-EY1-D 93
P-R-AA1-S-EH0-S-AH0-Z 93
P-R-AH0-JH-EH1-K-T 93
R-EY2-D-IY0-@@ 93
R-IH0-T-IY0 93
R-IH1-CH-ER0-@@ 93
R-IY0-K-W-AY1-ER0-Z 93
R-IY0-L-EY1-SH-AH0-N-SH-IH2-P-S 93
R-IY0-Z-AH1-L-T 93
S-AE1-K-S-AH0-N 93
S-AE1-N-D-IY0 93
S-AH0-P-L-AY1-D 93
S-EH1-V-AH0-N-TH 93
S-IY2-Z 93
S-P-AH1-@@ 93
S-T-AA1-K-@@ 93
S-W-IH1-M 93
SH-AE1-D-OW2 93
T-AH1-CH 93
T-R-IH1-B-Y-AH0-@@ 93
T-UH1-R-AH0-S-T 93
W-IY1-K@@ 93
W-UW1-N-D-IH0-D 93
Z-ER0-V-EY1-SH-AH0-N 93
-AY2-ER0 92
-IY0-AE1-N-AH0 92
-IY0-EH1-@@ 92
AE1-D-AH0-@@ 92
AE1-N-D-IY0 92
AE1-N-JH-AH0-L-AH0 92
AH0-K-Y-UW1-Z-D 92
AH1-P-D@@ 92
AO1-T-AH0-@@ 92
AO2-R@@ 92
D-AO1-N 92
D-AY1-M-AH0-N-D 92
D-EH1-F-AH0-@@ 92
EH1-V-ER0-IY0 92
ER0-IH1-@@ 92
F-EY1-S-IH0-Z 92
F-OW1-T-AH0-G-R-AE2-F-S 92
F-R-EH1-SH-@@ 92
HH-IY1-R-OW0 92
IH0-L-EH1-K-@@ 92
IY@@ 92
JH-EH1-N-T-AH0-L-M-AH0-N 92
K-AA1-L-IH0-JH-IH0-Z 92
K-AA1-R-T 92
K-AH0-M-P-EH1-T-IH0-@@ 92
K-AH0-N-S-IH1-S-T 92
K-AO1-Z-IH0-Z 92
L-IH1-N-IY0-ER0 92
M-AA1-N@@ 92
M-AE0-G-N-EH1-T-IH0-K 92
M-AH0-N-AA1-@@ 92
M-EY0-N-T-EY1-N-Z 92
M-IH0-T 92
N-IY1-Z 92
P-AA0-R-T-IH1-S-AH0-P@@ 92
P-AA1-R-T-L-IY0 92
P-AA2-L-IY2-@@ 92
P-AA2-R-L-AH0-M-EH1-N-T-ER0-IY0 92
P-AY1-N 92
P-IH1-CH 92
P-R-IH0-Z-ER1-@@ 92
P-Y-UH1-@@ 92
R-EH1-K-AH0-G-N-AY1-@@ 92
R-EH2-K-R-IY0-EY1-SH-AH0-N 92
R-IH0-M-EH1-M-B-ER0-D 92
R-IY0-AE1-@@ 92
S-AH0-F-AY2-D 92
S-AH1-N-S-EH2-T 92
S-AY1-M-AH0-N 92
S-EH1-K-T-ER0 92
S-ER1-K-Y-AH0-L@@ 92
S-IH0-N-@@ 92
S-IH2-G-ER0-EH1-T 92
S-P-EH1-SH-AH0-L-AY2-Z-D 92
T-AE1-L-AH0-N-T 92
T-EY1-B-AH0-L-Z 92
T-IH1-V-AH0-T-IY0 92
T-R-IH1-B-Y-UW0-@@ 92
TH-R-OW1 92
UW@@ 92
V-ER0-D 92
Y-UW1-ZH-AH0-W-AH0-L-IY0 92
-AH0-M-Z 91
-AY0-AE1-@@ 91
AA0-R-T-IH1-S-T-IH0-K 91
AA1-P-SH-AH0-N 91
AE1-L 91
AE2-L-AH0-B-AE1-M-AH0 91
AH0-G-R-IY1 91
AH0-K-@@ 91
AH0-S-IH1-S-T 91
B-AA1-T 91
D-AE1-L-Y-AH0 91
D-AE2-@@ 91
D-AY1-Z 91
D-IH0-F-AY1-@@ 91
D-IH2-S-AY1-D 91
F-AH1-N-D 91
F-AW1-N-T-AH0-N 91
F-IY1-D-IH0-NG 91
G-IH0-T-ER0-IH0-S-T 91
G-R-OW1-Z 91
G-UH1-@@ 91
HH-AE1-N-D-IH0-D 91
HH-AY1-D-R@@ 91
HH-EH2-R-D 91
HH-IH1-D-AH0-N 91
IH0-K-S-K-L-UW1-S-IH0-V-L-IY0 91
IH0-K-S-T-EH1-N-D-AH0-D 91
IH0-M-ER1-JH-AH0-N-S-IY0 91
IH0-N-V-AA1-L-V-Z 91
IH2-N-D-IH0-@@ 91
IH2-N-S-T-R-AH0-M-EH1-N-T-AH0-L 91
JH-EH1-N-@@ 91
K-AA2-M-P-AH0-T-IH1-SH-AH0-N-Z 91
K-AE1-M-ER0@@ 91
K-AH0-L-AE2-B-ER0-EY1-SH-AH0-N 91
K-AH0-M-P-IY1-T 91
K-AH0-N-T-EY1-@@ 91
K-AO1-R-N 91
K-EH2-R-AH0-K-T-ER0-IH1-S-T-IH0-K 91
K-IH1-L-@@ 91
K-IH1-L-IH0-NG 91
K-R-EH1-D-IH0-T 91
K-R-IH1-S-T-AH0-F-ER0 91
L-AE1-F-T 91
L-AH0-B-AH0-L 91
L-IH1-B-ER0-T-IY0 91
M-AH0-T-S 91
N-AA1-L-AH0-JH 91
N-CH-T 91
OW1-N-Z 91
P-AA0-R-T-IH1-S-AH0-P-EY2-T-IH0-D 91
P-AA1-V-ER0-T-IY0 91
P-AH0-L-IH0-S 91
P-EY1-N-T-ER0 91
P-EY1-T-R-AH0-N 91
R-EH1-L-AH0-V-AH0-N-T 91
R-EH1-S-AH0-@@ 91
R-EH2-K-R-IY0-EY1-SH-AH0-N-AH0-L 91
R-IY0-Z-AH1-L-@@ 91
S-AH0-L-IY1-@@ 91
S-AH0-L-UW1-SH-AH0-N-Z 91
S-AO1-R-D 91
S-AY1-AH0-N-T-IH0-@@ 91
S-F-AH0-L 91
S-K-IY1 91
S-OW1-L-JH-ER0 91
S-T-AH0-N-@@ 91
S-T-AH0-N-S 91
T-EH1-K 91
T-IY2-@@ 91
T-OW1-K-IY0-OW2 91
V-OW1-L-@@ 91
-AA2 90
-AE1-N 90
-L@@ 90
AE0-K-T-IH1-@@ 90
AH0-F-EH1-K-T-IH0-D 90
AH0-L-AY1-AH0-N-S 90
AH0-L-EH1-@@ 90
AH0-T-R-AE1-K-SH-AH0-N 90
AO1-F-AH0-S-AH0-Z 90
AW1-T-D-AO1-R-Z 90
B-AH0-T-AH0-D 90
B-IH0-T 90
CH-AE1-M-P-IY0-AH0-N-SH-IH2-P-S 90
CH-AE1-P-@@ 90
CH-EY1-N-JH-AH0-Z 90
CH-EY1-S 90
D-AY1-N-AH0-S-T-IY0 90
D-IH0-S-T-R-AH1-@@ 90
EH0-N-JH@@ 90
EH1-L-D-AH0-S-T 90
F-IH1-F-T-IY1-N 90
F-IH1-Z-IH0-@@ 90
F-R-AE1-N-S-IH0-S 90
HH-AH1-L 90
HH-AY1-D 90
HH-IH0-S-T-AO1-R-IH0-K-L-IY0 90
IH0-K-S-P-AE1-N-D-IH0-D 90
IH0-L-IY1-G-AH0-L 90
K-AA1-M-Y-AH0-N-AH0-S-T 90
K-AE1-T-AH0-G-AO2-R-IY0-Z 90
K-AH1-L-ER0-@@ 90
K-EH1-M-AH0-K-AH0-L 90
K-EY1-D 90
K-L-AW1-D 90
K-L-EY1 90
K-Y-UW1 90
M-AH2-N-T-R-IY0-AO1-L 90
M-AY1-N-Z 90
M-EH1-L-AH0-@@ 90
N-AA1-V-AH0-@@ 90
N-CH-AH0-N 90
N-S-AA1-@@ 90
NG-G-AH0-L-Z 90
OY0-@@ 90
P-AE1-L-AH0-@@ 90
P-EH1-R-Z 90
P-R-AA1-S-P@@ 90
P-R-AH0-M-OW1-T 90
P-R-EH1-G-N@@ 90
P-R-IH2-@@ 90
R-AY1-D-ER0 90
R-EH2-P-R-IH0-Z-EH1-N-T-AH0-@@ 90
R-IY0-B-IH1-L-T 90
S-AH0-JH 90
S-AH0-K-S-IY1-D-AH0-D 90
S-IH1-T-IH0-@@ 90
S-IY1-V 90
S-K-IH1-L 90
T-EH1-N-IH0-S 90
T-ER0-AH0-@@ 90
T-R-AE2-@@ 90
T-UW1-L 90
V-EH1-S-AH0-L 90
W-OW1-K 90
-AA2-R@@ 89
-IY0-AH0-T-S 89
-OW1 89
AE1-D-V-ER0-T-AY2-@@ 89
AE1-K-CH-L-IY0 89
AE1-N-TH-AH0-N-IY0 89
AE2-D-AH0-@@ 89
AE2-L-IH0-G-Z-AE1-N-D-ER0 89
AH0-T-L-AE1-N-T-IH0-K 89
AH2-N-D-ER0-S-T-UH1-D 89
AO1-S-T-R@@ 89
B-AH0-L-IH1-@@ 89
B-AO1-R-D-IH0-NG 89
B-AY0-AA1-L-AH0-JH-IY0 89
CH-IH1-L-IY0 89
D-AH0-Z 89
D-AY0-V-ER1-@@ 89
D-IH1-SH-AH0-N 89
D-IH2-S-AH0-P-OY1-@@ 89
D-IH2-S-AY1-@@ 89
EH1-D-IH0-@@ 89
ER0-EY1-N-JH@@ 89
F-AA1-L-AH0-N 89
F-IH1-SH-AH0-L 89
F-OW1-L-@@ 89
F-OW1-T-AH0-G-R-AE2-F 89
G-R-AE1-F-IH0-K-AH0-L 89
HH-AY1-ER0-D 89
IH0-K-S-T-ER1-N-AH0-L 89
IH0-N-G-R-IY1-D-IY0@@ 89
IH0-N-K-W-AY1-@@ 89
IH0-S-T 89
IH1-N-D-AH0-K-EY2-T 89
IH1-N-T-ER0-V-@@ 89
IY1-Z-IY0-ER0 89
JH-AH0-N-@@ 89
JH-EH1-F-ER0-S-AH0-N 89
K-AA1-N-F-AH0-D-AH0-N-S 89
K-AE1-M-P@@ 89
K-AH0-N-D-EH1-@@ 89
K-AH1-S-T-AH0-M-ER0-Z 89
K-EH1-R-F-AH0-L 89
K-IY1-B-AO2-R-D 89
K-W-AY1-ER0 89
L-AY2-T-S 89
L-OW1-K-AH0-L-IY0 89
M-AA1-R-T-IH0-N 89
M-B-L-IH0-NG 89
M-EH1-R-IY0-Z 89
M-P-AH0-L 89
N-AW1-AH0-D-EY2-Z 89
N-S-IY0-@@ 89
N-S-T-ER0 89
P-AA2-L-AH0-T-IH1-SH-AH0-N 89
P-IH1-K-@@ 89
P-R-AA1-F-IH0-T 89
P-R-AY1-V-AH0-T-L-IY0 89
P-R-AY1-Z-D 89
P-R-IY1-F-EH2-@@ 89
R-AH0-N-Z 89
R-F@@ 89
R-IH0-F-ER1 89
R-IY0-EH2-@@ 89
R-IY0-K-W-AY1-R-D 89
R-OW1-D-@@ 89
S-AH0-P-AO1-R-T-ER0 89
S-IH1-B-L-IH0-NG-Z 89
S-IH1-L-AH0-@@ 89
S-K-OW2 89
S-P 89
S-P-EH1-SH-AH0-L-AH0-S-T 89
S-T-L@@ 89
SH-AH0-S-L-IY0 89
SH-M-AH0-N-T 89
T-EH1-S-T-AH0-@@ 89
TH-AH0 89
TH-IY1-M-Z 89
V-AE1-L-Y-UW0-@@ 89
V-AY0-AH0-L-IH1-N 89
V-OW1-T-IH0-NG 89
Y-UW0-D 89
Y-UW0-T-IH1-@@ 89
-AH0-L-AA1-@@ 88
-AH0-L-IH1-@@ 88
-IH0-NG-Z 88
AE1-SH-@@ 88
AH0-B-S-K-@@ 88
AH0-K-AO1-R-@@ 88
AH0-S-AY1-D 88
AH0-T-ER1-N-IY0 88
AO1-R-D-AH0-N@@ 88
AY0-D-IY1-L 88
B-EY1-S-IH0-S 88
B-R-AO1-D-K-AE2-@@ 88
B-R-EY1-K-@@ 88
D-AH1-S-T 88
D-IH0-Z-AY1-N-ER0 88
D-UW1-AH0-L 88
EH1-K-S-ER0-S-AY2-Z 88
ER1-TH-@@ 88
F-AA0-@@ 88
F-AY0-@@ 88
F-R-EY1-Z 88
G-L-AE1-S-AH0-Z 88
G-OW2-IH0-NG 88
IH0-K-S-P-L-EY1-@@ 88
IH0-K-S-P-L-EY1-N 88
IH0-N-V-EH1-N-SH-AH0-N 88
IH0-Z-AH0-N-T 88
IH1-M-AH0-G-R-AH0-N-T-S 88
K-AA1-M-IH0-K-S 88
K-AA1-R-B-AH0-N 88
K-AH0-M-EH1-@@ 88
K-AH0-N-F-Y-UW1-Z-D 88
K-EY2-P-AH0-@@ 88
L-IH0-S-T-S 88
L-IH0-T-IY0-Z 88
M-AH1-DH-ER0-Z 88
M-ER0-IY0 88
M-IY1-D-IY0@@ 88
N-CH-IH0-NG 88
N-EH1-R-OW0 88
N-IH0-JH 88
N-IY0-AH0-N-Z 88
N-S-T-AH0-N 88
N-T-AH0-N@@ 88
N-TH-R-AH0-@@ 88
N-Y-UW0-@@ 88
P-AA1-R-T-@@ 88
P-AH0-D-EH1-S-T-R@@ 88
P-AH0-L-IH1-@@ 88
R-AA1-JH-ER0-Z 88
R-EH2-K-AH0-G-N-IH1-SH-AH0-N 88
R-IH0-P-IY1-T-IH0-D 88
R-IH0-T-ER1-N-IH0-NG 88
R-IH2-@@ 88
S-AH0-L-EH1-K-@@ 88
S-AH0-S-P-IH1-@@ 88
S-K-R-IH1-P-SH-AH0-N 88
S-L-AH1-@@ 88
S-P-EY1-S-@@ 88
S-T-AO1-R-D 88
SH-UW1-T 88
T-AH0-N-S 88
T-IH0-D-L-IY0 88
T-R-IH0-@@ 88
T-UH1-R-D 88
TH-IH1-R-AH0-M 88
V-EH1-S-T 88
Y-UW0-AH0-@@ 88
-AW2-ER0 87
1 87
AE1-D-AH0-M 87
B-AO1-T 87
B-AY0-AA1-@@ 87
B-AY1-IH0-NG 87
B-EH1-S-T-@@ 87
CH-EH2-@@ 87
CH-IH1-P-S 87
D-AE1-L-AH0-S 87
D-IH0-P-AA1-R-T-M-AH0-N-T-S 87
D-IH0-S-M-IH1-S-T 87
D-IH0-S-P-L-EY1-Z 87
D-R-IH1-NG-K-S 87
D-R-IH1-V-AH0-N 87
D-UW1-S 87
ER0-AY1-V 87
F-AH0-S-IH1-L-IH0-T-IY0-Z 87
F-EH1-D@@ 87
F-ER1-DH-ER0-M-AO2-R 87
F-ER1-S-T-@@ 87
F-EY1-V-ER0-IH0-T 87
F-IY2-@@ 87
G-AH1-L-F 87
G-L-AE1-S-IH0-Z 87
G-R-AE1-F-IH0-K-S 87
HH-AA1-R-V-AH0-@@ 87
HH-AW1-Z-D 87
HH-IH1-P 87
HH-IH2-L 87
IH0-D-IH1-SH-AH0-N-Z 87
IH0-K-S-T-EH1-N-D 87
IH0-M-P-AO1-R-@@ 87
IH0-N-T-ER1-@@ 87
IH1-N-D-IY0-AH0-N-Z 87
JH-EH0-@@ 87
JH-UH2-R-IH0-S-D-IH1-@@ 87
K-AA1-L-AH0-N-IY0 87
K-AH0-B-AH0-L 87
K-AW1-N-S-AH0-@@ 87
K-EH1-N-AH0-D-IY0 87
K-EH1-R-@@ 87
K-EH1-R-AH0-L 87
K-EY1-V 87
K-OW0-AO1-R-D-AH0-N@@ 87
K-R-IH1-P-@@ 87
L-AA1-N 87
L-AY1-AH0-B-AH0-L 87
L-IH0-K-S 87
L-IH1-N 87
L-UW1-S 87
M-AA1-D-AH0-F-AY2-D 87
M-AA1-N-@@ 87
M-AE1-CH-AH0-Z 87
M-AE1-K-S-AH0-M-AH0-M 87
M-EH1-L 87
N-AE1-SH-@@ 87
N-OW0-Z 87
N-UW1-Z 87
P-AH0-T-EH1-N-SH-AH0-L 87
P-EH1-T 87
P-ER0-EH1-@@ 87
P-R-AH0-G-R-EH1-S-IH0-V 87
P-R-AH0-P-OW1-Z-AH0-L 87
R-AA1 87
R-AY1-Z-IH0-NG 87
R-EY1-T-S 87
R-IH1-V-ER0-@@ 87
S-AH0-K-S-EH1-S-ER0 87
S-AH0-K-Y-UW1-SH-AH0-N 87
S-P-AO1-R-@@ 87
S-T-AA2-K 87
S-T-AH0-M-Z 87
T-AH0-M-AA1-@@ 87
T-AH0-N-T-S 87
T-EH1-K-T-IH0-V 87
T-ER0-EY1-@@ 87
T-EY1-P 87
T-M-AH0-N 87
T-R-AH0-D-IH1-SH-AH0-N-AH0-L-IY0 87
T-R-AY1-Z 87
W-AY1-L-S-T 87
Y-UW1-N-AH0-F-AO2-R-M-Z 87
Y-UW1-ZH-UW0-AH0-L 87
Z-AH0-L@@ 87
-AO0-R-T 86
AE1-D-AH0-L-T 86
AE1-M-AH0-CH-ER2 86
AH1-N-D-ER0-T-EY2-@@ 86
B-AA1-N-D 86
B-EH1-L-JH-AH0-M 86
B-ER0-IY0 86
B-ER1-TH-P-L-EY2-S 86
B-OW1-L-@@ 86
D-AA1-K-Y-AH0-M-EH0-N-T 86
D-AH0-K-OW1-T-AH0 86
D-EY1-V-IH0-S 86
F-AH0-S 86
F-IY1-CH-ER0-IH0-NG 86
F-R-EH2-N-D 86
HH-IH1-N-D@@ 86
HH-IY1-L 86
JH-AH0-N-IY1-V-AH0 86
JH-UW0@@ 86
K-AA2-R-@@ 86
K-AH0-M-EH1-M-ER0-@@ 86
K-AH0-M-Y-UW1-N-AH0-@@ 86
K-AH0-N-S-ER1-N 86
K-AO1-R-S-IH0-Z 86
K-W-AA1-L-AH0-@@ 86
L-AY1-F-T-AY2-M 86
L-ER0-D 86
M-AA1-L-AH0-K-Y-UW2-@@ 86
M-AA1-N-Y-UW0-@@ 86
M-B-ER0-G 86
M-EH1-K-S-AH0-K-AH0-N 86
N-EY1-B-ER0-Z 86
N-T-IH0-K 86
OY0 86
P-AA0-R-T-IH1-S-AH0-P-AH0-N-T-S 86
P-AO0-R-T-R-EY1-D 86
P-EY1-SH-AH0-N-Z 86
P-R-AA1-F-AH0-@@ 86
P-T-ER0 86
R-EH2-P-R-AH0-@@ 86
R-EH2-V-AH0-L-UW1-SH-AH0-N-EH2-R-IY0 86
S-AE1-N-@@ 86
S-AH0-L-EH1-K-T-AH0-D 86
S-IH1-G-N-AH0-@@ 86
S-K-EY1-T-B-AO2-R-@@ 86
S-K-IY1-IH0-NG 86
S-K-R-AH1-@@ 86
SH-IY0-EY2-T 86
T-ER1-K-IY0 86
T-IH1-M 86
T-IH1-P-IH0-K-AH0-L 86
TH-IH1-R-IY0-Z 86
W-IY1-K-EH2-N-D 86
Y-AH0-L-EY1-SH-AH0-N 86
Y-UW1-N-AH0-V-ER2-S 86
Z-IH0-K 86
-EH1-V-ER0 85
-IH0-S-T-S 85
-IY0-AH0-N@@ 85
-IY0-AH0-Z 85
2-@@ 85
AA1-R-K-AY2-@@ 85
AE1-S-P-EH2-K-T-S 85
AH0-D-M-IH1-T-AH0-D 85
AH0-F-EH1-R 85
AH0-S-UW1-M-D 85
AY0-D-EH1-N-T-AH0-@@ 85
B-AY0-AA1-G-R-AH0-F-IY0 85
B-ER1-N-Z 85
B-IH1-Z-N-IH0-S 85
CH-IH1-K-AH0-N 85
D-IH0-F-EH1-N-S-IH0-V 85
D-IH0-S-T-R-OY1 85
D-OW0-Z 85
EH1-R-L-AY2-N 85
F-AE1-K-AH0-L-T-IY0 85
F-AE1-L-@@ 85
F-AE1-M-AH0-L-IY0-Z 85
F-R-AE1-N-S-AH0-S 85
G-UW0-@@ 85
HH-AE1-M-P-T-AH0-N 85
HH-AE1-N-@@ 85
HH-AE1-N-D-AH0-L-D 85
HH-AH1-N-T-ER0 85
HH-AY1-T-S 85
HH-W-IH1-@@ 85
IH0-N-K-ER1-AH0-JH-D 85
IH1-N-T-R@@ 85
JH-AH0-L@@ 85
JH-EH1-T 85
K-AH0-P-AE1-S-AH0-T-IY0 85
K-AH1-M-F-ER0-@@ 85
K-W-AH0-B-EH1-K 85
L-AY1-S-AH0-N-S-T 85
L-IY1-F 85
L-UW1 85
M-AE2-N-AH0-@@ 85
M-ER1-CH-AH0-N-T 85
M-IY1-D-IY0-AH0-M 85
NG-K-IY0-Z 85
P-AA0-R-T-IH1-S-AH0-P-EY2-T 85
P-AE1-T-ER0-N-Z 85
P-AO1-R-SH-AH0-N-Z 85
P-ER0-D 85
P-IY1-T 85
P-R-AE1-K-T-AH0-K-AH0-L 85
P-R-AH0-N@@ 85
P-R-IH0-D-AA1-M-AH0-N-AH0-N-T-L-IY0 85
R-AY1-T-IH0-NG-Z 85
R-EH1-S-K-@@ 85
R-IH0-P-L-EY1-S-M-AH0-N-T 85
R-IY0-AE1-K-@@ 85
R-IY1-D-Z 85
S-EH1-T-@@ 85
S-EH1-V-AH0-N-@@ 85
S-IH1-S-T 85
S-M-AO1-L-AH0-S-T 85
S-N-EY1-@@ 85
S-UW1-T-AH0-B-AH0-L 85
T-IH0-S-@@ 85
T-R-AE1-N-Z-IH0-T 85
V-EH1-N-Y-UW0 85
W-IH0-DH-@@ 85
-ER0-AY1-@@ 84
AA1-R-K-AH0-T-EH2-@@ 84
AE1-F-R-IH0-K-AH0 84
AH0-L-AY1-@@ 84
AH2-N-S-AH0-K-S-EH1-S-F-AH0-L 84
AO0-R-G-AE1-N-IH0-K 84
AO2-T-AH0-M-AE1-T-IH0-K 84
B-AE0-K-T-IH1-@@ 84
B-EH1-D-R-UW2-M 84
B-EH1-N-AH0-F-IH0-T 84
D-AA1-K-T@@ 84
D-IH0-V-OW1-@@ 84
D-Z-@@ 84
DH-ER0-N-M-OW2-S-T 84
EY1-T-@@ 84
F-AH1-NG-K-@@ 84
F-AY1-N-AE2-N-S 84
G-IH1-F-T 84
G-R-EY1-S 84
G-UW1-G-AH0-L 84
HH-ER1-AH0-K-EY2-@@ 84
IH0-K-S-P-L-AO1-@@ 84
IH0-M-P-L-AY1-@@ 84
IH1-N-K-R-IY2-S 84
IY1-G-AH0-L 84
IY2-K-AH0-N-AA1-M-IH0-K 84
JH-IH1-M-IY0 84
JH-UW1-Z 84
K-AA1-N-SH@@ 84
K-AH0-M-P-EH1-R-AH0-@@ 84
K-AH0-N-V-EH1-N-SH-AH0-N-AH0-L 84
K-AH0-N-V-IH1-K-T-AH0-D 84
K-AH0-S-IY1-@@ 84
K-AO1-L-IH0-NG 84
K-AO2-R 84
K-IH1-D 84
K-R-IH1-S-CH-IH0-N 84
K-R-IH1-S-CH@@ 84
K-R-IH1-T-IH0-K 84
K-S-CH-ER0 84
K-W-AA2-@@ 84
L-AY1-B-R-EH2-R-IY0-Z 84
L-EH1-DH-ER0 84
L-EY1-IH0-NG 84
L-IH1-V-ER0-P-UW2-L 84
L-IY0-AH0-M 84
M-AE2-N-Y-AH0-F-AE1-K-CH-ER0-ER0-Z 84
M-AY1-G-R@@ 84
M-B-ER0 84
P-AA1-R-T-AH0-@@ 84
P-AH1-B-L-IH0-SH-IH0-NG 84
P-AH1-NG-K 84
P-R-AA1-M-AH0-S 84
P-R-AH0-F-ER1-D 84
P-R-IH0-D-IH1-@@ 84
P-R-OW1-T@@ 84
R-EH1-L-AH0-T-IH0-V 84
R-IH0-D-UW1-@@ 84
R-IH0-Z-AY1-N-D 84
R-IY0-T-ER1-N 84
R-OW1-B-AA2-@@ 84
S-AE1-K-R-AH0-F-AY2-@@ 84
S-AE1-NG-K 84
S-AE1-NG-K-@@ 84
S-AH0-N@@ 84
S-AY1-S 84
S-P-AO1-R-T-IH0-NG 84
S-T-R-AE1-T-AH0-JH-IY0 84
S-T-R-EY1-SH-AH0-N-Z 84
SH-R-AY1-@@ 84
T-AA1-D-L-ER0 84
T-R-AE2-N-S-@@ 84
T-R-IY1-T-IY0 84
T-S-M-AH0-N 84
T-W-IH1-N 84
V-EY1-SH-AH0-N-Z 84
V-IH1-Z-IH0-@@ 84
V-IY0-EH2-T-@@ 84
V-N-AH0-S 84
W-EH1-L-K-AH0-M 84
W-ER0-TH 84
W-EY1-S-T 84
Y-UW1-Z-AH0-Z 84
-EY2-V 83
AA1-R-G-Y-UW0-D 83
AA2-R-K-IY0-AH0-L-AA1-JH-IH0-K-AH0-L 83
AE1-S-P-EH2-K-T 83
AH0-D-R-EH1-S 83
AH0-K-EY1-ZH-AH0-N 83
AH0-T 83
B-AE1-L-@@ 83
B-ER1-M-IH0-NG-HH-AE2-M 83
B-Y-UW0-@@ 83
CH-AE1-N-AH0-L-Z 83
D-AA1-M-AH0-N-EY2-T-AH0-D 83
D-AY1-AH0-L-EH2-K-T 83
D-IH0-P-EH1-N-D-Z 83
D-R-AH0-M-AE1-T-IH0-K 83
DH-EY1-L 83
EH0-N-T-AY1-T-AH0-L-D 83
EH1-L-D-ER0 83
F-AA2-DH-ER0 83
F-AY2-Z 83
F-IH1-T-IH0-D 83
F-L-AH1-D 83
F-R-EH1-D 83
F-UH0-@@ 83
G-AY1-D 83
G-R-AE2-F 83
G-R-OW1-V 83
HH-AE1-B-AH0-T-AE2-T 83
IH0-K-S-T-EH1-N-D-Z 83
IH0-M-P-L-OY1-IY0-Z 83
IH1-N-D-IH0-@@ 83
K-AA2-K 83
K-AE1-M-R@@ 83
K-AE1-T-S 83
K-AH0-M-P-IY1-@@ 83
K-AH0-N-S-T-R-EY1-@@ 83
K-AH1-T-IH0-NG 83
K-EH2-R-AH0-K-T-ER0-IH1-S-T-IH0-K-S 83
K-EY1-P-AH0-B-AH0-L 83
K-L-IH1-F 83
K-L-IY1-V-L-AH0-N-D 83
K-S-AY2-D 83
L-AE1-N-D-M-AA2-R-K 83
L-EY1-T-AH0-S-T 83
L-OY1-D 83
M-EH1-T-R-OW2 83
N-IH0-K-AH0 83
P-AA1-R-T-N-ER0-SH-IH2-P 83
P-AA2-P-Y-AH0-L-EY1-SH-AH0-N-Z 83
P-AE1-R-IH0-S 83
P-AE1-S-AH0-Z 83
R-IH0-G-AA1-R-@@ 83
R-IH0-K-W-AY1-R-M-AH0-N-T-S 83
R-IH0-Z-UW1-M-D 83
R-IY0-K-W-AY1-R-Z 83
R-IY1-CH-IH0-NG 83
S-AH0-G-JH-EH1-S-T 83
S-EH1-N-AH0-@@ 83
S-EH1-N-T-ER0-D 83
S-EH1-SH-AH0-N-Z 83
S-IY1-D-IH0-D 83
S-K-R-IY1-N-@@ 83
S-P-ER0-IH1-NG 83
S-P-IH0-@@ 83
S-P-IH1-R-IH0-T 83
S-T-AA1-P-S 83
S-T-AY2-N 83
S-W-IH1-CH 83
T-OY1-Z 83
AA1-R-K-AH0-N-S-AA2 82
AA1-T-AH0-@@ 82
AE1-N-AH0 82
AE2-N-AH0-M-EY1-SH-AH0-N 82
AH0-L-AA1-R-@@ 82
AH0-M-EH1-R-AH0-K-AH0 82
AH0-S-UW1-@@ 82
AO0-L-T-ER1-N-AH0-@@ 82
AY0-D-EH1-N-T-IH0-K-AH0-L 82
D-AH1-B-AH0-L-Y-UW0 82
D-AH1-G-L-AH0-S 82
D-EH1-L 82
D-IH0-S-T-IH1-NG-K-SH-AH0-N 82
E@@ 82
EH0-N-D-AO1-R-@@ 82
EH1-V-ER0-@@ 82
EH1-V-R-IY0-@@ 82
F-AO0-R 82
F-R-AE1-NG-@@ 82
IH0-K-S-P-AE1-N-D-AH0-D 82
IH0-K-W-IH1-P-T 82
IH1-N-S-AH0-@@ 82
JH-OY1-N-IH0-NG 82
K-AA1-N-D-AH0-@@ 82
K-AA1-N-T-R-AE2-@@ 82
K-AE1-N-AH0-D-IH0-T 82
K-AH0-L-OW1-@@ 82
K-AH0-N-EH1-K-T 82
K-AH0-N-EH1-K-T-S 82
K-AH0-N-S-IH2-@@ 82
K-EH1-L-@@ 82
K-R-AY1-S-AH0-S 82
K-S-IY0 82
L-AE1-B-R-AH0-T-AO2-R-IY0 82
M-AH0-K-D-AA1-N-AH0-L-D 82
M-AO1-R-IH0-@@ 82
M-B-AA1-R-@@ 82
M-EH1-ZH-ER0-Z 82
N-AY0-@@ 82
N-D-EY2 82
N-EY1-B-AO2-R-HH-UH0-D 82
N-IY0-OW0 82
N-UW@@ 82
P-R-AA1-JH-EH0-K-S 82
R-EH1-K-AH0-G-N@@ 82
R-EH2-N-AH0-@@ 82
R-IH0-P-L-AY1 82
R-IY0-S-P-AA1-@@ 82
S-AY2-Z 82
S-EH1-N-S-AH0-@@ 82
S-EH1-T-AH0-L-ER0-Z 82
S-EH2-S-ER0 82
S-K-EY2-P 82
S-K-IY1-@@ 82
S-K-UW1-L-@@ 82
SH-AH0-N-IH0-NG 82
T-R-IH0-K 82
TH-R-EH1-T-AH0-N-D 82
V-W-AA2-R 82
W-AY2-@@ 82
-AH0-M-@@ 81
-EY2-T-IH0-V 81
AA1-P-T-AH0-@@ 81
AA2-P-ER0-T-UW1-N-AH0-T-IY0-Z 81
AE1-L-G-ER0-IH2-DH-AH0-M-Z 81
AH0-K-EY1-ZH-AH0-N-AH0-L-IY0 81
AH0-K-EY1-ZH-AH0-N-L-IY0 81
AH0-M-EY1-@@ 81
AH0-M-Y-UW1-Z@@ 81
AH0-P-R-UW1-V-D 81
AH0-S-L-IY1-P 81
AH0-T-EH1-M-P-@@ 81
B-AE1-T-ER0-IY0 81
B-AO2-@@ 81
B-AO2-R-@@ 81
B-EH1-T 81
B-IH1-SH-AH0-@@ 81
B-UH1-L-AH0-V-AA2-R-D 81
CH-AO1-@@ 81
D-AH0-L-@@ 81
D-IH0-L-IH1-V-ER0-IY0 81
D-IH1-F-ER0 81
D-R-IY1-M-Z 81
EH1-N-T-R-IY0 81
EH2-N-ER0-@@ 81
EH2-R-IH0-Z-OW1-N-AH0 81
EY1-JH-IH0-Z 81
F-AH0-T-AA1-G-R-AH0-F-ER0 81
F-AO1-R-CH-AH0-N 81
F-EY1-L 81
F-R-IY0 81
G-EH1-S-T-S 81
G-IH1-R 81
G-Z-IH1-@@ 81
HH-EH1-L-IH0-K-AA2-@@ 81
IH0-N-EY1-@@ 81
IH0-N-K-R-IY1-S-IH0-Z 81
IH0-V-AE1-@@ 81
IY1-V-AH0-L 81
JH-AA1-N-Z 81
JH-AE1-N-Y-UW0-EH2-R-IY0 81
JH-M-AH0-N-T 81
JH-OY1-N-Z 81
K-AE1-N-D-AH0-D-EY0-T 81
K-AH0-M-P-L-EH1-@@ 81
K-AH0-M-P-OW1-@@ 81
K-AH0-N-S-ER1-N-Z 81
K-AH0-N-S-ER1-V-AH0-@@ 81
K-AH1-L-T-AH0-@@ 81
K-R-IH2-@@ 81
K-T-ER0-IY0-Z 81
L-AE1-NG-G-W-AH0-JH-AH0-Z 81
L-AH0-JH-IH0-S-T-S 81
L-IH1-M-AH0-@@ 81
L-IY0-AH0-N-Z 81
L-UW0-IY2-Z-IY0-AE1-N-AH0 81
M-AA1-N-Y-AH0-@@ 81
M-AE1-N-AH0-JH-M-AH0-N-T 81
M-AE1-P-S 81
M-AE2-N-IH0-@@ 81
M-AH0-S-@@ 81
N-AH0-S-EH1-@@ 81
NG-K-AH0-N 81
P-AA1-R-SH-AH0-L 81
P-AH0-Z-EH1-SH-AH0-N 81
P-ER0-S-UW1 81
P-ER1-CH-AH0-S 81
P-IH1-R 81
P-L-EH1-Z-AH0-N-T 81
P-R-AA1-M-AH0-S-T 81
R-AH1-B-ER0 81
R-IH0-K-AH1-@@ 81
R-IH0-S-P-EH1-K-T 81
R-IY0-K-W-AY1-R 81
R-IY0-V-EH1-@@ 81
S-AA2-@@ 81
S-AY2-D-Z 81
S-IH1-G-N-AH0-CH-ER0 81
S-IH1-N-D-R-OW2-M 81
S-T-EY1-JH-IH0-Z 81
T-AA1-R-G-AH0-T-S 81
T-AH1-CH-T 81
T-R-AE1-N-S-F-ER0 81
TH-AY1-@@ 81
V-AA1-R-@@ 81
V-AY0@@ 81
V-ER0-AY1-AH0-T-IY0-Z 81
W-EH1-L-TH 81
-OW2 80
AE1-NG-G-L@@ 80
AE1-P-AH0-@@ 80
AH0-P-R-OW1-CH-T 80
B-AH0-L-G-EH1-@@ 80
B-ER1-S-T 80
B-R-AE1-N-CH-IH0-Z 80
CH-AH0-L@@ 80
CH-ER0-AH0-L 80
CH-ER1-CH-AH0-Z 80
D-AA1-L-ER0-Z 80
ER0-IH0-NG 80
EY2-V-IY0-EY1-SH-AH0-N 80
F-AA1-R-M-Z 80
F-AO1-R-T-IY0 80
F-EH1-S-T-IH0-@@ 80
F-IH1-N-@@ 80
HH-AA1-R-V-ER0-D 80
HH-AH0-W-AY1-IY2 80
HH-AW1-S-HH-OW2-L-D 80
HH-AY1-K-IH0-NG 80
IH0-K-S-P-OW1-Z-D 80
IH0-N-V-EY1-ZH-AH0-N 80
IY1-AH0-N 80
IY1-JH-IH0-P-T 80
JH-AE1-K-@@ 80
JH-ER1-N-AH0-L-IH2-Z-AH0-M 80
K-AA1-M-@@ 80
K-AA1-P-IY0 80
K-AA1-R-G-OW2 80
K-AE1-ZH-AH0-@@ 80
K-AH0-M-IH1-SH-AH0-N-D 80
K-AH0-N-T-EY1-N-IH0-NG 80
K-IH0-S 80
K-L-AE1-N 80
L-AO1-NG-T-AY2-M 80
L-EH1-JH-AH0-S-L-EY2-T-IH0-V 80
M-AA1-N-T 80
M-AA1-R-K-AH0-T-IH0-NG 80
M-EY2-T-S 80
M-UH0-@@ 80
N-EY1-B-ER0 80
P-AE1-T 80
P-ER0-EY1-SH-AH0-N-Z 80
P-OW1-L-Z 80
P-R-OW1 80
R-EH1-S-K-Y-UW0 80
R-EH1-Z-AH0-@@ 80
R-IH0-JH 80
R-IY0-S-P-AA2-N-S-AH0-B-IH1-L-AH0-T-IY0 80
S-AH0-P-AO1-R-T-ER0-Z 80
S-EH1-N-T-AH0-N-S-T 80
S-EH1-V-AH0-N-T-IY1-N 80
S-IY0-AE1-T-AH0-L 80
S-K-R-IH1-P-@@ 80
S-N-OW1-IY0 80
S-T-AH0-T-UW2-T 80
S-T-R-AH1-G-AH0-L 80
SH-IH1-P-@@ 80
T-AE1-K-S-IY0 80
T-EH1-R-AH0-B-AH0-L 80
T-EH1-R-IY0 80
T-R-AW1-Z-ER0-Z 80
T-R-EY1-L-Z 80
V-EH1-N-CH-ER0 80
V-IY0-EH1-N-AH0 80
Z-EH1-N-T-AH0-D 80
AA1 79
AE0-L-B-ER1-@@ 79
AE1-T-@@ 79
AE1-T-M-AH0-S-F-IH2-R 79
AH0-CH-IY1-V 79
AH0-T-EH1-N-D-IH0-NG 79
AO0-R-EH1-D-IY0 79
AO1-R-AH0-G-AH0-N 79
AY1-S-AH0-L@@ 79
B-AO2-L 79
B-EY1-S-AH0-N 79
D-AA1-K 79
D-AA1-K-T-ER0-Z 79
D-AA2-@@ 79
D-IY1-T-EY0-L 79
EH1-N-D-IH0-NG 79
ER0-EY1-N-JH-M-AH0-N-T 79
EY1-N-JH-AH0-L-Z 79
F-ER0-G-AA1-T-AH0-N 79
F-EY1 79
F-L-ER1-@@ 79
G-AH1-V-ER0-M-AH0-N-T-S 79
G-IH1-T-S 79
HH-AA1-R-D-W-EH2-R 79
HH-IH0-S-T-AO1-R-IY0-AH0-N 79
IH0-K-S-EH1-@@ 79
IH0-N-D-EH1-@@ 79
IH0-Z-L-AA1-M-IH0-K 79
IH2-N-ER0-@@ 79
IH2-N-S-P-ER0-EY1-SH-AH0-N 79
JH-AH0-L-AY1 79
K-AA1-M-P-AW0-N-D 79
K-AA2-M-P-L-AH0-@@ 79
K-AE1-N-D-IY0 79
K-AH0-M-P-Y-UW1-T-ER0-Z 79
K-IY2-P-ER0 79
K-W-EH1-S-CH@@ 79
L-AE1-N-S-K-EY2-P 79
L-AO1-R-@@ 79
L-EH1-JH-AH0-N-D 79
L-OW2-D 79
M-AE1-N-Y-UW0-AH0-L 79
M-AE1-S-T-ER0-@@ 79
M-AH0-N-EH2-R-IY0 79
M-AO1-R-AH0-L 79
M-AW1-N-T-S 79
M-B-ER0-Z 79
M-EH1-TH-AH0-@@ 79
N-IY1-D-AH0-D 79
N-OW1-T-AH0-S-T 79
N-T-AE1-N-AH0 79
OW0-L-IH1-M-P-IH0-K-S 79
P-AA1-R-T-N-ER0-Z 79
P-AE1-T-R-IH0-K 79
P-AH1-B-L-IH0-SH-ER0 79
P-ER1-F-AH0-@@ 79
P-EY1-SH-AH0-N-T-S 79
P-IH1-T-S-B-ER0-G 79
P-R-AA1-JH-EH0-K-T-S 79
P-R-AA1-T-AH0-@@ 79
P-R-AE0-@@ 79
P-R-OW0-HH-IH1-@@ 79
R-AA1-JH-ER0 79
R-AH1-S-AH0-L 79
R-EH1-JH-AH0-M-AH0-N-T 79
R-IY0-L-OW1-K-EY0-T-IH0-D 79
R-IY1-K-OW0 79
S-AH0-F-IH1-SH-AH0-N-T 79
S-AH0-K-S-EH1-@@ 79
S-CH-ER0 79
S-K-AA1-L-ER0-@@ 79
S-K-AW1-@@ 79
S-K-EY1-T-B-AO2-R-D 79
S-P-EH1-R 79
SH-ER1-T-S 79
SH-IH2-@@ 79
SH-IY0-EY1-SH-AH0-N 79
T-AA1-P-IH0-K-S 79
T-AE1-P 79
T-ER1-K-IH0-SH 79
Z-ER0-IY0 79
Z-OW0 79
-AH0-T-S 78
AA0-R-M-IY1-@@ 78
AA1-P-ER0-EY2-T-ER0 78
AA2-K-Y-AH0-P-EY1-SH-AH0-N 78
AE1-TH-AH0-N-Z 78
AH0-P-AA1-L-AH0-@@ 78
AH0-P-R-IY1-@@ 78
AH0-T-AA1-@@ 78
AH2-N-D-ER0-G-R-AE1-JH-AH0-W-AH0-T 78
AO1-S-T-R-IY0-AH0 78
B-AO1-R 78
B-AW1-N-D 78
B-EY2-S 78
B-IH1-Z-N-AH0-@@ 78
D-AA2-R 78
D-AE1-M-IH0-JH-D 78
D-AH0-B-EY1-@@ 78
D-AY1-AH0-T 78
D-EY1-T-IH0-NG 78
D-IH0-S-EH1-N-D-AH0-N-T-S 78
D-IH0-S-IH1-ZH-AH0-N-Z 78
EH1-N-T-R@@ 78
ER0-AY1-V-AH0-L 78
F-AO0-@@ 78
F-AO1-L-T 78
F-AO1-R-M-Y-AH0-L-AH0 78
F-ER0-T 78
F-IH1-L-IH0-@@ 78
F-IY1-L-IH0-NG-Z 78
F-Y-UW1-AH0-L 78
F-Y-UW1-L 78
G-IH0-T-AA1-R-Z 78
G-L-EH1-N 78
G-R-AE1-F 78
G-R-AY1-@@ 78
HH-AE1-P-AH0-N-Z 78
IH0-K-S-P-EH1-R-AH0-M-AH0-N-T-S 78
JH-EY1-S-AH0-N 78
K-AA2-N-S-ER0-V-EY1-SH-AH0-N 78
K-AA2-N-S@@ 78
K-AH0-N-T-R-OW1-@@ 78
K-AH2-M-IH0-NG 78
K-EH1-V-IH0-N 78
K-ER0-IY0 78
K-IH1-L-Z 78
K-IY0-AH0 78
K-L-AH0-N 78
K-R-IY1-CH-ER0 78
L-AW1-D 78
L-IH1-S-@@ 78
M-AA1-R-Z 78
M-AE1-N-Z 78
M-AH1-L-@@ 78
M-AH1-N-TH-L-IY0 78
M-AY2-Z 78
M-IH1-T-AH0-D 78
M-Y-UW2-N-IH0-S-AH0-P-AE1-L-IH0-T-IY0-Z 78
N-AA2-M-AH0-N-EY1-SH-AH0-N 78
N-AH2-@@ 78
N-AY1-F 78
N-EH1-S-T 78
N-IH1-K 78
N-JH-IY0 78
N-S-K-IY0 78
N-SH-AH0-L-IY0 78
N-T-AA1-@@ 78
N-T-IH0-S 78
P-AH0-S 78
P-ER2-S-AH0-N-AE1-L-IH0-T-IY0 78
P-EY1-SH-AH0-N-T 78
P-IY1-D-IY0-AH0 78
P-IY1-T-S-AH0 78
P-L-IH0-@@ 78
R-AA1-B-ER0-@@ 78
R-AH1-SH 78
R-AY1-AH0-N 78
S-P-EH1-SH-AH0-@@ 78
S-T-AH0-T-IH1-S-T-IH0-K-S 78
S-T-IH0-S 78
S-T-OW1-N-Z 78
S-T-R-AY1-P-T 78
S-W-IH1-S 78
SH-AH1-T 78
T-EH1-M-P-ER0-EH2-R-IY0 78
T-EY1-L-Z 78
T-IH1-M-B-ER0 78
T-IY1-Z 78
TH-R-OW1-IH0-NG 78
V-AH0-B-AH0-L 78
V-EH1-T-ER0@@ 78
V-EH2-R-IY0-EY1-SH-AH0-N 78
W-AO1-R-N-IH0-NG 78
Y-UW1-N-IH0-T-S 78
-AA2-R-T 77
-AO1-R-AH0 77
-ER0-AH0-L-IY0 77
AA1-R-T-W-ER2-K 77
AE1-N-S-EH0-S-T-R-IY0 77
AE2-N-T-IY0-@@ 77
AH0-D-AE1-P-T-AH0-D 77
AH0-M-@@ 77
AH0-M-IY1-@@ 77
AH0-T-R-AE1-K-SH-AH0-N-Z 77
B-AE1-L-AH0-N-@@ 77
B-UH2-@@ 77
CH-AH0-W@@ 77
D-AA1-M-AH0-N-AH0-N-T 77
D-AE2-M 77
D-EH1-P-Y-AH0-@@ 77
D-IH0-S-K-AH1-S-T 77
D-R-EH1-S-IH0-Z 77
EH1-M-P-T-IY0 77
EH1-N-AH0-M-IY0-Z 77
EH1-R-L-AY2-N-Z 77
F-AH0-M-IH1-@@ 77
F-AH0-N-AE1-@@ 77
F-R-AE1-K-@@ 77
F-S-K-IY0 77
F-UH1-T-B-AO2-@@ 77
F-Y-UW1-Z-D 77
G-Z-AE1-@@ 77
HH-AH1-B 77
HH-EH1-L 77
IH0-G-Z-IH1-B-AH0-T-S 77
IH0-N-HH-AE1-B-AH0-T-AH0-D 77
IH0-N-T-ER1-P-R-AH0-@@ 77
IH1-M-P@@ 77
IH1-N-D-AO2-R 77
JH-UH1-R-IY0 77
K-AA1-N-T-R-AE0-@@ 77
K-AH0-N-T-R-OW1-L-Z 77
K-AH0-N-V-IY1-N-Y@@ 77
K-AO1-R-S-AH0-Z 77
K-L-AY1-M 77
K-L-IY1-N-IH0-NG 77
L-AH0-K-@@ 77
L-AH0-S-L-IY0 77
L-AH0-S-T-S 77
L-AH1-K 77
L-AY1-M-@@ 77
L-EH2-JH-AH0-S-L-EY1-SH-AH0-N 77
M-AA1-D@@ 77
M-AA1-JH-UW0-@@ 77
M-AE1-N-IH0-JH 77
M-B-AH0 77
M-P-T-AH0-N 77
N-AH2-P 77
N-AO1-R-M-AH0-N 77
N-EH1-L-S-AH0-N 77
N-IY1-S 77
P-AE1-K-IH0-S-T-AE2-N 77
R-AY0-@@ 77
R-EY1-S-IH0-Z 77
R-IH0-T-AY1-@@ 77
R-IH1-DH-AH0-M 77
R-IY0-M-UW1-V 77
R-UW2-@@ 77
S-AE1-T-AH0-L-AY2-T 77
S-AH0-P-R-AY1-Z-D 77
S-IY0-AH0-M 77
S-K-AH0-T 77
S-K-AH1-L-P-CH-ER0 77
S-M-AE1-@@ 77
S-P-IY1-K-ER0-Z 77
S-T-EH1-R-@@ 77
SH-IY1-L-D 77
T-AH0-M-Z 77
T-EH0-K-@@ 77
T-EH1-K-S-T-@@ 77
T-EH1-R-AH0-B-L-IY0 77
T-EY2-T-IH0-D 77
T-R-AH0-D-IH1-SH-AH0-N-Z 77
TH-AW1-Z-AH0-N 77
V-ER0-IH0-NG 77
W-EY1-T-IH0-D 77
Y-UW2-N-AH0-@@ 77
-AO1-L 76
-IY0-AH0-T 76
-IY0-EH0-@@ 76
-IY2-T-S 76
AA1-D-IY0-AH0-N-S 76
AA2-P-ER0-EY1-SH-AH0-N-AH0-L 76
AH0-F-IH1-L-IY0-@@ 76
AH0-N-S-ER1-T-AH0-N 76
AH0-S-IH1-S-T-AH0-N-S 76
AW2-@@ 76
B-AE1-G-Z 76
B-AH1-JH-IH0-T 76
B-ER0-D 76
B-ER0-IH1-@@ 76
B-IH0-K-AH0-Z 76
CH-AA1-R-JH-IH0-Z 76
D-EH1-N-S 76
D-IH0-T-EY1-L-D 76
D-IH0-Z-AA1-@@ 76
D-OW1-N@@ 76
DH-EH0-M-S-EH1-L-V-Z 76
EH1-K-S-AY2-@@ 76
EH1-S-T-ER0 76
ER0-AY1-V-Z 76
F-AA1-L-IH0-NG 76
F-AH0-L-Z 76
F-AY1-T-ER0 76
F-ER1-Z 76
F-L-AE1-SH 76
F-T-ER0 76
G-R-AE1-S-IY0 76
H1 76
HH-AO2-L 76
HH-IH0-S-T-AO1-R-IY0-AH0-N-Z 76
IH0-L-EH2-K-T-R-IH1-S-AH0-T-IY0 76
IH1-N-D-AH0-@@ 76
JH-AO1-R-D-AH0-N 76
JH-EH1-F 76
JH-EH1-N-ER0-EY2-T-IH0-D 76
JH-EY1-K-AH0-@@ 76
K-AA1-R-N-AH0-@@ 76
K-AH1-M-B@@ 76
K-AH1-S-T-AH0-M-ER0 76
K-EH1-R-IH0-@@ 76
K-IH1-S 76
K-L-IH1-K 76
K-M-AH0-N 76
K-R-IY0-EY1-T-S 76
K-W-EY2 76
L-EH1-JH-AH0-S-L@@ 76
L-T-AY2-M 76
L-Y-AH0-Z 76
M-AA1-R-K-AH0-T-S 76
M-AA2-D-AH0-@@ 76
M-AE1-TH-Y-UW0 76
M-IH0-SH 76
N-AA1-L-AH0-JH-IY0 76
N-T-IY1-@@ 76
P-AA1-L-@@ 76
P-AE1-SH-AH0-N 76
P-AH0-T-R-OW1-@@ 76
P-EY1-L 76
P-IH1-R-AH0-@@ 76
P-R-AA1-P-ER0-L-IY0 76
P-R-AH0-N-AW1-N-S-T 76
R-IH0-M-OW1-T 76
R-IH1-CH-M-AH0-N-D 76
R-IY0-AH0-S-L-IY0 76
R-IY0-IH0-NG 76
S-AO1-F-@@ 76
S-K-AW1-T 76
S-K-EH1-R-@@ 76
S-P-AH0-@@ 76
S-P-AO2-R-T 76
S-T-AW2-N 76
SH-AA1-R-K 76
T-AH0-B-AE1-K-OW2 76
T-AH0-N-IY0 76
T-EH1-N-D-Z 76
T-EH1-R-AH0-T-AO2-R-IY0-Z 76
T-EY1-N 76
T-IH1-SH@@ 76
W-AO1-K-ER0 76
Y-AH0-L-AH0-S 76
-AH0-N-D-Z 75
-AW2-N 75
-EY@@ 75
AE1-K-CH-AH0-W-AH0-L 75
AE1-K-S 75
AO1-L-T-ER0-N-AH0-T 75
AY1-S-@@ 75
B-AH1-T-AH0-N 75
B-EH1-N-AH0-@@ 75
B-IH1-Z-N-IH0-@@ 75
B-R-AO1-D-K-AE2-S-T-IH0-NG 75
B-R-IH1-S-T-AH0-L 75
CH-EH1-R-IY0 75
D-AH0-B-AH0-L 75
D-AO1-R-AH0-TH-IY0 75
D-EH1-L-@@ 75
D-EH1-N-IH0-S 75
D-EH1-N-T-AH0-L 75
D-EY1-N-JH-ER0 75
D-IH1-F-AH0-K-AH0-L-T-IY0 75
EH1-S-K-AH0-@@ 75
EH2-K-S-AH0-B-IH1-SH-AH0-N 75
EH2-K-S-P-AH0-D-IH1-SH-AH0-N 75
F-AH0-T-AA1-G-R-AH0-F-IY0 75
F-R-UW1-T-S 75
HH-EH1-D@@ 75
HH-EH1-L-TH-IY0 75
HH-OW1-S-T-IH0-D 75
IH0-N-JH-EH1-@@ 75
IH1-NG-G-L@@ 75
IH2-N-F-R-AH0-S-T-R-AH1-K-CH-ER0 75
K-AA1-P-IY0-@@ 75
K-AA2-N-S-T-AH0-T-UW1-SH-AH0-N-AH0-L 75
K-AE1-B-AH0-N 75
K-AE1-L-AH0-@@ 75
K-AH0-N-F-Y-UW1-ZH-AH0-N 75
K-R-AY1-IH0-NG 75
K-T-IH0-V-Z 75
L-AH0-JH-IH1-@@ 75
L-AY1-S-AH0-N-@@ 75
L-EY1-ER0 75
L-OW0-K-AE1-@@ 75
M-AH2-DH-ER0 75
M-AY0-AE1-M-IY0 75
M-AY1-L-D 75
P-ER1-ZH-AH0-N 75
P-R-AW1-D 75
R-AA1-B-ER0-T-S 75
R-AH0-F-ER1-Z 75
R-EH1-F-R-AH0-N-S-IH0-Z 75
R-EH1-G-Y-AH0-L@@ 75
R-IH0-K-AO1-R-D 75
R-IH0-T 75
R-IY0-AE1-K-SH-AH0-N-Z 75
S-AE1-D 75
S-AH0-N-D 75
S-AH0-P-L-AY1-Z 75
S-AH0-S-AY1-AH0-T-IY0-Z 75
S-AH1-M-ER0-Z 75
S-ER0-IY0-Z 75
S-IH0-N 75
S-K-ER0 75
S-P-AO1-R-T-AH0-D 75
S-T-IY1-P 75
T-AY1-ER0-D 75
T-R-AH2-S-T@@ 75
T-UW1-B 75
W-EY1-T-S 75
W-IH1-L-Y@@ 75
W-IH1-N-ER0-Z 75
Y-UW1-T-AH0-@@ 75
Y-UW1-T-AO2 75
Z-AH0-N@@ 75
-AO2-R-AH0-@@ 74
-EH1-T-IH0-K-S 74
-ER2 74
-EY2-M 74
AA1-L-IY0 74
AE1-NG-G-R-IY0 74
AE2-L-AH0-G-Z-AE1-N-D-ER0 74
AO1-L-T-ER0-@@ 74
AO1-S-T-AH0-N 74
AY1-T-AH0-M 74
B-AE2-N-D 74
B-EH1-N-JH-AH0-M-AH0-N 74
B-ER1-TH-D-EY2 74
B-R-AO1-D-@@ 74
CH-EH1-R-@@ 74
D-AA1-R-K-N-AH0-S 74
D-AY0-N-AE1-@@ 74
D-EH1-K-EY0-D 74
D-IH0-S-P-Y-UW1-T 74
D-IH0-SH 74
D-IH0-T-R-OY1-T 74
D-OW2-@@ 74
EH1-JH-AH0-@@ 74
EH1-K-S-ER0-@@ 74
ER0-AA2-R-@@ 74
EY1-B-R-AH0-@@ 74
F-AA1-L 74
F-ER0-G-AA1-T 74
G-AW1-@@ 74
HH-AA1-L-IH0-@@ 74
HH-AE1-V-AH0-N-T 74
HH-EH1-R-IH0-S-AH0-N 74
IH0-K-S-K-L-EY1-M-D 74
IH0-N-D-IH1-JH-AH0-N-AH0-S 74
IH0-N-V-EH1-S-T-M-AH0-N-T 74
JH-AH0-N-AH0-L 74
JH-EH1-R-IY0 74
JH-EH2-N-ER0-EY1-SH-AH0-N-Z 74
JH-IH0-M-@@ 74
K-AA1-M-ER0-S 74
K-AA1-M-P@@ 74
K-AA1-N-T-EH0-@@ 74
K-AA2-N 74
K-AW1 74
K-ER1-AH0-@@ 74
K-R-IY1-T 74
L-AE1-M-P 74
L-AH1-K-IY0 74
L-EH1-K-T 74
L-IH1-B@@ 74
M-ER0-AA1-@@ 74
M-OW1-M-AH0-N-T-S 74
M-Y-UW1-Z-IH0-@@ 74
N-AY1-N-T-IY1-@@ 74
N-D-AH0-M 74
N-UW1-K-L@@ 74
N-UW1-T-AH0-N 74
OW1-Z 74
P-AA1-L-AH0-S-IY0-Z 74
P-AH0-T-EH1-N-CH-AH0-L 74
P-AH1-B-L-IH0-K-L-IY0 74
P-ER0-IH1-@@ 74
P-IY2-S 74
P-L-AY1-Z 74
P-L-UW1-@@ 74
P-R-AH0-G-R-EH1-@@ 74
P-R-IY1-S-T 74
R-AH0-G-AA1-R-D-AH0-D 74
R-EH2-P-R-AH0-Z-EH0-N-T-EY1-SH-AH0-N 74
R-IH0-G-R-EH1-@@ 74
R-IH0-M-EY1-N-D-ER0 74
R-IH0-P-IY1-@@ 74
S-AH1-D-AH0-N 74
S-AY2-M-AH0-L-T-EY1-@@ 74
S-IH0-K-Y-UH1-R 74
S-K-EH1-L-AH0-@@ 74
S-P-EH1-K-T-R-AH0-M 74
S-T-AO1-R-IY0-@@ 74
S-UW1-P-ER0-V@@ 74
S-UW1-T-S 74
SH-AO1-R-T-ER0 74
T-AH0-P-AA1-@@ 74
T-AO1-K-T 74
T-EY1-S-T 74
T-OW1-L 74
T-R-EY1-D-IH0-NG 74
V-AA2-L-AH0-N-T-IH1-R 74
V-EH1-N-CH-ER0-Z 74
V-ER1-CH-UW0 74
V-IH1-L-AH0-JH-AH0-Z 74
W-AA1-CH-T 74
W-AO1-R-D-Z 74
W-AO1-SH-IH0-NG-T-AH0-N 74
W-EY1-N 74
Z-IY0-AE1-@@ 74
-EY2-ER0 73
2-R-@@ 73
AE1-M-P-L-AH0-@@ 73
AH0-N-IY1-@@ 73
AH0-P-AA1-R-@@ 73
AH0-P-OY1-N-T-M-AH0-N-T 73
AH0-T-L-AE1-@@ 73
AY0-D-EH1-@@ 73
AY2-R@@ 73
B-AE1-S 73
B-AO2-R-D-Z 73
B-ER1-N-IH0-NG 73
B-S-AH0-N 73
B-UH1-L 73
CH-AE1-M-P-IY0-AH0-N-Z 73
D-AH0-T-IY0 73
D-AY0-V-ER1-S 73
EH1-K-S-P-ER0-T 73
EH1-N-T-ER0-Z 73
EH2-K-S-P-L@@ 73
EH2-L-AH0-V-EY1-SH-AH0-N 73
F-AA1-S-@@ 73
F-AH1-N-IY0 73
F-IH1-L-AH0-P-IY2-N-Z 73
G-AE1-DH-ER0 73
G-AE2-@@ 73
G-ER0-IY0 73
G-R-AE1-N-CH-IH2-L-D-R-AH0-N 73
HH-AE1-N-AH0 73
HH-AY2-P-ER0-@@ 73
HH-EH1-D-K-W-AO2-R-T-ER0-D 73
HH-IH1-T-IH0-NG 73
HH-IY1-B-R-UW0 73
HH-W-AY1-T-@@ 73
IH0-G-Z-AE2-@@ 73
IH0-P-IH1-@@ 73
IH2-N-T-ER0-AE1-@@ 73
IH2-N-T-ER0-AE1-K-@@ 73
JH-ER1-N-AH0-L-AH0-S-T 73
K-AA1-NG-G-R-AH0-@@ 73
K-AA2-L-ER0-AA1-D-OW0 73
K-AE0-F-EY1 73
K-AE1-B-AH0-N-AH0-T 73
K-AE1-N-IH0-K 73
K-AH0-M-ER1-SH-AH0-L-IY0 73
K-AH0-N-S-IH1-D-ER0-AH0-B-L-IY0 73
K-AH0-N-S-IH1-S-T-AH0-N-T 73
K-AH0-N-T-IH1-N-Y-UW0-IH0-NG 73
K-EH1-L-IY0 73
K-L-AE1-S-IH0-Z 73
K-OY1-N 73
K-W-EH1-S-T 73
L-EH1-S-AH0-N-Z 73
L-IH0-NG-G-W-IH1-@@ 73
L-IH1-T 73
L-UW1-P 73
M-AE1-D 73
M-AH0-K-EH1-@@ 73
M-AH0-M 73
M-AH0-SH-IY1-@@ 73
M-AH1-S-AH0-L 73
M-EH1-D-AH0-L-Z 73
M-EH1-M-@@ 73
M-EH1-T-R@@ 73
M-EY0-@@ 73
N-AA2-N-@@ 73
N-CH-AH0-N-Z 73
N-D-AH0-N-@@ 73
N-S-M-AH0-N-T 73
N-T-AH0-M 73
P-EH1-R-IY0 73
P-IH1-K-N-IH2-@@ 73
P-R-AY0@@ 73
P-R-IY0-Z-EH1-N-T-AH0-D 73
R-AE1-M-P 73
R-ER0-@@ 73
R-IH0-D-AH0 73
R-IH0-S-IH1-P-IY0@@ 73
R-IY1-S-ER0-CH-ER0-Z 73
S-AE1-M-AH0-N 73
S-K-AA1-L-ER0 73
S-K-EY2-@@ 73
S-M-OW1-K 73
S-OW1-L-@@ 73
S-T-AH0-L@@ 73
S-T-R-EH1-NG-@@ 73
T-AA1-M-P-@@ 73
T-R-AY0-@@ 73
V-EY1-L 73
W-EH1-L-Z 73
W-ER2-TH 73
Y-AO1-R-K-SH-ER0 73
-AA2-R-K 72
-AH0-K 72
-AH0-L-IH0-S-T 72
-AH0-N-T-R-IY0 72
-M-AH0-N-T 72
AA1-D 72
AH0-B-IH1-L-AH0-T-IY0-Z 72
AH0-K-EY1-ZH-AH0-N-AH0-L 72
AH0-L-AH1-M-@@ 72
B-AH1-T-L-ER0 72
B-IY0-AH0-S 72
CH-IH1-R-@@ 72
CH-UW0-AH0-L-IY0 72
D-AH0-N-AH0-L 72
D-AY0-R-EH1-K-T-IH0-D 72
D-AY1-N-AH0-@@ 72
D-EH1-K 72
D-EH2-S-T-AH0-N-EY1-SH-AH0-N 72
D-ER0-EH1-K-T-ER0-Z 72
D-IH0-M-EH1-N-SH-AH0-N-AH0-L 72
D-IH0-V-EH1-L-AH0-P-M-AH0-N-T-S 72
D-IH0-Z-AE1-S-T-ER0 72
D-IY0-OW2 72
D-IY1-P-L-IY0 72
EH0-K-S-T-R@@ 72
EH1-D-W@@ 72
EH1-K-S-AH0-K-Y-UW2-@@ 72
EH1-TH-IH0-K-S 72
F-AE1-N-T-AH0-@@ 72
F-EY1-V-R-AH0-T 72
F-R-AE1-N-CH-AY2-Z 72
F-R-AY1-D-EY2 72
G-L-IY0 72
HH-AH1-N-T 72
HH-AO1-R-ER0 72
HH-EH1-L-AH0-N 72
HH-EY1-T 72
HH-OW2 72
IH0-M-P-R-IH1-Z-AH0-N-D 72
IH1-N-D-AH0-K-EY2-T-IH0-D 72
IH2-N-D-IH0-P-EH1-N-D@@ 72
JH-AH1-JH-M-AH0-N-T 72
JH-IH1-R-IY0-AH0 72
K-AE2-S-T 72
K-AH0-M-P-AE1-N-Y-AH0-N 72
K-AH0-N-EH1-K-T-AH0-D 72
K-ER1-AH0-N-S-IY0 72
K-EY1-B-AH0-L 72
K-OW1-D-Z 72
K-UH1-D-AH0-N-T 72
K-W-AH0-Z-IH1-SH-AH0-N 72
L-AE1-F-IH0-NG 72
L-OW2-K-AH0-M-OW1-T-IH0-V-Z 72
M-AA2-R-K-IH0-T 72
M-AE2-TH-AH0-M-AE1-T-IH0-K-AH0-L 72
M-AH0-L-Z 72
M-AH0-N-D-Z 72
M-AO0-R-OW1-V-ER0 72
M-EY1-S-AH0-N 72
M-IH0-D-IY1-V-AH0-L 72
N-AO1-R-F-AH0-K 72
N-AO2-R-TH-W-EH1-S-T-ER0-N 72
N-IH2-Z-AH0-M 72
N-JH-ER0-D 72
NG-G-L@@ 72
NG-G-R@@ 72
OW1-L-AH0 72
OW1-V-ER0-S-IY1-Z 72
P-AO1-R-CH-AH0-G-AH0-L 72
P-R-AH0-F-EH1-SH-AH0-N 72
P-R-EH2-Z-AH0-N-T-EY1-SH-AH0-N 72
R-AE1-P-AH0-@@ 72
R-EY1-T-IH0-D 72
R-IH0-M-AA1-R-K-AH0-@@ 72
R-IH0-P-EH1-R 72
S-AH1-B-ER0-B-Z 72
S-AY1-D-@@ 72
S-B-IY0 72
S-IH1-T-AH0-@@ 72
S-IY1-JH 72
S-K-W-ER1-@@ 72
S-L-AY1-D 72
S-N-EY1-K 72
S-OW1-SH-AH0-@@ 72
S-P-EY2-S 72
S-T-AH0-L-EY1-SH-AH0-N 72
S-T-EH1-P-@@ 72
S-UW0-P-IH1-R-IY0-ER0 72
SH-R-AH1-@@ 72
T-EH1-K-S-T-S 72
T-R-AE0-N-S-L-EY1-SH-AH0-N 72
T-R-AE1-V-AH0-L-Z 72
TH-IY1-ER0-IY0 72
V-AE2-L-@@ 72
V-IH0-K-T-AO1-R-IY0-AH0-N 72
W-AH1-N-D-ER0-F-AH0-L 72
W-EH1-N-Z-@@ 72
W-IY1-D 72
Y-UW1-S-IH0-JH 72
-AE0-T 71
-AH0-B-AH0-L 71
-AH0-N-S-T 71
-AW1-D 71
-AY2-L 71
AE1-F-T-ER0-@@ 71
AE1-K-T-IH0-D 71
AE2-S-T-R@@ 71
AH0-B-R-AO1-D 71
AH0-D-IH1-@@ 71
AH0-D-M-IH1-N-AH0-S-T-ER0-D 71
AH0-D-V-AY1-S 71
AH0-K-AO1-R-D-IH0-NG-L-IY0 71
AO1-T-AH0-M 71
AO2-T-AH0-M-AE1-T-IH0-K-L-IY0 71
B-IH0-L-IY1-V-Z 71
B-IY1-CH-IH0-Z 71
CH-AE1-P-T-ER0 71
D-AA1-L-@@ 71
D-AA1-N-AH0-@@ 71
D-AH0-P-AA1-@@ 71
D-EH1-L-T-AH0 71
D-EH1-V-AH0-@@ 71
D-IH1-JH-AH0-T-AH0-L 71
D-IY0-EY1-G-OW0 71
D-R-AH1-M 71
D-W-AO1-R-@@ 71
EH1-K-W-AH0-@@ 71
EH1-V-R-IY0-W-EH2-R 71
F-AE1-S-AH0-N@@ 71
F-L-AE1-G-Z 71
F-L-AW1-@@ 71
G-EY2-T-IH0-D 71
G-IH0-N-Z 71
G-L-UW1-@@ 71
G-R-AH0-G-EY1-SH-AH0-N 71
IH0-F-EH1-K-T-IH0-V-L-IY0 71
IH0-G-Z-AO1-@@ 71
IH1-N-S-T-AH0-N-T-L-IY0 71
IH1-R-AH0 71
IH1-Z-R-EY0-L 71
IY1-K-W-AH0-L-IY0 71
JH-AH1-M-P@@ 71
K-AA1-M-AH0-N-Z 71
K-AA2-M-P-R-IY0-HH-EH1-N-S-IH0-V 71
K-AE1-TH-R@@ 71
K-AH0-L-AH1-M-B@@ 71
K-AH0-M-Y-UW1-N-IH0-T-IY0-Z 71
K-AH0-N-D-IH1-@@ 71
K-AH0-N-S-P-IH1-@@ 71
K-AH0-N-S-UW1-M-ER0 71
K-AH0-N-T-R-IH1-B-Y-UW0-@@ 71
K-AH1-N-T-R-IY0-@@ 71
K-EY2-T-IH0-NG 71
L-AY1-AH0-N-Z 71
L-IH1-M-AH0-T 71
L-IY1-S-AH0 71
M-AA0-N-T-@@ 71
M-AE1-K-S 71
M-AW2-N-T 71
M-EH1-K-AH0-@@ 71
M-EH1-L-B-ER0-N 71
M-EH1-N-Z 71
M-ER1-IY0 71
N-AY2 71
N-D-EH1-@@ 71
P-AO1-R-T-ER0 71
P-AY1-R-AH0-@@ 71
P-ER2-S-AH0-N-EH1-L 71
P-EY1-SH@@ 71
P-R-AA1-G-R-EH2-S 71
P-R-AE1-K-T-AH0-S-IH0-NG 71
P-R-IH1-N-T-IH0-D 71
P-R-IY0-AH0-T 71
R-EY1-N-F-AO2-L 71
R-IH0-M-UW1-@@ 71
R-IH0-P-AO1-R-T-AH0-D-L-IY0 71
R-IH0-V-ER1-S 71
R-IY0-T-EY1-N-D 71
S-AH0-K-S-IY1-@@ 71
S-AH0-L-IH1-@@ 71
S-AW1-N-Z 71
S-IH0-NG-Z 71
S-IH1-K-S-T-IY0 71
S-IH1-NG-G-AH0-L-@@ 71
S-P-AA1-N-S-ER0-D 71
S-T-EH1-D-IY0 71
T-ER0-IY0-Z 71
V-Y-UW1-ER0-Z 71
W-AA1-SH-IH0-NG 71
W-ER1-S-T 71
W-ER2-D 71
W-IH1-N-Z 71
W-UH2-@@ 71
Y-UW0-AH0-S 71
-AH1-L-@@ 70
-IY@@ 70
AA1-K-S-IH0-@@ 70
AA2-R-K-AH0-T-EH1-K-CH-ER0-AH0-L 70
AH0-SH-UH1-@@ 70
AO1-L-W@@ 70
AW1-T-F-IH2-T 70
B-AE1-D-L-IY0 70
B-AH1-T-ER0-@@ 70
B-AY1-T 70
B-EH2-N-AH0-@@ 70
B-ER1-B-AH0-N 70
B-IH0-S-AY1-D 70
B-IH0-S-AY1-D-Z 70
B-OW1-L-IH0-NG 70
B-R-AH0-Z-IH1-@@ 70
B-R-EH1-TH 70
B-R-UH1-K 70
CH-AE1-L-AH0-N-JH-D 70
CH-EH1-R-Z 70
CH-EH2-S-T-ER0 70
CH-ER2-T 70
D-IH1-S-T-AH0-N-T 70
D-N-AH0-S 70
D-R-AH1-G-Z 70
EH1-K-S-AH0-K-Y-UW2-T-IH0-D 70
F-AE1-B-R@@ 70
F-AH0-N-AA1-M-AH0-N-AA2-N 70
F-EH1-D 70
F-IH1-K-SH-AH0-N-AH0-L 70
F-Y-UH1-@@ 70
G-AA1-R-D-Z 70
G-AA2-R-D 70
HH-AE0-N 70
HH-AH0-NG-G-EH1-@@ 70
HH-EY1-Z 70
HH-OW0 70
HH-UW0-@@ 70
IH0-G-Z-IH1-@@ 70
IH0-JH-IH1-P-SH-AH0-N 70
IH0-K-AA1-@@ 70
IH0-L-EH1-K-T-R-IH0-K-AH0-L 70
IH0-N-K-ER1-AH0-@@ 70
IH0-N-T-EH1-N-S 70
IH2-N-T-R-AH0-D-AH1-K-SH-AH0-N 70
IY0-K-AA1-@@ 70
JH-AH1-S-T-AH0-@@ 70
JH-EH1-S-IY0 70
JH-ER0-UW1-S-AH0-L-AH0-M 70
K-AA1-N-S-AH0-K-W-EH2-N-T-L-IY0 70
K-AA1-R-P-AH0-T 70
K-AA2-R 70
K-AH0-M-IY1-@@ 70
K-AW1-N-T-ER0 70
K-IY2-@@ 70
K-R-AE2-@@ 70
L-AA2-@@ 70
L-EY1-ER0-Z 70
L-EY1-Z 70
L-IY0-AH0-T 70
L-IY2-@@ 70
L-M-IH0-N 70
L-UW2-@@ 70
M-AH0-K 70
M-AH0-T-R-IY0 70
M-EH1-ZH-ER0-D 70
M-Y-AH0-L-EY1-SH-AH0-N 70
N-AE1-CH-R-AH0-L-IY0 70
N-CH-AH0-Z 70
N-D-AH0-L-Z 70
N-D-IY0-@@ 70
N-M-AH0-N-T-S 70
P-AO1-R-T-L-AH0-N-D 70
P-EH1-R-IH0-@@ 70
P-ER0-EY2-@@ 70
P-EY1-M-AH0-N-T 70
P-IY2-@@ 70
P-R-AA1-V-AH0-N-S-AH0-Z 70
P-R-OW1-F-AY2-L 70
R-AE1-N-D-AH0-M 70
R-AH0-F-ER1 70
R-AH1-N-@@ 70
R-EH2-P-R-IH0-Z-EH1-N-AH0-@@ 70
R-EY1-SH-AH0-N 70
R-IH0-K-AH1-V-ER0-D 70
R-IY0-AH0-T 70
S-AO2 70
S-AY1-AH0-N-@@ 70
S-EH1-V@@ 70
S-OW1-SH@@ 70
S-W-EH1-T-ER0 70
SH-AA1-K 70
T-AY1-W-AA1-N 70
T-R-AE0-N-Z-L-EY1-T-AH0-D 70
T-R-AY1-B-Z 70
T-UH1-R-IH0-NG 70
TH-AH0-M 70
TH-ER0 70
TH-ER1-OW0-@@ 70
V-IH1-K-T-ER0 70
V-IH1-L-AH0 70
W-EH1-P-AH0-N 70
W-EH2-L-@@ 70
Z-B@@ 70
-AA2-K-S 69
-AH0-N-L-IY0 69
-AO0-NG 69
-OY1 69
AA0-N 69
AE0-N-T-OW1-@@ 69
AE1-D-AH0-L-T-S 69
AH0-B@@ 69
AH0-K-AA1-M-AH0-D@@ 69
AH0-K-L-EY1-M 69
AH0-L-AW1-@@ 69
AH2-N-D-ER0-S-T-AE1-N-D-IH0-NG 69
AO2-R-G-AH0-N-IH0-Z-EY1-SH-AH0-N-Z 69
B-AH1-S-T 69
B-AW2-N-D 69
B-R-EY2-@@ 69
B-UW1 69
D-AE1-N-IY0 69
D-AY1-AH0-L@@ 69
D-EH1-N-M-AA2-R-K 69
D-EH1-P-TH 69
D-IH0-P-AA1-R-@@ 69
D-R-AH1-NG-K 69
EH2-R-IY0-Z 69
ER0-IH1-JH-AH0-N@@ 69
F-AH0-S-IH1-L-AH0-T@@ 69
F-AY2-ER0 69
F-R-AH2-N-T 69
F-R-OW1-@@ 69
HH-AY0-P-AA1-@@ 69
HH-IH0-S-T-AO1-R-IH0-K-AH0-L-IY0 69
IH0-F-IH1-SH-AH0-N-T 69
IH0-K-S-P-EH1-R-AH0-M-AH0-N-T 69
IH0-K-S-P-OW1-ZH-ER0 69
IH0-M-P-R-EH1-@@ 69
IH0-N-JH-OY1-Z 69
IH0-N-S-IH1-@@ 69
JH-AH0-N-S 69
JH-IH0-K-L-IY0 69
K-AA2-N-T-AH0-N-EH1-N-T-AH0-L 69
K-AE1-M-P-@@ 69
K-AE2-L-@@ 69
K-AH0-N-T-EH1-S-T-AH0-D 69
K-AH0-N-V-EH1-N-@@ 69
K-AH1-V-ER0-IH0-NG 69
K-IH1-D-@@ 69
K-L-AO1-Z 69
K-OW1-N 69
K-R-AY1-S-T 69
L-AA1-JH 69
L-AO1-R-IY0 69
L-IH1-N-AH0-K-S 69
M-AA1-D-ER0-AH0-T 69
M-AE0-N-HH-AE1-T-AH0-N 69
M-AH0-N-AH0-N-T 69
M-AH0-N-IY0 69
M-EY2-K-ER0 69
M-IH1-R-ER0 69
M-OW2-T-AH0-@@ 69
M-UW2-@@ 69
N-D-ER0-IH0-NG 69
N-EH1-R-OW0-@@ 69
N-UW1-Z-@@ 69
P-EH1-R@@ 69
P-ER0-EY2-T-S 69
P-ER0-P-EH1-@@ 69
P-ER0-S-EH1-N-T 69
P-L-EH1-ZH-ER0 69
P-R-IY0-P-EH1-R 69
P-R-OW0-L-IH1-F-IH0-K 69
P-R-OW1-G-R-AE2-@@ 69
P-UH1-SH-T 69
R-AA1-B 69
R-AA1-B-AH0-N-@@ 69
R-EH1-S-L-IH0-NG 69
R-IH0-G-AA1-R-D-IH0-NG 69
R-IH0-K-W-EH1-S-T 69
R-IH0-Z-ER1-@@ 69
R-IY0-L-IY1-@@ 69
R-IY0-V-IY1-@@ 69
S-AH0-M-@@ 69
S-AY2-K-AH0-@@ 69
S-EH2-L-AH0-B-R-EY1-SH-AH0-N 69
S-OW2-S@@ 69
S-P-R-IH1-@@ 69
S-T-AA0-@@ 69
S-T-IY1-N 69
S-T-R-AH0-T-IY1-@@ 69
S-UW0 69
SH-UW1 69
T-EH2-K-@@ 69
T-ER1-M-AH0-N@@ 69
T-EY1-SH-AH0-N-AH0-L 69
T-IH1-K-IH0-T 69
T-N-AH0-S 69
T-R-AH0-N 69
UW0-@@ 69
V-AE1-L-Y-AH0-B-AH0-L 69
V-EH2-JH-AH0-T-EY1-SH-AH0-N 69
W-AA1 69
W-AH1-N-D-ER0-@@ 69
W-AO0-R 69
W-EH2-S-T-@@ 69
W-ER0-@@ 69
W-IH1-Z-@@ 69
W-IY1-L-Z 69
Y-UW1-D 69
-AO1-R-D 68
-EY2-CH-ER0 68
AA1-G-AH0-S-T 68
AA1-T-AH0-W-AA2 68
AA2-R-JH-AH0-N-@@ 68
AE0-N-T-EH1-@@ 68
AE1-F-T-ER0-W-ER0-D 68
AH2-N-D-ER0-N-IY1-TH 68
B-AO1-L-T-AH0-M-AO2-R 68
B-EH1-L-AH0 68
CH-AH0-S 68
CH-IH1-P 68
D-AA1-K-Y-AH0-M-AH0-N-T-S 68
D-AA1-R-L-IH0-NG 68
D-EH2-R-IY0 68
D-IH0-S-T-IH1-NG-G-W-IH0-@@ 68
D-IH0-S-T-R-IH1-@@ 68
D-IH0-V-AO1-R-S 68
D-IY0-AH0-S 68
D-R-AH0-N 68
D-R-AO1-IH0-NG-Z 68
EH0-N-K-AH1-M-P@@ 68
EH1-P-IH0-S-OW2-@@ 68
EH2-K-AH0-N-AA1-M-IH0-K-S 68
EY1-M 68
EY1-M-D 68
EY2-T-ER0-Z 68
F-AY1-B-ER0 68
F-IH1-R-@@ 68
F-R-AE1-G-@@ 68
G-R-AE1-M 68
HH-AY1-D-R-AH0-JH-AH0-N 68
IH0-G-N-AO1-R-@@ 68
IH0-K-S-K-@@ 68
IH0-M-P-AE1-K-T 68
IH0-N-HH-AE1-@@ 68
IH0-N-T-EH1-N-D-AH0-D 68
IH0-S-T-AE1-B-L-IH0-SH-M-AH0-N-T 68
IH1-N-D-EH0-K-S 68
IH1-N-ER0-@@ 68
IH1-Z-R@@ 68
IH2-N-T-ER0-AH1-@@ 68
JH-AA1-N-AH0-@@ 68
JH-UW1-S 68
K-AA1-N-S-AH0-K-W-AH0-N-S 68
K-AA2-NG-@@ 68
K-AH0-N-D-AH1-K-T-ER0 68
K-AH1-L-T 68
K-AW1-N-S-IH1-@@ 68
K-EH1-N 68
K-IH1-K 68
K-L-AE1-S-R@@ 68
K-L-IH1-N-T-AH0-N 68
K-R-IH1-S-T-AH0-L 68
K-Y-AH0-T-IH0-V 68
L-AA1-JH-IH0-K 68
L-AO1-G 68
L-AO1-NG-G-AH0-S-T 68
L-AY1-K-W-AY2-Z 68
L-EH1-S-T-ER0 68
M-AE1-T-IH0-K-L-IY0 68
M-AH0-TH-AA1-L-AH0-JH-IY0 68
M-IH1-T-IH0-D 68
M-OW2-S-T 68
N-AH0-K 68
N-D-AH0-L@@ 68
OY1-L-Z 68
P-AA1-R-SH-AH0-L-IY0 68
P-AA2-S-AH0-B-IH1-L-AH0-T-IY0 68
P-IH1-T 68
P-R-AA1-F-AH0-T 68
P-R-AH0-D-AH1-K-SH-AH0-N-Z 68
P-R-AH0-P-EH1-@@ 68
P-R-AY1-V-AH0-@@ 68
R-AA1-D 68
R-IH0-N-AW1-N-D 68
R-IY0-AA1-@@ 68
S-AH0-B-S-IH1-D-IY0-EH2-R-IY0 68
S-AH1-M-P-SH-AH0-N 68
S-EH1-N-T-R@@ 68
S-EH1-N-T@@ 68
S-EH1-T-AH0-@@ 68
S-ER1-K-AH0-L-Z 68
S-IH1-M-B@@ 68
S-IH1-M-P-L-AH0-@@ 68
S-K-AE1-T-ER0-D 68
S-K-EY1-T-IH0-NG 68
S-P-AA1-T-S 68
S-T-AE1-B-L-IH0-@@ 68
S-T-AE1-N-L-IY0 68
SH-AO1-N 68
SH-IY0-EY1-SH-AH0-N-Z 68
SH-UH1-R-L-IY0 68
T-AH0-W-AO1-R-D 68
T-AH1-F 68
T-AY2-N 68
T-EH1-L-IH0-NG 68
T-ER0-EY1-N-IY0-AH0-N 68
T-EY1-N-IH0-NG 68
T-IH1-L 68
T-IH1-R-Z 68
T-OW2-Z 68
T-R-EY1-L-ER0 68
T-Y-UW1-@@ 68
TH-R-AH1-@@ 68
Y-EH1-L-OW0-@@ 68
Y-UW1-T-UW1-B 68
Z-ER0-D-Z 68
Z-ER0-V-EY1-SH-AH0-N-Z 68
Z-IY0-AH0-M 68
-AA1-N 67
-AH0-N-T-R@@ 67
-AO2-R-T 67
-EH0-S 67
-EH2-R-AH0-N-@@ 67
AA1-B-@@ 67
AA2-R-K@@ 67
AE1-NG-G-@@ 67
AH0-D-EH1-L 67
B-AE1-T-AH0-L-@@ 67
B-AH1-F-AH0-L-OW2 67
B-AO1-S-T-AH0-N 67
B-EH1-N-AH0-F-IH0-T-S 67
B-EH1-R-IH0-NG 67
B-IH0-K-AA1-Z 67
B-IH0-L-AO1-NG-D 67
B-IH0-N-IY1-TH 67
B-OW2-T 67
CH-M-AH0-N-T 67
D-AA1-R-K-ER0 67
D-ER0-AY1-V-Z 67
D-EY1-L-AY2-T 67
D-IH0-K-R-IY1-@@ 67
D-IH0-S-K-AH1-S 67
D-IH0-V-OW1-T-IH0-D 67
D-R-AE1-F-T 67
D-R-AE1-G-AH0-N 67
D-UW1-T-IY0 67
EH0-N-K-ER1-@@ 67
EH1-R-D 67
F-AH0-N-Z 67
F-AY1-N-D-IH0-NG 67
F-ER1-N-IH0-CH-ER0 67
HH-AA2-R-T 67
HH-AH1-NG-G-R-IY0 67
IH0-F-EH1-@@ 67
IH0-K-S-P-EH1-K-T-AH0-D 67
IH0-L-IH1-M-AH0-N-EY2-T-IH0-D 67
IH0-N-K-AW1-N-T@@ 67
IH0-N-S-T-R-AH1-K-SH-AH0-N 67
IH0-N-S-T-R-AH1-K-SH-AH0-N-Z 67
IH0-N-T-EH1-L-AH0-JH-AH0-N-T 67
IH0-N-TH@@ 67
IH0-R-OW1-@@ 67
IH1-M-P-L-AH0-M-EH2-N-T-AH0-D 67
IY0-M-EY1-L 67
JH-IH0-T 67
JH-Y-UW0-@@ 67
K-AA1-N-T-EH0-S-T 67
K-AA1-P-ER0 67
K-AA2-M-AH0-@@ 67
K-AH0-M-P-AY1-@@ 67
K-AH0-N-T-R-IH1-B-Y-UW0-T 67
K-AH1-T-S 67
K-AH1-V@@ 67
K-AO1-L-ER0 67
K-IH0-NG-Z 67
K-R-IY2-@@ 67
L-AE1-F 67
L-EH1-JH-AH0-@@ 67
M-AH0-S-IY0 67
M-ER1-D-ER0-D 67
M-IH0-K-AH0-L 67
M-IH1-S-AH0-L 67
M-IY0-OW2 67
N-OW1-B-AH0-L 67
NG-G-OW1-@@ 67
OW0-B-R-AY1-IH0-N 67
P-AA1-S-CH@@ 67
P-AE1-N-@@ 67
P-AH0-T-R-OW1-L 67
P-IY0-Z 67
P-L-AH0-S 67
P-R-AY1-D 67
P-R-OW1-T-IY2-N 67
R-AA2-@@ 67
R-IH0-K-AO1-R-D-Z 67
R-IH0-T-EY1-N-D 67
R-IH0-Z-AO1-R-T 67
R-OY1 67
R-UH1-@@ 67
S-AH1-P-L-AH0-@@ 67
S-EH1-N-T-R-IH0-K 67
S-IH0-JH 67
S-IH1-M-B-AH0-L-Z 67
S-M-AE2-N 67
S-M-OW1-@@ 67
S-P-EH1-L 67
S-T-R-IH1-NG-Z 67
S-UW1-Z-AH0-N 67
SH-EY1-K-@@ 67
T-AH2-P 67
T-AO1-K-S 67
T-AO1-R-Z 67
T-EY2-T-IH0-NG 67
T-R-AY1-AE2-@@ 67
T-R-EH1-ZH@@ 67
T-V 67
TH-AE1-NG-K-S 67
TH-F-AH0-L 67
V-AH0-T-IY0-Z 67
V-AY1-T-AH0-L 67
V-IH1-Z-IH0-T-IH0-NG 67
V-L-IY0 67
V-OY1-S-T 67
W-AA1-CH-IH0-Z 67
Z-UW1 67
-AY0@@ 66
-AY2-Z-ER0 66
AA1-B-V-IY0-AH0-S-L-IY0 66
AA1-N-ER0-Z 66
AE1-K-CH-UW2@@ 66
AE1-N-S-EH2-@@ 66
AE1-TH-L-IY2-T 66
AH0-B-T-EY1-N 66
AH0-D-V-EH1-N-CH-ER0 66
AH0-K-AA1-M-P-L-IH0-SH-T 66
AH0-K-UW1-S-T-IH0-K 66
AH0-M-B-R-EH1-@@ 66
AH1-P-R@@ 66
AO1-R-AH0-L 66
AY0-D-EH1-N-T-AH0-F-AY2 66
B-AE1-T-AH0-L-Z 66
B-IH0-L-AO1-NG-Z 66
B-IH1-SH-AH0-N-Z 66
B-R-IH1-L-Y-AH0-N-T 66
D-AH1-N-@@ 66
D-AY1-IH0-NG 66
D-EH1-P-@@ 66
D-IH0-M-AA1-L-IH0-SH-T 66
D-IH0-P-AA1-R-CH-ER0 66
D-IH1-JH-IH0-@@ 66
D-IH1-Z-N-IY0 66
D-IH2-F-ER0-EH1-@@ 66
D-OW1 66
EH1-D-IH0-T-ER0 66
F-AA1-L-OW0-@@ 66
F-AH1-NG-K-SH-AH0-N-AH0-L 66
F-AH2-N-D-AH0-M-EH1-N-T-AH0-L 66
F-OW1-K-AH0-S-IH0-Z 66
F-UW1-D-Z 66
G-AO1-R-D-AH0-N 66
G-OW1-S-T 66
G-R-AE1-JH-UW0-L-IY0 66
IH0-N-T-ER2-P-R-IH0-T-EY1-SH-AH0-N 66
IH0-S-K-EY1-@@ 66
IH2-N-T-ER0-M-IY1-D-IY0-@@ 66
JH-IH1-N 66
K-AA1-M-P-L-AH0-K-EY2-T-AH0-D 66
K-EY1-D-Z 66
K-W-AH0-N-T-L-IY0 66
L-AE1-N-@@ 66
L-AE1-S-T-AH0-D 66
L-D-R@@ 66
L-ER0-IY0-Z 66
L-IY1-G-Z 66
L-IY1-N-IH0-NG 66
L-Y-AH0-@@ 66
M-AA1-N-AH0-S-T-EH2-R-IY0 66
M-AE2-N-Y-AH0-F-AE1-K-CH-ER0-ER0 66
M-IH0-R 66
M-IH0-S-T-EY1-@@ 66
M-IH1-CH-AH0-L 66
M-IH1-N-S-T-ER0 66
N-AE1-SH-N-AH0-L-IY0 66
N-AH0-L-AA1-JH-IH0-K-AH0-L 66
N-AH0-M@@ 66
N-D-OW0-@@ 66
N-ER0-AH0-B-AH0-L 66
N-JH-D 66
OW2-V-ER0-W-EH1-L-@@ 66
P-AA1-L-M 66
P-AA1-R-K-ER0 66
P-AE1-T-ER0-@@ 66
P-AO1-R-T-R-AH0-T 66
P-AW1-ER0-@@ 66
P-AY1-L 66
P-ER0-T-EH1-K-T 66
P-IH1-L-@@ 66
P-R-IY0-P-EH1-R-IH0-NG 66
R-AH0-F-L-EH1-@@ 66
R-EH1-F-Y-UW0-JH 66
R-EH2-S-T-ER0-@@ 66
R-EY1-L-W-EY2-Z 66
R-IH0-P-IY1-T-IH0-D-L-IY0 66
R-IH0-V-IY1-@@ 66
R-OW0-M-AE1-@@ 66
S-ER0-V-EY1-@@ 66
S-K-EY2-L 66
S-P-L-IH1-@@ 66
S-P-OY1-@@ 66
S-T-AO1-L 66
S-T-R-AA1-@@ 66
S-T-R-AH0-L 66
S-T-R-OW1-K 66
S-UW1-AH0-S-AY2-D 66
SH-IH1-R 66
SH-IY1-T 66
T-AH0-T-UW2-D 66
T-EH1-N-Y-ER0 66
T-R-AE0-N-S-M-IH1-@@ 66
T-R-AE1-V-AH0-L-IH0-NG 66
V-AA1-L-IY0-IY0-B-AO2-L 66
V-AY1-AH0-L@@ 66
V-EH1-R-IY0-AH0-N-T-S 66
V-EH1-R-IY0-IH0-NG 66
V-OW1-K-AH0-L 66
W-EH1-L-SH 66
W-IH1-N-T-ER0-Z 66
Z-AH0-N-T-@@ 66
Z-B-IY0 66
Z-M-AH0 66
-AH@@ 65
-ER0-IH0-NG 65
-IH0-SH 65
-M-AH0-N-T-S 65
AA1-R-M-@@ 65
AE1-B-S-AH0-N-S 65
AE1-K-SH-AH0-L 65
AE1-K-T-S 65
AE1-M-B@@ 65
AE1-N-S@@ 65
AE1-N-T@@ 65
AH0-B-JH-EH1-K-T-IH0-V 65
AO1-R-G-AH0-N 65
AY1-R-@@ 65
B-AE1-S-K-AH0-T 65
B-AH0-T-AE1-@@ 65
B-AO1-L-Z 65
B-AW1-N-D-R-IY0 65
B-AY1-AH0-@@ 65
B-EY1-T-AH0 65
B-OW1-L-D 65
B-UW1-T-S 65
D-AO1-K-T-ER0 65
D-AY0-AE1-M-AH0-T-ER0 65
D-AY0-R-EH1-K-SH-IH0-@@ 65
D-EH1-T 65
D-EH2-M-AH0-@@ 65
D-EY1-V-IH0-@@ 65
D-IH0-P-EH1-@@ 65
D-IH0-S 65
D-IH0-S-K-R-IH1-@@ 65
D-IH0-S-P-ER1-@@ 65
D-IH0-V-AY1-S-IH0-Z 65
D-IY0-AH0-N-Z 65
DH-ER0-D 65
EH1-N-JH-AH0-N-IH1-@@ 65
EH1-N-T-ER0-P-R-AY2-Z 65
ER0-EH1-S-T-IH0-D 65
ER0-IH1-JH-AH0-N-EY2-T-AH0-D 65
EY1-N 65
F-AA1-R-M-@@ 65
F-AE1-T 65
F-AH0-N-@@ 65
F-AY1-L-Z 65
F-AY2-ER0-Z 65
F-ER0-EH1-@@ 65
F-IH1-L-T-ER0 65
F-IY1 65
F-OW2-T-OW0-@@ 65
F-T-AH0-D 65
G-AE1-DH-ER0-IH0-NG 65
G-AE1-N-AH0-@@ 65
G-AH1-N-@@ 65
HH-AE1-NG 65
HH-AO1-R-S-IH0-Z 65
IH0-F-IH1-SH-AH0-N-S-IY0 65
IH0-M-AE1-JH-AH0-N 65
IH0-N-V-AA1-L-V 65
IH0-N-V-AA1-L-V-M-AH0-N-T 65
IH0-Z-R@@ 65
IH1-Z-AH0-N 65
JH-EH1-N-D-ER0 65
K-AA0-S-T-UW1-M 65
K-AE1-M-B-AH0-L 65
K-AE1-R-IY0-D 65
K-AH0-M-P-R-AY1-Z-IH0-Z 65
K-AO1-R-D 65
K-OW2-AH0-L-IH1-@@ 65
K-UW1-P-ER0 65
L-EH1-G-AH0-@@ 65
M-AA2-R-K-S 65
M-EY1-N-S-T-R-IY2-M 65
M-EY2-K-IH0-NG 65
M-IH1-N-ER0-AH0-L 65
M-N-IY0 65
N-AH2-N-DH-AH0-L-EH1-S 65
N-EH1-L 65
N-ER1-S 65
N-IH1-K-@@ 65
N-SH-AH0-N-Z 65
NG-K-AH0-L 65
OY2-D-Z 65
P-AH0-L-IY1-@@ 65
P-ER0-F-AO1-R-M-AH0-N-@@ 65
P-L-@@ 65
P-R-AA1-M-AH0-@@ 65
P-R-AH0-F-EH1-SH-AH0-N-AH0-L-Z 65
P-R-AH0-P-OW1-Z-AH0-L-Z 65
R-EY0 65
R-EY1-T-IH0-NG 65
R-IH0-S-EH1-P-SH-AH0-N 65
S-AE1-T-AH0-S-@@ 65
S-EH2-T-S 65
S-IH1-M-P-@@ 65
S-IH1-NG-Z 65
S-IH2-N-S-AH0-N-AE1-@@ 65
S-K-AE1-R-K-R-OW0 65
S-K-EY1-L-Z 65
S-K-IY1-M-Z 65
S-L-EY1-V-Z 65
S-P-EH1-L-IH0-NG 65
S-T-AE1-T-IH0-K 65
S-T-EH2-@@ 65
S-T-R-IY1-M-Z 65
T-AY1-Z-D 65
T-IH1-P 65
T-IY1-M-@@ 65
T-R-AE0-N-Z-L-EY1-SH-AH0-N 65
T-R-AE1-V-AH0-L@@ 65
T-R-AH0-D-IH1-@@ 65
T-R-IH1-B-Y-AH0-T-EH2-R-IY0 65
V-AE0-N-K-UW1-V-ER0 65
W-AA1-N-AH0 65
W-IH1-N-IH0-P-AH0-@@ 65
-UW0-AH0-L 64
B-IH1-SH-AH0-N 64
D-ER0-EY1-SH-AH0-N 64
EH1-V-AH0-@@ 64
F-IH2-R 64
HH-AA1-L-AH0-N-D 64
HH-AE1-NG-@@ 64
HH-EH1-L-P-IH0-NG 64
HH-OW0-T-EH1-L-Z 64
IH0-K-S-EH1-P-SH-AH0-N 64
IH0-M-ER1-JH-D 64
IH0-M-P-R-IH1-@@ 64
IH0-N-JH-OY1-IH0-NG 64
IH0-N-V-AA1-L-V-IH0-NG 64
IH0-V-EH1-N-CH-AH0-W-AH0-L-IY0 64
IH1-L-N-AH0-S 64
IH1-N-T-AH0-@@ 64
IH1-N-T-ER0-V-Y-UW2 64
IH2-N-AH0-V-EY1-SH-AH0-N 64
IH2-N-D-OW0-N-IY1-ZH-AH0 64
IH2-N-T-AH0-L-EH1-K-CH-UW0-AH0-L 64
K-AA1-P-IY0-R-AY2-T 64
K-AA2-M-P-AH0-Z-IH1-SH-AH0-N-Z 64
K-AA2-N-T-R-AH0-B-Y-UW1-SH-AH0-N 64
K-AH0-HH-AA1-@@ 64
K-AH0-M-IH1-SH-AH0-N-ER0 64
K-AH0-N-AA1-@@ 64
K-AO2-R-AH0-S-P-AA1-N-D-IH0-NG 64
K-EH1-M-AH0-S-T-R-IY0 64
K-L-AY1-AH0-N-T 64
K-R-EY1-Z-IY0 64
K-R-IY0-@@ 64
K-W-AY1-AH0-T-L-IY0 64
L-AH0-Z-EY1-SH-AH0-N 64
L-AO2-@@ 64
L-IH1-B-R-AH0-L 64
L-IH2-M-IH0-@@ 64
L-UW2 64
M-AE1-N-IH0-T-IY0 64
M-AE1-N-SH-AH0-N 64
M-AH0-T-ER0 64
M-AY1-L 64
M-EH1-N-AH0-L 64
M-EY1-T-R-IH0-K-S 64
M-IH0-K-L-IY0 64
M-Y-UW1-Z@@ 64
N-AH1-M-B-ER0-D 64
N-OW1-V-AH0 64
N-T-EY1-SH-AH0-N-Z 64
N-UW1-D 64
P-AA2-L-AH0-@@ 64
P-AE1-N-AH0-L 64
P-AH0-L-AH0-S 64
P-EH1-N-IY0 64
P-ER0-M-IH1-T-IH0-D 64
P-ER0-T-EH1-K-T-IH0-D 64
P-IH2-R@@ 64
P-R-AH0-D-UW1-S-ER0-Z 64
P-R-UW1-V 64
R-AE1-NG-K-S 64
R-AH0-G-AA1-R-D-L-AH0-S 64
R-AY1-V-AH0-L 64
R-AY2-T 64
S-AH0-K-S-EH1-SH-AH0-N 64
S-AH0-P-EY1-SH-AH0-N 64
S-AH0-P-R-AY1-@@ 64
S-AH1-B-M-ER0-@@ 64
S-AH1-NG 64
S-IH0-K-Y-UH1-R-D 64
S-IH2-CH-UW0-@@ 64
S-M-AO1-@@ 64
S-M-IH2-TH 64
S-T-EH1-R-D 64
T-AY1-ER0 64
T-EH2-M-P-ER0-@@ 64
T-R-EY1-D-@@ 64
T-UW1-M 64
TH-IY1-AH0-@@ 64
V-AA2-L-AH0-N-T-IH1-R-Z 64
V-R-IY0 64
W-AY1-R 64
W-ER1-SH-AH0-@@ 64
Y-UH1-R-OW0 64
Z-AH0-L-Z 64
AA1-R-T-IH0-@@ 63
AH0-G-R@@ 63
AO0-S-T-R-EY1-@@ 63
AY0-D-IY1-@@ 63
HH-AW@@ 63
IH0-L-EH2-K-T-R-AA1-@@ 63
N-OW1-T-AH0-@@ 63
OW1-V-ER0-L@@ 63
P-UH2-T 63
V-EH1-JH-@@ 63
W-AY1-L-@@ 63
-AY2-R@@ 62
-EY1-L 62
HH-EH1-D-K-AO2-R-@@ 62
JH-EH1-N-T-AH0-@@ 62
K-AH2-L-@@ 62
M-P-ER0-@@ 62
P-AH2-@@ 62
T-IH1-SH-AH0-N 62
T-L-AH0-N-D 62
V-IH1-D-IY0-@@ 62
-EH2-S 61
-ER2-T 61
-UH1-K 61
AH0-F-IH1-@@ 61
AH0-K-S-EH1-P-@@ 61
CH-AH0-N 61
CH-OW1-@@ 61
F-AH0-L-AA1-S-AH0-@@ 61
K-EY1-SH-AH0-N-AH0-L 61
K-L-IH0-N 61
L-AY1-AH0-@@ 61
L-IH1-M-IH0-@@ 61
M-B-L@@ 61
M-Y-UW2-@@ 61
P-AA1-P-@@ 61
P-IY0-AE1-@@ 61
P-R-IH0-Z-EH1-@@ 61
R-EH1-F-@@ 61
V-EH1-N-@@ 61
Z-IH0-G-N@@ 61
-AH1-S 60
-EH0-K-S 60
-UH2-T 60
AE1-L-K-AH0-@@ 60
AH0-B-AE1-@@ 60
HH-EH1-R-IH0-@@ 60
IY1-N-AH0 60
K-AH0-P-AE1-@@ 60
K-N-AH0-S 60
K-Y-AH0-L-ER0-L-IY0 60
M-AH0-N-EY2-T-IH0-D 60
N-D-R-IY0 60
S-IH1-NG@@ 60
T-R-AE0-N-Z-L-EY1-@@ 60
T-W-EH1-L-@@ 60
V-AA1-L-Y-UW0-@@ 60
-AY0-AA1-@@ 59
B-IH0-L-AO1-@@ 59
D-IY0-OW2-Z 59
HH-AH0-L@@ 59
IH0-L-EH2-K-@@ 59
IH0-M-P-L@@ 59
IH1-M-AH0-G-R@@ 59
K-AA1-M-P-AW0-@@ 59
K-T-ER0-IY0 59
L-OW2-K-AH0-M-OW1-@@ 59
M-AE1-K-S-AH0-@@ 59
N-T-M-AH0-N-T 59
N-TH-AH0-@@ 59
P-AA1-L-AH0-T-AH0-N 59
R-AH0-L-IY0 59
R-AH0-S-T 59
R-IY1-S-AO0-R-@@ 59
T-L-AE1-@@ 59
V-EH2-JH-AH0-@@ 59
-AO1-T 58
-AO2-R-D 58
-AO2-R-IY0 58
-AO@@ 58
AA1-B-V@@ 58
AE1-N-TH@@ 58
AE1-TH-L@@ 58
AH0-D-M-IH1-N-AH0-S-T-R@@ 58
CH-ER0-IH0-NG 58
D-AH1-B-AH0-L-@@ 58
D-IH1-F-AH0-K-AH0-@@ 58
F-Y-UW1-ZH-AH0-N 58
HH-AE0-@@ 58
HH-OW0-@@ 58
IH1-N-K-R-IY2-@@ 58
JH-EH2-@@ 58
L-N-AH0-S 58
L-S 58
P-AE1-N 58
R-IH0-JH-EH1-@@ 58
S-EH1-K-SH@@ 58
S-F-AH0-L-IY0 58
-AH0-N-T-IH1-@@ 57
-IY1-T 57
AA1-R-G-Y-AH0-@@ 57
AE0-K-@@ 57
EH1-R-IY0@@ 57
EH2-K-S-AH0-@@ 57
G-AH0-T 57
HH-AA1-S-P-IH2-@@ 57
JH-AE2-@@ 57
K-AH0-M-ER1-@@ 57
K-AH0-N-T-IH1-@@ 57
M-AE1-TH-@@ 57
M-P-T-IY0 57
OW0-L-IH1-@@ 57
P-AH0-N-D 57
P-OW1-AH0-@@ 57
P-R-IH0-D-AA1-@@ 57
S-T-IH0-K-AH0-L 57
T-W-AY1-@@ 57
AA1-P-ER0-EY2-@@ 56
AH0-P-EH1-R@@ 56
F-IH1-G-Y@@ 56
F-R-IH0-@@ 56
H2-R@@ 56
IH0-L-IH1-Z-AH0-@@ 56
IH1-N-T@@ 56
K-AA1-N-S-AH0-K-W-EH2-@@ 56
K-AA1-N-T-R@@ 56
P-R-AH0-P-OW1-@@ 56
S-EH1-R-AH0-M-OW2-@@ 56
W-AY1-T-@@ 56
-AE2-N 55
-IH0-N-@@ 55
D-AY1-AH0-L-EH2-@@ 55
F-AW0-N-D@@ 55
IH0-N-S-T-AO1-@@ 55
K-AH0-N-F-ER1-@@ 55
L-IH0-JH 55
M-IH0-JH 55
P-L-OW1-@@ 55
P-R-AH0-V-IH1-@@ 55
R-IY0-Z-AH1-@@ 55
S-ER1-V-IH0-@@ 55
S-K-OW2-@@ 55
S-R@@ 55
U@@ 55
V-AH0-N-T 55
Y-AH0-L-EY1-SH-AH0-N-Z 55
-UH1-D 54
AH0-K-W-AY1-@@ 54
AH0-TH@@ 54
AO1-R-K-AH0-@@ 54
K-AA1-N-F-L@@ 54
M-AO2-R 54
N-T-IH1-@@ 54
P-AH1-B-L@@ 54
P-OW1-Z-D 54
R-AH0-G-AA1-R-@@ 54
R-AH0-L-Z 54
R-IY0-M-EY1-@@ 54
S-IH1-NG-G@@ 54
S-P-R-EH1-@@ 54
TH-AW1-@@ 54
V-AH0-T 54
-E@@ 53
-UW2@@ 53
AH1-L-T-AH0-@@ 53
AY@@ 53
CH-AH0-L 53
D-EH2-S-T@@ 53
F-AE1-K-@@ 53
K-AH0-N-EY1-@@ 53
K-EY0-@@ 53
SH-AH0-L-IY0 53
T-R-AE1-N-@@ 53
AE1-D-V-ER0-@@ 52
B-IH0-G-IH1-@@ 52
D-AA1-N-AH0-L-D 52
D-IH0-K-L-AY1-@@ 52
D-IH0-N-AY1-@@ 52
D-IH0-S-T-IH1-NG-K-@@ 52
D-IH1-F-ER0@@ 52
F-AY1-N-AE2-@@ 52
F-R-UW1-@@ 52
IH2-L-AH0-N-@@ 52
K-AA1-N-S-EH0-@@ 52
M-AH0-N-AH0-L 52
M-EH2-N-T-AH0-D 52
N-D-ER0-S-AH0-N 52
N-IY1-ZH-AH0 52
P-L-AY1-D 52
S-AH0-L-UW1-@@ 52
T-R-IH0-K-S 52
D-IH1-F-R@@ 51
DH-EH1-@@ 51
HH-AE1-B-AH0-@@ 51
K-AA2-N-T-R-AH0-@@ 51
K-AH0-M-P-L@@ 51
L-AH0-N-S 51
M-AE2-TH-AH0-@@ 51
M-AH0-N-EY2-T-AH0-D 51
N-T-AH0-N-Z 51
S-T-R-IY0-Z 51
T-EY1-N-D 51
V-AH0-L-AH0-N-T 51
W-AH0-L-IY0 51
Z-AH0-N-D 51
Z-IH0-T 51
ZH-AA1-N-@@ 51
-IY0-D 50
D-ER0-AY1-@@ 50
EH1-K-S-P-ER0-@@ 50
EH1-P-AH0-@@ 50
F-AA2-@@ 50
HH-AH1-N-D-R@@ 50
IY1-Z@@ 50
IY2-K-AH0-N-AA1-@@ 50
K-AE1-N-D-AH0-D-EY0-@@ 50
K-AE1-P-AH0-@@ 50
K-L-AA1-R-@@ 50
L-IH1-B-R@@ 50
N-Y-AH0-L 50
R-EH1-JH-AH0-@@ 50
S-T-AE1-CH@@ 50
TH-W-EH1-S-T-ER0-N 50
-AO1-R-D-AH0-N@@ 49
-ER2-K 49
-UH2-R-AH0-@@ 49
AE0-TH-L@@ 49
AE1-F-@@ 49
D-N-IY0 49
EH2-L-AH0-M-EH1-@@ 49
EY1-P-R@@ 49
F-EH1-S-T-AH0-@@ 49
G-R-AH0-F-ER0 49
HH-AE1-N-D-AH0-@@ 49
IH0-N-D-IH1-@@ 49
IH0-S-EH1-@@ 49
N-AE1-CH@@ 49
P-AH0-N 49
S-P-ER0-IH1-@@ 49
T-AA1-R-G-AH0-@@ 49
Z-EY1-SH-AH0-N-Z 49
-AA2-R-D 48
-AH0-N-EY1-SH-AH0-N 48
-EH2-R-IY0-@@ 48
B-R-IH2-@@ 48
D-IH0-T-EY1-@@ 48
D-IH0-Z-AE1-@@ 48
G-Y@@ 48
HH-AW1-S-@@ 48
IH0-L-EH1-@@ 48
IH2-N-S-T-R-AH0-@@ 48
IH2-N-T-AH0-@@ 48
K-AA2-L@@ 48
K-AE1-N-AH0-D-IH0-@@ 48
M-ER0-AH0-S 48
P-R-EH1-Z-AH0-@@ 48
T-AA1-R 48
T-IH1-SH-AH0-N-Z 48
Y-UH1-R-IH0-NG 48
Y-UW2-N-AH0-V-ER1-S-AH0-@@ 48
AE1-K-S-AH0-@@ 47
AE1-L-B@@ 47
AH0-D-IH1-SH-@@ 47
AH0-K-EY1-ZH@@ 47
AH0-M-EH1-R-IH0-@@ 47
AH0-W-AO1-R-@@ 47
B-IH0-HH-EY1-@@ 47
B-L-IH0-@@ 47
EH2-K-S-P-AH0-@@ 47
K-AE1-N-D-AH0-@@ 47
K-AE1-TH-L@@ 47
R-IH0-L-IY1-@@ 47
R-IY0-AH0-L-Z 47
S-P-ER0-EY1-SH-AH0-N 47
V-EH1-R-IY0-AH0-@@ 47
V-IH0-K-T-AO1-@@ 47
AE1-S-@@ 46
D-EH1-N-CH-AH0-L 46
D-IH0-S-T-R@@ 46
F-AH0-N-AA1-@@ 46
F-AO1-R-CH-AH0-N-AH0-T-L-IY0 46
F-IH1-NG-G@@ 46
JH-ER1-N-AH0-@@ 46
K-AA1-N-F-AH0-@@ 46
L-AY2-N-Z 46
L-IH1-B-ER0-@@ 46
M-AW2-@@ 46
N-D-AH0-N-T-S 46
N-SH-IH0-@@ 46
S-AW1-N-D-@@ 46
T-EH1-M-P-R-AH0-@@ 46
T-W-EH2-@@ 46
-ER@@ 45
-R-IY0 45
AH0-M-EH1-R-AH0-@@ 45
AO0-R-G-AE1-@@ 45
D-IH0-K-L-EH1-@@ 45
D-UW1-S-T 45
EH2-N-T-ER0-@@ 45
IH0-N-K-L-UW1-@@ 45
IH1-N-S-EH2-@@ 45
K-AH0-N-S-T-IH1-CH-UW0@@ 45
K-T-ER0-@@ 45
L-AE1-B-R-AH0-@@ 45
M-EH1-D-IH0-@@ 45
N-EY1-B-ER0-@@ 45
S-T-R-AE1-T-AH0-@@ 45
W-AH2-@@ 45
W-ER1-L-D-@@ 45
W-IH1-N-D-@@ 45
-AO1-R-AH0-T-IY0-Z 44
-UW1-Z 44
IH0-K-W-IH1-@@ 44
IH0-N-V-EH1-S-T-AH0-@@ 44
K-AA0-S-T-UW1-@@ 44
K-AE1-P-IH0-@@ 44
L-EH1-R-AH0-T-IY0 44
L-IH0-SH-T 44
N-EH2-T 44
R-IH0-P-L-EY1-@@ 44
S-M-UW1-@@ 44
T-AO2-R-IY0-Z 44
V-AH0-N-S 44
B-EY2-@@ 43
F-R-AH0-N-S 43
HH-AH1-Z-@@ 43
JH-ER0-IY0 43
K-AE2-L-AH0-@@ 43
K-AH0-M-IH1-SH-AH0-N@@ 43
K-AH0-N-T 43
K-AH2-L-CH-ER0 43
K-Y-AH0-P@@ 43
M-OW1-T-ER0-S-AY2-@@ 43
N-AE1-CH-R@@ 43
N-D-ER0-D-Z 43
OW0-L-IH1-M-P@@ 43
R-EH1-S-@@ 43
R-EH1-S-T@@ 43
R-EH1-Z-IH0-@@ 43
S-P-AO0-R-T 43
S-P-AY1-T 43
T-AW1-N-SH-IH0-@@ 43
AE2-F-T-ER0-N-UW1-@@ 42
CH-AY1-L-D-@@ 42
D-EH2-F-AH0-N-IH1-@@ 42
D-IH0-M-EH1-N-@@ 42
HH-EH1-N-@@ 42
IH1-M-IH0-@@ 42
IY1-K-W@@ 42
IY1-V-@@ 42
JH-AH0-N-S-IY0 42
K-AW1-N-T-S 42
L-IH1-R-IH0-@@ 42
M-P-AY0-@@ 42
N-AA1-L-AH0-@@ 42
N-S-AH0-B-AH0-L 42
N-T-UW0 42
R-EH1-JH-IH0-@@ 42
S-UW@@ 42
T-AE1-L-Y-AH0-N 42
V-IY0-Z 42
-AO1-N-D 41
-ER0-IY0-Z 41
AH0-K-AA1-M-P-L-IH0-@@ 41
AH0-K-AH1-M-P-AH0-N@@ 41
AH0-N-AE1-L-AH0-@@ 41
B-ER0-EY1-SH-AH0-N 41
D-R-OW1-@@ 41
H 41
HH-AE1-B-AH0-T-AE2-@@ 41
IH1-N-S@@ 41
K-L-AE2-@@ 41
K-R-IH1-S-T-AH0-@@ 41
M-EH1-TH@@ 41
OW2-IH0-NG 41
P-R-IY0-P-EH1-@@ 41
R-IY1-S@@ 41
S-EH1-P-T 41
S-K-EH1-JH-UW0-@@ 41
V-AE0-N-@@ 41
-AE1-K-T 40
-AW@@ 40
AH0-P-R-AA1-K-S-AH0-@@ 40
AY0-D-EH1-N-T-IH0-@@ 40
D-AA1-K-Y-AH0-@@ 40
D-IH0-S-IH1-@@ 40
F-IH1-SH-AH0-N-T 40
IY0-V-EH1-@@ 40
M-EY0-N-T-EY1-@@ 40
M-IH1-L-AH0-@@ 40
N-EY1-B-AH0-L 40
N-JH-AH0-L@@ 40
P-AH0-T-EH1-@@ 40
R-IH0-K-W-AY1-R-@@ 40
V-EH1-L-AH0-@@ 40
Z-IH1-SH-AH0-N-Z 40
-UH0-D 39
AE2-B-@@ 39
D-IH0-S-T-R-IH1-B-Y-AH0-@@ 39
EH1-K-SH-AH0-N 39
ER0-M-AH0-N-T 39
HH-AA1-R-D-W@@ 39
HH-EH1-V@@ 39
IH0-K-S-T-ER1-@@ 39
K-AH0-N-AE1-@@ 39
K-R-AE1-T-IH0-K 39
L-EH1-K-SH-AH0-N 39
P-R-AH0-D-UW1-@@ 39
S-IY1-K-R-IH0-@@ 39
V-AO1-R-@@ 39
Y-UW0-AH0-L-IY0 39
-ER0-AH1-@@ 38
-IY0-AH0-N-@@ 38
AH0-N-Y-UW1-ZH-UW2@@ 38
AO1-R-AH0-N-@@ 38
IH2-N-D-AH0-@@ 38
M-AE2-N-Y-AH0-@@ 38
M-EH1-D-AH0-@@ 38
M-OW1-T 38
M-P-L-OY1-@@ 38
M-Y-UW0-Z-IY1-@@ 38
N-T-AY1-@@ 38
S-EH2-S 38
S-T-R-IY0-AH0-L 38
T-B-AO2-L 38
T-EY1-N-M-AH0-N-T 38
AE2-K-AH0-D-EH1-@@ 37
AH0-G-R-IY1-@@ 37
AY1-ER0-@@ 37
B-AA2-D-IY0 37
CH-OY1-@@ 37
D-IH0-S-K-R-AY1-@@ 37
EH1-K-S-AH0-L@@ 37
HH-AY1-D-R-AH0-@@ 37
K-W-AY2-Z 37
L-Y-AH0-B-AH0-L 37
M-AE0-G-@@ 37
M-IY1-D-IY0-@@ 37
N-IH1-R-@@ 37
N-S-EH2-@@ 37
P-IY0@@ 37
P-M-AH0-N-T 37
S-ER1-V-AH0-@@ 37
S-T-R-AH0 37
-I@@ 36
CH-UW0 36
D-L-AH0-S 36
F-AH0-S-T 36
F-IY0-AH0 36
F-OW1-T-AH0-G-R-AE2-@@ 36
IH0-N-S-P-AY1-@@ 36
K-ER1 36
K-IH0-SH 36
M-AE2-S-AH0-@@ 36
P-ER0-EY2-T-IH0-D 36
P-ER1-CH-AH0-@@ 36
P-L-OY1-@@ 36
P-OY2-@@ 36
R-IY0-D 36
S-AH0-K-@@ 36
T-EY2-L 36
V-IY0-EH2-@@ 36
Y-UW0-AH0-L 36
AH0-K-AA1-M-P-L@@ 35
AH0-K-ER1-@@ 35
EH1-N-ER0-@@ 35
F-IH1-SH-AH0-N-S-IY0 35
F-OW1-K-AH0-@@ 35
G-R-AE1-F-IH0-@@ 35
HH-AH0-W-AY1-@@ 35
HH-OW2-L-D 35
M-AE2-T 35
M-EH2-R-IY0 35
N-CH-EH2-S-T-ER0 35
N-IH0-L 35
N-S-AH0-L-@@ 35
N-T-R-IY0 35
V-ER0@@ 35
Z-AO1-R-@@ 35
-ER0-AH0-B-L-IY0 34
AA0-K-@@ 34
AA@@ 34
D-IH0-P-EH1-N-D@@ 34
EH1-N-T-ER0-P-R@@ 34
F-AH0-K 34
F-AO1-R-CH-AH0-@@ 34
F-IH1-L-AH0-@@ 34
F-R-AE1-N-CH@@ 34
F-T-IY0 34
K-CH-ER0-Z 34
K-T-AO1-@@ 34
L-IY0-ER0 34
M-AE2-N-Y-AH0-F-AE1-K-@@ 34
M-AH0-L-@@ 34
P-R-AY1-Z-IH0-Z 34
S-EH1-M-AH0-@@ 34
S-IH1-NG-G-AH0-@@ 34
S-T-R-IY2-M 34
V-AA2-L-AH0-N-T-IH1-@@ 34
V-IH1-ZH-AH0-N-Z 34
AE1-L-B-AH0-@@ 33
AH2-N-S-AH0-K-S-EH1-@@ 33
D-IH1-S-AH0-@@ 33
G-AA1-T-AH0-N 33
IH1-N-F-L@@ 33
IH2-N-D@@ 33
L-ER0-L-IY0 33
N-AH0-M-AH0-N-T 33
P-AH0-T 33
R-EH2-V-AH0-L-UW1-@@ 33
R-IH0-SH 33
S-AE1-T-AH0-@@ 33
T-AH0-G-R-AE2-@@ 33
Y-UH2-R-AH0-@@ 33
AW1-T-F-IH2-@@ 32
D-AY2-AH0-G-@@ 32
D-IH1-SH-AH0-N-Z 32
EH2-K-AH0-N-AA1-@@ 32
F-AH2-@@ 32
F-AH2-N-D-AH0-@@ 32
G-L-AE2-@@ 32
IH0-K-S-P-OW1-@@ 32
IH0-N-V-AY1-R-AH0-N-@@ 32
IH0-N-V-AY2-R-AH0-N-@@ 32
IH2-N-D-OW0-@@ 32
K-OW1-T-AH0 32
K-S-AH0-S 32
K-T-ER0-IH1-@@ 32
L-EY1-T-IH0-D 32
NG-G-AH0-S-T 32
P-ER2-S-AH0-N-AE1-@@ 32
P-R-IY1-M 32
V-AH0-L-D 32
ZH-AA1-@@ 32
AH0-S-EH1-M-@@ 31
AW2-T-@@ 31
B-Y-UW1-SH-AH0-N-Z 31
B-Y-UW1-T-AH0-@@ 31
D-IH0-S-T-IH1-@@ 31
D-IH1-Z-@@ 31
D-IY1-V-AH0-L 31
DH-ER0-IH0-NG 31
EH2-JH-Y-UW0-@@ 31
F-AH0-T-AA1-@@ 31
F-IH0-T-S 31
IH0-N-SH-UH1-@@ 31
IH0-N-V-EH2-S-T-AH0-@@ 31
K-R-IH1-S-@@ 31
M-P-EY1-@@ 31
S-AH0-B-L-IY0 31
S-EH1-L-V-Z 31
S-IH1-M-P-L@@ 31
S-IH2-G-ER0-@@ 31
TH-EH1-R-AH0-@@ 31
-AW2-N-D 30
-EY0-L 30
AE0-N-@@ 30
AH0-D-AH1-@@ 30
B-EH1-K 30
D-AE1-M-IH0-@@ 30
G-N-IH1-F-IH0-K-AH0-N-@@ 30
K-AA1-L-AH0-JH-IY0 30
K-AH1-M-@@ 30
OW1-V-ER0@@ 30
P-R-AO1-@@ 30
R-IH0-P-AH1-B-L-IH0-@@ 30
S-T-M-AH0-N-T 30
V-AH0-L-UW1-@@ 30
V-IY0-EY1-SH-AH0-N 30
-AA@@ 29
-IY0-AH0-L-AA1-JH-IH0-K-AH0-L 29
-IY1-D 29
-OW2-M 29
B-EH1-D-R@@ 29
B-IH0-HH-EY1-V-@@ 29
D-IH2-S-T-R-AH0-@@ 29
EH1-TH-@@ 29
H0 29
IH2-N-F-L-UW0-@@ 29
K-AA1-M-P-L@@ 29
K-AA1-N-F-L-IH0-@@ 29
K-AH0-D-EH1-@@ 29
K-AH0-M-OW1-@@ 29
M-AH0-JH@@ 29
P-R-OW1-F-AY2-@@ 29
R-EY2-@@ 29
S-IH0-K-AH0-L 29
Y-UW@@ 29
-AY@@ 28
AO@@ 28
EH1-K-T 28
HH-AE1-M-AH0-@@ 28
K-AA2-M-B@@ 28
K-AE1-R-IH0-@@ 28
M-IH1-L-IH0-@@ 28
M-P-L-AH0-@@ 28
N-M-OW2-S-T 28
NG-AH0-@@ 28
R-EY1-L-R-OW2-@@ 28
R-IY0-L-OW1-@@ 28
S-M-IH2-@@ 28
T-IH0-SH 28
Y-UH2-R-AH0-P-IY1-@@ 28
-AY1-N-D 27
AH0-S-OW2-S-IY0-@@ 27
B-UH1-L-AH0-@@ 27
B-Y-UW1-SH-AH0-N 27
D-L-ER0 27
EH1-M-P-ER0-@@ 27
EH2-L-AH0-@@ 27
G-N-IH1-@@ 27
IH1-L-AH0-@@ 27
N-IY0-ER0 27
P-AA0-R-T-IH1-@@ 27
R-EH1-S-T-ER0@@ 27
S-AH1-M-T-AY2-@@ 27
S-EH1-M-IH0-@@ 27
-AA2-N-T-S 26
-ER2-K-S 26
AO0-L-@@ 26
CH-AH0-W-AH0-L 26
DH-AH0-M-Z 26
IH0-N-HH-AE1-B-AH0-@@ 26
IH0-N-T-IH1-@@ 26
IH1-SH@@ 26
K-AA2-N-V-ER0-@@ 26
K-EH1-N-AH0-@@ 26
K-ER1-AH0-N-@@ 26
L-AH1-M-@@ 26
L-IH1-T-ER0-AH0-@@ 26
M-EH1-M-B-ER0-@@ 26
N-AH0-K-S 26
N-AH0-T-IY0-Z 26
P-AA2-S-AH0-@@ 26
P-AH0-D-EH1-@@ 26
P-EH1-R-AH0-L-EH2-@@ 26
R-IY0-K-W-AY1-@@ 26
S-AH0-P-AO1-R-@@ 26
S-AH0-T-S 26
S-T-IH0-T-UW1-@@ 26
SH-AH0-N-AH0-L-Z 26
V-EH1-R-IY0@@ 26
V-ER2-@@ 26
V-IH2-ZH-AH0-N 26
-AH1 25
AH0-S-OW1-S-IY0-@@ 25
D-IH0-NG-L-IY0 25
EY1-SH-AH0-N-AH0-L 25
G-N-AY1-@@ 25
IH1-SH-UW0-@@ 25
L-AH0-B-R@@ 25
M-EH1-M-B-ER0-D 25
N-CH-AH0-W-AH0-L-IY0 25
N-EH1-G-AH0-@@ 25
P-EH1-N-D@@ 25
P-UW2-L 25
R-IH0-Z-AO1-R-@@ 25
S-AH0-K-Y-UW1-@@ 25
T-R-AE0-N-Z-L@@ 25
W 25
Y2 25
-EY2-L-Z 24
D-IH1-JH-AH0-@@ 24
F-AO1-R-M-Y-AH0-L@@ 24
HH-AA1-S-P@@ 24
K-AH0-N-T-IH1-N-Y-UW0-@@ 24
K-EH1-M-AH0-@@ 24
M-AA1-R-OW2 24
M-AH0-Z@@ 24
M-IH2-N-IH0-@@ 24
S-D-IH1-@@ 24
S-P-EH1-SH-AH0-L-IY0 24
S-T-AH0-T-IH1-@@ 24
S-T-UW1-ER0-@@ 24
T-EY0-@@ 24
V-IH1-L-AH0-@@ 24
-AW2@@ 23
-IH2-L-D-R-AH0-N 23
AA1-K-S-@@ 23
AH0-K-AE1-D-AH0-@@ 23
AH0-S-OW2-@@ 23
AH0-T-ER1-@@ 23
B-L-IH0-N 23
G-AE1-N 23
K-AH1-M-P@@ 23
L-AH0-T@@ 23
L-IY0-W-UH2-D 23
N-T-ER0-D 23
P-L-AE1-T-@@ 23
P-R-AA1-B-AH0-@@ 23
S-AH0-S-T 23
T-R-AH0-M 23
T-S-AH0 23
-AE0-N-@@ 22
AW@@ 22
D-AH0-M-EH1-@@ 22
F-AH0-T 22
F-AY2-N-AE1-@@ 22
F-EY1-V-UH1-@@ 22
IH0-M-P-IH1-@@ 22
M-AY0-AE1-@@ 22
N-AH0-M-IY0-Z 22
P-R-AA1-S-EH0-@@ 22
R-EH1-G-@@ 22
R-EY1-L-@@ 22
R-IH0-S-IH1-@@ 22
SH-AH0-K-AA1-@@ 22
Y-UW1-ZH@@ 22
-AE1-L-AH0-T-IY2 21
AH0-T-IY0-Z 21
B-AE1-S-K-AH0-@@ 21
B-ER1-TH-@@ 21
CH-AE1-M-P@@ 21
F-IH0-T 21
F-L-AO1-R-AH0-@@ 21
G-N-IH1-SH-AH0-N 21
IH0-K-S-P-EH1-R-AH0-@@ 21
IH0-N-T-ER2-P-R-IH0-@@ 21
JH-AH0-W@@ 21
K-AA2-N-T@@ 21
L-AH0-JH@@ 21
R-EH1-F-R@@ 21
R-IH0-Z-UW1-@@ 21
S-K-R-IH2-@@ 21
S-T-R-IH0-@@ 21
T-EH1-N-AH0-N-T 21
T-R-AA1-P-IH0-@@ 21
AH0-K-EY1-@@ 20
B-R-IH1-L-Y@@ 20
CH-EY1-N-JH@@ 20
D-EH1-Z-IH0-G-N@@ 20
D-IY0-AH0-N-S 20
D-W-AO2-K 20
DH-AH0-@@ 20
EH2-R-IH0-@@ 20
HH-EH1-L-IH0-@@ 20
IH0-K-S-P-IH1-R-IY0@@ 20
JH-L-IY0 20
K-AA2-M-P-R-IY0-HH-EH1-@@ 20
K-SH-AH0-N-AH0-L 20
L-AH1-M-B@@ 20
N-AH1-F 20
NG-K-SH-AH0-N 20
P-ER1-S-IH0-@@ 20
R-IH1-CH-@@ 20
R-IY1-S-ER0-@@ 20
S-EH1-N-CH@@ 20
W-AA2 20
W-AA2-R 20
W-AY2-Z 20
Y-UH1-R-D 20
Z-EH0-@@ 20
-ER0-AE1-K-@@ 19
AA1-R-K@@ 19
AH0-N-Y-UW1-ZH@@ 19
AH2-N-S-AH0-@@ 19
D-AA2-K-S 19
D-EY1-N-JH@@ 19
F-R-AE0-N-S-IH1-@@ 19
IH0-N-K-R-IY1-@@ 19
IH2-N-F-L@@ 19
M-Y-UW0-N-IH1-@@ 19
N-S-EH2-T 19
S-AH0-G-@@ 19
V-EH1-N-SH-AH0-N 19
V-ER0-JH-IH1-@@ 19
Y 19
Y-UW1-N-AH0-F-AO2-R-@@ 19
-ER0-AA1-D-OW0 18
AH0-L-AY1-AH0-@@ 18
EH0-K-S-T-R-IY1-@@ 18
F-AH0-L-AA1-@@ 18
F-IH1-SH-AH0-L-IY0 18
HH-AY1-N-D 18
JH-AH0-N-AH0-L-IY0 18
JH-AH0-N-AH0-S 18
JH-OW1-S-AH0-@@ 18
K-AA1-M-Y-AH0-@@ 18
K-S-EH1-@@ 18
K-T-IH0-V-L-IY0 18
N-S-ER0-D 18
P-AA1-R-L-AH0-@@ 18
P-R-AH0 18
R-IH0-K-AA1-R-@@ 18
S-AH0-K-Y-UW2-@@ 18
S-IH0-K-Y-UH1-R-AH0-@@ 18
S-IY0-AE1-@@ 18
T-R-AH2-@@ 18
TH-W-EH1-S-T 18
V-AA2-@@ 18
V-AH0-N-UW@@ 18
Y-UW0-N-AY1-@@ 18
ZH-AH0-W-AH0-L 18
-ER0-AA1-ZH 17
-ER1-D 17
AE2-L-IH0-@@ 17
AH0-K-UW1-@@ 17
AO1-R-IH0-@@ 17
IH0-N-K-R-IY1-S-IH0-@@ 17
IH2-N-S-T-IH0-T-UW1-@@ 17
IH2-N-T-AH0-L-EH1-K-@@ 17
K-EH1-R-AH0-K-T@@ 17
K-EH2-R-AH0-@@ 17
K-L-AE2-S-AH0-@@ 17
K-SH-IH0-@@ 17
K-W-AY1-@@ 17
L-AH0-B-R-EY1-SH-AH0-N 17
L-IH1-T-ER0-@@ 17
M-EH1-ZH@@ 17
N-EH1-S-AH0-@@ 17
N-EH1-T-W@@ 17
N-IY1-K 17
P-AA2-P-@@ 17
P-L-AY1 17
S-UW1-AH0-@@ 17
SH-IY0-EY2-T-AH0-D 17
T-R-AE2-K 17
V-EY1-L-AH0-B-AH0-L 17
V-IY0-EH1-@@ 17
W-AH2-N 17
Z-AH0-S 17
-IH0-Z-EY1-SH-AH0-N-Z 16
AA2-R-T-AH0-@@ 16
D-AW1-N-T@@ 16
D-R-AH0-L 16
DH-EH0-@@ 16
DH-IH1-@@ 16
EY1-N-JH@@ 16
F-EY1-V-R@@ 16
F-IH2-G-Y@@ 16
HH-AW2@@ 16
I@@ 16
IH0-N-T-AY1-ER0-@@ 16
IH2-N-T@@ 16
JH-OW1-Z-AH0-@@ 16
K-R-EH1-D-IH0-@@ 16
K-W-AH0-N-T 16
M-AH0-M-AO1-@@ 16
P-AH0-B-AH0-L 16
P-ER0-T-EH1-@@ 16
P-R-OW0-L-IH1-@@ 16
P-T-EH1-@@ 16
R-OW1-V-ER0 16
S-AE1-K-R-AH0-@@ 16
V-ER2-S 16
V-EY1-N-Y-AH0 16
-EY2-S 15
-IY2-M 15
A@@ 15
AO2-R-G-AH0-N-AH0-@@ 15
B-IH1-Z-@@ 15
EH1-P-IH0-@@ 15
F-AE1-K-AH0-@@ 15
F-IH1-L-AH0-P@@ 15
K-AA2-M-P-AH0-@@ 15
K-AE1-B-AH0-@@ 15
K-EY0-T-AH0-D 15
K-EY0-T-IH0-D 15
K-L-OW1-DH@@ 15
L-EH2-K-@@ 15
M-AE0-G-N-EH1-@@ 15
N-EH1-F-@@ 15
N-OW0-V-EH1-@@ 15
P-AA2-P-Y-AH0-@@ 15
P-AA2-R-L-AH0-@@ 15
P-R-AY0-@@ 15
P-T-AH0-D 15
P-Y-AH0-@@ 15
R-F-AH0-L-IY0 15
R-IH0-K-AO1-R-@@ 15
S-UW0-P-IH1-@@ 15
T-ER0-AA1-@@ 15
V-AA2-L-AH0-N-@@ 15
V-AH0-N-UW2 15
-EH2-N-D 14
-L-AH0-@@ 14
AA1-N-ER0-@@ 14
AA2-R-K-AH0-@@ 14
B-IH0-TH 14
D-AH1-G-L@@ 14
F-AY2@@ 14
G-AH0-Z@@ 14
G-ER0-IH2-@@ 14
K-AA1-N-T-R-AH0-@@ 14
K-W-AO2-R-@@ 14
M-AA1-N-AH0-S-T@@ 14
P-R-AH0-N-AW1-@@ 14
P-UW2-@@ 14
R-IH0-L-IH1-@@ 14
R-IH0-N@@ 14
R-IH0-Z@@ 14
S-ER1-K-AH0-M-@@ 14
S-P-AA2-@@ 14
S-T-ER0-IY0 14
T-W-EH2-R 14
TH-AA1-L-AH0-JH-IY0 14
W-IH1-N-IH0-@@ 14
Y-UW2-N-AH0-V-ER1-@@ 14
Y0 14
-U@@ 13
0-@@ 13
AA1-R-T-W@@ 13
CH-UW0-EY2-T-IH0-D 13
G-N-IH1-F-IH0-@@ 13
HH-IH0-S-T-AO1-@@ 13
IH0-G-Z@@ 13
IH0-JH-IH1-@@ 13
JH-AH0-M 13
K-AH0-N-V-IY1-@@ 13
K-EY2-D 13
K-R-OW0 13
L-IH0-JH-IH0-Z 13
L-R-OW2-@@ 13
N-S-IH0-V-L-IY0 13
P-AH0-N-IH1-N-S-AH0-@@ 13
S-EH2-R-IY0 13
S-ER1-N-EY2-@@ 13
S-IH0-G-N-IH1-F-IH0-K-AH0-N-@@ 13
S-K-AH1-L-@@ 13
S-T-ER0-N 13
T-AA1-P-IH0-@@ 13
T-IH2-K-S 13
T-S-B-ER0-G 13
Y-EH1-S-T-ER0-@@ 13
ZH-AH0-@@ 13
AH0-D-M-IH1-N-AH0-@@ 12
B-R-EH1-K-@@ 12
D-EH1-Z-ER0-@@ 12
EH1-M-P-AY0-@@ 12
F-AE1-M-@@ 12
HH-EH2-R@@ 12
IH1-N-JH@@ 12
JH-EH0-K-T 12
K-AA2-M-@@ 12
K-SH-ER0 12
M-AE1-S-K@@ 12
N-EY1-B-AO2-R-HH@@ 12
P-R-AA1-D-AH0-@@ 12
R-EH1-F-Y-UW0-@@ 12
S-AH0-B-S-IH1-D-IY0-@@ 12
T-R-AE2-N-@@ 12
T-R-AW1-@@ 12
TH-AH0-N-Z 12
TH-IH0-NG 12
-AY2-AH0-N-IH1-@@ 11
-S 11
AA1-R-K-AH0-@@ 11
AA2-P-ER0-@@ 11
AE1-M-AH0-CH@@ 11
D-AO1-R-AH0-@@ 11
D-ER0-SH-IH2-P 11
F-IH2-L-AH0-D-EH1-L-@@ 11
F-R-AE0-N-@@ 11
F-Y-UW1-ZH@@ 11
G-AH0-S-T 11
G-R-AE1-N-CH@@ 11
IH0-M-P-AA1-@@ 11
K-AA1-M-B@@ 11
K-AH0-TH-IY1-@@ 11
K-EH2-R-AH0-L-AY1-@@ 11
K-W-AY1-AH0-@@ 11
M-AE0-N-HH-AE1-@@ 11
N-IH1-K-N-EY2-@@ 11
NG-G-EH1-@@ 11
O@@ 11
P-AH0-N-Z 11
R-EH1-K-AH0-@@ 11
S-AH1-B-S-AH0-@@ 11
S-IH1-F-IH0-@@ 11
S-P-IH1-R-IY0@@ 11
SH-IY1-N 11
T-AH0-B-AE1-K-@@ 11
-IY0-AH0-S-L-IY0 10
AE0-D-M-IH2-N-IH0-@@ 10
CH-AY0-@@ 10
F-EY1-V-ER0-@@ 10
G-B-IY0 10
IH0-V-EH1-@@ 10
JH-EH1-F-ER0-@@ 10
K-AA1-N-T-R-AH0-V-ER2-@@ 10
K-AH0-N-S@@ 10
M-AE2-TH-AH0-M-AE1-@@ 10
M-EH1-K-@@ 10
N-JH-AH0-Z 10
N-T-IH0-NG-Z 10
P-R-IH1-N-S-AH0-@@ 10
S-IH0-S-IH1-@@ 10
S-T-AH0-T-UW1-@@ 10
T-AH0-D-L-IY0 10
T-AH0-K-AH0-T 10
T-EH1-R-IH0-@@ 10
T-OW1-B-ER0 10
-UH1-R-IY0 9
AA0-N-T-EH1-@@ 9
AA2-P-ER0-T-UW1-@@ 9
D-EH1-D-AH0-@@ 9
DH-AE1-@@ 9
EH1-D-AH0-N-@@ 9
EH2-JH-AH0-@@ 9
G-L-AE2-S-IH0-Z 9
JH-AH0-N-IY1-@@ 9
K-EY1-M-B-R@@ 9
M-AH0-L-IY0-Z 9
M-AH0-N-S-T-R@@ 9
M-AH0-T-L-IY0 9
M-EH1-K-S-AH0-K-@@ 9
P-R-EH2-Z-AH0-N-@@ 9
S-AY2-AH0-N-T-IH1-@@ 9
S-P-EH1-SH@@ 9
T-AH0-B-AH0-L-Z 9
T-IH1-P-AH0-@@ 9
T-R-IH1-B-@@ 9
W-AY1-D-@@ 9
-AH2-N-T 8
AO1-F-AH0-@@ 8
D-ER0-L-IY0 8
IY2 8
JH-AE2-P-AH0-N@@ 8
JH-IH0-S-T-S 8
K-AA2-N-T-AH0-N-EH1-@@ 8
K-ER0-D-Z 8
M-IH1-SH-IH0-@@ 8
M-Y-UW2-N-IH0-S-AH0-P-AE1-@@ 8
N-EH1-DH-ER0-@@ 8
P-ER0-T-IH1-@@ 8
P-R-IY0-HH-EH1-@@ 8
S-EH1-K-R-AH0-@@ 8
S-P-EH1-SH-L-IY0 8
T-AO2 8
T-R-OY1-@@ 8
TH-AH0-D-AA2-K-S 8
V-AA2-R-D 8
V-AY0-AH0-@@ 8
AE2-L-AH0-B-AE1-@@ 7
AE@@ 7
AH0-K-AE1-@@ 7
D-EY1-B-@@ 7
D-L-AY2-F 7
EH1-V-R@@ 7
G-S-AH0-N 7
HH-IH0-S-T-AO1-R-IH0-@@ 7
HH-OW1-M-AH0 7
K-AE1-N-S-AH0-@@ 7
K-AE1-T-AH0-G@@ 7
K-AH0-M-Y-UW1-N-IH0-@@ 7
K-AH0-N-S-IH1-D@@ 7
M-AE2-S-AH0-CH-UW1-@@ 7
M-EH1-R-AH0-L-IY0 7
N-AA0-T 7
N-ER0-SH-IH2-P 7
N-TH-R@@ 7
S-AH0-L-AH0-M 7
T-R-IH1-S-AH0-T-IY0 7
-AA2-N-T 6
AE1-F-ER0-@@ 6
AH0-G-EY1-@@ 6
AH1-DH-ER0-@@ 6
B-AH0-N-D 6
EH1-F-ER0-@@ 6
EH1-N-JH@@ 6
ER@@ 6
F-ER1-N-IH0-@@ 6
G-IH0-T-AA1-R-@@ 6
IH0-N-JH-OY1-@@ 6
IH0-N-V@@ 6
IH0-T-@@ 6
K-AH0-L-AE2-@@ 6
K-AH1-M-P-AH0-N@@ 6
L-AO1-NG-D 6
M-EH1-K-S-AH0-@@ 6
M-EH2-T-R-AH0-@@ 6
M-IH0-NG-HH-AE2-M 6
N-ER0-AH0-L 6
NG-G-W-AH0-@@ 6
P-ER2-S-AH0-@@ 6
P-L-AE1-T-F-AO2-R-@@ 6
P-R-IH1-N-S@@ 6
R-AE1-F-T-ER0 6
R-AY0-T 6
S-EH1-P-ER0-@@ 6
S-EH1-T-AH0-L-@@ 6
S-IH1-NG-AH0-P@@ 6
S-W-IH1-T-@@ 6
SH-IY0-Z 6
T-UH1-R@@ 6
-AE1-L-AH0-T@@ 5
-EH2-S-T-ER0 5
AE1-F-R-IH0-@@ 5
AE1-N-JH-AH0-L@@ 5
AH0-M-AH1-@@ 5
AH0-T-R-IH1-B-Y-AH0-@@ 5
B-AH1-F-AH0-@@ 5
B-AO1-L-T-AH0-@@ 5
B-R-AY1-IH0-N 5
D-IH0-G-R@@ 5
D-IH0-V-AO1-R-@@ 5
F-IY1-M@@ 5
IY1-JH-IH0-@@ 5
JH-EH2-N-ER0-@@ 5
K-AO2-R-AH0-@@ 5
K-L-IY1-V-L@@ 5
L-AE1-NG-G-W-IH0-@@ 5
L-IH0-NG-G-@@ 5
L-IY0-AH0-S-T 5
M-B-ER0-D 5
N-IY1-K-S 5
N-IY1-TH 5
N-SH-AH0-N-T 5
N-T-AY1-T-AH0-L-D 5
NG-G-R-AH0-S 5
P-EH2-N-S-AH0-L-@@ 5
P-R-EH1-Z-AH0-D-EH2-@@ 5
P-T-EH1-M-B-ER0 5
S-AH1-B-JH-IH0-@@ 5
S-AY2-M-AH0-L-@@ 5
S-AY2@@ 5
S-T-EH1-D 5
T-EH2-N-AH0-@@ 5
T-I@@ 5
V-R-AH0-L 5
W-IH0-DH@@ 5
Y-UH0-R-@@ 5
AE2-P-L-AH0-@@ 4
AH0-JH-EY1-@@ 4
CH-AO1-K-@@ 4
CH-IH1-L-D-R@@ 4
D-EH1-M-AH0-@@ 4
D-IY0-EY1-@@ 4
EH1-N-T-ER0-@@ 4
F-AH0-K-AH0-@@ 4
H2-@@ 4
HH-ER1-AH0-@@ 4
HH-IY1-B-R@@ 4
IH0-N-T-AY1-@@ 4
IH1-N-F-L-UW2@@ 4
K-AH0-N-T-AH1-@@ 4
L-D-R-AH0-N 4
M-IH2-S-IH0-S-IH1-@@ 4
N-CH-AH0-N-T 4
NG-G-R-IY0 4
NG-S-T 4
OW0-HH-AY1-@@ 4
P-AA2-R@@ 4
P-AH0-N-IH1-@@ 4
P-IH1-R-IY0@@ 4
P-M-AH0-N-T-S 4
R-EH2-Z-IH0-@@ 4
S-W-IH1-T-S-ER0-@@ 4
SH-IH0-NG-T-AH0-N 4
T-ER0-IH0-S-T 4
T-IH1-P-IH0-@@ 4
T-R-AH0-T 4
V-AE0-N-K-UW1-@@ 4
V-AH0-N-S-AH0-Z 4
V-IY0-AH0-T 4
Z-L-AA1-@@ 4
-AO2-R-IY0-Z 3
AA1-P-AH0-@@ 3
AE1-S-P-EH2-@@ 3
AE2-G-R-AH0-@@ 3
AH0-G-EH1-@@ 3
AH0-N-AH1-@@ 3
D-EH1-K-EY0-@@ 3
HH-EH1-D-K-W-AO2-R-@@ 3
IH2-N-D-AH0-V-IH1-JH-AH0-W@@ 3
JH-IH0-N-Z 3
JH-UH2-R@@ 3
K-AA1-N-S-ER0-@@ 3
L-EH2-JH-AH0-@@ 3
L-IH1-V-ER0-@@ 3
M-AE0-N-@@ 3
M-AH0-N-S 3
M-AH0-S-F-IH2-R 3
N-S-IH1-@@ 3
N-UW1-Z-P-EY2-@@ 3
N-Y-ER0 3
NG-K-TH 3
P-AO1-R-CH-AH0-@@ 3
P-R-AA1-G-R@@ 3
P-R-AA1-K-S-AH0-@@ 3
P-R-AA1-P-ER0-@@ 3
R-IH0-M-EY1-@@ 3
R-IY0-S-P-AA2-N-S-AH0-@@ 3
T-AH0-N-L-IY0 3
T-OW1-K-IY0-@@ 3
TH-IY1-S-T 3
Z-OW1-N-AH0 3
ZH-AH0-N-AH0-L-IY0 3
-AH0-D-Z 2
AE1-G-R-IH0-@@ 2
AE1-N-S-EH0-@@ 2
B-IY2@@ 2
F-AH0-S-IH1-@@ 2
F-AO1-R-M-ER0-@@ 2
F-R-EY1-D 2
IH0-N-T-EH1-L-AH0-JH@@ 2
IH1-N-F-L-UW0@@ 2
JH-AE1-N-Y-UW0-@@ 2
JH-EH0-K-S 2
JH-ER0-UW1-@@ 2
K-Y-AH0-P-EY1-SH-AH0-N 2
L-R-EH1-@@ 2
L-UW0-IY2-Z@@ 2
M-AH1-N-TH@@ 2
N-JH-AH0-L-Z 2
N-T-IH1-L 2
P-AE1-S-AH0-N-@@ 2
P-AO1-R-CH-AH0-G@@ 2
P-R-AA1-B-L@@ 2
R-EH2-K-R-IY0-EY1-@@ 2
R-EH2-P-Y-AH0-@@ 2
S-IH1-D-IY0-@@ 2
S-IH1-N-D-R@@ 2
S-K-AE1-R-@@ 2
S-W-EH2-R 2
T-B-AO2-@@ 2
T-UH1-R-@@ 2
TH-IH2-NG 2
V-EH2-R-IY0-@@ 2
V-ER0-AY1-@@ 2
W-IH0-S-K-AA1-@@ 2
-AY2-R-AH0-N-@@ 1
-UW@@ 1
AE1-L-G-ER0-IH2-@@ 1
AE1-L-K-AH0-HH-AA2-@@ 1
AO2-R-G-AH0-N@@ 1
B-AH0-D-IY0 1
B-IH0-K-AH1-@@ 1
B-L-IH0-NG-Z 1
D-IH0-T-R-OY1-@@ 1
EH1-P-AH0-S-OW2-@@ 1
F-AH0-N-IH1-@@ 1
F-T-ER0-@@ 1
F-T-ER0-N-UW1-@@ 1
IH0-M-IY1-D-IY0-AH0-@@ 1
IH0-M-IY1-D-IY0@@ 1
IH0-N-T-ER2-@@ 1
IH0-N-V-AA1-L-@@ 1
IH2-N-D-AH0-V-IH1-@@ 1
IH2-N-F-R-AH0-@@ 1
K-AA1-M-AH0-D@@ 1
K-AA1-M-ER0-@@ 1
K-AA1-N-S@@ 1
K-AH0-M-B@@ 1
K-AH0-M-Y-UW2-N-AH0-@@ 1
K-EH2-R-AH0-K-T-ER0-IH1-@@ 1
K-L-AH0-HH-OW1-M-AH0 1
K-R-IH2-S-CH-IY0-AE1-@@ 1
L-AE1-NG-G-W-AH0-@@ 1
L-AH0-K-Y-UW2-@@ 1
L-R-EH1-D-IY0 1
L-UW0-IY2-@@ 1
M-AE1-G-AH0-Z@@ 1
M-AH0-N-AA2-N 1
M-AH2-N-T-R@@ 1
M-P-ER0-EH2-R-IY0 1
N-AO2-R-W-IY1-@@ 1
N-EY1-B-AO2-R-@@ 1
N-JH-AH0-M-AH0-N 1
NG-L-IH0-SH 1
OW@@ 1
P-ER0-HH-AE1-@@ 1
P-R-IY1-V@@ 1
R-EH1-S-T-R@@ 1
R-IH0-Z-AH1-@@ 1
S-AE1-M-Y-UW0-@@ 1
S-AH0-S-AY1-AH0-@@ 1
S-CH-IY0-AE1-@@ 1
S-OW1-T-AH0 1
T-AH0-G-EH1-@@ 1
T-AH0-S-AY2-Z-D 1
T-UH1-R-AH0-@@ 1
V-AA1-L-IY0-@@ 1
V-ER1-SH-AH0-L 1
W-IH0-DH-IH1-@@ 1
W-IH0-TH@@ 1
madeupword0000 0
madeupword0001 0
madeupword0002 0
