#version: 0.2
1 -
- A
0 -
H 0-
- I
H 1-
- E
-A H0-
-I Y
u s
us e
use ]</w>
p a
pa use]</w>
[ pause]</w>
N -
-E R
H 0</w>
-I H0-
D H
Y 1-
E 1-
-E H1-
S -
-A H0</w>
W 1-
- R
-I H1-
- U
A 1-
-A E1-
I H0-
H H
O 1-
-IY 0</w>
2 -
DH -AH0</w>
-A H1-
A H0-
-A A1-
-E Y1-
K -
-ER 0</w>
L -
-A O1-
R -
-IY 1-
S H
-ER 0-
-A Y1-
N- D</w>
O W1-
-AH0- N</w>
A E1-
S- T
-AH0- N-
N G</w>
-U W
M -
Y 1</w>
A H0</w>
-AH0- L</w>
T -
O W
-U W1-
I H1-
-ER 1-
J H
-IH0- NG</w>
- L
-IY 1</w>
-UW 1</w>
H 2-
G -
-IY 0-
S- T</w>
A H1-
W -AH1-
A O1-
-AO1- R-
E H1-
C H
IH0- N</w>
A A1-
AH0- V</w>
Y 2-
IH0- Z</w>
T -AH0</w>
AE1- N-D</w>
T- S</w>
P -R
L -IY0</w>
-A W1-
N- T
HH -AE1-
- OW1-
N- D
-U H1-
AH1- V</w>
-AA1- R-
W-AH1- Z</w>
SH -AH0-N</w>
S -AH0-
T H
D -IH0-
S -EH1-
T -IH0-
DH -IY0</w>
T -AH0-
E R
-A Y1</w>
P -
HH -IY1</w>
N G-
-IY 0
L -AH0-
N -AH0-
K -AH0-
OW 0</w>
S -IH1-
D -
T -UW1</w>
T H</w>
AH0- N-D</w>
P -L
Y -UW1-
T -R
R -IH0-
-ER0- Z</w>
-A A
G -R
T -ER0</w>
-IH0- Z</w>
M -EH1-
-AH0-N- T</w>
-E Y1</w>
-AO1- R</w>
- D</w>
-A E
K -R
IH1- N</w>
F -R
M -AH0-
2 -R
F -
S- P
W -IH0-
W -IH1-
-A O
-E Y2-
T -IY0</w>
DH -EH1-
K -AA1-
K- S</w>
L- D</w>
W -EH1-
S-T -R
-AH0-N- Z</w>
B -AY1</w>
S -AH1-
-E H2-
L- Z</w>
C H</w>
AA1- R</w>
B -R
R -IY0-
Y -UW1</w>
-A Y2-
-IH0- S</w>
AO1- L-
IH0- T</w>
K- L
A Y1</w>
OW 1</w>
-AH0- N
J H</w>
N- T</w>
IH0- N-
-AE 2-
M -AE1-
B -IH0-
K -AE1-
K -AH1-
K -AH0-N-
IH1- Z</w>
R -AH0-
L -IH1-
S- OW0</w>
AE1- T</w>
-I H2-
ER 0</w>
T-IH0- D</w>
AO1-L- S-OW0</w>
HH -IH1-
M -EY1-
N- Z</w>
B -
DH -IH0-S</w>
OW 0-
DH -ER0</w>
AA1- N</w>
-A W
F -AO1-R</w>
N -AA1-
B -L
M- Z</w>
V -ER0</w>
Y -UW
-ER 0
DH-EH1- R</w>
T -EH1-
M- P
E Y1-
L -EH1-
D- Z</w>
D -IH1-
F -ER0</w>
L -AY1-
-IH0- K</w>
B -IH1-
EH1- Z</w>
M -IH1-
V -EH1-
IH0- NG</w>
-EY1- SH-AH0-N</w>
-AA 2-
HH -
S- K
Y 0-
N -IY0</w>
-IY0- Z</w>
K- T</w>
-AH0- L
T-AH0- D</w>
HH -IH0-Z</w>
F -ER0-
IH1- T</w>
R -IY0
F -AO1-R-
W -AA1-
D -R
-AH0- M</w>
L- OW1-
HH-AE1- Z</w>
P -ER0-
F -IH1-
Y-UW1- Z
R -EH1-
W -AY1-
V -
S -IY1-
-EY1- M</w>
P-L -EY1-
B -IY0</w>
W -ER1-
D -AH0-
W -AO1-
O Y1-
AH0- N</w>
S -AY1-
SH -IY1</w>
E Y1</w>
B -AE1-
DH -AE1-
W-IH0- TH</w>
-AH0- S</w>
HH -EH1-
L -EY1-
K -AH0-L</w>
HH-AE1- V</w>
B -AH0-L</w>
SH -AH0-N-Z</w>
T -AY1-
I Y1-
N -IH0-
L -IY1-
-ER0- D</w>
ER 0-
M -AH0-N</w>
B -AH1-
N-AA1- T</w>
-IY1- Z</w>
S -ER1-
L -IH0-
TH -R
P -AA1-R-
OW 2-
H 2-R
T -IH1-
M -AH0-N-T</w>
-AH0- T</w>
DH -EY1</w>
-AA 0-
T -IH0-NG</w>
R -IY0</w>
-UH1- D</w>
M -AH1-
K -AH0-N</w>
L -AE1-
P-R -AH0-
-ER 1</w>
M- B
-E H0-
DH-AE1- T</w>
W-AH1- N</w>
S H</w>
F -ER1-
2-R -
M- OW1-
W -ER0</w>
F -L
B -EH1-
D -EH1-
F -AY1-
N- S
A Y1-
V -D</w>
-AH0-N- S</w>
T- L-IY0</w>
F -EH1-
T -EY1-
N -EH1-
P -AH0-
I H2-
A E
T -AH0-N</w>
N- OW1-
L -AO1-
HH-AE1- D</w>
IH0- K-
-IY 2-
Z H
N -EY1-
V -IH1-
R -IY1-
P -IH1-
P -IY1-
U W1-
HH-IH1- Z</w>
Y-UW 0-
SH -
F-ER0- M</w>
A W1-
P -AA1-
R -IH1-
P -AE1-
R -EY1-
D -IH0-NG</w>
-E H2-R
Y 0</w>
D H</w>
N-D -
-AH0-N- T-S</w>
K -IH0-NG</w>
HH -AW
S-T -EY1-
P -EH1-
JH -AH0-
M- D</w>
R- OW1-
HH -OW1-
-AW1- N</w>
S-T -
S -IH0-
-AH0- D</w>
AO1- L</w>
AO1- N</w>
AA1- R-
V -ER0-
T -ER1-
H 1</w>
N- OW1</w>
AE1- F-
P-R -AA1-
F-R -AH1-
-AO 2-
N- S</w>
-A H1</w>
-IY1- N</w>
DH -AH1</w>
JH -EH1-
N -AE1-
S -IH0-Z</w>
NG- G
B-AH1- T</w>
T -AH0-L</w>
-AH0-N -AH0-L</w>
F -IY1-
P- S</w>
IH0- T-S</w>
N-T -R
-AH0- L-IY0</w>
I Y0</w>
D -AH1-
N -IH0-NG</w>
Z -
F -AA1-
K -AO1-
N -IH1-
F -AE1-
K -AO1-R-
AE1-F- T-ER0</w>
K- SH-AH0-N</w>
-AE 0-
V -ER1-
P -AH0-L</w>
R- Z</w>
Y -UH1-
AE1- Z</w>
Z -D</w>
NG- Z</w>
N -AH1-
G -EH1-
K- W
-L -IY0</w>
W-AA1- Z</w>
V -AY1-
-AW1- T</w>
R -AY1-
AO1- R</w>
DH -AH0-T</w>
S-K -UW1-
T-IH0- V</w>
F-ER1- S-T</w>
D-IH0- D</w>
K -EH1-
S-T -AE1-
M -AA1-
-IH0- D</w>
W-IH0- DH</w>
M -AY1</w>
R -IH0-NG</w>
Y 2</w>
T -ER0-Z</w>
-UW 0-
Y -AH0-L
K-L -UW1-
CH -ER0</w>
E Y2-
A A
P- T</w>
V- Z</w>
K- OW1-
S-AH1- M</w>
F-R-AH1- M</w>
G -IH1-
DH -IY1-Z</w>
S-P -EH1-
B -OW1-
T -ER0-
N- JH
HH -ER0</w>
AH1- DH-ER0</w>
P-R -EH1-
-AO 2-R-
M -IH0-
M-AE1- N</w>
K -AW1-
-A H2-
K -EY1-
S -AH0-N</w>
Y -IH1-
S -AE1-
N -AY1-
OW 2</w>
B -ER0-
-AW1- N-D</w>
M -IY1-
M-EH1- N-IY0</w>
F -AH0-
-A Y0-
N- Y
M -AY1-
D -IY0</w>
V -R
T -AE1-
S-AH0- Z</w>
B -EY1-
IH0-N- K-L-UW1-
N- L-IY0</w>
B -AO1-R-
Y-UW1-Z -D</w>
K-AH0- M-
P -AH1-
B -AH0-
K -EY2-
-AO1- L</w>
TH -IH1-
A O
AH0- N-
V -IH0-
-EH2-R -IY0</w>
-AH0- Z</w>
-AO 0-
P -OW1-
HH -AY1-
D -UW1-
R -AH1-
K -IH1-
M -UW1-
W-AH1- T</w>
W -IY1</w>
M -AA1-R-
-UH1- K</w>
D -ER0</w>
T -IY0-Z</w>
F -EY1-
DH -IH1-
L -ER0</w>
K -ER1-
B -AA1-
AE 2-
V -AH0-
SH -AH0-N-AH0-L</w>
Y-UW 2-
N -ER0</w>
L- Y
T-AY1- M</w>
N -IY1-
D -EY1-
N -AH0</w>
NG- K</w>
S-T- S</w>
T -IY1-
D -UW1</w>
N- Y-UW1</w>
G-R -AE1-
S-K-UW1- L</w>
P -AO1-R-
-E Y2</w>
T-R -AE1-
-AW 1</w>
M -IY1</w>
S -IY0</w>
R -AA1-
IH0- N-T
M -AO1-R</w>
-EH1- V-ER0</w>
N -AO1-R-
S-T -AH0-
S- OW1-
Z -IH1-
L- T</w>
L -AH1-
W-AO1- Z</w>
SH -AH0-L</w>
R -AE1-
HH-AW 2
AH1- P</w>
HH-AW2 -EH1-V-ER0</w>
T -AA1-
S-T -ER0</w>
S -AO1-
G -EY1-
TH-R -IY1</w>
P -EY1-
N -AH0-L</w>
D-IH0- S-
B -IY1-
S-T -IH1-
S -EY1-
L-EY1- T-ER0</w>
K -EY1-M</w>
OW1- N-L-IY0</w>
N-D- Z</w>
K-R -IH1-
JH -
L- OW0-
D -IY0-
ZH -AH0-N</w>
K -AA2-
W -UH1-D</w>
N-OW1- N</w>
G -AE1-
D -AA1-
E H2-
W -UH1-
-IY0 -AH0</w>
ER 1-
DH-EH1- N</w>
EH1- R-IY0
JH -IH0-
M-B -ER0</w>
B -ER1-
IH0- G-
DH-IH1- S</w>
AE 0-
P-IY1- P-AH0-L</w>
Z -IH0-
T- W
AW1- T</w>
L -AA1-R-
-ER0 -AH0-L</w>
-ER0- N</w>
HH-IH1- M</w>
S-EH1- L-
AE1- K-
S- UW1-
P -ER1-
G-R -EY1-
N -AW1</w>
W -ER1</w>
EY1- SH-AH0-N</w>
V-EH1- R-IY0</w>
R -EH2-
AE1- L-
-ER0- IY0</w>
N- CH
D -IY1-
P-AH1- B-L
D -AO1-
V -AH0-L</w>
N-D -ER0</w>
E H0-
F- T</w>
G- OW1-
S-T -EH1-
N-AH0- S</w>
W -IY1-
S-IH1- T-IY0</w>
D -AE1-
R -UW1-
HH -IY1-
G -AH1-
L-AH0- N-D</w>
CH -IH1-
L -IH0-NG</w>
V -IH0-NG</w>
P-R -AY1-
JH -AH1-
S-EH1- D</w>
AE1- N</w>
G -AH0-
Y -AH0-
B-OW1- TH</w>
HH -ER1</w>
W -EY1-
W -AO1-R-
V -AE1-
P-L -AE1-
-IY0 -AH0-N</w>
T-R -EY1-
N- UW1-
G -L
N -EY1-M</w>
M-OW1- S-T</w>
N-T -ER0-
G -AA1-
W-IH1- CH</w>
HH -AA1-
N- T-S</w>
B-R -IH1-
M -ER0</w>
N- S-AH0-
U W
Z -AH0-
K- L-IY0</w>
W -AH0-L</w>
M- Y-UW1-Z
SH -AH0-
B-IH0- N</w>
TH -
-ER 2-
AH0- B
D -EY1</w>
N-D -IH0-NG</w>
L-AY1- K</w>
-A Y
R- D</w>
HH -AW1-
G-R -UW1-
AH0-B -AW1-T</w>
B-IH1- N</w>
P-R -IH1-
HH -AA1-R-
-E Y0-
K -AA1-R-
B -IY1</w>
W-EH1- N</w>
M -AH0-N-T-S</w>
P-R -OW1-
SH- T</w>
N-EY1- M-D</w>
W-IH1- TH</w>
S -IY1</w>
JH -AA1-
B-AO1-R- N</w>
K-EY2- T-AH0-D</w>
S -IH0-NG</w>
D -AY1-
-UW 0
L -UW1-
CH -EY1-
TH-R -UW1</w>
OW1- V-ER0</w>
D -OW1-
S-AY1- D</w>
F-R -EH1-
T -UW1-
-AW 2-
S-T -AO1-
IH1- N-
M-EY1- D</w>
N-D -AH0-
D-AH0- D</w>
EH1- K-
S- M
S-AH1- M-
HH -UW1</w>
EH1-R-IY0 -AH0</w>
L-AO1- NG</w>
JH -ER0</w>
D -ER0-
P-AA1-R- T</w>
L-IH0- JH</w>
N-D -ER0-
AA 0-
HH -AH1-
M -EY1</w>
Y-UW1- Z</w>
S-P -IY1-
K -ER0-
Z -AH0-N</w>
L-EH1- K-
D -AH0-N</w>
Y-UW2- N-AH0-
T -AW1-N</w>
M -IY0</w>
W-AY1- T</w>
F -UH1-
W-ER1- K</w>
ER0- Z</w>
S- OW1</w>
Y -AH1-
AO1- F
IH1- T-S</w>
Y-UH1- R</w>
S-T-R -AH1-
D-IH0- Z
CH -AE1-
L -AA1-
M -IH0-NG</w>
CH -
Y-AH0-L -ER0</w>
Z -EH1-
F-IH1- L-
S -AY2-
I Y0-
-UW 2-
K-AH0-N- S-IH1-
W -EY1</w>
AO1- R-
T -AO1-
R-IY0- D</w>
K-AO1- L-D</w>
ER 0
T -AY2-
V -EY1-
W-EH1- L</w>
K- L-OW1-
K-AE1- N</w>
F -IH0-
M-AH0- N
K -IH0-
K -EY1-SH-AH0-N</w>
S -EH2-
-U H2-
F -AH0-L</w>
S -AA1-
K-AH1- M-P
B-L -AE1-
T-IH0- K</w>
S-AH0- T-IY0</w>
T- OW1-
TH -IY1-
-IY1- T</w>
R-IY0- Z</w>
N- SH
W-AY1- L</w>
M -ER1-
N-T -ER0</w>
W-EH1- R</w>
S-AH0- K-
S -AW1-
Y-IH1- R</w>
CH -EH1-
Y-IH1- R-Z</w>
JH -IY0</w>
L -AY2-
-EY2- T-IH0-D</w>
HH -IH0-
S-T -AA1-R-
A H2-
P -ER0</w>
P-R -IH0-
Y-UW2-N-AH0- V-ER1-
AH0- P-IH1-
K-AH1-M-P -AH0-N
AO 0-
O Y1</w>
F-AA1- L-OW0-
M -AE2-
-AO1- R-AH0-
-UW 0</w>
-AH0-N- T-L-IY0</w>
L-OW1- K-EY2-T-AH0-D</w>
-AO 2-R
K -ER0</w>
AH0- G-EH1-
IH0-N- T-AH0</w>
L- D-R
K -AE2-
S- L-IY0</w>
M -AW1-
NG- G-
HH -AY1</w>
F-R -ER0</w>
V-R -AH0-L</w>
S-EH1- V-R-AH0-L</w>
P- OY1-
S-EH1-L- F</w>
-AO0- R-
D -AH0-N-T</w>
S -ER0-
M- P-
JH -ER1-
K -IY0</w>
W-UH1- M-AH0-N</w>
K-AW1- N-T
K-R -IY1-
Y-UW1- N-AH0-
HH-EH1- L-
L- OW0</w>
K-AH0- M-P
K- T-ER0</w>
L- D-IH0-NG</w>
S-T -UW1-
IY1- CH</w>
F -OW1-
N-D -AH0-D</w>
G-R -AE2-
-AO 1</w>
K -AH0</w>
JH -IH0-Z</w>
P-ER0- EY2-
Z -AE1-
AH0- T-EH1-
S-AH1- CH</w>
V -AH0-N</w>
N- S-T</w>
T-R -IH1-
IH0- M-P
S-IH1- S-T
N G
CH-IH1- L-D-R
K-AH1- M</w>
N -ER0-
G-R-UW1- P</w>
N- JH</w>
Y -EH1-
K-R -AO1-
M- P-L
D -IY0
V -AA1-
L -AH0-N-
K- T-S</w>
W -EY2</w>
N-AH0- L-IY0</w>
-AA 2-R-
Y-AH1- NG</w>
S-T -AH1-
N-EH1- V-ER0</w>
AW1- T-
S- K-
G -ER1-
CH -ER0-Z</w>
S-AH1- B-
-AE0- N-
S-T -AA1-
-AO2- L</w>
K-L -AE1-
-OW1- Z</w>
M-Y-UW1-Z -IH0-K</w>
-ER0 -AH0-
ER0- IH1-
F -AY2-
W-EH1- S-T</w>
JH -AH0-N</w>
V-EH1- L-AH0-
HH-IY1- R</w>
P-ER0- F-AO1-R-
K -UH1-D</w>
N- CH</w>
K-AH0-N- T-IH1-
R -AH0</w>
L -AH0</w>
AH0- N-AH1-
T-R -AH0-
S-T-EY1- T</w>
B-IH0- K-EY1-M</w>
AH0-N-AH1- DH-ER0</w>
HH-AW 1</w>
Z -AH0-M</w>
Y-UW2-N-AH0-V-ER1- S-AH0-T-IY0</w>
G-AH1- V-ER0-
M-EH1- R-IH0-
M-EY1- N</w>
B -AY1-
D-IH0- V-EH1-L-AH0-
D -AH0</w>
D -AW1-N</w>
S-T-IH1- L</w>
P-L -EY1</w>
CH-IH1-L-D-R -AH0-N</w>
R-IH0- Z
K-AH0-N-T-IH1- N-
M -AH0-N-
IH0-K- S-
JH -D</w>
M -AH0</w>
HH- W-AH1-N</w>
N-D -IH0-D</w>
L-IH1- T-AH0-L</w>
SH -AO1-R-
D-IH0-Z -AY1-
R-IH1- V-ER0</w>
EH1- V-R
T -I
T-I H0</w>
K- S-T</w>
K-R -AY1-
K-R -IY0-
A Y0-
V -IY0</w>
SH -IH2-
N -IY0-
M -ER0-
G -AA1-R-
T-W -IY1-N</w>
B -IY0-
N-T -AH0-
M-AH0- S</w>
-EY2- Z</w>
EH1- N-IY0</w>
AE1-L- B
G- OW1</w>
M-AH1- CH</w>
EH1- R-
AA 2-
P-R-AH0- D-UW1-
L-AH0- S</w>
-AE1- K-
NG-G -L
N-T-R -AH0-
HH- W-AH1-T</w>
S-M -AO1-L</w>
AH1- N-D-ER0</w>
P-L-EY1- D</w>
P -IH0-
B-L-AE1- K</w>
P-AA1-R- K</w>
K-AA1- N-
P-AH1-B-L -IH0-K</w>
AE1-L-B -AH0-M</w>
V-IH0- N</w>
S-T-R -EY1-
B -UH1-
T -EH2-R-IY0</w>
JH -UW1-
W-AO1- T-ER0</w>
L -UH1-
Z -IH0-NG</w>
D -AH0-L</w>
D -IH2-
D -L-IY0</w>
W-ER1- L-D</w>
F -AW1-N-D</w>
K- S-AH0-
TH -ER1-
-EY2- T</w>
L-AH0- T-IY0</w>
HH-AW1- S</w>
S-T-R -IH0-
K-AW1-N-T -IY0</w>
-AA0- R-
T -AW1-
HH-OW1- M</w>
G- Z</w>
R-EH1- D</w>
K -IY1-
W -AO1-R</w>
S-AW1- TH</w>
S -EY1-M</w>
TH -IH0-NG</w>
IH0-N-K-L-UW1- D</w>
D-IH1- F-R
N-D -IH0-
D-IH1- S-T-R-IH0-
NG- K-
JH-EH1- N
F -AH1-
M- L-IY0</w>
IH2- N-
-AO2- R</w>
L-AA1-R- JH</w>
T- B
SH -EH1-
S-T -EY1-SH-AH0-N</w>
IH2- N-T-ER0-
N-AO1-R- TH</w>
L -IY0-
-AH0- L-Z</w>
CH -AA1-R-
S-AH1- N</w>
B -UH1-K</w>
F-ER0- D</w>
CH -AY1-
IH1- NG-G-L
F-IH1-L- M</w>
ER0- D</w>
AH0- D-
D-IH1- D</w>
P -AW1-
P -IH0-NG</w>
B-AE1- K</w>
-AY 2
S -ER0</w>
L- OW1</w>
S-P -IH1-
F -IH0-K</w>
L-AY1- F</w>
- OW1</w>
DH -AH0-N</w>
B-IY1- IH0-NG</w>
N-D -R
V -IH2-
T-R -AE0-N-
K-AH1-M-P-AH0-N -IY0</w>
P-R-AH0- V-AY1-
P -UH1-
G-R -IY1-
N-AE1- SH-AH0-N-AH0-L</w>
G -EY1-M</w>
F-R -AE1-
S-T -IH0-
S-P -AA1-
L-AH0- JH-IY0</w>
-IY 2
M-B -ER0-Z</w>
JH -IH1-
K-AH0- T</w>
M-EH1- N</w>
IH0-G- Z-AE1-
P-L-EY1- IH0-NG</w>
R-IY0- L-IY1-
K- T-IH0-D</w>
OW1- P
K-L -AH1-
K- W-AY1-
DH -ER0-Z</w>
K-AA1- L-IH0-JH</w>
P -AA2-
Y-UW1-Z H
OW1- L-D</w>
JH -AE1-
K-L -IH1-
D -ER0-Z</w>
P-R -IY0-
- OW0-
P-R -IY1-
P-AH1-B-L -IH0-
S -IH2-
-AO1- T</w>
F-AY1- N-D</w>
JH- OY1-
G -UH1-D</w>
N-T H
CH -ER1-
Y-UH1- R-IH0-NG</w>
HH -ER1-
F-AY1- V</w>
N-Y -AH0</w>
N-AH1- M-B-ER0</w>
L-OW1- K-AH0-L</w>
S- CH
B-IH0- T-W-IY1-N</w>
R-AY1- T</w>
D -EH2-
D-IH1-S-T-R-IH0- K-T</w>
JH -AH0-N-AH0-L</w>
K- Y-AH0-
F-R -IY1-
D -ER0-D</w>
S -AH0-L</w>
IH0- V-EH1-
B-R -AH1-
B- Z</w>
SH -AA1-
S -AO1-R-
Z -IY0</w>
B-L -IY0</w>
JH -EY1-
AH0- L
AO1- F</w>
S-AH0- P-AO1-R-
R-IY0 -AH0-S</w>
D- Y-UH1-R-IH0-NG</w>
T-R -AY1-
SH -IH1-
M-EH1- M-B-ER0</w>
CH -ER0-D</w>
K-AH1- N-T-R
P-L-EY1- S</w>
F-AA1-L-OW0- IH0-NG</w>
DH -AH0-M</w>
S-ER1- V-D</w>
SH-IH2- P</w>
S-T -IY1-
V- OY1-
M-IH1- N-AH0-
S-T -AH0-D</w>
AH0- M-EH1-R-IH0-
N-T -IH0-D</w>
S-T-R -IY0</w>
-IY0 -AH0-
W-IH1- L</w>
S-T-R -IY1-T</w>
M-EH1- R-AH0-
-AY2- Z-D</w>
S-ER1- V
S-T -ER0-N</w>
K-R-IY0- EY1-
P-AA1- P-
-EH2- R</w>
AH0- B-
L-EH1- F-T</w>
B-R -AE1-
M-P -AH0-L</w>
D-IH1-F-R -AH0-N-T</w>
W -EY2-Z</w>
L -ER0-Z</w>
M-EY1- K</w>
B-L -UW1</w>
K-AH1- L-
M -AO1-R-
V -OW1-
K-AH0-N-T-IH1-N- Y-UW0-
T -UH1-K</w>
OW1- N</w>
N -IH0-K</w>
CH -IY1-
S- K-AA1-
OW0- Z</w>
SH- OW1</w>
S-AH0-K- S-EH1-
M- OW2-
R- L-IY0</w>
IH0-N-T -UW1</w>
T -UH1-
T-AY1- M-Z</w>
Y-UW 0</w>
S-IH1-S-T -AH0-M</w>
D -AH0-N-T-S</w>
B-IH1- L-D-IH0-NG</w>
N-IH1- R</w>
S-T-EY1- T-S</w>
P-R-OW1- G-R-AE2-
K-ER1- AH0-N-
S-EH1- N-T-ER0</w>
R -AH0-L</w>
M-EH1- R-IY0-D</w>
V -L-IY0</w>
T-EY1- K</w>
G-R -AH0-
S-IH1- R-IY0-Z</w>
M-AH1- S-T</w>
S- UW
IH0- L-EH1-K-
S-AY1- AH0-
P-R -UW1-
G-AE1- N</w>
Y-UW0- N-AY1-
M -ER0
K-ER1-AH0-N- T-L-IY0</w>
CH- T</w>
SH -AE1-
B- OY1</w>
K-AH0-M- Y-UW1-N-AH0-
N-IY1- D</w>
T -AH1-
R-OW1- D</w>
AO1-F -AH0-N</w>
T -AH0-N-T</w>
EY2- T-IH0-D</w>
NG-G- W-IH0-
V -IY1-
R -IY2-
K-L -AY1-
Z-IH1- SH-AH0-N</w>
W-EH1- N-T</w>
E H2-R
-OW1- N</w>
T-IY1- M</w>
AO 2-
AH0- D-IH1-
W-EH1- R-IH0-NG</w>
T -EY1-SH-AH0-N</w>
B -AH0-N</w>
S-P -AY1-
JH-AA1- N</w>
D -ER1-
K-R -AH0-
S-AO1- NG</w>
R-IH0- M-EY1-
DH -ER0-N</w>
B-R -EY1-
V -AH0-L
SH -UH1-D</w>
S-EH1- V
P-L -IY1-Z</w>
IH0-M-P -AO1-R-
B-IH0- F-AO1-R</w>
SH -ER1-
K-AH0-M- P-L
B-AE1- N-D</w>
TH-IH1- NG-K</w>
B-L -IH0-
S-IH1- NG-G
S-IY1- V-D</w>
ER1- L-IY0</w>
JH -IY1-
B-EH1- S-T</w>
T-R -OW1-
HH- W-EH1-N</w>
Y -AO1-R-
W -AH0-Z</w>
F-AO1-R- M</w>
V-AA1- L-
HH- W-IH1-CH</w>
DH-EH1- M</w>
G-R-EY1- T</w>
S- K</w>
F-AA1- DH-ER0</w>
S-IH1- N-S</w>
T-B -AO2-L</w>
F -IY0</w>
B-IH1- Z-
N- SH-AH0-N</w>
T-ER1- N-D</w>
L-AY1- N</w>
K-AH1- V
W-AA1- N-T</w>
S-T -IH0-K</w>
M -IH0-K</w>
G-AA1- T</w>
N-S -IH0-
TH -AH0-
T- OW0</w>
IH0- F</w>
AH0- L</w>
M-EY1- JH-ER0</w>
W-IH1- DH</w>
HH -EY1-
-IY0 -AE1-
K-AH0- L-Z</w>
S- W-IH1-
AH0-G-EH1- N</w>
-EH0- K-
L -AH0-N</w>
F -IH2-
-AH0-N -IH1-
IH1- N-D
SH -UH1-
G-ER1- L</w>
S-EY1- N-T</w>
-UH2- D</w>
F- Y-UW1</w>
P-AA1- L-AH0-
K-AH0-N- T-EY1-
IH0-G- Z-IH1-
HH- Y-UW1-
S-P -AE1-
K- CH-ER0</w>
-AH0- N-D</w>
M -EH2-
S-T -AH0-N</w>
HH-EH1- D</w>
-IY2- N</w>
K-R-AO1- S</w>
R-IY0 -AH0-L</w>
P-AA1-P- Y-AH0-L-ER0</w>
K-ER0- IH1-
S-IY1- N</w>
D-OW1- N-T</w>
F-AY2- D</w>
W-EH1- L-
T-IH0- SH</w>
K -AH2-
EH1- L-
S- OW2-
G -AH0-N</w>
EH1- R</w>
Z -AH0-N-T</w>
K- S-
F-AE1- M-L-IY0</w>
P-AA1-R- T-IY0</w>
T-AH0- B-AH0-L</w>
F -AO1-
AH0- L-AO1-NG</w>
D-AO1- G</w>
K-AA1- M-AH0-N</w>
B -ER0</w>
K-R -AE1-
P -IY0</w>
AA1- P-ER0-EY2-
-IH0- SH</w>
K- T-AH0-D</w>
Z -IH0-Z</w>
T- M-AH0-N-T</w>
IY0- Z</w>
S-K -EY1-
L-AH0- B-AH0-L</w>
N-T -AH0-D</w>
JH-AH1- S-T</w>
JH -EH0-
F-IH1- SH
P -AH0-L
L- D-Z</w>
N-AY1- T</w>
IY1- S-T</w>
OW1- V-ER0-
N-T -IH0-
N- UW
M-EY1- SH-AH0-N</w>
D-R -EH1-
S-T-AE1- N-D-IH0-NG</w>
-EY2- T-AH0-D</w>
B-IH1- L-T</w>
-IH2- Z-AH0-M</w>
S-EH1- T</w>
L-Y -AH0-N</w>
T-IH0- K-AH0-L</w>
B -AA1-R-
K-AA1- R</w>
T-EH1- L-AH0-
P- Y-UW1-
T-AH0- S</w>
T -EH2-
D-AY1- D</w>
S-IH1- M-AH0-
K-AH0- M-IH1-
CH-ER1- CH</w>
N-AE1- SH-
M-EH1- M-B-ER0-Z</w>
B-EY1- S-T</w>
HH -AO1-R-
-IY0 -AA1-
R-IH0-Z -AH1-
JH -UW0-
AH0- W-AO1-R-
G-EH1- T</w>
K- W-IH1-
AY1- M</w>
L- OY1-
-AY 0
N- OW0</w>
DH -OW1</w>
N -ER0-Z</w>
L-AO1- S-T</w>
M -AH0-L</w>
T-AH0- G-EH1-
N-T -AH0-L</w>
L -ER0-
T-AH0-G-EH1- DH-ER0</w>
CH-EY1- N-JH
CH -AH0-
AY1- L-AH0-N-D</w>
AH0- Z</w>
F-L -AE1-
F -AW1-
S-AH0- S</w>
N-D -AH0-N</w>
AE1- N-AH0-
S-EH2- S</w>
EH1- N-D</w>
-EY2- L</w>
SH -EY1-
S-T-R -IH1-
HH-IH0- S-T-AO1-
K-AH0-N-S-IH1- D-ER0-D</w>
AH0- M-AH1-
M -IH2-
D -L
K -ER0-Z</w>
JH -AO1-R-
D -AA1-R-
D-ER0- EH1-K-
IH0-N-T -EH1-
IH0- N-D
IY1- V-IH0-N</w>
AH0-G-EH1- N-S-T</w>
P -AY1-
K-L-AH1- B</w>
S-EH1- P-
F -AA1-R-
IH0-K- S-T-EH1-
S-T -IH0-NG</w>
N-T -IH1-
F- Y-UW1-
ER0-IH1- JH-AH0-N-AH0-L</w>
T-EH1- L</w>
S -IY0-
M- P</w>
-AY2- Z</w>
EH0- N-
K-AH0- N-D</w>
EY1- SH-AH0-N-Z</w>
D-R -AY1-
N-T -AH0-N</w>
L-EH1- S</w>
D -UH1-
HH-EH1- L-D</w>
M-UW1- V-D</w>
G-R -IY1-N</w>
D- W
-AW1- D</w>
P-R-AH0- F-EH1-
D-R -IH1-
V-EY1- L-AH0-B-AH0-L</w>
D-IY0- OW2</w>
CH -IH0-NG</w>
AE0- K-
NG- K-S</w>
F -AO2-R-
M -AH0-N-Z</w>
NG-G -ER0</w>
IH0- M-
Y-UW1-Z -IH0-NG</w>
AH0- V-EY1-L-AH0-B-AH0-L</w>
Z -EY1-SH-AH0-N</w>
M- Y-UW0-
B- Y-UW1-
T-AH0- D-EY1</w>
S-P -EY1-
AH0- F-EH1-
K-AH0- N-EH1-
G -AH0-L</w>
B-IH0- K-AH1-
S -EY1</w>
S-T-R -AH0-
IH0-M-P-AO1-R- T-AH0-N-T</w>
S-K-UW1- L-Z</w>
CH -IH0-Z</w>
AO1-L- W-EY2-Z</w>
B -IY2-
P- M-AH0-N-T</w>
CH -UW0-
IH1- F</w>
Y-UW0-N-AY1- T-IH0-D</w>
D-EH1- TH</w>
Y-UW 0
R-IH1- T-AH0-N</w>
D -AY0-
CH-AY1- L-D</w>
SH -IH0-
Y-AO1-R- K</w>
ER0 -AW1-N-D</w>
S-AH1-M- TH-IH0-NG</w>
OW1-P -AH0-N</w>
G -IH0-
-AH0-N- S-IY0</w>
T-R -AH1-
SH -IY0-Z</w>
S-T -IH0-D</w>
S-T -AY1-
DH -OW1-Z</w>
S-T-R -IY1-
R-IY1- S
L-EY1- K</w>
K-ER0-IH1- R</w>
EH2-R -IY0</w>
N -AA0-
AO1- F-
S-P-IY1- SH-IY0-Z</w>
K-AH0-M-Y-UW1-N-AH0- T-IY0</w>
-IY0 -AH0-M</w>
IH1- N-D-AH0-
SH-ER1- T</w>
HH- W-AY1-L</w>
L-Y -AH0</w>
M-AE1- N-IH0-
W-ER1- K-T</w>
B -D</w>
R-IY0-L-IY1- S-T</w>
F-AO1-R- M-ER0</w>
AH2- N-D-ER0-
W-ER1- K-S</w>
M -AO1-
R -AH0-N-
B-IH0- K-AH1-M</w>
M-P -AH0-
S-UW1- N</w>
L- T-AH0-
AW1-T- S-AY1-D</w>
-IH2- NG</w>
-AO1- NG</w>
D-IH0-S- K-R-AY1-
V-EH1- R-IY0-AH0-S</w>
K- W-AA1-
IH0- M</w>
- OW2-
AE1- D</w>
P-L-EY1- S-T</w>
L- D-ER0</w>
K -AY1-
R- OW0</w>
EH1-V-R -IY0</w>
T-ER1- M</w>
SH -AH0-L-IY0</w>
K-AH0-N- S-T-R-AH1-
P-EH1- N-D
K-ER1- AH0-
K -UW1-
AH0-M-AH1- NG</w>
V-IH1- L-IH0-JH</w>
AA2- P-ER0-
D -EY2</w>
S-AH1-M- T-AY2-
L-IH1- S-T</w>
L-AE1- NG-G-W-IH0-
G-L -AE1-
B-IH0- L-IY1-
T-R-AH0- D-IH1-
P-R-AH0-D-UW1- S-T</w>
N-Y -AH0-N</w>
K -AA0-
EH1- M</w>
-AO2-R- T</w>
S-ER1-V -AH0-S</w>
L -R
S-AY1- T</w>
P-OY1- N-T</w>
W-AY1- F</w>
F-R-AH1- N-T</w>
AH0-M-EH1-R-IH0- K-AH0-N</w>
S-EH1- K-AH0-N-D</w>
F -UW1-
Y-UW1-ZH -AH0-L-IY0</w>
N-AE1-SH- N-AH0-L</w>
S-IH1- K-S</w>
S-EH1- N-T-R
ZH -AH0-N-Z</w>
W-IH1- N</w>
K-AH0-N- T-R-OW1-
DH -ER0-
W-AH1- N-S</w>
SH -AH0-N
K- SH-AH0-N-Z</w>
IH0-N-K-L-UW1- D-IH0-NG</w>
W-IH1- M-AH0-N</w>
W -AY1</w>
B-R -EH1-
TH-IH1- N</w>
G- N
AH0- T-AE1-
-ER0 -AY1-
S-P -AO1-R-
T-R -IY1-
-AO2-R -IY0</w>
SH -IY1-
B-R -AY1-
L-AH1- V</w>
-EY1- SH-AH0-N-Z</w>
S-AH1-M-T-AY2- M-Z</w>
F- S</w>
K-EY1- SH-AH0-N-Z</w>
DH-AE1- T-S</w>
B-R -AO1-
P-R -AE1-K-
P -UW1-
S-EH1-V -ER0-AH0-L</w>
S-AH0- B-AH0-L</w>
G-OW1- IH0-NG</w>
B-IH0- G-AE1-N</w>
Y-UH1- R-AH0-
M- S-EH1-L-F</w>
HH-IH0- M-S-EH1-L-F</w>
L -AO1</w>
JH -OW1-
F-UH1- T-B-AO2-L</w>
N-SH -AH0-L-IY0</w>
L -UH1-K</w>
S-IH1-NG-G -AH0-L</w>
R-IY0 -AH0-N</w>
K- T-ER0-Z</w>
F-IY1- L-D</w>
K-AH0-N-T-IH1-N-Y-UW0- D</w>
B-ER0- G</w>
OW2- N</w>
B-R-IH1- T-IH0-SH</w>
B -UW1-
N-S -AH0-L</w>
B -AO1-L</w>
S-AH0- B-
M-OW1- S</w>
EH1-V-R -IY0-
D-IH0- V-AY1-
AH0- P-AA1-
AH0- W-EY1</w>
K-AH1-V -ER0-D</w>
S- F-AH0-L</w>
EH1- N-IY0-
S-K -EH1-
P-L -AY1-
JH-AH0- S-T</w>
G-IH1- V</w>
R -AH0-N</w>
M-AH1- DH-ER0</w>
M -AA0-
T -UW2-
K-W -AH0-N-T-L-IY0</w>
-U H0-
L-AY1- T</w>
HH-IH0-S-T-AO1- R-IH0-
D-AH1- K-SH-AH0-N</w>
-IY0 -AH0-S</w>
G-R -EH1-
W-AO1- K-IH0-NG</w>
S-T-UW1- D-AH0-N-T-S</w>
P-AE1- S-T</w>
N- S-
D-UH1- R-IH0-NG</w>
-EH2-R -AH0-
N-AH0- T</w>
L- D-
V -EY1-SH-AH0-N</w>
T -EH0-K-
L-AH1- N-D-AH0-N</w>
K- Y-AH0-L
D -IY0-Z</w>
B-EH1- T-ER0</w>
S-IH1-M-AH0- L-ER0</w>
K-AE1- N-AH0-
IH1- SH
SH -OW1-
IH2- N-D-IH0-
M-AA1- D
T-ER1- N</w>
P-L -AH0-
K-R -EH1-
S-AO1- NG-Z</w>
S-IH1- T-IH0-NG</w>
NG- T-AH0-N</w>
M-OW2- S-T</w>
Z -ER0</w>
S-IY1- Z-AH0-N</w>
R-IY0 -AH0</w>
EH1- N-JH
D-EY1- Z</w>
EH1- V-ER0</w>
R-IH0- S-IY1-V-D</w>
TH -IH2-NG</w>
L-AE1- S-T</w>
TH -L
AY0- D-IY1-
N-UW 1</w>
DH-AE1- N</w>
B-R -AW1-N</w>
V-ER1- ZH-AH0-N</w>
T-IH0- K-S</w>
D-ER1- IH0-NG</w>
W-IH1- L-Y
R-AA1- K</w>
IH0-N-K-L-UW1- D-IH0-D</w>
S-IY1- T</w>
B-IH1-Z- N-AH0-S</w>
AO0- S-T-R-EY1-
N-T -IH0-NG</w>
L-IH0- T-IY0</w>
L-IH0- S-T</w>
L-EH1- K-SH-AH0-N</w>
-A Y2</w>
P-IH1- R-IY0
K-AH1-N-T-R -IY0</w>
AH1- S</w>
-AO1-R- D</w>
IH0-N- V-EH1-
S-IH0- V</w>
D-AH1- Z</w>
S-EH1- T-AH0-
K-AE1- P-
L- T-S</w>
W-ER1- K-IH0-NG</w>
S -AH0-N-
L-UH1- K-IH0-NG</w>
Z -AH0-N-Z</w>
T-EH1- K-
G-R -OW1-
B -AO1-
-IY0 -AH0-L</w>
IH0-K- S-P-EH1-
N-T -UW0</w>
K-IH0- T</w>
P-AH1-B-L-IH0- SH-T</w>
N-S -ER0</w>
K-AH0-M-P -OW1-
JH-EH1-N -ER0-AH0-L</w>
F-R-EH1- N-CH</w>
G -ER0</w>
S -AO1</w>
M-AH0- L-IY0</w>
D -AH0-M</w>
Z -ER0-
TH-R -UW0
TH-R-UW0 -AW1-T</w>
P-ER1- S-AH0-N</w>
-AH0- M-Z</w>
M -ER0-Z</w>
K-R -EY1-
K-AA1- N-T
IH0-N- V-AA1-L-
AH0- M</w>
Z-IH0- D-AH0-N-T</w>
G-AH1-V-ER0- M-AH0-N-T</w>
B-IY2- F-AO1-R</w>
V -ER0-Z</w>
T-AH0- S-T</w>
SH -IY0-
D-IH0- NG-Z</w>
AO 2-R-
TH-IY1- AH0-
S-T-AO1- R-IY0</w>
M-UW1- V-IY0</w>
S-ER1- V-AH0-
K -AO2-R-
-ER0 -AA1-
V-AH0- L-Z</w>
TH-ER1- D</w>
R-OW1- T</w>
P-AW1- ER0</w>
B-R -IY1-
V -IY0-
N -AO2-R-
S -AH0</w>
D-OW1- N</w>
-UW1- Z</w>
S-T -ER0-
B-AE1- K-
-AE2- N-D</w>
AH0-T-EH1- N-D-AH0-D</w>
P-EH1- R
P-AH0- L-IH1-
-EY2- T-IH0-NG</w>
W-IH0- TH-IH1-N</w>
N-D -ER0-D</w>
B-IY0- K-EY1-M</w>
-AY2- T</w>
T-R-IH1- B-
Z -IY1-
R-OW1- L</w>
K- T-ER0-
EH1-R-IY0 -AH0-Z</w>
AO1-F -AH0-S</w>
R -AH0-N-S</w>
G-EY1- M-Z</w>
R- OW0-
L-EH1- D</w>
L-AY2- N</w>
-U H2-R
R-IH0- P-AO1-R-
W-EH1- DH-ER0</w>
P-L-EY1- ER0</w>
G- N-IH1-
S-EH1- N-T</w>
P-R-AA1- B-L
N-Y -AH0-
W-EH1- S-T-ER0-N</w>
T-IH0- V-L-IY0</w>
IH1-NG-G-L -IH0-SH</w>
IH0- N-IH1-
HH-AE1- N-D</w>
P-L-EY1- Z</w>
P -AO2-R-T</w>
S-EH1-N-T-R -AH0-L</w>
N-IH0- SH</w>
K-AW1- N-S-AH0-L</w>
B-ER0- T</w>
S-EH1- K-AH0-N</w>
L-AE1- N-D</w>
L -EH2-
R-UW1- M</w>
F -AO1-R-AH0-
CH-EY1- N-JH</w>
M-IY1- N-Z</w>
AO1-F- T-AH0-N</w>
HH-EH1-L- P</w>
-AH2- N</w>
S-ER0- V-AY1-
L-AA1-R- JH-AH0-S-T</w>
AH0-P-AA1- N</w>
CH -ER0-
P-AH0- Z-IH1-SH-AH0-N</w>
OY1- Z</w>
Z -ER1-
S-T -AH0-N-S</w>
-AO1- N</w>
D- OW0</w>
AH1- DH-ER0-Z</w>
T-R-AE0-N- S-
S-T -ER0-Z</w>
S-P -OW1-
P-R-IH0- Z-EH1-
N-T-IH1- L</w>
EH1- L-AH0-
R-IH0- K-AO1-R-
N-SH -IH0-
AH0- N-T-IH1-L</w>
SH-AO1-R- T</w>
M- OW0-
IH2-N-D-IH0- P-EH1-N-D
-ER0- L-IY0</w>
K-EH1- R-AH0-
JH-IH0- S-T</w>
F-ER1- D</w>
D-AO1- T-ER0</w>
N-EH1- K-S-T</w>
IH1-NG-G-L -AH0-N-D</w>
B-AH0- L-Z</w>
Z -L
B-R-AH1- DH-ER0</w>
T-AH0- K-AH0-L</w>
W -EH2-R</w>
IH0-N-K-L-UW1- D-Z</w>
T -AO2-R-IY0</w>
F-L -EH1-
AH0- F-IH1-
S-EH1- V-AH0-N</w>
JH-EH1-N -ER0
D -AH0-N-S</w>
W-ER1- D</w>
P-R -OW0-
P-AA2- P-
K-L -EY1-
K-EY1- S</w>
K- W-EH1-
IH2-N-T-ER0- N-AE1-SH-AH0-N-AH0-L</w>
G -AH0-N
CH -ER0-AH0-L</w>
AH0- K-R-AO1-S</w>
R-IH0- SH</w>
S-P -ER0-
OW2- Z</w>
K-AE2- L-AH0-
R-EH1- G-
L -ER1-
K-AH0- M-AE1-
S -EH0-
R-IY1- JH-AH0-N</w>
R-AH1- N</w>
M-P-L -AH0-
K-AO1-R- T</w>
R- F
Y -AO1-R</w>
R-AH0- K-AO1-R-
D -AW1-
B-IH0- G-IH1-
CH -UW0
P-IH1-R-IY0 -AH0-D</w>
N- SH-AH0-L</w>
K-R -AE2-
AH0-P-IH1- R-D</w>
Y-UW1- S</w>
IH0-N- K-R-IY1-
F-IY1- CH-ER0-Z</w>
D -IY0-AH0-N</w>
K-AA1- N-S
N- T-
-AE2- K</w>
NG -L-IY0</w>
S-T-AH0- M-Z</w>
L-AH0- T</w>
K-IH1- NG</w>
TH -AO1-T</w>
S- W-IY1-
P-R-AA1- D-AH0-
JH-IH0- K-AH0-L</w>
IH0-N-T -AY1-
F-ER1- DH-ER0</w>
-AW2- N-D</w>
T-AW1- N-SH-IH0-
T-AH0- L-Z</w>
S-T-AE1- B-L-IH0-
JH-EH0- K-T</w>
D-IH0- F-EH1-
S- K-AH0-
V-IH1- D-IY0-
P-R-IY1- V
P-AH0- N-D</w>
N -EH2-
-ER2- K</w>
-AH0-L -AA1-
W-AA1- N</w>
K- T-IH0-V</w>
L-EH1- T</w>
K-AE1- N-T</w>
JH -ER0-Z</w>
B-L -AA1-
AA0- R-
-AH1- S</w>
Y-UW1- N-IH0-
S-ER1- CH</w>
P- SH-AH0-N</w>
D-R -AA1-
IH0-G-Z-AE1- M-P-AH0-L</w>
W-IH0- DH-IH1-
W-IH0-DH-IH1- N</w>
M-AA1-D -ER0-N</w>
K-AH0-M-P-L -IY1-
D-R -AH1-
D-IH0-V-EH1-L-AH0- P-T</w>
S-T-AH1- D-IY0-
R-EH2- P-R-IH0-Z-EH1-
M-AH0- N-D</w>
AA1-R- T</w>
V -AH0-N-
S-AH1-B- S-AH0-
L- F</w>
B-UH1- K-S</w>
V-OY1- S</w>
N-IH1- R-
N-AH0- L-Z</w>
D-IH0-Z-AY1- N</w>
D-IH0-V-EH1-L-AH0- P-M-AH0-N-T</w>
-AW2- N</w>
S-K -IH1-
N -EY2-
K-AE2-L-AH0- F-AO1-R-
K-AE2-L-AH0-F-AO1-R- N-Y-AH0</w>
D -IY0-AH0</w>
SH -ER0</w>
V-IH2- ZH-AH0-N</w>
D-IH0- S-T-IH1-
N-EH1- K-S</w>
JH-AH0- Z</w>
-AO1-R-AH0- T-IY0</w>
T-R -AA1-
P -ER0-Z</w>
EY1- T</w>
S -ER0
P-R-EH1- Z-IH0-D-AH0-N-T</w>
N-AH1- TH-IH0-NG</w>
V-IH1- ZH-AH0-N</w>
T-EY1- B-AH0-L</w>
K- W-AY1-T</w>
B-AO1-R- D</w>
K-AO1-R- S</w>
P-R-OW1-G-R-AE2- M</w>
M-IY1- D-IY0
M-AH1- N-TH
K-L -EH1-
-AW 0-
N-S-IH0- V</w>
JH-ER1- M-AH0-N</w>
G-IH1- T</w>
T-AY2- M</w>
K -AE0-
HH -AO1-
-AO1-R- Z</w>
G-EY1- V</w>
-IH0- K-AH0-L</w>
S -ER1</w>
AH0- B-AH1-
B-AA1- D-IY0</w>
HH-EH1- D-
HH-AY1- N-D</w>
Y-AH0-L -EY1-SH-AH0-N</w>
F-UW1- D</w>
F-R -IY1</w>
F-EY1- S</w>
W-IH0- DH
S-T-AE1- N-D</w>
M -EH0-
HH-AW 2-
IH1-N- F-L
AO2- L-
-IY 2</w>
T-R-AE1- K</w>
T-AW1-N-SH-IH0- P</w>
F-L -AY1-
D-AH1- N</w>
AH0- K-
-IH0- N</w>
P-EH1- R-AH0-
EH2- JH-AH0-
M-AH0- T-IH1-
AO1-R- D-ER0</w>
V- M-AH0-N-T</w>
K-AA1- M-AH0-N-
K -UH1-
T-EH1-L-AH0- V-IH2-ZH-AH0-N</w>
N-AO1-R- DH-ER0-N</w>
K-AA2- M-P-AH0-
G -ER0-
B-IH1- L-
R-IY0- K-W-AY1-
R-IY0- L-EY1-
P-ER0- T-IH1-
B-EH1- R-IY0-D</w>
AH0-D-IH1- SH-AH0-N</w>
TH-IH1- NG-Z</w>
G- Y
F -IY2-
AY1- L</w>
AO1-L- M-OW2-S-T</w>
N-IH1-R- B-AY1</w>
V-IH2- L</w>
T -IY0-
EY1- EH1-M</w>
B-IH0- HH-AY1-N-D</w>
F-AO1-R- M-D</w>
F-UH1- L</w>
-UW 2</w>
K-EH1- R-IH0-
B-IY1- CH</w>
AH0- K-AO1-R-
R-EY1- L-
P-UH1- T</w>
N-S -AH0-N</w>
M-EH1- N-T-AH0-L</w>
V -AH0</w>
R-AH1- N-IH0-NG</w>
F-AY1- N-AH0-L</w>
B-IH1- G</w>
AE1- D-
P-AH0-L -IY1-
V-IH1-D-IY0- OW0</w>
T-AY1- T-AH0-L</w>
S-T -ER0-IY0</w>
D-IH0-Z-AY1- N-D</w>
AO1- R-AH0-
O Y2-
M-AH0- T</w>
F-ER0- M-EY1-SH-AH0-N</w>
M-ER0 -AH0-S</w>
M -AY2-
DH -AH1-S</w>
IH0- S-T-AE1-B-L-IH0-
N-T H</w>
M-P -ER0-
L -IY0-Z</w>
HH- W-EH1-R</w>
F-R -EY1-
K -EY0-
G-N-IH1- F-IH0-
S-AH0- S-AY1-AH0-
HH -AH0-Z</w>
-EY2- T-S</w>
AH1- N-D-ER0-
-AA 1</w>
S -AH0-N-Z</w>
T-EH1- N</w>
K-AH0-M- P-Y-UW1-
K- Y-AH0-L-ER0</w>
IH0- F-EH1-
HH-IH1- L</w>
B-R -AH0-
N-AH0- M-IY0</w>
EH1-R- P-AO2-R-T</w>
N-D -IY0</w>
AO1- F-AH0-
T-IH0- V-Z</w>
T -IY1-N</w>
ER0 -AY1-
TH-IH1- NG</w>
S-IH1- S-T-AH0-M-Z</w>
N- OW0-
G-R-UW1- P-S</w>
D-IH0- P-AA1-R-
S-AH0-P-AO1-R- T</w>
AY0- D-EH1-
L-AH0-N- D-Z</w>
D-IH0-S- K-AH1-
L-AE1-NG-G-W-IH0- JH</w>
F-IH1- F-
D-IH0-S-K-R-AY1- B-D</w>
T-R -UW1-
S-T-R -EH1-
G-AH0- N-AH0-
JH -AH0-N
HH -AO1-L</w>
-ER0 -AE1-
N -AW1-
M- P-S</w>
K-ER1-AH0- N-T</w>
K- OW0</w>
HH-OW1- L-D-IH0-NG</w>
F-EY1- M-AH0-S</w>
-AA 2-R
S -AW2-
EH0- K-
N-AE1- CH
IH1- N-T-ER0-
B-R -OW1-
AA 2-R-
Y-EH1- L-OW0</w>
S- L-IY1-
T-EY1- K-AH0-N</w>
D-EY1- V
S -AW1-N-D</w>
M-AH0-N -AH0-N-T</w>
AH0- P-R-OW1-
S-T-EY1- JH</w>
B -AA2-
S-P-IH1- R-IY0
S-IH1- NG
L-IY1- G</w>
Z -AA1-
R-IH0- S</w>
- S</w>
G-R -UW1</w>
G-R -AW2-N-D</w>
CH-EY1-N-JH -D</w>
S-AH1- DH-ER0-N</w>
SH -IH0-NG</w>
N -IY0-AH0</w>
L-EH1- V-AH0-L</w>
- OY1-
W-IH1- N-D-
S- K-R
JH-EH1-N-ER0 -AH0-L-IY0</w>
V-AE1- L-
M -AA2-
K-AH0-N-T-R-OW1- L</w>
T-AA1- P</w>
R -IY2
D-AH0- S-T</w>
AO1- TH
AE0-K- T-IH1-
W -AH2-N</w>
T-R -IY0</w>
T-R -IH0-K</w>
S-T -AE2-
IH0-K- S-P-IH1-R-IY0
S-T-AY1- L</w>
S -IY0-Z</w>
P -EY2-
L- T-IY0</w>
M-P- L-OY1-
M-EY1- K-S</w>
M-AH1-N-TH -S</w>
IH0- S</w>
M-AH1- N-IY0</w>
L-AY1- Z</w>
T -ER0-D</w>
SH -AH0</w>
P-R-AA1- P-ER0-
N- M-AH0-N-T</w>
V -AH0-T</w>
S-AY2- D</w>
N -IY0-AH0-N</w>
L-IH1- V-D</w>
L-AO1- NG-
HH-AE1- F</w>
R-EH1- L-AH0-
S-CH -AH0-N</w>
N-T -EY1-
K-IY1- P</w>
W-IY1- K</w>
P -AH0-N
N-UW1- M-ER0-AH0-S</w>
K-AA2- N-
CH-AE1- M-P
S-T-AH1-D-IY0- D</w>
K-AH1-M-P-AH0-N -IY0-Z</w>
HH-OW1- L</w>
-IY0 -AH0-N-Z</w>
-AH0-N- L-IY0</w>
K-AH0-N- D-IH1-
HH- OW2-
R-IY0- ER0</w>
P-L-AY1- D</w>
SH-UH1- R</w>
K-AE1- P-AH0-
AY1- Z</w>
T-IH1- P-IH0-
K-AH0-N-S-T-R-AH1- K-SH-AH0-N</w>
B-IH0-K-AH1- Z</w>
R-IH0-Z-AH1- L-T</w>
F-AO1-R- M-Z</w>
S-UW 2-
S-AH0- P
OY1- L</w>
B-IH1- L-AH0-T-IY0</w>
T-AY1- P</w>
OW 0
V-IH1- Z-IH0-
HH-AE1- V-IH0-NG</w>
V -EH2-
S-T -IY0</w>
K- T
P-AH0-L-IY1- S</w>
NG- K-T</w>
JH-AO1-R- JH</w>
D-IH2- S-AY1-
-AY2- N</w>
W-IH0-DH -AW1-T</w>
SH -OW1-Z</w>
R- OY1-
IH0-V-EH1- N-SH-AH0-L-IY0</w>
AE1- N-
S-ER0 -AW1-
W -UH2-D</w>
NG- K-IH0-NG</w>
EY1- JH</w>
L-AH0- S-T</w>
HH -AE2-
F-AA1-L-OW0- D</w>
AH1- P-
AA1-R- M-IY0</w>
-AH0-N- S-IH0-Z</w>
M-IH1- SH-AH0-N</w>
K-AH0-N- T-EH1-
AH0- S-EH1-
S-IH1- F-IH0-K</w>
M -EY0-
M -EH2-R-IY0</w>
K-R -AA1-
K-EH1-R-IH0- K-T-ER0</w>
K-AH0- S</w>
S-IH0- K-
M-EH1- N-
K-AA1- N-T-R
AO2-L- DH-OW1</w>
W -ER0-
JH -IH0-NG</w>
W-AY1- D</w>
JH-OY1- N-D</w>
R-IH0- T-ER1-N-D</w>
N-CH -AH0-L</w>
N-AE1-CH -R
L-EY1- T-IH0-D</w>
F-IY2- L-D</w>
AY1- V</w>
-UH2-R -AH0-
SH-AH0- N-D</w>
K-AH0- M-ER1-
G -AH0</w>
F-IY1- CH-ER0-D</w>
-IY0-AH0- S-L-IY0</w>
Y-EH1- T</w>
W-IH1-L-Y -AH0-M</w>
S-T-EH1- D</w>
F-IY1- M
P-OW1- Z-D</w>
N-Y -ER0</w>
IH1- N-JH
F-AH0- S-IH1-
F-AE1- M-AH0-L-IY0</w>
W -ER0-D</w>
K-AH0-N-T-EY1- N-Z</w>
T-R -EH1-
P-OW1- AH0-
AH0- K-EY1-
IH2- N-D-AH0-
IH0-N- S-T-EH1-D</w>
R-IY0 -AH0-
SH -R
S-AH0-S-AY1-AH0- T-IY0</w>
R-EY1-L- W-EY2</w>
P-L-EY1- ER0-Z</w>
M -AA2-R-
L-IH1- V</w>
K-AO1- L</w>
G -AY1-
AH0- T-IY0</w>
M-AW1- N-T-AH0-N</w>
IH2- N-T-R-AH0-
B-R-AO1- D-
G-R -IH1-
B-R-IH1- JH</w>
Z -AH0-N-
S-T-R -AE1-
JH-EY1- M-Z</w>
EY2- T-AH0-D</w>
-AA2- N</w>
R-EY1- Z-D</w>
L-IH1- V-Z</w>
K-R-AE2- F-T</w>
R-IH0-M-EY1- N-Z</w>
R-EY1- D-IY0-OW2</w>
R -ER0</w>
P-ER0-F-AO1-R- M-D</w>
AH0-B-AH1- V</w>
AA1-R- T-IH0-
S-T -OW1-
S-EH1- N-T
IH0-K- W-IH1-
R-EY1- N-JH</w>
B-EY1- S</w>
S -ER0-Z</w>
L-AY1- B-R
I Y2-
EH2-JH-AH0- K-EY1-SH-AH0-N</w>
D-UW1- S-T</w>
N-UW1- Z-
N-T -EH1-
JH-AH0- W
F-R -AH0-
F -AO0-R-
S-T -AH0-N-T</w>
S-P-AY1- T</w>
R-AH1- N-Z</w>
K-AH0- L-IY0</w>
IH1- N-T-UW0</w>
S-K -IY0</w>
M-B -ER0-
TH -IY0</w>
DH -AH0-
V- Y-UW1-Z</w>
T- S-
P-R-AY1- V-AH0-T</w>
L- T-AH0-N</w>
G-ER1- L-Z</w>
F -ER1</w>
T-EY1- K-S</w>
T -IH2-
OW1- N-D</w>
AH0- S-OW1-
P-EH1-R -AH0-N-T-S</w>
HH-ER1- D</w>
F-AA1- R</w>
AA1- B-
V-ER0- IY0</w>
P-R-AY1- M-EH2-R-IY0</w>
K-AH0- N-AA1-
K-AE1-P-AH0- T-AH0-L</w>
V-AE1- L-IY0</w>
TH- S</w>
P -AA0-R-
L-OW1- N</w>
K- SH
HH -ER0-
R-EY1- S</w>
L-AY1- V</w>
K-AH0- L-EH1-K-
K-AA1- M-P-L
K- OW0-
K -AH0-N-Z</w>
IH1-N-F-L -UW0
W -OW1-
P-R-UW1- V-D</w>
P -IY0-
N-EH1- T-W
F-R-EH1- N-D</w>
S-P-EY1- S</w>
P -EH2-
M-IH1- D-AH0-L</w>
ER0 -AW1-N</w>
AY1- ER0-
V- Y-UW1</w>
T -AO1-R-
S-AH0- L
R-IY2- P-L-EY1-S-T</w>
N- Z-
TH-IY1-AH0- T-ER0</w>
S-P -AH0-
IH2-N- F-ER0-M-EY1-SH-AH0-N</w>
IH1-N-D-AH0- S-T-R-IY0</w>
G- OW2</w>
AE1-K- T-IH0-V</w>
M -IY1-N</w>
P-R-AA1- JH-EH0-K-T</w>
P-L-EY1- L-IH0-S-T</w>
P-L-AE1- T-
M-AE1- T-IH0-K</w>
G-AH0- Z
S-OW1- SH-AH0-L</w>
JH -AE2-
AE0- D-
T-IY1- M-Z</w>
L -IH2-
K-AH1-N-T-R -IY0-Z</w>
K-AH0-M-P -EH1-
B-R -UW1-
B-L -AH1-
W-ER1- D-Z</w>
S -IH0-K</w>
G-R -AW1-N-D</w>
D -AH0-N
AH0-D- V-AE1-
-E Y0</w>
P-AH0- L-Z</w>
M-EH1- T</w>
IH2-N-D-AH0- V-IH1-
HH-IH1- S-T-ER0-IY0</w>
ZH -ER0</w>
SH -UW1-
S- K-AE1-
P-AA1- S-AH0-B-AH0-L</w>
NG- K-SH-AH0-N</w>
IH2-N-D-IH0-P-EH1-N-D -AH0-N-T</w>
SH -AH0-N-
S -AH0-N-T</w>
D-R -AE1-
-AH0-N- S-T</w>
W-IH1- L-
K-L-AE1- S</w>
-EY2- S</w>
Y -UH2-R-AH0-
S-OW1- L-
S-M -AO1-
S-AH0- L-UW1-
M-AY1- T</w>
S-OW1- L-D</w>
M-EH1- D-AH0-
AO0-S-T-R-EY1- L-Y-AH0</w>
OW 2
N-AA1- L-AH0-JH-IY0</w>
K-AE1-N-AH0- D-AH0</w>
W-IH0- TH
TH-IY1- S-T</w>
S-P-EH1- SH-AH0-L</w>
R-EH1- Z-IH0-
W-IH0-TH -AW1-T</w>
T-AH0- M</w>
HH -AH0-
T -AA1-R-
IH1-SH -UW0-
Y-EH1- S</w>
T-R-EY1- N</w>
P-AA2-P- Y-AH0-L-EY1-SH-AH0-N</w>
M-AE1- G-AH0-Z
D-IH0- S-T-R
CH -IY0</w>
AE0-K-T-IH1- V-IH0-
S-EH1-L- V-Z</w>
S-AH0-K-S-EH1- S</w>
S-AH0- G-
M-EY1- L</w>
IH0-N-V-AA1-L- V-D</w>
M -AH2-
L-AH0- T-IY0-Z</w>
F-L -AW1-
S-IH1- L-
OW1- L-D-ER0</w>
N -AH0-N</w>
M- B-R
IH1- N-T-R-AH0-
S-IH1- G-
T-IH1- SH-AH0-N</w>
L -UW0-
IH0-K-S- P-R-EH1-
T-AA1- R</w>
L-EY1- T</w>
AY0-D-IY1- AH0</w>
P-L-AE1-T- F-AO2-R-
P-AA1-R- T-S</w>
M-AH0- K-
L-AH0- M</w>
K-R-IY0-EY1- T-IH0-D</w>
K-IH1- NG-
IH0- M-IY1-D-IY0
HH-AA1-R- T</w>
-AE2- K-T</w>
S-IH0- K-AH0-L</w>
S- P-R-IH1-
M-AY1- N-D</w>
JH-AH0- N-AH0-L-IY0</w>
HH-AW2- S</w>
EY1- JH
K-W-IH1- K-L-IY0</w>
ZH -AH0</w>
F-IH1- Z-IH0-
T-R-AH0-D-IH1- SH-AH0-N-AH0-L</w>
S-T-R-AH1- K-CH-ER0</w>
AH0-F-IH1- SH-AH0-L</w>
AH0- K-ER1-
K-IH1- L-D</w>
EH1- P-AH0-
D-IH0- S-P-AY1-T</w>
D-IH0- G-R
T-R-IH1-B- Y-UW0-
R-IY0-L-IY1- S</w>
IH0-K- S-P-AE1-
HH -UW1-
S- L
M-EY1- N-L-IY0</w>
M-EY0- N-T-EY1-
SH -IH0-Z</w>
S-T-R -AY1-
R-F -AO2-R</w>
M-IH1- S-T-ER0</w>
M-EY1- K-IH0-NG</w>
M-AH1- L-T-AH0-
M-AH0- N-IY0</w>
F-IH1- G-Y
DH-EH1- R-F-AO2-R</w>
V-EH1- N-
SH -AA1-R-
S-IH1- T-IY0-Z</w>
P -AO1-L</w>
L- OW2-
N -IH0-S</w>
AH0- T-R-AE1-
N-IH0- SH-T</w>
N -ER1-
M-AE1- N-AH0-
AO2-R- G-AH0-N-AH0-
S-AH1- N-Z</w>
S-AH0-K-S-EH1- S-F-AH0-L</w>
M- Y-UW2-
S-EH1- P-T</w>
S-EH1- M-AH0-
S-AH0-G- JH-EH1-
S- L-AY1-
K-AE1- T-AH0-
-AA2- R</w>
S-ER1- T-AH0-N</w>
S-AH1- M-ER0</w>
P-R-IH1- N-S-AH0-
M-IY1- T</w>
K-AH1-L- CH-ER0-AH0-L</w>
AH0-P-IH1- R-Z</w>
-EH0- K-S</w>
W-AO1- L</w>
D-AY0- R-EH1-
SH-AE1- L</w>
S-AH1-B-S-AH0- K-W-AH0-N-T-L-IY0</w>
P-AA1- Z-AH0-
M-AA1- D-AH0-
K-L-OW1- Z-D</w>
F-AH0- K-EY1-SH-AH0-N</w>
D-IH2-S-AY1- D-IH0-D</w>
R-AY1- T-IH0-NG</w>
AH0-K-AO1-R- D-IH0-NG</w>
Z -AH0-Z</w>
Y-UH1-R-AH0- P</w>
F-AO1-R- S</w>
B -AW1-
S-IH1- K-
R-IY1- L</w>
R -AW1-N-D</w>
N-IH0- K-AH0-L</w>
ER0-IH1- JH-AH0-N-AH0-L-IY0</w>
Y-UH2-R-AH0- P-IY1-
P-R-AH0-F-EH1- SH-AH0-N-AH0-L</w>
P-L -IH1-
P-L -EH1-
K-AH1- P-AH0-L</w>
K -AH0-N-T</w>
G-IH1- V-IH0-N</w>
B-AE1- T-AH0-L</w>
R-IH0-M-EY1- N-D</w>
N -IY1-Z</w>
HH-AA1-R- D</w>
G- OW0</w>
F-AH0- K-AH0-
D -AO1-R</w>
B-R -AO1-T</w>
S-T -AH0-L</w>
-AY2- L</w>
W-AO1- T-ER0-
S-T-AH0- T-UW2-
S-AY1- N-D</w>
S- L-OW1-
M-IH1- L-AH0-
K-W -AH0-
K-AA1-N-T -EH0-
IH0- T-
F-AE1- K-
EY2- T</w>
S-ER1- V-Z</w>
P-IY1- S</w>
M-AW1- N-T</w>
M- B-AH0-L</w>
M -IY0-
L -IH0-K</w>
B-IH1-L- D-IH0-NG-Z</w>
B-IH0- L-OW1</w>
AW1- ER0</w>
-AA2- N-T</w>
S- M-AY1-
N-S -IH0-Z</w>
EY1- B-AH0-L</w>
D-IH1- F-AH0-K-AH0-
S-AE1- N</w>
R-OY1- AH0-L</w>
N-EY1- T-IH0-V</w>
HH-EH1- R</w>
D-AA1- K-T-ER0</w>
V -ER0-AY1-
N-AH0- S-T</w>
JH-EH1- N-
-AO2-R -D</w>
TH- W-EH1-S-T</w>
M -AH0-N-S</w>
IH0-S-T-AE1-B-L-IH0- SH-T</w>
-IH0- K-S</w>
V-IH1- L-AH0-
S-ER1-V-AH0- S-AH0-Z</w>
N-UW1-Z- P-EY2-
M- P-T</w>
IH0-T- S-EH1-L-F</w>
EH1-N-JH -AH0-N-IH1-
T-OW1- L-D</w>
T -EY2-
M-AO1-R- N-IH0-NG</w>
AH0- S-OW2-
S-AY1-AH0- N-S</w>
P-ER0-F-AO1-R- M-AH0-N-S</w>
D-AA1-R- K</w>
AO1- N-
P-EY1- P-ER0</w>
L-IY1- S-T</w>
IY1- S-T-ER0-N</w>
- OW0</w>
Y -ER0-Z</w>
HH-IH1- S-T-R-IY0</w>
EY1- N-JH
P-R -AY0-
N-D -AH0</w>
L-UH1- K-T</w>
B -EY1</w>
S-T-AA1-R- T</w>
L-AO1- S</w>
K-AH1- V-ER0</w>
F-IH1-L- M-Z</w>
D-UW1- IH0-NG</w>
-AY2- D</w>
TH -AE1-
JH-AE2- P-AH0-N
JH- M-AH0-N-T</w>
HH -UH2-D</w>
M-IY1- D-IY0-AH0</w>
M-AE2- N-Y-AH0-
K-AA1-M-AH0-N- L-IY0</w>
IH0- M-P-L-OY1-
D-IY0 -AH0-M</w>
Y-UW1- N-Y-AH0-N</w>
S-T-AA1- P</w>
P-R-AH0- M-OW1-
N-EY1- M-Z</w>
G -UW1-
Z-IH1- SH-AH0-N-Z</w>
W-AH1- T-S</w>
V-AH0-L -UW1-
S-AO1-R- S</w>
M-EH1-R-AH0- L-IY0</w>
L-AY1-B-R -EH2-R-IY0</w>
HH -EH2-
K -IY1</w>
G-OW1- L-D</w>
EH1-N-IY0- TH-IH2-NG</w>
-IY2- Z</w>
T-AW1- N-Z</w>
S-IH1- S-T-ER0</w>
JH-AE2-P-AH0-N -IY1-Z</w>
D-IH1- R</w>
R-AY1- T-S</w>
B-EY1- S-
T-EH1- R-AH0-
T -IY1</w>
T -AH0-N-Z</w>
S-EH1-M-AH0- T-EH2-R-IY0</w>
L-OW1- ER0</w>
K-AW1- N-IY0</w>
K -EH2-R-AH0-
G-IH0- T-AA1-R</w>
F-R-AE1- N-S</w>
Y-UH2-R-AH0-P-IY1- AH0-N</w>
M-AA1- D-AH0-L</w>
K-AH1- M-Z</w>
HH-AA1- S-P
F- L-OW1-
B-R -AA1-
AH0-W-AO1-R- D</w>
S-AH1-B- JH-IH0-
N-IY1- K</w>
IY0- V-EH1-
F -AH0-N
EH1-R- K-R-AE2-F-T</w>
-AY2 -AH0-
Z -AH0-L</w>
S-EH1- N-CH
P-R-AY0- M-EH1-R-AH0-L-IY0</w>
P-R-AH0-V-AY1- D-Z</w>
M-UW1- V-M-AH0-N-T</w>
M-EH1- R-IY0</w>
K-L-IH1- R</w>
S-T -ER1-
N-AE1-CH-R -AH0-L</w>
M-Y-UW1-Z -IH0-K-AH0-L</w>
K-AH0-N-S-IH1- S-T-S</w>
N-AY1- N</w>
F -ER0
AA1-R- K-AH0-
T-R-EY1- N-IH0-NG</w>
S-P-EH1- N-T</w>
R-EH1- S-T-R
AE1-K- S-EH2-S</w>
Y-UW0 -AH0-L</w>
T-R-AE1- K-S</w>
G -EY1-SH-AH0-N</w>
F-AO1-R-AH0- S-T</w>
S-T-R -AO1-NG</w>
S-P-EH1- SH
P-L-EY1- N</w>
L-IH1- V-IH0-NG</w>
K-R -UW1-
IH0- SH</w>
EH1-P-AH0- S-OW2-
B -AH0-L
AE1- K-SH-AH0-N</w>
P-ER0-EY2- T-IH0-D</w>
K-AE1- M-P
HH- OW0-
F-L -IY0</w>
S-K-EH1- JH-UW0-
L-OW0- K-EY1-SH-AH0-N</w>
HH-AY1- L-IY0</w>
D-IH0- F-IY1-
AH0- P-OY1-
-IY0 -AH0-T</w>
S-T-AE1- N-D-Z</w>
N-D -AH0-L</w>
D-IH0- L-IH1-
AH0- G-EY1-
AA1-R- G-
-UW 2
N -AH0-N-T</w>
M-UW1- V</w>
K-Y-AH0- P
F-IY1-M -EY2-L</w>
F-IY1- CH-ER0</w>
EH1- JH-AH0-
T-R-EY1- D</w>
S-EH1- K-SH-AH0-N</w>
P-R-EH1- Z-AH0-N-T</w>
P -AE2-
IH0- L-IH1-
AE1-F- T-ER0-
S-AH0- L-Z</w>
N-D -ER0-Z</w>
N- W
L-AO1- NG-G-ER0</w>
K-T-ER0- IY0</w>
K-AH1- L-ER0</w>
N-AA1- V-AH0-L</w>
K-AE2- S-T</w>
HH- W-AY1</w>
G-N-IH1-F-IH0- K-AH0-N-T</w>
AA1-R-K-AH0- T-EH2-
P-L-AE1- N-T</w>
M-IH1-L-AH0- T-EH2-R-IY0</w>
L-IY1- V</w>
D-IH0- V-IH1-ZH-AH0-N</w>
B- OY1-Z</w>
T-EH0-K- N-AA1-L-AH0-JH-IY0</w>
S-IH1- V-AH0-L</w>
K-S-AH0- S</w>
EH2- K-
AA1-P-ER0-EY2- T-AH0-D</w>
N-JH -AH0-L
N-AH1- F</w>
P-L -AY1</w>
P-AA1-R- T-
K-AH0-N- S-ER1-
D-IH0- Z</w>
CH -AH0-Z</w>
T- OW0-
SH -AH1-
NG-G -AH0-
G-R -IH0-
AH0- TH
R-IY0- OW0</w>
R-EH1- K-AH0-
N -IY0-Z</w>
K-L-OW1- Z</w>
K-AH0-M-ER1- SH-AH0-L</w>
IH0-V-EH1- N-T-S</w>
F-AY1- ER0</w>
B-IH0-L-IY1- V</w>
V -L
N-T -IY0</w>
-ER0-AH0- B-AH0-L</w>
R-IH0- K</w>
M-P -EY1-
M-IH0- JH</w>
K-R-EH1- D-IH0-
HH-EH1- R-AH0-
HH-AA1-S-P -IH2-
S-AH0- P-AE1-
R-AY1- D-IH0-NG</w>
P-AA0-R- T-IH1-
NG- G-R
N-IH0- S-AH0-P-AE1-
M-Y-UW2- N-IH0-S-AH0-P-AE1-
F-AO1-R- TH</w>
T-R -UW1</w>
S-P-AO1-R- T-S</w>
IH0-N-K-L-UW1- D-AH0-D</w>
S- K-R-IH1-
IH2- N-T
IH1-N-D -IY0-AH0-N</w>
F- OW2-N</w>
S-T-EY1- SH-AH0-N-Z</w>
R-AA1- B-ER0-T</w>
-IH0- JH</w>
T-AH0- L-IY0</w>
T -AA2-
SH-AO1-R- T-L-IY0</w>
S-T-AH1- D-IY0</w>
S-T-AA1-R- Z</w>
S-EH1- K-AH0-N-
N-S -IH0-NG</w>
N-EY1- B-ER0-
M-AE2-N-Y-AH0- F-AE1-K-
K-AH0- N-EY1-
K -ER0-D</w>
JH-ER1- M-AH0-N-IY0</w>
IH0- S-K-EY1-
F-L -AH1-
F-EH1- L-T</w>
CH-UW0- EY2-T-IH0-D</w>
AH0- CH-IY1-
-AO0- R</w>
T-ER1- N-AH0-
S-T -L-IY0</w>
S-AH0-K- S-IY1-
K-AY1- N-D</w>
IY1- Z
T-EY1- K-IH0-NG</w>
P-AE1- N</w>
L-IY1- G-AH0-L</w>
K-AH0-M-P-L -IY1-T</w>
F -AY2</w>
S- N-OW1</w>
K-AA2- N-T-R-AH0-
D -AO2-R</w>
W -EH2-
K-AE1- TH-L
B-EY1- B-IY0</w>
B-AH1- S</w>
Z -ER0-Z</w>
W-AY1- D-L-IY0</w>
T-R -IY1</w>
N -AA2-
HH-AE1- B-AH0-
HH -IY1-Z</w>
P-R-OW1-G-R-AE2- M-Z</w>
F-R-IY1- K-W
CH-IY1- F</w>
A W
SH-AH0- N-AH0-L-IY0</w>
S-EH1-T-AH0- L-
M-EH1- N-T
HH-Y-UW1- M-AH0-N</w>
HH-AA1- T</w>
F-IH1- SH</w>
B-IH1- L</w>
S-T-AE1- N-D-ER0-D</w>
D-EY1-V -IH0-D</w>
R-IH1- CH-ER0-D</w>
M-P -AH0-L-Z</w>
L-IY1- D</w>
JH -IH0-K</w>
IH0- N-AH1-F</w>
F-L -AO1-R</w>
AE2- P-L-AH0-
SH -IY1-N</w>
M-IH2- N-IH0-
L -IH0-S</w>
D-AE1- N-S</w>
B-AH0- L-
-AA2-R -D</w>
T -ER0-AH0-
P-AH0-L-IH1- T-AH0-K-AH0-L</w>
G-R-AE1- JH-UW0-
EH1-V-R-IY0- TH-IH2-NG</w>
Y -AA1-
W-ER0- D-Z</w>
S-UW 0-
N G-L
N -EY1-SH-AH0-N</w>
L-AY1- N-Z</w>
L -AE2-
IH0-V-EH1- N-T</w>
AY1- S</w>
T-EH1- S-T</w>
S-T -AO1-R-
S-IH1- CH-UW0-EY2-T-IH0-D</w>
P-R-AA1-B-L -AH0-M-Z</w>
N-EH1-T-W -ER2-K</w>
K-Y-AH0-L -ER0-L-IY0</w>
B-IH1- L-IH0-T-IY0</w>
AH0-B- Z-ER1-
AH0- K-AE1-
Y -ER0</w>
W-EY1- T</w>
S-T -OW1-N</w>
M-EH1- TH
L-EY1- D-IY0</w>
HH-OW1- L-D-Z</w>
B-EH1- L-
R-IY0- Z
K-OW1- L-D</w>
HH -AY2-
D-R -AO1-
AE1- K-T</w>
S-T -AO1-R</w>
R-AE1- N</w>
K-OW1- S-T</w>
HH-EH1-L- TH</w>
G-R-AH0- F-IY0</w>
S- M-IH1-
M-ER0- IY1-
M-AY1- K-AH0-L</w>
K-R -IH0-
F -AH0-S</w>
V-ER1- S</w>
T-AE1- K-
S-T -UH1-D</w>
N-EY1- SH-AH0-N-Z</w>
M-AA1-R- K</w>
K-L -AA1-
IH0-N-T-AY1- ER0</w>
D-IH0- S-IH1-
D- OW0-
AH0- S-IH1-S-T
-EY2- N</w>
T-EH1- K-S-AH0-S</w>
T -AA0-
N-S -EH2-
M-AA1-R- K-AH0-
K-AH0-M-P-Y-UW1- T-ER0</w>
IH0-N-D -AH1-
AH0-K-AE1- D-AH0-
R-EH2- K-AH0-
M-AH0- SH-IY1-N</w>
K-AH0-N- T-R-IH1-B-Y-UW0-
IH1-N- S-T-R-AH0-
F-AH1- NG-K-
R-IY1-S -AH0-N-T</w>
P-R-AY1- Z</w>
P-ER0- EY1-SH-AH0-N</w>
-AY0 -AE1-
T-AH0- M-Z</w>
P-R-AH0-V-AY1- D-IH0-D</w>
P-AA0-R-T-IH1- S-AH0-P
P-R-AA1-B-L -AH0-M</w>
L-AE1- N-D-
K- CH-ER0-Z</w>
HH-AE1- T</w>
F-R -UW1-
B -AO2-R-
-EY2- T-IH0-V</w>
-ER0 -AH0-T</w>
TH -AW1-
P-AO1-R- T</w>
F -EH2-
DH-EH1- R-Z</w>
D-IH0-P-AA1-R- T-M-AH0-N-T</w>
-EY2- T-ER0</w>
W-EH1- B-
V -AH0-N-S</w>
S-AO1- F-
L-AH0- JH
K-AE0- M-P-EY1-
CH -AY0-
B-AE1- N-D-Z</w>
M- Y-UW1-
K-OW1- D</w>
B-R-AH1- DH-ER0-Z</w>
B-IY0- G-AE1-N</w>
AH0-L -AW1-D</w>
S-T-AA1- R</w>
L -EY1</w>
JH -AH0-S</w>
F-AO1-R- S-IH0-Z</w>
D-IH0- S-EH1-
B -AH0</w>
B -AA0-
Y-UW1-Z -IH0-Z</w>
T-AA1- M-AH0-S</w>
M-AE1-G-AH0-Z -IY2-N</w>
K- T-IH0-NG</w>
K -IY0-
IH0-G- Z-EH1-
AE1- N-JH-AH0-L
W -AH0-
V-IH1- Z-AH0-
SH -AH0-S</w>
S -AH0-N-S</w>
P-R -EH2-
P-IH1- K-CH-ER0</w>
M -R
L-R -EH1-
G -AO1-N</w>
F -AH0-L-IY0</w>
EH0-K- S-T-R-IY1-
V -IY0-Z</w>
TH -EH1-
T-AO1- K</w>
OW1- L-
IH0-M-IY1-D-IY0 -AH0-
G-R -EY1</w>
F-EH1- S-T-AH0-
ER1- TH</w>
D-R-EH1- S</w>
T-AY1- P-S</w>
R-IY0- IH0-NG</w>
R-IH0- T-ER1-N</w>
P-R-IY1-V -IY0-AH0-S-L-IY0</w>
L-R-EH1- D-IY0</w>
IH0-M-IY1-D-IY0-AH0- T-L-IY0</w>
G -UH1-
Z -AH0</w>
SH-IH1- P</w>
S-T-AA1-R- T-AH0-D</w>
S-P -EH2-
R-IY1- S-ER0-
R-AH0- S-T</w>
P-OW1- S-T</w>
M-AE1- T-ER0</w>
M -AE0-
K-L-EY1- M-D</w>
HH-AY1- ER0</w>
G -AO1-
D-AO1- G-Z</w>
AO0- L-R-EH1-D-IY0</w>
AE2- L-AH0-
V-ER0-AY1- AH0-T-IY0</w>
S-K -IY1-
R-EH1-G- Y-AH0-L-ER0</w>
K- Y-UW1-
EH1- S</w>
T-IH0- NG-Z</w>
T-AE1- L-Y-AH0-N</w>
P-OY1- N-T-S</w>
L-IY1- D-ER0</w>
K-AA1- N-S-AH0-
F-AY1- N</w>
D-EY1- T-AH0</w>
AH0- S-T</w>
-EH2-R -IY0-Z</w>
T-IH0- S</w>
IH0-N-IH1- SH-AH0-L-IY0</w>
F- OW2-
CH-AY0- N-IY1-Z</w>
AE1- D-AH0-
S-P-IY1- K</w>
M-Y-UW1-Z -IY0-AH0-M</w>
M-IY1- N-IH0-NG</w>
L-EH2- K-
K-AH2- L-
B-AA1- R</w>
R -AW1-
P-R-AH0- D-AH1-K-SH-AH0-N</w>
N-AH0- M</w>
K-R-IY1- K</w>
JH-AH1- M-P
F-IY1- L</w>
T-R -AE2-
T-ER1- M-Z</w>
S-AY2- T</w>
R-IH0- L-IH1-
R-IH0- L-EY1-T-IH0-D</w>
P-IH1- NG-K</w>
N-IH1- K-
M-OW1- M-AH0-N-T</w>
JH -AH0-N-Z</w>
IH0- K-AA1-
F-Y-UW1- CH-ER0</w>
F-L -EY1-
CH -UW1-
-AH0-N -EY1-SH-AH0-N</w>
TH-IH1- R-IY0</w>
S- M-AH0-N-T</w>
OW1- P-AH0-N-D</w>
N-T -AH0-N-Z</w>
M-AH0- L-Z</w>
IH0-N- V-AY1-
HH-EH1- V-IY0</w>
AH0- N-AW1-
AH0- G-R-IY1-
P-R-IH1-N-S-AH0- P-AH0-L</w>
N -AH2-
M-AE1- CH</w>
K-AE1- S-AH0-L</w>
-AY1- N-D</w>
-AO2- K</w>
T -AW2-N</w>
N-CH -
M-AH0- T-L-IY0</w>
M-AA1- N-AH0-
L-IH0- N</w>
K-AA1- M-AH0-
-AH0-N -IH0-NG</w>
T- L-AH0-N-D</w>
R-EH1- S-T</w>
D-IH2- S-AH0-
D -ER0-AY1-
B-AO1-R- D-ER0</w>
AH2- N-IH0-
AH0-K-AE1-D-AH0- M-IY0</w>
T-IH0- K-L-IY0</w>
P-R-AH0-V-AY1- D</w>
N- Y-UW1-Z</w>
M-IH1- L-
M-IH1- K-S-T</w>
M-IH0- K-S</w>
AH0-D- M-IH1-N-AH0-
AH0- V-OY1-
TH-R -EH1-
T -AE2-
R-OW1- M-AH0-N</w>
R-IY0-L-EY1- SH-AH0-N-
R-IY0- S-ER1-CH</w>
P-UW1- R</w>
M-AH0- JH
K-AH0-N-T-IH1-N-Y-UW0- Z</w>
HH-AO1-R- S</w>
-UW2- M</w>
Y-AH1- NG-G-ER0</w>
N-EY1- CH-ER0</w>
N-AH1- M-B-ER0-Z</w>
F-AY1- R</w>
F- Y-UW1-Z-D</w>
D-EY1- T</w>
Y-UW 2</w>
M-EH1-R-AH0- K-AH0-N</w>
K-AH0-M- Y-UW1-N-IH0-
D-IH0-S-T-R -OY1-
D-ER0-EH1-K- T-ER0</w>
S-EH1- L</w>
R-AH0- S</w>
M-AH0- N-AH0-L</w>
L-AH1- M-B
K-AE1- L-
G-AA1- D</w>
Z-ER0- V-EY1-SH-AH0-N</w>
T-R -IY1-Z</w>
T- OW2</w>
S-UW2- P-ER0-
R-IH0- S-P-AA1-
N-EH2- T</w>
M- S-EH1-L-V-Z</w>
HH-OW1- L-D</w>
F-R -AH0-N-S</w>
F-EY1- L-D</w>
V- Y-UW1-
N -AE2-
L-AY1- AH0-
IH1-N-D -IY0-AH0</w>
EH1- V-AH0-
EH1- N-ER0-
V-IH1-L-AH0- JH</w>
S-T-AH0-T-UW2- T</w>
S-IY1- M-Z</w>
M-AH1-L-T-AH0- P-AH0-L</w>
L -ER0-IY0</w>
K-AE1-TH-L -IH0-K</w>
D-R-EH1- S-T</w>
D -AA2-
AH0- N-AE1-
-IH0- S-T</w>
W-IH1- N-T-ER0</w>
L-AY2- T</w>
IH0- L-EH2-K-
HH-IH0-S-T-AO1-R-IH0- K</w>
HH-AE2- M</w>
HH-AA1-S-P-IH2- T-AH0-L</w>
EH1- M-
AY1- L-AH0-N-D-Z</w>
W -ER2-
T-AH0- L-D</w>
P-R-AA1- S-EH2-S</w>
N-OW1- T-AH0-B-AH0-L</w>
K-AW1- N-T</w>
K-AH0-N-EY1- D-IY0-AH0-N</w>
G-AH1-V-ER0- N-ER0</w>
D-IH0-V-AY1- D-AH0-D</w>
B-AE1- NG-K</w>
T-R-AE1- N-
P -ER2-
P -AO1-
K- T-AO1-
S-IH1- M-P-AH0-L</w>
R-IY1- JH-AH0-N-AH0-L</w>
R-IY0- M-EY1-
P-R-EH1- S</w>
P-EH1- R</w>
K-L -IY1-
T- W-EH1-
P-OW1- Z</w>
M-EH1-TH -AH0-D</w>
L-AA1-R- JH-ER0</w>
K -AO2-R
K -AA0-R-
F-R -AY1-
SH -OW1-N</w>
M-AH0-T-IH1- R-IY0-AH0-L</w>
L-UH1- K-S</w>
K-Y-AH0- T-IH0-V</w>
K-EY2- T</w>
HH-EH1- N-
EH1-JH-AH0- K-EY2-T-AH0-D</w>
D-EH1- D</w>
B -EH2-
AO1-R- G-AH0-N
-AY0 -AA1-
T-IH1-P-IH0- K-L-IY0</w>
S-AY1- N</w>
M-EH1- T-AH0-L</w>
K-EH1- R</w>
F-IH1-SH -IH0-NG</w>
D-R -IY1-
D-R -AH0-
AO1-F -ER0-Z</w>
AH0-P-IH1- R</w>
T-EY1- N-D</w>
SH-AA1- T</w>
S-M-AO1- L-ER0</w>
IH0-K-S-P-IH1-R-IY0 -AH0-N-S</w>
IH0- L-EH1-K-SH-AH0-N</w>
G-AA1-R- D-AH0-N</w>
B -AE2-
AA1-R- T-S</w>
-AH0-N- S-AH0-Z</w>
N-IH0- L</w>
M-EY1- ER0</w>
M-EH1- TH-AH0-
JH-AH0- P-AE1-N</w>
HH-OW1- P</w>
D-IH0- T-ER1-
D -AH0-L
AA1- P-
T- W-AY1-
S-T-AH1- D-IY0-Z</w>
S- N-OW1-
S- K-R-IY1-
N-AH0- T-L-IY0</w>
K- OY1-
HH-IH0-S-T-AO1-R-IH0- K-AH0-L</w>
D-IH0-G-R -IY1</w>
B-IH1- T</w>
AO1-N- L-AY2-N</w>
AH0-T-AE1- K</w>
S-T-R -AO1-
S-P-AE1- N-IH0-SH</w>
OW0- L-IH1-
K-AH0-N- D-AH1-
K-AH0-M-P-OW1- Z-D</w>
AH0- D-AA1-
AE1- M</w>
-AA0- N</w>
Z -R
T-AO1- K-IH0-NG</w>
S-T-UW1- D-AH0-N-T</w>
S-AH0- V-IH1-
R-EH1-G- Y-AH0-L
L-IH1- N</w>
L-AE1- T-AH0-N</w>
JH -L-IY0</w>
HH-AE1- P-IY0</w>
F -AW0-
F-AW0- N-D
EH1- F-ER0-
B-IY0- T-W-IY1-N</w>
-AO0-R- T</w>
R-AE1- DH-ER0</w>
N-IH1- R-L-IY0</w>
M-AY1- K-R-AH0-
G-R-AE1- N-D-
B-EY1-S- B-AO1-L</w>
AO1-TH -ER0</w>
AH2- N-
S -AA0-
L -AH0-N-T</w>
L -AE2-N-D</w>
K-AA1-M-P-L -EH0-K-S</w>
D-AO1- T-ER0-Z</w>
CH-UW0 -AH0-L</w>
B-AE1-K- G-R-AW2-N-D</w>
T-UH1- R</w>
T -ER0
S-ER0-V-AY1- V-D</w>
R-IH1- L-IY0</w>
L-IY1- V-Z</w>
G-R-AE1- S</w>
EH1- N-T-R
EH0-N- G-EY1-
B -AE0-
-AH0-L-AA1- JH-IH0-K-AH0-L</w>
T -UW0-
S-EH1- R-AH0-
M-IH1- N-IH0-
K-AH1-L- CH-ER0</w>
S-T-R -EY1-SH-AH0-N</w>
S-P-EH1- K-
S-K- OW0</w>
S-AY2- Z-D</w>
K-AH0- L-EH1-K-SH-AH0-N</w>
K-AH0- L-AH1-M-B
D -EH2-R-IY0</w>
CH-EH1- R</w>
B -AH0-N
ZH -AH0-
Z -EY1-SH-AH0-N-Z</w>
S -IH0-S</w>
R-IH0- F-ER1-D</w>
P-R-AA1-P-ER0- T-IY0</w>
K-AE1-M-P -AH0-S</w>
-IY0 -AH0-N-
P-R-IY1-V -IY0-AH0-S</w>
P-R-AA1- V-AH0-N-S</w>
JH -EH2-
F-AY1- N-AH0-L-IY0</w>
ER0- EY1-N-JH
D -AO1-R-
AH0-S-OW2- S-IY0-
W -UW1-
S-AH1- N-D
R-EH1-S-T-R -AA2-N-T</w>
K -EY1</w>
IH2-N-T-R-AH0- D-UW1-S-T</w>
IH0-G-Z-IH1- S-T</w>
HH-IH1- T</w>
F-IH1- N-IH0-SH-T</w>
F-EH1- L-OW0</w>
EH1- K-T</w>
B-IH1- SH-AH0-
AO1-R-AH0- JH-AH0-N</w>
AO1- F-ER0-D</w>
W-AO1- L-
S- P-R-EH1-
R-IY1- D</w>
P-AA1-L-AH0- T-AH0-N</w>
L-IH1- M-IH0-
K-ER0- D-Z</w>
K-AA2-M-P-AH0- T-IH1-SH-AH0-N</w>
K-AA1- L-AH0-
CH -AA1-
P-ER0-T-IH1- K-Y-AH0-L-ER0-L-IY0</w>
M-UW1- V-IY0-Z</w>
M-IH1- D-
K-L -AE2-
K-AA1-N-S -EH0-
IH1-SH -UW0</w>
G-AH0- S-T</w>
F-R-IY1- K-W-AH0-N-T-L-IY0</w>
AE2- N-T
AA2-P-ER0- EY1-SH-AH0-N</w>
- Z</w>
R-AH0-K-AO1-R- D-AH0-D</w>
M-AH0-JH -AO1-R-AH0-T-IY0</w>
IH0- M-ER1-
CH-AE1- L-AH0-N-
V-IH0- L</w>
P-ER1- S-IH0-
P- T-AH0-D</w>
P -AH2-
L-EH1- JH-AH0-
K-AO1- Z</w>
K-AH0-M-IH1- T-IY0</w>
EH1- D-AH0-
D-IY1- P</w>
CH-AY1- N-AH0</w>
AE2- N-AH0-
-IY0- ER0</w>
W -AH0</w>
S-AY1- D-Z</w>
L-R -OW2-
L-IY0- ER0</w>
JH-UW1- IH0-SH</w>
B-OW1- T</w>
-ER0 -AH0-S</w>
T- W-IH1-
S-IH1- N-AH0-
N-AA1- N-
K-AE1- M-ER0
K -ER1</w>
IH0- T-AE1-L-Y-AH0-N</w>
CH-EH1- R-
Y -AE1-
W-IY1- K-S</w>
W-AO1-R- D</w>
W-AO1- K</w>
V-ER0- JH-IH1-
R-EY1- N</w>
R-EH1-Z-IH0- D-AH0-N-T-S</w>
L -AA0-
HH-AH1- Z-
EH2- K-S-
D-AY1- AH0-
R-UW1- T</w>
R-IH0-K-AO1-R- D-IH0-D</w>
K-L-OW1- S</w>
K- OW2-
F -AY2
SH-IH2- P-S</w>
R-EH1- K-ER0-D-Z</w>
F-EH1-S-T-AH0- V-AH0-L</w>
S-IH1- M-P-L
K-AH1- L-ER0-Z</w>
HH-AH1- N-D-R
G-OW1- L-
F-AY1- T</w>
S-AH0- L-EH1-K-
R-IH0- T-AY1-
M-Y-UW2-N-IH0-S-AH0-P-AE1- L-AH0-T-IY0</w>
M-EH1-R-IH0- JH</w>
M -ER0-IY0</w>
IY1- T</w>
G-R-IY1- K</w>
D-IH1-F-AH0-K-AH0- L-T</w>
T-R -AH0-S</w>
R -UH1-
L-AA1-R- JH-L-IY0</w>
IH0-N-T-AY1- ER0-
S-T-IH0- K-S</w>
P-ER0-T-IH1- K-Y-AH0-L-ER0</w>
P-AE1- S-AH0-N-
K-AA1- Z</w>
IH0-K- S-EH1-P-T</w>
G-AH1- N</w>
EY1- ZH-AH0-N</w>
AH0-F-EH1- K-T</w>
P-R-AA1-D-AH0- K-T</w>
N- JH-AH0-
M-AW1- TH</w>
K-R-IH1- S-
K-EY2- T-IH0-D</w>
K-AH0-M-P-L-IY1- T-L-IY0</w>
K-AH0- L-AE1-
IH0-M- P-R-UW1-
G-R-AE1- JH-AH0-W
EH1-N-ER0- JH-IY0</w>
B-EH1- L</w>
-IY2- N-Z</w>
S-T-AA1-R- T-IH0-D</w>
P-IY1- T-ER0</w>
NG -IH0-NG</w>
K-OW1- CH</w>
EH1- R-AH0-
AH0-P-R-OW1- CH</w>
S-AH1-B-JH-IH0- K-T</w>
S- K-S</w>
R-IY0- S-P-AA1-
L-UW1- IH0-S</w>
L-AE1-NG-G-W-IH0- JH-IH0-Z</w>
K-IH1-NG- D-AH0-M</w>
JH-AH0- W-AH0-L</w>
IY1- DH-ER0</w>
IH2-N-D-AH0-V-IH1- JH-AH0-W-AH0-L</w>
F-L -AO1-
-AO2- T-ER0</w>
Y-UW0- Z</w>
V-IH0- K-T-AO1-
T -EY0-
S-T-AO1- R-IY0-Z</w>
P-R-EH1- Z
P-EH1- R-IH0-SH</w>
P -AH0-N</w>
M-IH0- N</w>
L-IY1- D-IH0-NG</w>
B -AO2-R-D</w>
AO2- T-AH0-
AE0- L-
AA2-P-ER0- EY1-SH-AH0-N-Z</w>
R-IY1- L-IY0</w>
R-EY1- L-R-OW2-
-UW0 -AH0-L</w>
T-R-AY1- D</w>
SH-AH0- K-AA1-
S-IH1- T-S</w>
P -AA2-R-
K-R -AW1-D</w>
JH -AH0</w>
F-EH1- L</w>
EH2- K-AH0-N-AA1-
EH1-L-AH0- M-AH0-N-T-S</w>
B-L-AH1- D</w>
P-L-AE1- N</w>
N-T -EY1-SH-AH0-N</w>
M-AW1- N-T-AH0-N-Z</w>
M -AY0-
L-AE1- S</w>
-IY2 -AH0-
T-ER1- N-Z</w>
S-T- OW2-N</w>
N-OW1- T</w>
N-IH0- NG-Z</w>
M-OW1- T-ER0-
K-L-OW1- DH
HH-EH1-L- P-T</w>
G-R-AE1- N-D</w>
B-Y-UW1- T-AH0-
B-AE1- S-K-AH0-
AO0- L-
AE1-N- Y-UW0-AH0-L</w>
AE1- S-T</w>
V -ER2-
V -ER0-D</w>
S-AY1- Z</w>
L-EH1- T-ER0</w>
JH -ER0-
IH1-N-T-ER0- N-EH2-T</w>
-IY0-AH0- S-T</w>
V-IY1- IH0-
S-T -ER0-D</w>
R-OW1- D-Z</w>
R -AO1-
P-R -AH0-T</w>
IH1-SH-UW0- Z</w>
IH0-N- K-AO1-R-
EH2- L-AH0-
AO0- R-
AA1-R- M-Z</w>
AA1-P-ER0-EY2- T-S</w>
S-T-EY1- D-IY0-AH0-M</w>
S-ER1- V</w>
S- P-L-IH1-
R-EH2- V-AH0-L-UW1-
R-EH1-K-AH0- G-N
P-ER1-S-IH0- N-IH0-L</w>
M-AH0-N -EY2-T-AH0-D</w>
M-AH0-N -EY1-SH-AH0-N</w>
F-R -IH1-
D -AH0-N-
AH0-W-AO1-R- D-Z</w>
-E Y
S-AA1- K-ER0</w>
M-EH1- ZH
M-B -AH0-
M-AE1- S-T-ER0</w>
K-R-IH1- T-IH0-K-S</w>
K-AH0-N-T-IH1-N- Y-UW0</w>
K-AH0- T-S</w>
F-L -IH1-
D-R-AY1- V</w>
AH0- N-T</w>
-AH1- L-
V-ER0-JH-IH1- N-Y-AH0</w>
V -AA0-
R-EY1- T</w>
P-AA1-Z-AH0- T-IH0-V</w>
M-AY1- N-ER0</w>
L-ER1- N-IH0-NG</w>
IH1- M-AH0-
AH0-S-OW2-S-IY0- EY1-SH-AH0-N</w>
T-R -AY1</w>
P-L-AE1- N-T-S</w>
B-AY1- K</w>
B- Y-AH0-
B- OY1-
AE1- N-S
-AW2- T</w>
Z -OW1-
S-T-IY1- L</w>
P-R -AA2-
N-S -IY0</w>
M-IH1-N-AH0- S-T-ER0</w>
K-AH2-L- CH-ER0</w>
K-AH1- T</w>
K-AH0-N- S-ER1-V-AH0-
IH0-N-T-AY1-ER0- L-IY0</w>
HH-EH1-N- R-IY0</w>
F-AE1- K-T</w>
F -IY0-
T-EY1- SH-AH0-N-Z</w>
T-AH0- N-D</w>
S-UW1- T</w>
P-R -EY1-
N-UW1-Z-P-EY2- P-ER0</w>
N-T -IH0-K</w>
K-AH1- S-T-AH0-
IH0-N-T -ER1-
D-IH0- K-L-AY1-
Y-UW1- TH</w>
T-R-EY1- N-Z</w>
T-IH2- K-S</w>
S-T-AH0- T-IH1-
S-T -AH0-S</w>
R-IH0-Z-AH1- L-T-S</w>
R-EH1- D-IY0</w>
R -AA0-
P-AH0-L-IH1- T-IH0-K-AH0-L</w>
N-IH0- T-IY0</w>
M-AE2- TH-AH0-
L-IH1- T-ER0-AH0-
K-EH1- P-T</w>
K-AH1- M-IH0-NG</w>
IH1-N-F-L-UW0 -AH0-N-S</w>
HH-AA1- L-AH0-
B-ER0- OW0</w>
AH0-M-EH1-R-IH0- K-AH0</w>
AE1- N-D-R
N-T -ER0-Z</w>
N-JH -ER0</w>
M-AA1-R- K-T</w>
L -AY1</w>
HH-OW0- T-EH1-L</w>
B-L -EY1-
B -EH2-R-IY0</w>
AH0-P-IH1- R-AH0-N-S</w>
W-IH1- SH</w>
SH-AH0-N -EH2-R-IY0</w>
S-AA1- L-AH0-
R-AH1- SH-AH0-N</w>
L-EY1- B-ER0</w>
K-EH1- R-IY0-D</w>
K-AE1-P- T-AH0-N</w>
S-ER1- F-AH0-S</w>
S-EH1-N-CH -ER0-IY0</w>
P-L-AE1-T-F-AO2-R- M</w>
NG-K- TH</w>
N-IH1-K- N-EY2-
M -EY2-T-IH0-D</w>
L-AH0- B-R
HH-ER0- S-EH1-L-F</w>
EH1- D-W
AO1- R-AH0-N-
AH0-N- N-OW1-N</w>
W -AE1-
SH-IH1- P-S</w>
P-R-AA1- M-AH0-N-AH0-N-T</w>
ER0- EH1-
AH1- P-ER0</w>
Z -AH0-T</w>
S-IY1- M-D</w>
NG- K-AH0-L</w>
N -AO1-
L- M-AH0-N</w>
L -ER0-D</w>
D -EY0-
B-AE1- D</w>
AH0-S-OW1- S-IY0-
AH0-L -AW1-
AA1- K-Y-AH0-P
T-ER0- IY0</w>
SH-IH0- NG-T-AH0-N</w>
R-EH2- P-R-AH0-
M-AY2- S-EH1-L-F</w>
M-AE1-N-IH0- JH-D</w>
K-EY2- D</w>
K-AH0-M-AE1- N-D</w>
IH0-N- S-AY1-D</w>
CH-AE1-M-P -IY0-AH0-N-
CH -AH0-N</w>
B-IH1- L-D</w>
AA1-R-T-IH0- S-T-S</w>
Z H</w>
T-R-IH1-B- Y-AH0-
R-AY1- T-ER0</w>
N-OW1- T-IH0-D</w>
CH-AA1-R- JH</w>
B -AH0-T</w>
-ER0 -AY2-Z-D</w>
Y-UW0-N-AY1- T-AH0-D</w>
W-ER1- K-ER0-Z</w>
T-EH1- K-S-T</w>
S-T-R -AH0</w>
S-L-IY1- P</w>
M-P-ER0- EH2-R-IY0</w>
M- P-R-AH0-
K-W -IY1-
JH-AH1-M-P -IH0-NG</w>
JH-AA1- B</w>
IH0-K-AA1- N-AH0-M-IY0</w>
IH0- S-T-EY1-T</w>
I Y1</w>
HH-EH1- R-IY0</w>
D-IH0- K</w>
D-EY1- L-IY0</w>
D-EH1- L-
B-AH0- D-IY0</w>
-IY0-AE1- N-AH0</w>
T -AH0-N-
S-IH2- CH-UW0-
N- T-AH0</w>
N -IH2-
L- M</w>
G-R-EY1- T-ER0</w>
ER1- L-IY0-ER0</w>
DH -EH0-
CH-EY1-N-JH -IH0-Z</w>
AE1- N-S-ER0</w>
AE1- L-AH0-S</w>
T-AO1- T</w>
T- W-EH1-L-
S-T-R -IY0-AH0-L</w>
R-IY1- D-IH0-NG</w>
R-EH1- K-ER0-D</w>
M-IH1- S</w>
L-AY1- K-L-IY0</w>
D-IH1- S-T-AH0-N-S</w>
D-IH0- P-EH1-
-UH2- K</w>
-AO 2</w>
SH-AH0-K-AA1- G-OW2</w>
S-IH1-M-P-L -IY0</w>
R-IH0- S-IY1-
N -AH0-N-T-S</w>
M-EH1- N-T</w>
K- OW0
F-AO1-R- T</w>
D-IY1- T-EY0-
AE1-N-AH0- M-AH0-L-Z</w>
AA0- N-T-EH1-
S-P-IY1- CH</w>
S-M-IH1- TH</w>
S-IH1-K- S-T
S-AH1- B-ER0-
S- L-EY1-
P-AA1-R- T-IY0-Z</w>
L-Y -ER0</w>
D- Y-UW1</w>
B-R-AY1- T</w>
B-ER1- D</w>
B-AE1-S-K-AH0- T-B-AO2-L</w>
AH0- K-ER1</w>
U H1-
R-EH1- R</w>
P-R-AH0-F-EH1- S-ER0</w>
P-R-AE1-K- T-AH0-S</w>
P-L -AH1-
P-AA1-L-AH0- T-IH2-K-S</w>
M-IH1- R</w>
L -IY1</w>
K-L -AO1-
K-AA1-N-S -ER0-
HH-EH1- V
G-IH1- V-Z</w>
F-AO1- L-Z</w>
EH1-V-AH0- D-AH0-N-S</w>
AY0-D-EH1- N-T-AH0-
-AO1- N-D</w>
W-OW1- N-T</w>
S-T-UW1- D-IY0-OW2</w>
S -EY1-SH-AH0-N</w>
NG-L -IH0-SH</w>
M-AA2-R- K</w>
EH1-P-AH0-S-OW2- D</w>
B-ER0- N</w>
B-AH0- N-D</w>
AE1-L- B-AH0-
AE0-K-T-IH1-V-IH0- T-IY0-Z</w>
W-AY1- L-
V-ER1- ZH-AH0-N-Z</w>
T-UW2- D</w>
P-AA1-L-AH0- S-IY0</w>
M-AH0- M-AO1-
K-R-IH1-S- M-AH0-S</w>
JH -AH0-N-
IY1- Z-IY0</w>
IH1- NG-L-IH0-SH</w>
B -AY0-AA1-
AW1- ER0-Z</w>
-EH2-R -IY0-
S-T-IH0- T-UW1-
S-IH1- T</w>
R-EY1-L-R-OW2- D</w>
R -AH0-N-T</w>
N- T-OW0</w>
N- S-AH0-Z</w>
K-W -IY1-N</w>
HH-AY1- W-EY2</w>
G-IH1- V-AH0-N</w>
D -IY1</w>
-AA 2</w>
T-W-AY1- S</w>
S-P-IY1- D</w>
R-IY1- CH-T</w>
P-UW1- L</w>
P-R-AH0-D-UW1- S</w>
P -AH0-S</w>
N-SH -AH0-N-T</w>
N-S-AH0- L-
L-EH1- T-S</w>
IH0- K</w>
HH-AE1- P-AH0-N-D</w>
F-AW0-N-D -EY1-SH-AH0-N</w>
AO0-L- T-ER1-N-AH0-
-IH0- Z-EY1-SH-AH0-N</w>
Z -UW1-
S-T-AE1- F</w>
S-T -AH0</w>
S-EH1-V -AH0-N-
OW0-L-IH1- M-P
G-OW1- Z</w>
F -AE2-
D-AH1- Z-AH0-N</w>
D -AY2-AH0-
Z-EH1- N-T-AH0-D</w>
W-IH1-N-D- OW0-Z</w>
S-K-EH1-JH-UW0- L</w>
S- M-OW1-
R-IY0 -AE1-
R-AH1- DH-ER0</w>
P-ER0-F-AO1-R- M-IH0-NG</w>
N- Y-UW0-
L-OW1- K-EY2-D</w>
IH0- JH</w>
F- T-ER0</w>
B -EY2-
R-IH0- L-IY1-
P -AA0-
M-Y-UW0- Z-IY1-
M-AH1- N-TH</w>
IH0-G-Z-AE1- M-P-AH0-L-Z</w>
HH-AH1-Z- B-AH0-N-D</w>
F-ER1- Z</w>
EH1- D-IH0-
AA1- N-ER0</w>
AA0-N-T-EH1- R-IY0-OW0</w>
T-R-AE1- F-IH0-K</w>
P-R-AA1- B-AH0-
NG-G -AH0-L</w>
N-IH0- D</w>
L -AH0-N-S</w>
K-W-EH1- S-CH
K-AE1- M-P</w>
G- D</w>
B-IH0-L-IY1- V-D</w>
AE1- D-IH0-D</w>
-AH0-N- T-IH1-
T-R-EY1- L</w>
SH-AA1- P-IH0-NG</w>
S-AH0- S-P-EH1-
R-AH0- T-IY0</w>
N-AH0- M-AH0-N-T</w>
K-R-IH1- T-IH0-K-AH0-L</w>
K-AH0-N-D-IH1- SH-AH0-N-Z</w>
K-AH0-N- V-IH1-
K- L-AH0-
EY1- N-SH-AH0-N-T</w>
CH-AA1-R- L-Z</w>
B-Y-UW1-T-AH0- F-AH0-L</w>
B- OW0-
AO2-R-G-AH0-N-AH0- Z-EY1-SH-AH0-N</w>
AE1-F-T-ER0- W-ER0-D-Z</w>
P-AW1- ER0-
L-IH0- T-IY0-Z</w>
L-AY2- Z-D</w>
L -AO1-R-D</w>
IH0-L-EH1-K- T-IH0-D</w>
HH-OW1- M-
G-R-OW1- IH0-NG</w>
F-AO1-R- S-T</w>
F-AA1- L-OW0</w>
F -AH0-L-AA1-
F -AA2-
CH -IH0-
B-Y-UW1- SH-AH0-N</w>
AW1- R</w>
AO1- F-ER0</w>
AH0- D-AE1-
AE1- L-AH0-N</w>
W-IH1-N-D- OW0</w>
S-IH1-NG -ER0</w>
S-ER1- V-IH0-
S-AH1- F-ER0-D</w>
M-EH2- T-R-AH0-
M -EY2-
K-W-AA1- L-AH0-T-IY0</w>
K-AH0-M-Y-UW1-N-IH0- T-IY0</w>
K-AA1-N-S-EH0- P-T</w>
JH -AY1-
IH0-G-Z-EH1- K-Y-AH0-T-IH0-V</w>
F-OW1- K-AH0-
F-EY1- V
F-AO1-R- W-ER0-D</w>
DH-AH0- M-S-EH1-L-V-Z</w>
B-ER1- D-Z</w>
AE1- F-R-AH0-
-ER0- IY0-Z</w>
W-EY1- Z</w>
T-AW1- ER0</w>
S-UW1- P-ER0-
S-P-R-EH1- D</w>
S-IH0-K- Y-UH1-R-AH0-
S-EH1-L- F-
S-AO1-R- T</w>
R-IY1-S-ER0- CH</w>
P-AE1- T-ER0-
OW1- SH-AH0-N</w>
N-OW1- Z</w>
N-D -AH0-N-T</w>
L-IH1- R-IH0-
K-EY1- S-IH0-Z</w>
F-L-OW1- Z</w>
AE1-N-JH-AH0-L -IH0-S</w>
AE1-D- V-ER0-
-AH0-N -EH1-
T-AH0- G-R-AE2-
S-K- W-EH1-R</w>
S-EH1-T-AH0-L- M-AH0-N-T</w>
S -AY0-
N-S-AH0- B-AH0-L</w>
N-AH0- T-IY0</w>
L-IH1-T-ER0-AH0- CH-ER0</w>
L-IH1- M-AH0-
L-AA1- T</w>
K-AH0- D-EH1-
JH -IY1-N</w>
G-L-AE1- S</w>
D-R -AH0-L</w>
B-AA1- K-
AH0-D-M-IH1-N-AH0- S-T-R
AE1-K- T-ER0</w>
S-AW2- TH-IY1-S-T</w>
R-IH0-P-AO1-R- T-AH0-D</w>
P-R-IY0- P-EH1-
P-AH0- Z-EH1-
N-IH0- K-S</w>
L-IY1- V-IH0-NG</w>
JH-ER1- Z-IY0</w>
JH-EH2- N-ER0-
G- L-OW1-
F-R -IH0-
F-OW1- N</w>
S-IH1-NG -IH0-NG</w>
S-AH1- L-
R-IY1- Z-AH0-N</w>
R-IY0- T-AY1-
P-ER0- T-EH1-
P- OW2-
M-AE2-N-Y-AH0-F-AE1-K- CH-ER0-
K-AH1- P</w>
K-AH0- M</w>
JH -EY1</w>
HH- W-AH1-T-S</w>
AE1- B-
Z -AH0-S</w>
V -AE2-
R-OW1- Z</w>
R-IH0- G-AA1-R-
P-ER0- HH-AE1-
M-OW1- S-T-L-IY0</w>
K-L -EY1-M</w>
D-R -AY1</w>
AE1- S-AH0-
TH-R -IY1-
S-EH1-P- SH-AH0-N</w>
P-ER0-HH-AE1- P-S</w>
M-EH2-T-R-AH0- P-AA1-L-AH0-T-AH0-N</w>
M-AE2- S-AH0-
M-AE1- N-
L-IH0- SH</w>
L-IH0- JH-IH0-Z</w>
L-EH1- V-AH0-L-Z</w>
K-OW1- T</w>
IH1-N- S-T-AH0-T-UW2-T</w>
IH1- N-S-AH0-
D-IY1- L</w>
B-EH1- R</w>
B-AA1- K-S</w>
AH0-S-OW1-S-IY0- EY2-T-AH0-D</w>
SH-AA1- P</w>
S-EH1-T-AH0- L-D</w>
M-AH0-M-AO1- R-IY0-AH0-L</w>
L- OW2</w>
K-AE0-M-P-EY1- N</w>
JH-UW1- N-Y-ER0</w>
IH0-K-W-IH1- P-M-AH0-N-T</w>
AY1- R-IH0-SH</w>
AA1-R- T-AH0-S-T</w>
S-IY1- K-W
P-R -AO1-
NG-G- W-AH0-
L-IH1-M-IH0- T-IH0-D</w>
L-IH1- S-T-AH0-D</w>
K-W -AO2-R-
HH-AE1- N-D-Z</w>
F-IH1- N-IH0-SH</w>
F-AH1- NG-K-SH-AH0-N</w>
-EH1- T-IH0-K</w>
Y-UW2-N-AH0-V-ER1- S-AH0-
Y -UH0-
S-P-IH1- R-IH0-
S- L-IH1-
R-IH0-Z -AY1-
P- Y-AH0-
P -EY1</w>
M-P -AY0-
M-OW1- S-L-IY0</w>
M-EH1- L-
L -EH0-
AY1-ER0- L-AH0-N-D</w>
AO0-S-T-R-EY1- L-Y-AH0-N</w>
AH0- D-AH1-
-EH2- S-T-ER0</w>
R-IH0- M-EH1-M-B-ER0</w>
N-IY1- D-IH0-D</w>
M-AA1-D-AH0- L-Z</w>
L-AH0- T
K-EH1-R-AH0- K-T-ER0-Z</w>
K- T-L-IY0</w>
JH -AE1-K-
IH1-N-T-R-AH0- S-T</w>
D-IH0-S- K-AH1-V-ER0-D</w>
B-IH0-G-IH1- N-IH0-NG</w>
S-EH1-K-AH0-N- D-EH2-R-IY0</w>
S-AO1- L-T</w>
R-EH1- JH-IH0-
P-ER0- D-AH1-K-SH-AH0-N</w>
P-AE1- K-IH0-
OW2- V-ER0-
L-AE1- T-ER0</w>
K-AH1-V -ER0-Z</w>
D-W -AO2-K</w>
D-IH1- D-AH0-N</w>
D-IH0- S-T-R-IH1-
B-R-AE1- N-CH</w>
AH0- P-IY1-
AE0-K- S-EH1-
-EY2- K</w>
Z-IH0- G-N
R-EH1-L-AH0- T-IH0-V-L-IY0</w>
P-AH2- B-L-IH0-
IH0-N- JH-OY1-
IH0-L-EH1-K- T-R-IH0-K</w>
G- Z-AE1-
D-IH0-S-IH1- ZH-AH0-N</w>
B -AE2-K</w>
AY1- D</w>
V-AE1-L- Y-UW0</w>
S-P-OW1- K</w>
R-IY0-L-EY1-SH-AH0-N- SH-IH2-P</w>
R-EH1-G-Y-AH0-L -ER0-L-IY0</w>
K-EY0- T-AH0-D</w>
B -ER2-
W-EH1-B- S-AY2-T</w>
S- L-AE1-
M-EH1-TH-AH0- D-Z</w>
L-AE1- NG-G-W-AH0-
K-AH0-L-AH1-M-B -IY0-AH0</w>
HH -AA2-
D-AW1- N-
CH- OY1-
-AO2- G</w>
W-AO1-R- D-Z</w>
T -AH0-N-S</w>
N-IH0- T</w>
M-AA1-R- K-AH0-T</w>
K-R -UW1</w>
K-AA1-R- Z</w>
IY1-Z -AH0-L-IY0</w>
F-IY1- T</w>
D-R -UW1</w>
B-R -IH0-
AE1- G-R-IH0-
-AA2- T</w>
T-R-AE1- N-S-
R-IY0 -AH0-L-Z</w>
P-R-AH0- S-IY1-
HH-AY1- AH0-S-T</w>
HH -AY0-
F-IH1-Z-IH0- K-AH0-L</w>
F- T-ER0-
V-EY1- N-Y-AH0</w>
S-IH1-L- V-ER0</w>
S -AE2-
R-EH2- Z-ER0-V-EY1-SH-AH0-N</w>
L -AW1-
IY1- V-
F-T-ER0- N-UW1-
F-AH0-L-AA1- S-AH0-
D-R-IH1- NG-K</w>
AO1-R-AH0-N- JH</w>
AE1-G-R-IH0- K-AH2-L-CH-ER0</w>
S-K -EY2-
S-AH1-M- W-AH2-N</w>
R-IY0-K-W-AY1- ER0-D</w>
P-R-AY1- M</w>
NG- K-IY0</w>
N-EY1- V-IY0</w>
N -AO1-R</w>
M-UW1- V-IH0-NG</w>
M-EH1- K-
L-AY1- F-
IH2-N- S-T-IH0-T-UW1-
EY1- D</w>
D-IH0-F-EH1- N-S</w>
B-L -EH1-
AH2-N-D-ER0- S-T-AE1-N-D</w>
AE2- F-T-ER0-N-UW1-
-AA2- K</w>
S-P -IH0-
S-IH0-K-Y-UH1-R-AH0- T-IY0</w>
S-IH0- JH</w>
P-AA1-R- L-AH0-
OW1-L- D-AH0-S-T</w>
OW0- HH-AY1-
N-AH0- L-D</w>
G -AY1</w>
F-AY2- N-AE1-
D-IH0- M-AE1-
D-EH2- M-AH0-
D-EH1- D-AH0-
B-R-OW1- K-AH0-N</w>
W -AH0-L-IY0</w>
S-OW1- L</w>
P-R-AA1-B-AH0- B-L-IY0</w>
N-IY1- D-Z</w>
M -IY0-Z</w>
F-IH1- L-AH0-
EH1-N-JH-AH0-N-IH1- R-IH0-NG</w>
AH0-T-EH1- M-P-T</w>
AH0- L-OW1-N</w>
T-IY1- CH-ER0</w>
S-T-IH0- K-AH0-L</w>
S-IY1- M</w>
S-ER0-AW1- N-D-IH0-NG</w>
P-EY1- N-T-IH0-NG</w>
O Y2</w>
N-AO1-R- M-AH0-L</w>
G-R-AE1- F-IH0-K</w>
G-EY1- N-D</w>
F-IH1- L-D</w>
AH0-B- JH-EH1-
Y-UW1-N-AH0- F-AO2-R-
Y -OW1-
T-R-IY1- T-M-AH0-N-T</w>
S-AH1- N-
R-IY1-S -AH0-N-T-L-IY0</w>
K-R-IH1- S-CH-AH0-N</w>
K-R-EY1- T-ER0</w>
HH-EH1-D- K-W-AO2-R-
HH-EH1- R-IH0-
G-AH1-V-ER0- N-M-AH0-N-T</w>
S-T-R -IY0-Z</w>
S-AO1-R- S-AH0-Z</w>
S-AH0- T-S</w>
R- OW0-Z</w>
OW0-HH-AY1- OW0</w>
N-AA0- N-
K-AH0-N- V-ER1-
JH-EH1- N-ER0-
F-R-EH1- N-D-Z</w>
F -ER0-Z</w>
EH1- N-
AE1-L-B-AH0- M-Z</w>
AA1-R- T-AH0-
-AY2- R</w>
Z-AH0- N-D</w>
S-W-IH1- M-IH0-NG</w>
S-P -AO0-R-T</w>
R-IH0- Z-IH1-
R-IH0- P-IY1-
R-EY1- L</w>
P-R-AA1- S-EH0-
P-EY1- SH
K-AH1- M-
JH-OW1- N-Z</w>
IH0-N-D-AH1- S-T-R-IY0-AH0-L</w>
IH0-N- S-T-R-AH1-
HH-AE1- N-D-
F-EH1- D
D-R -EY1-
D-IY0- OW2-Z</w>
D-IH0-S-T-R-OY1- D</w>
B-L -UW1-
Y-UW0- N-IY1-K</w>
V-AY1- S</w>
R-UH1- R-AH0-L</w>
P-R-EH1- Z-AH0-
P- OW0-
M-IY1- T-IH0-NG</w>
K-L-AE1- S-IH0-K-AH0-L</w>
IH0-N-T-EH1- L-AH0-JH
IH0-K-S- K-L-UW1-
G -AO1-R-
D-IH0- P-IH1-
B-R-IH1- T-AH0-N</w>
B-R -AW1-
B-IH0- HH-EY1-
B-ER1- OW2</w>
AH0-K- S-EH1-P-
-AH0-L -EY1-SH-AH0-N</w>
V-AH0-N- UW
S-EH1- L-Z</w>
R-IH0- M-EY1-N</w>
P-R-AH0- JH-EH1-
F-R-UW1- T</w>
F-L-AW1- ER0-Z</w>
F-IH1- L-IH0-
D-R-AA1- P-T</w>
D -AH0-N-Z</w>
CH-EH1-R- M-AH0-N</w>
B-EH1- N-AH0-
AE1-K- T-IH0-NG</w>
S- W-AA1-
R-IH1- NG</w>
P-R-AY1- ER0</w>
P-ER1- P-AH0-
N-CH- T</w>
M-EH1-N- SH-AH0-N-D</w>
M-AE2-TH-AH0- M-AE1-
K -AO1-R</w>
HH-IH1- L-Z</w>
G -EY2-T</w>
F-IH1-G-Y -ER0</w>
B-IH1-SH-AH0- P</w>
B -EH0-
AH0-T-EH1- M-P-
-UH2- T</w>
S-L-AY1- T-L-IY0</w>
S -AH2-
P-R-IH0- V-EH1-
P-ER0-F-AO1-R- M</w>
P-EH2- N-S-AH0-L-
P-AA1-R- K-S</w>
M-EH1-K- S-AH0-K-
M-AH0- Z</w>
HH-EH1-V -AH0-L-IY0</w>
G -IY0</w>
F-AO1-R- M-ER0-
F-AA1-R- M</w>
D-EH1-D-AH0- K-EY0-T-AH0-D</w>
B-IH0-K-AH1- M-Z</w>
B -IY2
B -ER0-Z</w>
AH0- G-OW1</w>
AE1- S-
AE0- M-
T-UH1- R-
P-R-AH0-V-AY1- D-AH0-D</w>
OW1-P -AH0-N-IH0-NG</w>
M-EH1-N-T -ER0-IY0</w>
M- Y-AH0-L
L -EY1-SH-AH0-N</w>
K -AO0-
JH- OW1</w>
EH0-K-S-T-R-IY1- M-L-IY0</w>
-UH1- R-IY0</w>
V -ER0
T-R-AY1- IH0-NG</w>
SH-EY1- P</w>
S-EH1- Z</w>
M-AA1-R- K-IH0-T</w>
K-AH0-M- Y-UW2-N-AH0-
F-AO1-R-M-ER0- L-IY0</w>
D-IH1- JH-IH0-
B-IY2 -AO1-N-D</w>
-AY2- Z-IH0-NG</w>
T-UH1-R- N-AH0-M-AH0-N-T</w>
T- L-AE1-
S-AY1- D-W-AO2-K</w>
N-AO2-R- TH-W-EH1-S-T</w>
K-R-IY0- EY1-SH-AH0-N</w>
K-AO2-R -AH0-
K-AH2- M</w>
F-IH2- L-AH0-
AE2- K-AH0-D-EH1-
V -AH0-N-T</w>
T-UW1- N</w>
T-R-AE0-N- Z-L
S-EH1- N-S</w>
R-IY0- M-UW1-V-D</w>
P- L-OW1-
K-AO1-R- N-ER0</w>
HH-AA1- K-IY0</w>
-AY 2-R
W-IH1- T-
S-T-R-EY1- T</w>
P-EH2-N-S-AH0-L- V-EY1-N-Y-AH0</w>
P -AO0-R-
NG- HH-AE2-M</w>
N-T -AE1-
N-OW1- T-AH0-D</w>
K-IH1- D-Z</w>
K- S-IH0-
IY1- K-W
D- OW2</w>
AH0-P-OY1- N-T-IH0-D</w>
AH0- B-AE1-
V-AE1- N</w>
S-IH0- G-N-IH1-F-IH0-K-AH0-N-T</w>
S-AY1- T-S</w>
R-UW1- L</w>
R-OW1- L-Z</w>
R-IH0- K-W-AY1-
M-Y-UW0-Z-IY1- AH0-M</w>
K-AH0-N-T-R-IH1-B-Y-UW0- T-IH0-D</w>
K-AH0-N-S-IH1- D
K-AE1- N-
K- S-AH0-N</w>
IH0- NG-Z</w>
F -AH0</w>
DH-AH0- L-EH1-S</w>
D-R-AY1- V-IH0-NG</w>
AH1- L-T-AH0-
AH0-N- L-AY1-K</w>
AE2- L-
S-P-AO1-R- T</w>
S-K-AA1- T-IH0-SH</w>
R-IY0- S-IY1-V-D</w>
R-IH0-L-IH1- JH-AH0-S</w>
P-L-AE1- N-Z</w>
L-EY1- B-AH0-L</w>
L-AA1- JH-IH0-K-AH0-L</w>
IH0-N-V-AY1- R-AH0-N-
G-OW1- L</w>
F-OW1- T-AH0-G-R-AE2-
D-ER0-AY1- V-D</w>
AW 2-
-AH0-L -AY2-Z-D</w>
V-AH0- T-IY0</w>
T-R-AH1- S-T</w>
S-P-L-IH1- T</w>
P-EY1- D</w>
P-AE1- S</w>
N -ER0-D</w>
K-AO2-R-AH0- S-P-AA1-
K-AH0-M-Y-UW1-N-AH0- T-IY0-Z</w>
D-L -AY2-
D- N-IY0</w>
Y -AA1-R-
W-AA1- CH</w>
S-AH0-K-S-IY1- D-IH0-D</w>
R-EY1- S-IH0-NG</w>
P-R-AH0- T-EH1-
P-AA1-R-L-AH0- M-AH0-N-T</w>
M-EH1-K-S-AH0-K- OW2</w>
L- Z-
K-EH2-R-AH0- L-AY1-
K-AH0-N-T-EY1- N</w>
K-AE1- S-T</w>
IH1- N-T-AH0-
AH2-N-IH0- N-
AH0- T</w>
P-R-AO1- S-EH2-S</w>
N-T -ER0-D</w>
M-AH0- K-AE1-
IH2- N-ER0-
D-IH0-S-T-IH1- NG-G-W-IH0-
B-R-EY1- K</w>
B-IH0-G-IH1- N-Z</w>
B-EY2- S-T</w>
AH0-L -AW1</w>
-AY2 -AH0-N-IH1-
V- M-AH0-N-T-S</w>
V -EH2-R-IY0-
T-IH0- N</w>
S-T-AE2- N</w>
S-T -AO1-R-D</w>
S-AH0- F-AY2-D</w>
P-EY1- JH</w>
N-AH1- N</w>
L-EY1- D</w>
JH- OY1</w>
IH1- T-AH0-L-IY0</w>
IH0-L-EH1-K- T-R
G-L -EH1-
F-AA1-L-OW0- Z</w>
D-IH0- T-EH1-
CH -OW1-
B-IH0- K</w>
AH0-K-ER1- Z</w>
-AO2-R -IY0-Z</w>
T-EH1- L-Z</w>
SH -IY0</w>
S-T-AA1- P-T</w>
R-IY1- AH0-
P-AE1- TH</w>
N-AO2-R- TH-IY1-S-T</w>
M-OW1- SH-AH0-N</w>
M-AE1- N-ER0</w>
K-R-IY0-EY1- T</w>
K-AH0-N-D-IH1- SH-AH0-N</w>
K-AH0- M-B
K-AA1- M-P
K -AO2-
HH-EH1-D- K-AO2-R-
HH- W-AY1-T</w>
F-AO1- R-AH0-N</w>
D-AW1- N-T
AH0-T-EH1- N-SH-AH0-N</w>
-ER0 -AH1-
TH-IY1- M</w>
T-W -EH2-
S-EH1- N-AH0-
R-AH0- M</w>
K-L-AH1- B-Z</w>
IH0-N-T -IH1-
G-R-AE1- F-IH0-
F-AY2-N-AE1- N-SH-AH0-L</w>
P-L -AA1-
M-AE2-S-AH0- CH-UW1-
JH-EH1- N-AH0-
G-AE1- S</w>
ER1- N-D</w>
ER1- B-AH0-N</w>
EH1-L- S</w>
AH0-TH -AO1-R-AH0-T-IY0</w>
AH0-D-AA1- P-T-AH0-D</w>
W-AO1- L-Z</w>
V -EY2-T-IH0-D</w>
T-OW1- T-AH0-L</w>
T- M-AH0-N-T-S</w>
S-AH1-N-D -EY2</w>
P-R-IH1- N-S</w>
P-R-EH1- SH-AH0-N</w>
P-OW1- S-T-
P -IH0-K</w>
M-AE2- T</w>
M -AO2-R</w>
L-IH1-R-IH0- K-S</w>
L -IH2-Z-AH0-M</w>
K-W -AH0-N-T</w>
K-R -IY2-
K-AE1-M-ER0 -AH0</w>
JH-AE1- Z</w>
JH-AE1- K</w>
F-R-EH1- N-Z</w>
F-R-AE1- NG-K</w>
F-IY1- L-D-Z</w>
F- T-IY0</w>
V-AH0-N-UW 2</w>
T-IH0- JH</w>
T-EY1- L</w>
T-EH1- M-P-AH0-L</w>
T-AO1- P</w>
S-P-EH1- SH-AH0-L-IY0</w>
R-IY0-S-P-AA1- N-S-AH0-B-AH0-L</w>
R-AE1- P-AH0-
P-R-AH0- P-OW1-
N -ER0-IY0</w>
K-AE1- T</w>
JH-EH0- K-T-S</w>
JH-AA1- N-S-AH0-N</w>
G -AA0-
F-L-AY1- T</w>
F-IH1- SH-AH0-L</w>
B-AH0- L-D</w>
AE1- M-AH0-
-AA1- L-AH0-JH-IY0</w>
SH -AO1-R</w>
R-IH1- V-ER0-Z</w>
R-IH0- T-IY0</w>
P-AH0- S-IH1-F-IH0-K</w>
NG-G-AH0- S-T</w>
NG- K-AH0-N</w>
M-EH1- M-ER0-IY0</w>
M-AH0- SH-IY1-
K-T-ER0- IH1-
K-R-AE1- T-IH0-K</w>
K-AA1-N-T-R -AE2-K-T</w>
HH-OW1- L-
G-R -AW1-
F-UH1- T</w>
F -AO1-L</w>
ER0- IY0</w>
EH1- N-T-ER0-
D-AY1- AH0-L
D -AO1-R-Z</w>
B -AY0-
AO1-F-AH0- S-ER0</w>
AH0- S</w>
AE1- D-AH0-D</w>
-EY 2
T-W-EH1-L- V</w>
T-AO1-R- D-Z</w>
S-AH0- P-OW1-Z</w>
S- K-AH1-L-
P-R-EH1- S-T</w>
P-R-AH0-D-UW1- S-ER0</w>
P-R-AH0- P-OW1-Z-D</w>
N-EH1- T</w>
N-AH0- B-AH0-L</w>
M -AO0-
K-R-IH1- T-IH0-
HH-OW1- S-T-S</w>
G-R-OW1- TH</w>
F-AH1-NG-K- SH-AH0-N-Z</w>
D-IH0-S- P-L-EY1</w>
D -AY1</w>
AH1- NG-K-AH0-L</w>
Y-UW1- V</w>
W-EY1- T-IH0-NG</w>
V -AO1-R-
V -AA2-
R-IY1- JH-AH0-N-Z</w>
N-AA0- T</w>
N -IY0-AH0-L</w>
K-W -AO1-R-
K-R -AW1-
K-R -AH1-
K-AH0-N- K-L-UW1-
IH1-N-F-L-UW0 -AH0-N-S-T</w>
EY1- ZH-AH0</w>
Z -AY1-
W-UH1- D-AH0-N-T</w>
W -AY2-Z</w>
S- W-EH1-
R-AH0- F-ER1-D</w>
P-R-AA1- K-S-AH0-
P-R -EH0-
P -AH0</w>
K-EH2-R-AH0-L-AY1- N-AH0</w>
K-AA1- NG-
F-AY1- T-IH0-NG</w>
F-AE1- S-T</w>
EH1- N-D-IH0-D</w>
B-ER1- TH</w>
AH0-S-EH1- M-
AE1-N-AH0- M-AH0-L</w>
AE1- L-AH0-
AE0-D- M-IH2-N-IH0-
AE0- N-T-IH1-
-IY1- D</w>
T-AA1- M</w>
S-K -AA1-R-
S-IH2-CH-UW0- EY1-SH-AH0-N</w>
S-ER1- V-IH0-NG</w>
S-AH0- L-EH1-
S -AY2
R-IY0- N-EY1-M-D</w>
P-L-EY1- L-IH1-S-T</w>
P-EY1- T-R
P-AO1-R- SH-AH0-N</w>
P -AY2-AH0-N-IH1-
N-EH1- S-AH0-
M-AE2-S-AH0-CH-UW1- S-AH0-T-S</w>
K-EH1- R-IY0-IH0-NG</w>
K-AH0-N- S-UW1-
K -IY0-Z</w>
IH0-N-K-R-IY1- S-T</w>
F-AA2- DH-ER0</w>
F -IH0-NG</w>
D-IH0- N-AY1-
AY1- DH-ER0</w>
AH0- K-AW1-N-T</w>
AA0-R- T-IH1-
-IY0-AA1- L-AH0-JH-IY0</w>
-AH2- P</w>
S-P-EH1-SH -L-IY0</w>
S-K-AA1- T-L-AH0-N-D</w>
R -AY0-
P-R-IH1- Z-AH0-N</w>
P -AH0-N-Z</w>
M-IH1- L-IH0-
M-IH0- T</w>
L-AY1- T-
K- Y-UW0-
JH-EH1-N- R-AH0-L</w>
JH- Y-UW0-
IH0-N- S-P-AY1-
HH-UW1- M</w>
F-AO1-R- CH-AH0-
F-AE1- N-Z</w>
AH0-V-OY1- D</w>
AH0-L-AW1- Z</w>
AH0-K-ER1- D</w>
AH0- P-OW1-
AA1-R- M</w>
Z-IY1- L-AH0-N-D</w>
Y -AH0</w>
W-EY1- L-Z</w>
V- Y-UW2</w>
TH -AH0-N</w>
SH-AH0- L-Z</w>
SH -AY1-
S-UW 1</w>
S-T-AH0- T-UW1-
S-P-IY1- K-IH0-NG</w>
S-K -AO1-R</w>
R-IH1- CH</w>
P-R-IH1- T-IY0</w>
P-AH0- T-EH1-
K-AH1- L-ER0-
K-AE1- N-S-ER0</w>
F-EH1- R</w>
EH1-V-R-IY0- W-AH2-N</w>
EH1-D-W -ER0-D</w>
EH1- T</w>
EH1- M-P-AY0-
D-AH1- B-AH0-L</w>
CH-OY1- S</w>
B-EY1- S-IH0-K</w>
AY1-ER0- N</w>
AH0-G-EY1- N</w>
AH0- P-R-AA1-K-S-AH0-
-AH0-N -IY0</w>
T-ER1- N-IH0-NG</w>
T-EH1- R-IH0-
SH-OW1- IH0-NG</w>
S-EH1- K-R-AH0-
S- M-AH0-N</w>
R-EH1-K-AH0-G-N -AY2-Z-D</w>
P -ER1</w>
L-IH1- B
K-W-AA1- L-AH0-
K-R-AY1- D</w>
K-L-OW1- S-L-IY0</w>
K-L-EY1- M-Z</w>
HH-OW1- S-T</w>
F-L -UW1-
CH-EY1- N</w>
B-EH1- N-CH</w>
AH0-K-EY1- ZH
AE1- M-
W-AA1- CH-IH0-NG</w>
T-AY1- T-AH0-L-Z</w>
S-IY1- N-Y-ER0</w>
S-IH2- Z-AH0-M</w>
S -EH2-R-IY0</w>
R-UW1- T-S</w>
JH-ER1- N-AH0-
EH1- N-D-Z</w>
D-R-IH1- NG-K-IH0-NG</w>
D-IH0- SH</w>
AH0-N-AE1- L-AH0-
AE1-D-V-ER0- T-AY2-
AE0-K-T-IH1-V-IH0- T-IY0</w>
Y-UW1- S-F-AH0-L</w>
S-AY2 -AH0-N-T-IH1-
P-L -EY2-S</w>
P-AO1-R- CH-AH0-
M-IH1- S-T</w>
L -IY0-AH0-N</w>
K-R -OW0-
K-L -AA1-R-
K-IH0- N</w>
K-EH1- R-IY0</w>
K-AH1-M- F-ER0-
K-AH0-M-P -IY1-
K-AE1- N-AA0-T</w>
HH-AW1- S-AH0-Z</w>
G-IH1- T-IH0-NG</w>
G -IH0-NG</w>
F-AW1- N-D-ER0</w>
F-AE1- M-
F- T-S</w>
EH2- N-T-ER0-
D-IY0 -AH0-N-S</w>
D-EH1- K-EY0-
D-AH0- B-EY1-
AH0- P-L-AY1-D</w>
AH0- M-EH1-R-AH0-K-AH0-N</w>
-AE0- T</w>
W-AO1- K-S</w>
TH-IY1-AH0- T-ER0-Z</w>
S-P -AA1-R-
S-ER1-V-IH0- S-IH0-Z</w>
S-EH1-R-AH0- M-OW2-
N-EH1- G-AH0-
M- OW0</w>
K-AO2-R- P-ER0-EY1-SH-AH0-N</w>
K-AH0-N-S-ER1-V-AH0- T-IH0-V</w>
IH0-S-K-EY1- P</w>
IH0-N- HH-AE1-B-AH0-
F-OW1- K-AH0-S</w>
EH1- K-SH-AH0-N</w>
CH -AO1-
B-R-OW1- K</w>
B-AY1- S-IH0-K-AH0-L</w>
S-K -AH0</w>
R-EY1- N-JH
R-AY1- D</w>
L-IY1- D-Z</w>
IH1- L-AH0-
G-R-AE1-JH-AH0-W -AH0-T</w>
F-UH1- L-IY0</w>
F-AE1- K-T-ER0-IY0</w>
D-IH0- F-AY1-N-D</w>
D-AW1-N-T -AW1-N</w>
D -EY2-Z</w>
B- OW0</w>
AO1- R-IH0-
AH0-N- Y-UW1-ZH
-AH0- D-Z</w>
-AE0- K</w>
Y-UW2-N-AH0-V-ER1-S-AH0- T-IY0-Z</w>
W-AY1- N</w>
T -ER0-AH0-L</w>
S-M-AY1- L-IH0-NG</w>
S-EY1- L-Z</w>
S-EH1- K-SH
S-AO1- F-T</w>
S- K-OW1-
R-EY1- N-
P-OW1-AH0- T-R-IY0</w>
M-AA1-R- SH-AH0-L</w>
L-IH1- T-ER0-
JH-IY1- N-AH0-S</w>
JH-AH1- M-P</w>
IH1-N-S-T-R-AH0- M-AH0-N-T-S</w>
G-ER0- IH2-
F-IH1-F- T-IY0</w>
EH0- N-D
D-UW1- S</w>
D-IH1- F-ER0
ZH -AA1-
W-AH1- N-Z</w>
R-IH0-Z -ER1-
P-R-AA1-D-AH0- K-T-S</w>
L-IH1- S-T-IH0-D</w>
K-AA1-N-S-AH0- K-W
F-IH1- R</w>
F-IH0- T</w>
EH1-N-JH -AH0-N</w>
D-AA1- K-Y-AH0-
CH-AE1- N-AH0-L</w>
B-R -AH0</w>
B-AO1-R- D-ER0-Z</w>
AH0- S-P-EH1-SH-L-IY0</w>
AH0- JH-EY1-
AE0-D-M-IH2-N-IH0- S-T-R-EY1-SH-AH0-N</w>
Y-UW1- L</w>
T-ER0- IH0-NG</w>
S-K-AH1-L- P-
S-AH1-B-S-AH0- K-W-AH0-N-T</w>
R-IH0- P-L-AY1-D</w>
N-Y -AH0-N-Z</w>
K-L-AA1- K</w>
K-AO1- Z-D</w>
JH-IY1- N-Z</w>
IY1-V- N-IH0-NG</w>
IY1- T-IH0-NG</w>
IH0-K-S-T-EH1- N-S-IH0-V</w>
G-R -OW1</w>
F-IH1- K-SH-AH0-N</w>
AE1- V-AH0-N-UW2</w>
AE1- F-R-IH0-
W-AA1- SH-IH0-NG-T-AH0-N</w>
S-T-R -OW1-
S-EH1-K-R-AH0- T-EH2-R-IY0</w>
S-AH1-B-ER0- B</w>
S -IY2-Z</w>
R-IH0-Z-AH1- L-
R-AH0- L-IY0</w>
R-AH0- G-AA1-R-
P-R-IH0- Z-ER1-
N-S -ER0-
N-IH1- R-AH0-S-T</w>
N-EY1-B-ER0- HH-UH2-D</w>
N- T-L-IY0</w>
L- S-AH0-N</w>
K-AH0-M-P-L-IY1- T-IH0-D</w>
IH1- N-T-R
IH0-N-IH1- SH-AH0-L</w>
HH-AE1- N-Z</w>
G-OW1-L- D-AH0-N</w>
F-L -AO1-R-AH0-
F-EH1- R-IY0</w>
B-IH0- T</w>
AH0-D-M-IH1-N-AH0-S-T-R -EY2-T-IH0-V</w>
AH0-D-IH1- SH-AH0-N-AH0-L</w>
AH0-D- M-IH1-
AE2-F-T-ER0-N-UW1- N</w>
AA1- K-S-
-AY2- Z-IH0-Z</w>
-AH0-L -IH0-NG</w>
W-AA1- N-T-AH0-D</w>
TH -ER0</w>
T-EY1- N-M-AH0-N-T</w>
S-T-EY1- T-IH0-D</w>
S-T-AE1- CH
S-P -ER1-
M-AY1- N</w>
L-IH0- NG-Z</w>
K-AA2-N- S-T-AH0-T-UW1-
HH-AE1- F-
EH1- N-T-ER0-D</w>
EH1- M-P-ER0-
D-IH2- S-T-R-AH0-
D-IH1- N-ER0</w>
D-IH0-S- P-Y-UW1-
AE1-K- T-R-AH0-S</w>
V-EH1- R-IY0
T-EH1-R-IH0- T-AO2-R-IY0</w>
OW1- N-ER0</w>
K-AE1-T-AH0- G
IH0-L-EH2-K- T-R-AA1-
D-IH0- S-EH1-N-T</w>
AH1- DH-ER0-
AH0-JH-EY1- S-AH0-N-T</w>
AH0-D-V-AE1- N-S-T</w>
V -IY0-AH0</w>
T-R-AE1- V-AH0-L</w>
S-K -AY1</w>
S-IH1- T-IH0-
S-AY2-AH0-N-T-IH1- F-IH0-K</w>
P-R-AH0- V-IH1-
P-L-AE1- N-D</w>
N-CH -IH0-Z</w>
M-AH2- L-
M-AH0-T-IH1- R-IY0-AH0-L-Z</w>
M-AH0-N -AH0-N-T-L-IY0</w>
K-AH0-N-T-EH1- M-P-ER0-EH2-R-IY0</w>
K-AH0-M-P -AE1-
K-AH0- L-OW1-
JH-IH1- M</w>
HH -UW1-Z</w>
F-IH1-F- TH</w>
EY2- T-IH0-NG</w>
EH1-M-P-AY0- ER0</w>
EH1- JH</w>
D -EY2-L</w>
B-L-AE1- K-
AO2-R- G-AH0-N
T -IY2-N</w>
S-IH0- V-L-IY0</w>
S-AH0-P-AO1-R- T-AH0-D</w>
S-AH0-L-UW1- SH-AH0-N</w>
N-S-AH0- S</w>
N-D -L
N-AA1- V-AH0-L-Z</w>
M-IH1-N-AH0- T-S</w>
M-EH1- D-AH0-L</w>
M-AE1- G-
K-R -AW1-N</w>
K-AO1- L-Z</w>
K-AA1-N- F-L
K-AA1- M-
K- T-IH0-
IH2- L-AH0-N-
IH0-K-S- P-L-EY1-
F-IH1-SH -AH0-N-T</w>
AH0-N-AW1- N-S-T</w>
AH0-G-EY1- N-S-T</w>
V-AA2- L-AH0-N-
R-EH1- S-T
P-ER2- S-AH0-
P-AW1-ER0- F-AH0-L</w>
OW1- V-ER0
O Y0-
N-IH0- S-T</w>
M-EY0-N-T-EY1- N-D</w>
L-IH1- S-AH0-N</w>
L-EY1- K-S</w>
K-AH0-N-T-EY1- N-D</w>
K-AH0-M-IH1- SH-AH0-N</w>
JH-OY1- N</w>
IH1- N-T
IH0-N- V-EY1-
G-EH1- S-T</w>
F-AH0- T-AA1-
EH2-K-AH0-N-AA1- M-IH0-K</w>
D-R -AO1-N</w>
D-EH1- N-CH-AH0-L</w>
D-AH0- L-
AA2-P-ER0- T-UW1-
S-AW2- TH-W-EH1-S-T</w>
R-IH0- S-P-EH1-
P-R-EH1-Z -AH0-N-S</w>
P-R -AA0-
N-EH1-S-AH0- S-EH2-R-IY0</w>
M-B -ER0-D</w>
M -AA0-R-
L -AY0-
IY1- N-AH0</w>
HH-OW1- M-Z</w>
HH-AW1- S-IH0-Z</w>
F-AE1-M- L-IY0-Z</w>
D-IY1-T-EY0- L-Z</w>
D-IH1- D-AH0-N-T</w>
AE2-P-L-AH0- K-EY1-SH-AH0-N-Z</w>
-EH2- N-D</w>
W-IH1-L-Y -AH0-M-Z</w>
V-AH0- L-D</w>
V-AA1-L- Y-UW0-
T-R-AH0-D-IH1- SH-AH0-N</w>
T-R-AE1-N- S-P-AO0-R-T</w>
S-T -EY1</w>
S-AE1- N-D</w>
N-UW1- K-L
M-AY1- K</w>
K-AH1- L-ER0-D</w>
K- W-IH0-
K- OW2
IH0-N-V-AY1-R-AH0-N- M-AH0-N-T</w>
IH0-N-T-IH1- R-IY0-ER0</w>
HH-AE1- M-P-
F-L-AE1- T</w>
F-AH0-S-IH1- L-IH0-T-IY0</w>
D-ER0-EH1-K- T-L-IY0</w>
Z-AH0- M-Z</w>
W-IH1- N-D</w>
T-W -EH2-R</w>
S-AH1-M- W-AH1-T</w>
P-EH1- R-IH0-S</w>
M-IH1- SH-IH0-
L-EY1- N</w>
K-AA1-N-T-EH0- N-T</w>
K- T-IH1-
IH0-K-S- P-L
IH0- S-T</w>
G-R-EY1- D</w>
D-AE1- N-S-IH0-NG</w>
B-R-AO1- D</w>
B-AH0- T-S</w>
AH1-DH-ER0- W-AY2-Z</w>
AH0-D-IH1- SH-
AH0- S-P-EH1-SH-AH0-L-IY0</w>
AE2-K-AH0-D-EH1- M-IH0-K</w>
W-ER1- L-D-
S-K- OW2-
S-EH1- P-R-AH0-T</w>
R-IY0 -AH0-N-Z</w>
P-AA1- P</w>
N-ER0- SH-IH2-P</w>
M-EH1-D-AH0- K-AH0-L</w>
M-AE1-N-IH0- JH-M-AH0-N-T</w>
L-AE1- K</w>
K-AH0- Z</w>
K-AE1-P- CH-ER0-D</w>
F-IH1- L</w>
EH2-L-AH0- M-EH1-
EH1- R-AH0</w>
D-IH1-S-T-R-IH0- K-T-S</w>
D-EH1- L-AH0-
B-IH1-Z- N-AH0-
S-AH0- S-T</w>
R- OW1</w>
R -AO1-NG</w>
N-AH0- Z</w>
M-IH1- S-IH0-NG</w>
M -UH1-
L-IH0- T</w>
F-R-EH1- SH</w>
D-IH0-Z -IY1-Z</w>
CH-AE1- N-S</w>
AE1-K- S-AH0-
-I H2-R
-EH2-R -IH0-
T -AH0-N-T-S</w>
S-T -AY2-L</w>
R-UW1- L-Z</w>
R-AE1- F-T-ER0</w>
P-L-EY1- S-IH0-Z</w>
P-L -IY1-
P-EY1- P-ER0-Z</w>
P-ER1- P-AH0-S</w>
N-AY1- S</w>
K-OW1- L</w>
K-AH0-N-S-IH1- D-ER0</w>
K-AH0-N- F-ER1-
JH-AH1- JH</w>
IH0-K- S-P-OW1-
G-IH1- V-IH0-NG</w>
B-ER1- TH-
AE1-L- G-ER0-IH2-
-AH0- W-AH0-L-IY0</w>
T-R-EY1- N-D</w>
S-IY1- Z-AH0-N-Z</w>
S-IH0- K-S</w>
S-EH1- SH-AH0-N</w>
R-IY1- Z-AH0-N-Z</w>
R-IH0-S-P-AA1- N-S</w>
R-IH0- F-L-EH1-
P-R-EH1- SH-ER0</w>
M-ER1- CH
M-EH0- N-T</w>
M-AH0- TH</w>
M-AA1-R- OW2</w>
M-AA1-R- K-S</w>
K-AH0- N-AE1-
JH- N-AH0-L-IY0</w>
JH -IY2-AH0-
IH2-N-D-AH0-V-IH1- JH-AH0-W
HH -IH2-
G-N-IH1-F-IH0- K-AH0-N-
F-AW1- N-D-AH0-D</w>
ER0-IH1- JH-N-AH0-L-IY0</w>
ER0-AY1- V-D</w>
D -UW0-
CH-AE1-M-P-IY0-AH0-N- SH-IH2-P</w>
B-IH0-HH-EY1- V-
AY1- T-AH0-M-Z</w>
W-IY1- K
V-IH1-Z-AH0- B-AH0-L</w>
V -IY0-AH0-T</w>
S-K- W-AA1-
S -AA1-R-
P-R-EH1-Z-AH0- D-EH2-
N-W -AY2-L</w>
N-OW1- T-S</w>
M-IY1- N-W-AY2-L</w>
L-EH1- T-ER0-Z</w>
F-IY1- L-IH0-NG</w>
D-EH1- Z-IH0-G-N
AO1-R-IH0- N-JH</w>
W-UH1- D-AH0-N</w>
V-EH1- N-CH
V -AY0
TH-R -OW1-
T-AH0- L-
S-IY1- Z</w>
S-AA1- R-IY0</w>
R-AA1- K-S</w>
P-EY1- N</w>
M-EY1- L-Z</w>
L-Y -AH0-N-Z</w>
L-IH1-T-ER0- EH2-R-IY0</w>
L -AO0-
K-R -IH2-
K-EH1- M-AH0-
K-AE1- N-D-AH0-
IH1-N-D-AH0- S-T-R-IY0-Z</w>
IH1- M-IH0-JH</w>
G-R-EY1- T-AH0-S-T</w>
G-R-AE1-JH-UW0- EY2-T-IH0-D</w>
G -AH0-N-Z</w>
F-L-AE1- G</w>
EH2-K-S- P-L
D-AH1- CH</w>
B-AA1- B</w>
B- OW2-
AE2-P-L-AH0- K-EY1-SH-AH0-N</w>
AE1-S- K-T</w>
W-AY1- L-D</w>
V-AH0-L -AH0-N-T</w>
T -AO1-L</w>
S-P-AA1- T</w>
S-EH1- L-IH0-NG</w>
R-IY0- S-T-R-IH1-
N -ER0-AH0-L</w>
N -AY2-T</w>
K-AA1-R- D</w>
K-AA1-R- D-Z</w>
JH-IY1- V-Z</w>
JH-AH1- S-T-AH0-S</w>
JH -ER0-IY0</w>
IH2-N-D-AH0-V-IH1-JH-AH0-W -AH0-L-Z</w>
HH-AE1- M-
EH1-K- S-AH0-L
CH-EH1- K</w>
B-IH1- L-AH0-T-IY0-Z</w>
B-EH1- D</w>
AO1-R- D-ER0-D</w>
AO0-L-T-ER1-N-AH0- T-IH0-V</w>
AH2- N-AH0-
AH0-N-Y-UW1-ZH -UW2
-EY2- T-ER0-Z</w>
-AH0- B-AH0-L</w>
W-IY1- K-L-IY0</w>
W-ER1- TH</w>
W-AO1-R- N</w>
W -EH0-
T-R-UW1- TH</w>
T-R-IH1- P</w>
SH-EH1- R</w>
S-T-R-IY1- M</w>
S-T-AO1-R- M</w>
S-IH1- S-T</w>
S-AH0- B-L-IY0</w>
S-AE1- T</w>
R-IY1-S -AO0-R-
P-L -IY0</w>
P- T-IH0-D</w>
N-AY1- N-T
M-UW1- N</w>
M-IH1-SH-IH0- G-AH0-N</w>
K-W-EH1-S-CH -AH0-N-Z</w>
K-EH1- R-
JH -IY0-AA1-
F-R-AE1- NG-
D-IH0-F-IY1- T-IH0-D</w>
CH-AE1-M-P -IY0-AH0-N</w>
B-L -IH1-
AO1-F-AH0- S-ER0-Z</w>
SH-EH1- L-
S-T-R -AA1-
S-T -AH0-N-T-L-IY0</w>
S-OW1- V-IY0-AH0-T</w>
S-EY1- F-T-IY0</w>
S-EH1- M-IH0-
S-AE1- T-AH0-
P-R -AH0-N
P-L-AE1-T-F-AO2-R- M-Z</w>
N -IH2-Z-AH0-M</w>
K-EH2-R-AH0- K-T-ER0-IH1-
JH-AO1-R- JH-AH0</w>
IH0-N-D -IY1-D</w>
IH0-M- P-R-UW1-V-D</w>
DH-EH0- R-AE1-F-T-ER0</w>
D-IH0-Z-AY1- N-Z</w>
D-EH1- N-
AH0- P-EH1-R
AH0- K-W-AY1-
AE2- B-
-IH0- N-
Z -AH0-N
W-EH1- S-T-
V-AY1- AH0-L
T-R-AA1- P-IH0-
S-T-AH0-T-IH1- S-T-IH0-K-AH0-L</w>
S-EH1- T-S</w>
R-IY0-AH0- S-L-IY0</w>
R-AH1- SH-AH0</w>
R-AH0-N- S-AH0-Z</w>
P-R-EH1-Z-AH0-D-EH2- N-T</w>
P-R-AY1- S</w>
P-R -IY2-
P -IY0-AE1-
N-IY1- K-S</w>
M-IH1-L-IH0- T-EH2-R-IY0</w>
M-EH1- K-AH0-
L-OW0- Z</w>
K-AH0- M-EH1-
K-AA1-N-T-R -AE0-
IH0-N-V-EH1- S-T-AH0-
F-AO1-R- M-AH0-L</w>
F-AO1-R- M-AE2-T</w>
F-AH0-L-AA1-S-AH0- F-IY0</w>
AO2-R-G-AH0-N-AH0- Z-EY1-SH-AH0-N-Z</w>
AH0-P-IH1- R-AH0-N-S-AH0-Z</w>
W-UH1- D-
W-IH1- M-AH0-N-Z</w>
T-EH1-K- N-IH0-K-AH0-L</w>
S-AH0- G-N-IH1-F-IH0-K-AH0-N-T</w>
M-Y-UW0- N-IH1-
K-AH0-N-EH1- K-T-IH0-D</w>
G-L -AO1-
EH1-F-ER0- T-S</w>
EH1- TH
D-IH0-S-T-R-IH1- B-Y-AH0-
AH0-S-EH1-M- B-L-IY0</w>
Y-UW0- D</w>
V-AA2-L-AH0-N- T-IH1-
T-IY1- CH-IH0-NG</w>
SH-IY0- EY1-SH-AH0-N</w>
N-EH1-G-AH0- T-IH0-V</w>
M-EH1-D-AH0- S-AH0-N</w>
M-EH1- D-IH0-
M-AE1- S</w>
L-AH0- T-S</w>
L- T-IY0-Z</w>
D-AE1- M</w>
-IY2- T</w>
V -AH0-S</w>
T-EH1- M-P
S-W-IY1- T</w>
S- P-R
R-IY1- CH</w>
P-ER1- CH-AH0-
NG- K-ER0</w>
NG -ER0</w>
N-UW 0-
K-AA1- M-P-L-AH0-
F-L-AO1-R-AH0- D-AH0</w>
F-AO1-R- D</w>
F-AA1-R- M-IH0-NG</w>
EH0-N-G-EY1- JH-D</w>
E Y0-
D-ER0- EY1-SH-AH0-N</w>
B -AH0-N-
AY0-D-IY1- AH0-Z</w>
AH0- M-AW1-N-T</w>
AE1-D- V-AH0-
AE1- S-P-EH2-
-EH0- S</w>
W -AO2-T-ER0</w>
V-IH0-K-T-AO1- R-IY0-AH0</w>
S-K-R -IY1-N</w>
S-K -ER1-
S-AY2- Z</w>
S-AO1-F- T-W-EH2-R</w>
S- F-AH0-L-IY0</w>
R-IH1- S-K</w>
R-EH1- R-L-IY0</w>
R -ER0-Z</w>
P-R-AE1-K- T-IH0-S</w>
L-OW0- K-EY1-SH-AH0-N-Z</w>
K-L-AE1- S-IH0-K</w>
K-AA1- N-T-R-AH0-
JH-EH2-N-ER0- EY1-SH-AH0-N</w>
HH-AE1- P-AH0-N</w>
F-UH1- T-
F -EH0-
AH0-G-R-IY1- D</w>
T-OW1- N</w>
T-EH0-K- N-IY1-K-S</w>
S-T-UW1- D-IY0-OW2-Z</w>
S-T -AO1-R-Z</w>
S-AW1- N-D-
S- OW0-
R-IY0- V-Y-UW1-Z</w>
P-R-AE1-K- T-AH0-
N-T-R -IY0</w>
M-AY1- L-Z</w>
L-IH1-M-AH0- T-AH0-D</w>
L-IH0- NG-T-AH0-N</w>
IH1-L-AH0- S-T-R
IH1- N-AH0-
IH0-N- S-T-AO1-
G-OW1- IH0-N</w>
F-R -AE0-N-
F-OW1- K</w>
F-IH1- NG-G
F-AH0-S-IH1- L-AH0-T-IY0-Z</w>
B-L-AA1- K</w>
AH0- L-Z</w>
AE2- G-R-AH0-
AE1-L- K-AH0-
AA1-K-S- F-ER0-D</w>
-AH0-N- S-IY0-Z</w>
-A Y0</w>
Y-UW1-N-AH0- T-S</w>
V-AY1- AH0</w>
T- L-ER0</w>
SH-OW1- D</w>
S-T-EH1- P</w>
S-EY1- IH0-NG</w>
R-OW0- M-AE1-
R-IY0 -AH0-M</w>
R -UW0-
N-CH -EH2-S-T-ER0</w>
M-IH1-L- K</w>
M-EY1- N-
K-R-IH1- S-CH
K-EY1- SH-AH0-N-AH0-L</w>
K- S-IH0-Z</w>
IH0-K-S-P-EH1- R-AH0-
G- W
G -ER0-Z</w>
G -AH0-S</w>
F-AO1-R-CH-AH0- N-AH0-T-L-IY0</w>
EH1- D-
D-EH2-M-AH0- K-R-AE1-T-IH0-K</w>
D-AY0- N-AE1-
D -AE2-
CH-AY1- L-D-
B-AE1- NG-K-S</w>
AO1-R-G-AH0-N -AY2-Z-D</w>
Y-UW0 -AH0-S</w>
S-P-EH1- SH-AH0-
S-IH1-G- N-AH0-
S-IH1- D-N-IY0</w>
S- K-R-AE1-
N-EY1- B-AH0-L</w>
M-ER1- D-ER0</w>
M-AA1-R- CH</w>
K-R -OW1-
IH0- L-EH1-
HH-IY1- T</w>
F -AO2-L</w>
D -AY0-AE1-
B-R -UH1-
AO1- S-T-R
AH0- S-UW1-
AA1-R-K-AH0-T-EH2- K-CH-ER0</w>
V -AH0-N-Z</w>
T-R-UW1- P-S</w>
T-OW1- N-IY0</w>
S-EH1- K-SH-AH0-N-Z</w>
R-IY0- P-AH1-B-L-IH0-K</w>
R-IH0- V-IY1-
R-IH0- JH-EH1-
R-IH0- F-Y-UW1-Z-D</w>
R-EH2-K-AH0- M-EH1-
P-R-AY1- Z-D</w>
M-OW1- D</w>
M-AE1-N-IH0- JH-ER0</w>
L-EH1- NG-K-TH</w>
K-EY1- M-B-R
IH1- M-IH0-
IH0-N-S-P-AY1- ER0-D</w>
G -AH0-T</w>
D-IH0- V-AO1-R-
D-IH0- M-AA1-
B-R-AE1- N-D</w>
B-IH0-K-AH1- M-IH0-NG</w>
AH0-S-IH1-S-T -AH0-N-T</w>
AH0-K-S-EH1-P- T-AH0-D</w>
AE2-G-R-AH0- K-AH1-L-CH-ER0-AH0-L</w>
AA1-B- JH-EH0-K-T</w>
-ER1- D</w>
-AO1-R-AH0- T-IY0-Z</w>
Z -EY1-
T-W-EH2- N-IY0-
T-EH1- M-P-R-AH0-
S-T-R-EY1- N-JH</w>
S-T-R-AH1- K</w>
S-L-OW1- L-IY0</w>
S-K-EY1- T-B
S-IH1- R-IY0-AH0-S</w>
S-ER0-AW1- N-D-AH0-D</w>
R-IY0-AE1- K-SH-AH0-N</w>
R-EH1- S-K-
P -UH2-T</w>
N-D-ER0- S-AH0-N</w>
L-AY2- K</w>
K-AH2- P</w>
IH0-K-S- P-L-OW1-
HH-OW1- L-IY0</w>
G-R-EY1- T-L-IY0</w>
F-IH1-G-Y -ER0-Z</w>
EY1- P-R
EH1- L</w>
D -EY1-SH-AH0-N</w>
B-R-IH1- NG</w>
B-R-AH0- Z-IH1-
B-IH0-G-IH1- N</w>
AH1-L-T-AH0- M-AH0-T-L-IY0</w>
AA1-R-T-IH0- S-T</w>
A Y2-
V-EH1- JH-
TH -AH1-
T-R-AE2- N-
T-AH0- T-UW2-D</w>
SH-AO1-R- T-S</w>
S-K -AY1-
S-IH1-NG-G -AH0-L-Z</w>
S-AH0- M</w>
R-AH0- L-Z</w>
NG-G-R -AH0-S</w>
N-OW1- B-AH0-D-IY0</w>
L-AH0- K-
K-AH0-N-EH1- K-SH-AH0-N</w>
JH -AH0-L
IH1-N-S-AH0- D-AH0-N-T</w>
F-L -AA1-
F -AH0-N-IH1-
EH1-M-P-ER0- ER0</w>
D-R-AY1- V-ER0</w>
D-IH1- SH-AH0-N</w>
D-AH1- K-SH-AH0-N-Z</w>
D-AH0- M-EH1-
B-IH1- Z-IY0</w>
B -AY2-
AH0-CH-IY1- V-D</w>
AE1- S-K</w>
W-IH1- N-IH0-NG</w>
T-AH0- W-AO1-R-D-Z</w>
S-P-OW1- K-AH0-N</w>
S-P-AH0- S-IH1-F-IH0-K</w>
S-IH0- T-IY0</w>
S-EY1- V</w>
S- M-UW1-
R-IY0- ER0-Z</w>
R-EH2-V-AH0-L-UW1- SH-AH0-N</w>
P-AE1-S-AH0-N- JH-ER0</w>
NG-G -AH0</w>
M-IH1-N-AH0- T</w>
M-AH0- S-
IH0-N- V
HH-AA1-R- B-ER0</w>
G-Z-AE1- N-D-ER0</w>
D-IH0- K-L-EH1-
D-EH2- F-AH0-N-IH1-
B-R-AO1-D- K-AE2-S-T</w>
B-R-AO1-D- K-AE2-
-AH0-N- T-R
- OW2</w>
ZH-AA1- N-
W-IH1- N-ER0</w>
W-ER1- L-D-Z</w>
W-EH1- R-
W -ER2-K</w>
UW 1</w>
T-UH1- R
T-EY1- L-ER0</w>
T-EH1- R-IY0-AH0-N</w>
S-T-R-IY1- T-S</w>
S-IY1- K-R-IH0-
S-IH1- M-P-
S-EY1- L</w>
S-EH1- L-AH0-B-R
P-IH1- K-CH-ER0-Z</w>
P-IH1- K-
N-D- OW0-
M-IH0- S-T-EY1-
M-B -AH0-L-Z</w>
L -IY2-
K-R-AO1- S-IH0-NG</w>
K-L -IY1-N</w>
JH-AE1-K- S-AH0-N</w>
IH1- M-P-L-AH0-
HH-Y-UW1- JH</w>
HH-AH1- N-D-ER0-D</w>
HH -AO1-NG</w>
F-L-AW1- ER0</w>
F-EY1- L-Y-ER0</w>
EH1-K- S-ER0-
D-IH2-S-T-R-AH0- B-Y-UW1-SH-AH0-N</w>
D-IH0- N</w>
D-AY1- N-AH0-
AH0- T-L-AE1-
AE0- B-
Y-UW1-N-AH0- T</w>
Y-UW1- R</w>
V-OW1- T</w>
T-EH0-K- N-IY1-K</w>
T-AE1- K-S</w>
S-T-EH1- R-Z</w>
S-K-EY2- P</w>
S-ER1- K-AH0-L</w>
R-OW1- M</w>
P-R-OW1-G-R-AE2- M-IH0-NG</w>
P-R-AH0- G-R-EH1-
P-IY1- K</w>
P-ER0-F-AO1-R- M-AH0-N-
M-IH0- S-
M-AH0- Z
L-IH1- S-AH0-
K-R-IH1- S</w>
K-IH1- NG-Z</w>
K-AA1-N-S-ER0- T</w>
JH -AH0-N-T</w>
IH1-N-S-T-R-AH0- M-AH0-N-T</w>
IH0-G-Z-IH1- S-T-S</w>
IH0- M-AE1-
D-IH0-T-ER1- M-AH0-N-D</w>
CH-AE1- P-
AH0-P-R-AA1-K-S-AH0- M-AH0-T-L-IY0</w>
Y -AA2-R-D</w>
S-AH0-K- Y-UW2-
R-IY0-L-EY1- SH-AH0-N-Z</w>
R-IY0 -AE1-K-
P-R-AA1-D-AH0- K-S</w>
P -IY0-Z</w>
P -AH0-N-
N-OW1- T-AH0-
N-D-ER0- D-Z</w>
N-AH0- M-AH0-S</w>
M-IH1- L</w>
M-AY1- N-IH0-NG</w>
M-AH0- M</w>
L-AY1- S-AH0-N-
L-AY1- IH0-NG</w>
K-AH0- M-OW1-
K-AE1- CH</w>
IH2- N-AH0-
G-EH1- T-IH0-NG</w>
F-L-AY1- IH0-NG</w>
F-AA1- K-S</w>
D-IH0-S- K-R-IH1-
CH-IH1-L-D-R -AH0-N-Z</w>
AW1-T- D-AO2-R</w>
-IY0- D</w>
-ER 2</w>
T-AO1- R-IY0-AH0-L</w>
S-AH0- P-L-AY1</w>
R-IY2- V-Y-UW1</w>
R-IH0- K-AA1-R-
R -AW1-T</w>
OW1-V-ER0- L
N-TH -AH0-
N-IH1-K-N-EY2- M</w>
N-D-AH0- N-D</w>
L-AO1-NG- S-AY1-D</w>
K-R-EH1- D-AH0-
K-L-OW1- S-AH0-S-T</w>
K-AA1- NG-G-R-AH0-S</w>
IH2- Z-AH0-M</w>
F-IH1- K-S-T</w>
D-EH1-Z-IH0-G-N -EY2-T-IH0-D</w>
AH0-B-AE1- N-D-AH0-N-D</w>
AH0- L-AO1-NG-S-AY1-D</w>
Y-UW1-Z -ER0-Z</w>
Y -IY1-
W-EH1- B</w>
V-IY1- AH0</w>
V-ER1- SH-AH0-L</w>
TH-AE1- NG-K</w>
R-UW1- F</w>
N-D -L-IY0</w>
M-Y-UW0- Z-IH1-SH-AH0-N-Z</w>
L- V-D</w>
K-W-EH1- S-CH-AH0-N</w>
IH2-N-D-IH0-P-EH1-N-D -AH0-N-S</w>
IH0-N-T-EH1-L-AH0-JH -AH0-N-S</w>
IH0-L-IH1- Z-AH0-
IH0-L-EH1-K- T-AH0-D</w>
F-R-AE0-N- S-IH1-
F-AY1- L</w>
F-AW1- N-D-IH0-NG</w>
DH -ER0-D</w>
D-ER0- EH1-K-SH-AH0-N</w>
AO1-R- K-AH0-
AH0-N-AE1-L-AH0- S-AH0-S</w>
AE1- T-
AA2- P-AH0-Z-IH1-SH-AH0-N</w>
-AY2-R -AH0-N-
V-IY1-IH0- K-AH0-L</w>
V -AH0-N
SH- M-AH0-N-T</w>
S-T-R-AH1- K-CH-ER0-Z</w>
S-T-AA1- K</w>
S-P-R-IH1- NG</w>
S-EH1-N-T -ER0-Z</w>
S- N-EY1-
R-IH0-P-AO1-R- T</w>
P-R-OW1- T-AH0-
P-R-AY1- V-AH0-
P-R-AA1-P-ER0- T-IY0-Z</w>
OW1-V-ER0 -AO2-L</w>
M-EH1- N-SH-AH0-N</w>
L- S</w>
K-EY1-M-B-R -IH0-JH</w>
K-AH0- N-AA1-T</w>
K-AA2-N-T-R-AH0- V-ER1-SH-AH0-L</w>
IH0-N-V -AY2-R-AH0-N-
IH0-M-P -IH1-
IH0-K- S-AY1-
IH0-G- Z
HH-AE1- M-AH0-
HH -AH0-L
EH1-N-JH -AH0-N-Z</w>
W-IH0- N</w>
T-UH1-R -IH2-Z-AH0-M</w>
T-R-IY1- T-IH0-D</w>
T-AH0- M-AA1-R-OW2</w>
S-T-IH1- CH-UW0
R-IH0-M-EY1- N-IH0-NG</w>
P-ER1- P-AH0-L</w>
P- SH-AH0-N-Z</w>
M-OW1- B-AH0-L</w>
M-EH1- T-R
L-EH1-JH-AH0- S-L
L-AE1-NG-G-W-AH0- JH</w>
K-R-IY1- M</w>
K-R-AO1- S-
K-IH1- L</w>
K-AH0-N- S-T-IH1-CH-UW0
K-AA1-N-T-R-AH0- V-ER2-
K-AA1-N- F-R-AH0-N-S</w>
K- T-AH0-
F-IY0- L-D</w>
F-AO1-R- K-AE2-S-T</w>
D-R -AO1</w>
D-IH1-JH-IH0- T-AH0-L</w>
B-R-IH1- K</w>
AH0- P-OW1-Z-D</w>
AA1-R-G- Y-AH0-
-UW2- Z</w>
T-ER0- EY1-
T -ER2-
S-K-EY1- L</w>
S-AH0- N
R-AY1- T-ER0-Z</w>
N-AA1- L-IH0-JH</w>
N- S-T-ER0</w>
L -IY0-AH0-S-T</w>
K-L -IH0-N</w>
K-AH1- Z-AH0-N</w>
IH0-N- K-ER1-AH0-
B-R -IH2-
AE1-K- CH
AE1- R-AH0-
-EY2- D</w>
W-EH1- T</w>
W-AA1- Z-AH0-N-T</w>
T-IH0- D-L-IY0</w>
SH -L
S-EH1- T-IH0-NG</w>
S-AH0- P-AH0-L</w>
R-EH1- D-
R-AE1- NG-K</w>
OW1- K</w>
M-Y-UW0-N-IH1- S-AH0-P-AH0-L</w>
L-EH1- R-AH0-T-IY0</w>
JH-EH1- N-T-AH0-
IH1-SH-UW0- D</w>
IH0-M-P -AA1-
HH-EH1-D-K-W-AO2-R- T-ER0-Z</w>
EH1- N</w>
D-IH0-S-T-IH1- NG-K-T</w>
AH0- G-R
-AA2- P</w>
- OY1</w>
W-EY1- V</w>
V-ER0- DH-AH0-L-EH1-S</w>
T-R-AE1- V-AH0-L-D</w>
T-R-AA1-P-IH0- K-AH0-L</w>
T-EH1- N-D</w>
SH -IY1-Z</w>
S-P-EY1- N</w>
S-OW1-L- OW2</w>
S-IH1- NG</w>
S-AH1- D
S-AH1-D -AH0-N-L-IY0</w>
S- L-OW1</w>
R-EH2-P-R-IH0-Z-EH1- N-T-IH0-D</w>
R-AA1- B-ER0-
P-AA2- L-AH0-
N-EH2- V-ER0-DH-AH0-L-EH1-S</w>
N-AO1-R- TH-
K-AH0-N- V-EH1-N-
IH0-L-EH1-K- SH-AH0-N-Z</w>
G-R -EY1-SH-AH0-N</w>
F-AO0-R- M-EY1-SH-AH0-N</w>
EH2-N-T-ER0- T-EY1-N-M-AH0-N-T</w>
D-IH0-S-T-IH1- NG-K-
AH0-P-IH1- N-Y-AH0-N</w>
-AH0- L-IH1-
W-AO1-R- M</w>
V-EY1- SH-AH0-N-Z</w>
TH -AO1-R-
T-UW0- D-EY1</w>
T-R-AE2-N- S-P-ER0-
T-R-AE2-N-S-P-ER0- T-EY1-SH-AH0-N</w>
SH-AO1-R- T-
R-IY0-T-AY1- ER0-D</w>
R-IH0- P-AH1-B-L-IH0-
N-S-IH0- V-L-IY0</w>
N -IY0-AH0-M</w>
M-AH1- Z-L
IH1-N- F
HH-AW1- Z-IH0-NG</w>
F -EY1</w>
EH1-N-T-R -AH0-N-S</w>
D-IH0-S-K-R-AY1- B-Z</w>
D -AW2-N</w>
D -AW1-T</w>
CH-OW1- Z-AH0-N</w>
B-R-EY1- N</w>
AE0- TH-L
W-IH1- NG-Z</w>
T-IH0- S-T</w>
S-T-IY1- V-AH0-N</w>
S- OY1-L</w>
R-EH2- P-Y-AH0-
P-ER0-EY2- T</w>
P-AE1- K</w>
P- OW0</w>
NG-G- OW0</w>
M-IH1- SH-AH0-N-Z</w>
M- OY1-
M -IY0-AH0</w>
L-IY0- W-UH2-D</w>
L-ER1- N-D</w>
K-AH0- TH-IY1-
IH1-N-T-AH0- G-R
G-R-EY1- T-
F-OW1-K-AH0- S-T</w>
EH1- TH-
D-IH1- S-AH0-
D-IH0-N-AY1- D</w>
D-IH0- V-OW1-
CH -UW1-Z</w>
B-IH0-HH-EY1-V- Y-ER0</w>
B-AO1- L-
AH0- K-AH1-M-P-AH0-N
- M-AH0-N-T</w>
T-EH2- N-AH0-
T -ER0-AA1-
S-P-IH0- S-IH1-F-IH0-K</w>
S-OW1-L- JH-ER0-Z</w>
S-IH0- G-N-IH1-F-IH0-K-AH0-N-
P-AH0- Z-IH1-SH-AH0-N-Z</w>
P- OY2-
M-OW1-T-ER0- S-AY2-
M- B-L
K-IH0- N-Z</w>
K-AA2-N- V-ER0-
K -UW0-
IH0-G-Z-IH1- S-T-AH0-N-S</w>
HH-EH1-D-K-AO2-R- T-ER0-Z</w>
G-R-IY1- N-
G-R -OW1-N</w>
F-AY2 -IH0-NG</w>
ER1- L-IY0-AH0-S-T</w>
ER0- M-AH0-N-T</w>
D-ER0- L-IY0</w>
AH0-B-Z-ER1- V-D</w>
AA2-R- K
AA1- T-AH0-
-AO0- F</w>
-AE1- L-AH0-T
S-T-AA1-R- D</w>
S -ER0-IY0</w>
R-EH2-P-Y-AH0- T-EY1-SH-AH0-N</w>
P-R-EH1- D-AH0-
P-L-AY1- Z</w>
M-EH1- T-R-IH0-K</w>
M-AE2- N</w>
K-AH0-N-D-AH1- K-T-AH0-D</w>
K -IY2-
IH2-N-T -ER1-D</w>
IH1-N-JH -ER0-IY0</w>
IH0-M-P-AO1-R- T-AH0-N-S</w>
G-R-AE1- N-
F-AY1- N-D-Z</w>
EH1-M- F-AH0-
EH1- K-S</w>
D-EY1- B-
D-EH1- L</w>
D-AE1- M-IH0-JH</w>
CH -AH0-S</w>
AO1-L- T-ER0-
-EH2- D</w>
W-AO1- T-ER0-Z</w>
V -IH0-K</w>
S-IH1-S-T -ER0-Z</w>
S-EH1-M-IH0- T-EH2-R-IY0</w>
R-IY0-Z -AH1-
R-AY1- Z</w>
N-Y -AH0-L</w>
N-AA1- M-AH0-N-EY2-T-AH0-D</w>
L-ER0- L-IY0</w>
K-R-IH1- K-AH0-T</w>
K-L-AA1-R- K</w>
K-AW1- N-T-S</w>
K-AA1-N-T -AE2-K-T</w>
K-AA1-M-AH0- D-IY0</w>
IH0-N- F-EH1-
F-UH1- L-
F-IH1-L-IH0- P</w>
F-AE1- S-T-ER0</w>
F- L-OW1</w>
D-IH0-V-EH1-L-AH0- P</w>
D- S-AH0-N</w>
B- Y-AH0-L
AH0-D- V-AY1-
AA1-R- T-AH0-K-AH0-L</w>
-AW 0</w>
W-IH0- TH-
T-IY1- N-EY2-
S-ER1-V -IH0-S</w>
R-IH0- Z-EH1-
R -EY1</w>
P-OW1-AH0- T</w>
P-L-AE1- N-IH0-NG</w>
K-W-IH1- K</w>
K- L-AH0-N-D</w>
IH1-N-JH -ER0-D</w>
IH1-M-AH0- G-R
HH-EH2- D</w>
HH-EH1- N-S</w>
HH-AH1-N-D-R -AH0-D</w>
F -IY0-AH0</w>
EY1-JH -AH0-N-T</w>
EH1-D-AH0- T-ER0</w>
EH1- S-T-AH0-
EH1- N-AH0-M-IY0</w>
D -EH0-
AH0-T-EH1- N-D</w>
AE1- N-TH
-R -IY0</w>
V-ER0- IH0-NG</w>
V-EH1-N- CH-ER0</w>
T-R-AE0-N-S- L-EY1-T-IH0-D</w>
SH -AH0-Z</w>
S-IH1-K-S-T H</w>
P-R-AA1- M-AH0-
P -ER0-AE1-
P -EH2-R-AH0-
N- UH1-
N- OW2-
M-AE1- K-S-AH0-
K-R-EH1-D-IH0- T-IH0-D</w>
K-AA1-N-T-R-AH0-V-ER2- S-IY0</w>
IH0- S-EH1-
F-IH2- R</w>
F-EY1- S-T</w>
F-AY1- ER0-
D-IH0-S-T-IH1-NG-G-W-IH0- SH-T</w>
D-AA1- T</w>
B-AH1- L-
T-EH2-N-AH0- S-IY1</w>
S-T-AE1- T-AH0-S</w>
S-K-AA1- T</w>
R-EH2- Z-IH0-
R-AY1- S</w>
P-R -AH0</w>
P-AY1- L-AH0-T</w>
P-AA1- S-AH0-B-L-IY0</w>
NG-G-R -IY0</w>
N-IY1- L</w>
L-IY1- D-ER0-Z</w>
L-AE1- N-
K-AH0- P-AE1-
IH2-N- F-L
IH0-K-S- CH-EY1-N-JH</w>
IH0-G-Z-AE1- K-T-L-IY0</w>
EY1- CH</w>
D-IH0-V-AY1- S</w>
B-ER1- T-IY0</w>
B -IH0-NG</w>
B -AO2-L</w>
AE1-N-AH0- M-EY2-T-IH0-D</w>
-EY1- L</w>
-AE1-L-AH0-T -IY2</w>
W-IY1- L</w>
V-IH1-Z-IH0- T-IH0-D</w>
V-AA0- L-
T-EH1- N-AH0-N-T</w>
S-T-R-AO1- NG-L-IY0</w>
S-T-AY1- L-Z</w>
S-T-AA1-R- T-IH0-NG</w>
S-IY1- N-Z</w>
R-IH0- D-UW1-S-T</w>
R-EH1-S-T -ER0
P-ER1- M-AH0-N-AH0-N-T</w>
P -IY2-
N-UW1-Z-P-EY2- P-ER0-Z</w>
N-D -AH0-M</w>
N-AH0- T-S</w>
M-ER0-IY1- N</w>
M-AE0- G-
M -IY2-
L-EH1- G-Z</w>
L -IY0-AH0</w>
K-L-AY1- M-IH0-NG</w>
K-AA1- M-IH0-K</w>
IH0-N-K-AO1-R- P-ER0-EY2-T-IH0-D</w>
IH0-K-S-P-EH1- N-S-IH0-V</w>
HH -AA0-
G-UH1- D-Z</w>
F-ER1- M</w>
F-AH0- K-EY1-SH-AH0-N-Z</w>
F- Y-UW1-ZH
D-IH0- P-EH1-N-D
CH-ER0- IH0-NG</w>
AO1- T</w>
AH0-T-EH1-M-P- T-AH0-D</w>
-AA2-R- T</w>
Y-UW0 -AH0-L-IY0</w>
V -EH0-
T-UW1- B</w>
S-T-R-AH1- K-
S-IY1- T-S</w>
S-EH2- T</w>
P-AH0- T-R-OW1-
P- T-S</w>
NG- TH</w>
M-AE2-TH-AH0-M-AE1- T-IH0-K-S</w>
M-AE1- S-K
K-OW1- L-
K-L-OW1-DH -IH0-NG</w>
JH-IH0- T</w>
JH-ER1- N-AH0-L</w>
IH1- N-S-EH2-
IH0-M-P-AA1- S-AH0-B-AH0-L</w>
IH0-K- S-T-IH1-
IH0- M-P-L
G- OW0-
F -AO1-T</w>
D-IH1-F-ER0 -AH0-N-T</w>
D-ER0- EH1-K-T</w>
B -UH2-K</w>
AH0- M-
-ER0-AH0- L-Z</w>
-ER0- EY1-SH-AH0-N</w>
W-UH1- L-
W-EH1- R-Z</w>
V-IH1- ZH-AH0-N-Z</w>
V-EH1- R-IY0-AH0-
T-EY1- N</w>
SH -AW1-
S- K-AH0-T</w>
R-UW1- M-Z</w>
P-R-IY0-P-EH1- R-D</w>
P-R-IH0- D-AA1-
P-R-AH0-M-OW1- T-AH0-D</w>
P-R-AA1- P-ER0</w>
P- L-OY1-
N -IY0-AH0-S</w>
L-AO1- Z</w>
L-AH0- D</w>
K- W-EH1-S-T</w>
IH1-N- K-R-IY2-
IH0-N- SH-UH1-
HH-Y-UW1- M-AH0-N-Z</w>
EH1-L- D-ER0-L-IY0</w>
EH1-K- S-AH0-K-Y-UW2-
D-EY1-B- Y-UW0</w>
D-AH0-M-EH1- S-T-IH0-K</w>
CH -IY1-Z</w>
AH0- K-AA1-M-P-L
AA1-K-Y-AH0-P -AY2-D</w>
W-AH1- N-D-ER0-
V-IH1- L-IH0-JH-IH0-Z</w>
T- OY1</w>
T -AE0-
S-T-AE1-CH -UW2</w>
S-EH1-R-AH0-M-OW2- N-IY0</w>
S-AH0-B- S-T-AE1-
R-IH0-K-AO1-R- D-IH0-NG-Z</w>
R-IH0-K-AA1-R- D-OW0</w>
R-EH2-Z-IH0- D-EH1-N-CH-AH0-L</w>
N-T-IH0- JH</w>
N -EH0-
L-IH1- NG-K</w>
K-AH0-N-T-R-OW1- L-D</w>
K-AH0-N-AE1- L</w>
K-AA2- M-B
G-R -AH1-
F-EY1-V -UH1-
F-EH1-D -ER0-AH0-L</w>
D-IH0-Z -ER1-
D-ER0- SH-IH2-P</w>
AW2- T-
AH0-N- L-EH1-S</w>
W-EH1- D-IH0-NG</w>
TH-R -OW1-N</w>
T-R -AE2-K</w>
T -EH0-
S-OW1- T-AH0</w>
S-K -AO1-R-D</w>
R-IY0-M-EY1- N-D</w>
R-IY0- T-ER1-N-D</w>
P-R-AH0- F-ER1</w>
P- T-EH1-
N-S -ER0-Z</w>
N-IY1- TH</w>
N-EY1-B-ER0- IH0-NG</w>
M-EH1-R-AH0- L-AH0-N-D</w>
M-EH1- M-B-ER0-
K-R-IH1- M-AH0-N-AH0-L</w>
K-R-AY1- M</w>
K-AH0-TH-IY1- D-R-AH0-L</w>
K-AH0-N- S-EH1-
K-AE1- SH</w>
K-AE1- P-IH0-
F-ER0- G-EH1-T</w>
F-EH1- R-L-IY0</w>
EH1-K-S-AH0-L -AH0-N-T</w>
D-AH1- B-AH0-L-
CH-EY1-N-JH -IH0-NG</w>
B-IH1- R</w>
AH0-T-EH1- M-P-S</w>
AA1-R-K-AH0-T-EH2- K-T</w>
-ER0- D-Z</w>
W -AH2-
V-EH2- S-T-AH0-
T-IH1- SH-AH0-N-Z</w>
T -EY2-L</w>
T -AY1</w>
S-T-IY1- V</w>
S-EH1- N-D</w>
S-AO1- T</w>
R-F -AH0-L-IY0</w>
R-EH1- F-
P-IY1- S-IH0-Z</w>
NG- K-AH0-
M-IH2-N-IH0- S-OW1-T-AH0</w>
M-AE1- T-IH0-K-L-IY0</w>
M-AA1-R- T-AH0-N</w>
L- D-ER0-Z</w>
K-AH0-M- Y-UW1-
K-AA1- P-IY0-
IH2-N- S-T-R-AH0-
IH1- Z-R
IH0-N- V-EH2-S-T-AH0-
IH0-K-S-T-EH1- N-S-IH0-V-L-IY0</w>
F-R-AE0-N-S-IH1- S-K-OW0</w>
F-EY1- V-ER0</w>
F-AE1- N</w>
ER0-EY1-N-JH -D</w>
D-IH1-F-R -AH0-N-S</w>
D -IY1-N</w>
B-IH1- SH-AH0-N</w>
AH0-N-Y-UW1-ZH-UW2 -AH0-L</w>
AH0- N-Z</w>
-EY2- L-Z</w>
ZH -
Y-AH0-L -EY1-SH-AH0-N-Z</w>
W-ER1-L-D- W-AY1-D</w>
T-ER1- N-AH0-L</w>
SH-EH1- R-D</w>
S-IY1- L-Y-AH0</w>
S-IH1-G- N-AH0-L</w>
S-EY1- F</w>
P-AW1- ER0-Z</w>
K-AO1- NG</w>
K-AH0-N-S-IH1-D -ER0-AH0-B-AH0-L</w>
K-AA1-M-P -AW0-
K-AA1- M-B
G-AA1-R- D</w>
D-IH0- R-EH1-
D-AY1-AH0-L -EH2-
D -AA0-
B-R-EH1- D</w>
B-ER0- L-IH1-N</w>
AH0-T-AE1- CH-T</w>
-EY0- T</w>
Z-AH0- B-AH0-L</w>
Z- B-ER0-G</w>
Y-UH0- R-
W-EH2- L</w>
V-IH1- K-T-ER0-IY0</w>
T-ER1- M-AH0-N-AH0-L</w>
SH-IY0- EY2-T-AH0-D</w>
S-IH0-G-N-IH1-F-IH0-K-AH0-N- T-L-IY0</w>
S-EH1-K-SH -UW0-AH0-L</w>
R-AH0-K-AO1-R- D-IH0-NG</w>
P-AA1-R-T- N-ER0</w>
N-IY1- DH-ER0</w>
N-D-IH0- NG-Z</w>
N -AA1-R-
M-EH2- T-AH0-
M-EH2- D-AH0-
M-AH0-Z -UH1-R-IY0</w>
L-IH1- B-ER0-
K-AO1-R- T-S</w>
K-AE1- R-IH0-
G-AY1- Z</w>
F-R -AO1-
F-AH1- N</w>
D-AY2-AH0- G-
CH-EH1- S</w>
B-AE1- G</w>
B-AA1- S-T-AH0-N</w>
AH1-N-D-ER0- G-R-AW2-N-D</w>
AH0-D-IH1-SH- N-AH0-L</w>
AA0- N-ER0</w>
Z-IH0- T</w>
TH-EH1- R-AH0-
T -AH0-N-L-IY0</w>
SH-EY1- P-T</w>
S-AH0-L-UW1- T-L-IY0</w>
R-AE1-P-AH0- D-L-IY0</w>
OW0-L-IH1-M-P -IH0-K</w>
N-T-IH0- NG-Z</w>
N-EY1- V-AH0-L</w>
N-EH1- L</w>
N-D- OW0</w>
N-AY1- T-S</w>
N- OY1-Z</w>
N -AH0-N-
L-AA1- T-S</w>
K-ER1- N-AH0-L</w>
JH -IY0-Z</w>
IH2-L-AH0-N- OY1</w>
IH1- N-S
IH0-M- P-R-IH1-
G-L-AE1- D</w>
F-AY1- N-AE2-
ER1- L</w>
EH1-P-AH0-S-OW2- D-Z</w>
D-UW1- K</w>
D-R -OW1-
B-L-AA1- N-D</w>
B-AA2- D-IY0</w>
AH2- N-S-AH0-
AE2-B- S-AH0-L-UW1-T-L-IY0</w>
AE1-N-D-R -UW0</w>
AE1-F-R-AH0- K-AH0-N</w>
-AO1-R- D-AH0-N
Y-UW2- Z</w>
W-IH1-L- S-AH0-N</w>
TH-IH1- NG-K-IH0-NG</w>
T-ER0-AA1- N-T-OW0</w>
S-K-IH1- L-Z</w>
R-AH0- V-Y-UW1-Z</w>
P-ER1-CH-AH0- S-T</w>
M-IH1- L-Y-AH0-N</w>
M-AE1- S-T-ER0-Z</w>
K-ER0- EH1-K-T</w>
K-AA1-N- F-AH0-
K- S-EH1-
JH-UW1- N</w>
IH2-N-ER0- N-AE1-SH-AH0-N-AH0-L</w>
IH0-M-P-IH1- R-IY0-AH0-L</w>
G-L -AE2-
F-IH1-L- M-D</w>
F-AW1- N-D-IH0-D</w>
F- T-IH0-D</w>
EH2- JH-Y-UW0-
EH1-F-ER0- T</w>
D-ER0-EH1-K- T-IH0-D</w>
D-EH1- P-
CH -AH1-
AH0-W-AO1-R- D-AH0-D</w>
AH0- P-AA1-R-T</w>
AE1-N-S -ER0-D</w>
AE1-K-S-AH0- D-AH0-N-T</w>
AA2-R- T-AH0-
AA1- P-AH0-
AA1- L-AH0-
-AA2-R- Z</w>
Z -AO1-R-
W-IH1- NG</w>
V-EH1- N-SH-AH0-N</w>
T-AE1- NG-K</w>
S-IY1- IH0-NG</w>
S-ER1- JH-ER0-IY0</w>
S-AE1- N-T-AH0</w>
S- K-AH1-
P-R-IY1- M</w>
P-R-AH0-V-IH1- N-SH-AH0-L</w>
P -IH2-
N-EH1- DH-ER0-
M-P- T-IY0</w>
M-AH0-SH-IY1- N-Z</w>
L-AO1- N-CH-T</w>
K-W -OW1-
K-AA1-N-F-L -IH0-
K- N-AH0-S</w>
IY2- K-AH0-N-AA1-
IY1- T-AH0-N</w>
HH-AE1- N-D-AH0-
F-IH1- T</w>
ER0-IH1- JH-AH0-N
EH2-L-AH0-M-EH1- N-T-R-IY0</w>
D-R-AA1- M-AH0</w>
D-IH1- S-K</w>
D-IH1- K-
D-IH0-S-T-R-IH1-B-Y-AH0- T-AH0-D</w>
D-AA1- N-AH0-L-D</w>
CH-AA1-R- L-IY0</w>
V-EH2-R-IY0- EY1-SH-AH0-N-Z</w>
V-EH1- R-IY0-Z</w>
T-AY1- M-
T-AE1- S-K</w>
T-AA2- P</w>
S-UW1- D</w>
S-IY1- D-Z</w>
S-ER1- T-AH0-N-L-IY0</w>
P-AA1-P- Y-AH0-L
N-AA1- L-AH0-
M-IH1- S-IH0-Z</w>
M-AE1- TH-
M-AE1- N-CH-EH2-S-T-ER0</w>
K-AA2-M-P-AH0- Z-IH1-SH-AH0-N</w>
K- S-IH0-NG</w>
JH-EH1-N- R-AH0-L-IY0</w>
JH -AH0-N-S-IY0</w>
IH0-N-K-R-IY1- S-IH0-
G-EY1- T</w>
G- B-IY0</w>
F-Y-UW1-ZH -AH0-N</w>
F-AO1-R-AH0- S-T-S</w>
D-EY1- N-JH
D-ER1- T</w>
D-AA2- K-S</w>
B-Y-UW1- SH-AH0-N-Z</w>
B-R-AY1- AH0-N</w>
AA0- K-
Y-UH0-R- S-EH1-L-F</w>
SH-UH1- G-ER0</w>
SH -UW1-Z</w>
S-T-EH1- P-S</w>
S-P-R-IH1- NG-Z</w>
S-P-ER0- IH1-
R-IH0- V-AY1-
R-IH0- P-EH1-
R-AH0- T</w>
P-EH1- N-AH0-
P-AA1-R- K-IH0-NG</w>
N-D -AH0-N-S</w>
N-AH0- D</w>
N- T-M-AH0-N-T</w>
N G-R
M-IH1- T-IH0-D</w>
L-AY1- S-AH0-N-S</w>
L -AH0-N-Z</w>
K-W-AY1- AH0-T</w>
K-W -EY1-
K-R-IH1- S-T-AH0-
K-L-AE2- S</w>
K-EH1- M-IH0-
K-AH0-M-P-EH1- R-D</w>
JH-OW1- S-AH0-
JH -IY1</w>
HH -EH0-
F-R-IY1- D-AH0-M</w>
F-AH0- S-T</w>
EH2- K-S-AH0-
EH1-L-AH0- M-AH0-N-T</w>
CH-AA1-R- JH-D</w>
B-ER0- EY1-SH-AH0-N</w>
AW 0-
AH0- HH-EH1-D</w>
AA1-P-AH0- Z-AH0-T</w>
-EH2- S</w>
ZH-AH0- W-AH0-L</w>
Z -IY0-
V-IH1-Z-IH0- T</w>
V-IH1- K-
V-AE1-L- Y-UW0-Z</w>
V- OW0-
T-UW1- L-Z</w>
T-R-AE1- V-AH0-L
T-R -AH0</w>
T-EH1- N-AH0-S</w>
T-AH0- N-AY1-T</w>
S-K-IH1- N</w>
S-AY1- K-AH0-L</w>
S-AH0-V-IH1- R</w>
R -EH0-
P-ER1-P-AH0- S-AH0-Z</w>
N-AY1- T-
M-IY1- L</w>
M-AE1-S-K -AA2-T</w>
L-OW2- K-AH0-M-OW1-
L -AA1</w>
K-R-AO1- S-T</w>
K-L-AE2- S-AH0-
K-AE1-N-D-AH0- D-EY0-
IH1-N-T -ER0-AH0-
G-L -IH1-
G-L -EY1-
G-L -AH1-
G-AA1-R- D-AH0-N-Z</w>
F-ER0- EH1-
B-L -AY1-
B -IY0-AH0-N</w>
AH0- B-IH1-L-AH0-T-IY0</w>
AE1-K- T-ER0-Z</w>
AE1- V-R
-ER2- T</w>
T-R-AE0-N-Z-L -EY1-
T-IY1- TH</w>
T-EH1- S-T-IH0-NG</w>
T-AA1-R- G-AH0-
SH-OW1- L-D-ER0</w>
S-AY1- K-L
S-AH1- M-ER0-
S- N-AE1-
S -AE0-
R-IH1- JH</w>
P-IY1- P-AH0-L-Z</w>
OY2- D</w>
N-AO1-R- M-AH0-L-IY0</w>
N- S-T
M-AE1- JH-IH0-K</w>
L-IY1- D-ER0-SH-IH2-P</w>
L-AH1- V-D</w>
K-AH0-N-S-T-R-AH1- K-T-IH0-D</w>
K-AH0-M-P-OW1- Z-ER0</w>
K-AE1-N-AH0- D-IH0-
K-AA1- L-AH0-JH-IY0</w>
IH0-N-V-EH1-S-T-AH0- G
HH-EH1- D-Z</w>
G-R-AH0- F-ER0</w>
F-L -AY1</w>
F-AA1- DH-ER0-Z</w>
F -AH2-
EH1- G-Z</w>
D-UW1- T-IY0-Z</w>
B-R-IY1- F-L-IY0</w>
B-R-IY1- D-IH0-NG</w>
B-IH1- G-AH0-S-T</w>
B-AA1- T-AH0-M</w>
B- L-OW1-
AH0-W-AO1-R- D-IH0-D</w>
AH0-T-R-AE1- K-T-AH0-D</w>
AH0-G-R-IY1- M-AH0-N-T</w>
AE1-S-AH0- D</w>
AA1-P-ER0-EY2- T-IH0-NG</w>
Z-AH0- L-Z</w>
W-AY1- T-
T-AY1- T-AH0-L-D</w>
S-T-R-AE1- T-AH0-
S-IH1- F-IH0-
R-IH0-Z-AY1- D-Z</w>
R-IH0- P-L-EY1-
R-EH1- JH-AH0-
R-EH1- F-R-AH0-N-S</w>
P -IY1</w>
OW2 -IH0-NG</w>
NG- K-AH0</w>
N G-AH0-
M-AH0- T-ER0</w>
L-UW1- Z</w>
L-IH1- NG-K-S</w>
K-R-IY0-EY1- T-IH0-V</w>
K-R-IY0- T</w>
K-R-EH1-D-IH0- T-S</w>
K-L-IH1- R-L-IY0</w>
K-AA1-N- K-R-IY0-T</w>
IH2- N-T-AH0-
IH0-N- F-AO1-R-
HH-IH1- T-S</w>
HH-AE1-M-AH0- L-T-AH0-N</w>
HH- Y-UW0-
F-L-EH1- D</w>
F-EY1- TH</w>
B-EH1- R-IY0</w>
AO0-R- G-AE1-
AH0-B- T-EY1-N-D</w>
AH0- P-L-AY1</w>
AE1-K- SH-AH0-N-Z</w>
AE1- F-ER0-
AA1-B- JH-EH0-K-T-S</w>
V-EH2- JH-AH0-
T -AO0-R-
S-K-OW2- P</w>
S-IY1- K</w>
S-EH1-N-AH0- T-ER0</w>
R-IY0-M-EY1- N-Z</w>
R-IH1- R</w>
R -AY2-T</w>
P-AH2-B-L-IH0- K-EY1-SH-AH0-N</w>
P-AE1-S-AH0-N- JH-ER0-Z</w>
M-EY0-N-T-EY1- N</w>
M-B-AH0- L-D</w>
M-AH0-N- S-T-R
M- S-AH0-N</w>
K-IH1- CH-AH0-N</w>
K-AW1- N-T-ER0-
K-AH0-M-Y-UW2-N-AH0- K-EY1-SH-AH0-N</w>
K-AA1-N- S-T-AH0-N-T</w>
JH-AE1- K-IH0-T</w>
IY0-V-EH1- N-T-S</w>
IH2- N-D
IH1-N- K-AH2-M</w>
IH0-K- S-T-ER1-
HH-AW1- S-
HH-AA1- L-IY0-W-UH2-D</w>
HH -AE0-
G -IY1-
F-IH1-SH -AH0-L-IY0</w>
F -AH0-N</w>
D-IH0-G-R -IY1-Z</w>
D-AH0- S</w>
D-AH0- L-IY0</w>
B-AE1- P-
AH0- S-AY1-N-D</w>
AE2-N-T -AY0-
AE1-K- SH-AH0-L-IY0</w>
AA1-R-T-AH0- K-AH0-L-Z</w>
V-IH0- T-IY0</w>
T-R -IY1-T</w>
SH-AA1- P-S</w>
S-AH2- B-
S- L-AA1-
P-R-IH1- N-T</w>
P-R -EY1</w>
P-OW1- L</w>
M-OW1- T-ER0</w>
M-EH1-D-IH0- K-AH0-L</w>
M-AH0-N -EY2-T-IH0-D</w>
M-AE1-N-AH0- JH-ER0</w>
L-AE1- B-R-AH0-
K-L-OW1-DH -Z</w>
K-IH0- T-S</w>
K-AE1- P</w>
K-AA1-M-B -AE0-T</w>
K-AA1- R-AH0-N-T</w>
K- W-AO1-
JH-AE1- K-AH0-T</w>
IH0-N- HH-EH1-R-AH0-
IH0-M-P-L-OY1- D</w>
IH0-L-EH2-K-T-R-AA1- N-IH0-K</w>
IH0-K-S-T-EH1- N-SH-AH0-N</w>
IH0-K- S-P
G -AH0-N-
EH1-N-JH-AH0-N-IH1- R</w>
EH1-K- S-T-R-AH0</w>
EH1- D-AH0-N-
D-AE1- N</w>
AH0- N-EY1-B-AH0-L</w>
AH0- M-EH1-R-AH0-
AA1- P-R-AH0</w>
-ER2- K-S</w>
W-IH0- CH</w>
W-AH1- N-D-ER0</w>
V-IY1-IH0- K-AH0-L-Z</w>
V -AY0-
SH- N-AH0-L-IY0</w>
S-T H
S-P-ER0- EY1-SH-AH0-N</w>
S-ER1- K-AH0-M-
S-EH1- R-AH0</w>
S-AH0-P-AO1-R- T-S</w>
R-AH0-K-AO1-R- D</w>
P-EY1- N-T-IH0-NG-Z</w>
P-EH1-R-AH0- L-EH2-
N-T -AY1-
N-EH1-DH-ER0- L-AH0-N-D-Z</w>
M-UW1- V-Z</w>
M -AO0-R</w>
L-IH1-B -ER0-AH0-L</w>
L-IH1- NG-K-AH0-N</w>
L-AY1- T-S</w>
K-L-AE1- S-AH0-Z</w>
K-AH0-N-F-ER1- M-D</w>
K-AH0-M-AE1- N-D-ER0</w>
K-AA1-N-S-AH0-K-W -EH2-
IY0-V-EH1- N-SH-AH0-L-IY0</w>
IH2-N-F-L -UW0-
IH1- N-ER0</w>
IH0-K-W-IH1- V-AH0-L-AH0-N-T</w>
G-AO1- L-F</w>
F-R-IY1-K-W -AH0-N-S-IY0</w>
F-R-EY1- D</w>
F-IH1- N-IH0-
ER0- IY1-N-AH0</w>
CH-AY1-L-D- HH-UH2-D</w>
AH0-K-EY1- ZH-AH0-N-Z</w>
AH0- S-AY1-
A Y
-AO2- NG</w>
W-AA1- N-T-S</w>
V-AA1-L-Y-UW0- M</w>
T-UW1- N-Z</w>
T-IH1-P-IH0- K-AH0-L-IY0</w>
S-W-IY1- D-IH0-SH</w>
S-T-R-IH1- NG</w>
S-L-IY1- P-IH0-NG</w>
S-EH1- G-
S-AH0-P-AO1-R- T-IH0-NG</w>
R-IH0-Z-ER1- V</w>
R-IH0- S-T-AO1-R-D</w>
R-AY0- T</w>
P-R-OW1- T-EH2-
P-AH1- B</w>
P-AA2-P- Y-AH0-
NG- D</w>
N-D-R -IY0</w>
M-IH1- T</w>
M -EY2-T</w>
L-AO1- R-AH0-N-S</w>
K-AE1-N- Z-AH0-S</w>
K-AA1- Z-D</w>
K- Y
IH0-N-V-AY2-R-AH0-N- M-EH1-N-T-AH0-L</w>
IH0-G-Z-AE1- K-T</w>
IH0-F-EH1- K-T-IH0-V</w>
I H2-R
HH-AA1-L-AH0- D-EY2</w>
G-AA1- D-
F-IH1-Z-IH0- K-S</w>
F-ER0- IH0-NG</w>
D-EH2- S-T
CH-AE1-L-AH0-N- JH</w>
B-IH0- L-AO1-
AH0- B-AH0-L</w>
Z -AA0-
Y-UW1-N-AH0-F-AO2-R- M</w>
V-OW1- K-AH0-L-Z</w>
TH-IY1- S-T-ER0-N</w>
T-AH0- K-AH0-T</w>
S-IH1-N-AH0- M-AH0</w>
R-IY2 -AE1-L-AH0-T-IY2</w>
P-T-EH1- M-B-ER0</w>
N-D -AH0-N-T-S</w>
L-ER1- N</w>
L-AY1- V-Z</w>
K-UH1- K-IH0-NG</w>
K-EY2- T-S</w>
K-EH1- R-F-AH0-L-IY0</w>
K-AA2-N-V-ER0- S-EY1-SH-AH0-N</w>
JH-AH1- NG-K-SH-AH0-N</w>
IH1-M-IH0- JH-IH0-Z</w>
IH0- N-AE1-
HH-AE1-B-AH0- T-AE2-
G-AH0- L-Z</w>
F-IY1- D</w>
D-IH0- T-EY1-
B -IH2-
AH0-T-AE1- K-S</w>
AH0- F-R-EY1-D</w>
AE1- TH-L
AA1-B- V
AA1- N-T-UW0</w>
-AE1- L-AH0-T-IY0</w>
W-AO1-R- Z</w>
TH -AO1-
T-IH1- P-AH0-
S-T-IY1- M</w>
S-K-AA1- L-ER0-Z</w>
S-IY1-K-R-IH0- T</w>
S-IH2- G-ER0-
S-AW1-N-D- T-R-AE2-K</w>
S- R
R-IH0-K-W-AY1- R-
R-AH1- G-B-IY0</w>
P-L -AE2-
P-AO1-R-CH-AH0- G
P-AE1- L-AH0-S</w>
P -UW2-
L-UW0- T-EH1-N-AH0-N-T</w>
L-AY2- N-Z</w>
K-EY1- P</w>
K-AH0-N- F-EH1-
K- Y-UH1-
K -AO0-R-
JH-EY1- N</w>
JH-AA1- N-IY0</w>
IY1- S-T-
IH0-N-D -IH1-
IH0-G-Z-IH1- S-T-IH0-NG</w>
F-IH1-NG-G -ER0-Z</w>
EH1-K- S-P-ER0-
D-R-IY1- M</w>
D -IY2-
B-UH1- SH</w>
B -IY0-AH0</w>
AO1-R- D-ER0-Z</w>
AE1-F-ER0- K-AH0</w>
W-AO1- N-T</w>
TH- W-EH1-S-T-ER0-N</w>
S-T-EY1- D</w>
R-IH0-P-AH1-B-L-IH0- K-AH0-N</w>
R-EH1-Z-IH0- D-AH0-N-S</w>
R-EH1- N-AH0-
R -EY2-
P-ER0-EY2- T-AH0-D</w>
M-B -EH1-
L-AH1- V-Z</w>
L- N-AH0-S</w>
K-UH1- D-AH0-N</w>
K-AW1-N-T -IY0-Z</w>
K-AH0-M-AE1- N-D-Z</w>
K-AA1- L-IH0-
K -UH1-K</w>
IH0-N-K-R-IY1- S-IH0-NG</w>
IH0-K- W-EY1-
IH0-K- S-EH1-P-
HH-AH1- N-T-IH0-NG</w>
G-EY1- N</w>
F-IH2-L-AH0- D-EH1-L-
F-EY1- Z</w>
F-AH1- N-D-IH0-NG</w>
EH2-K- S-P-AH0-
EH1-TH- N-IH0-K</w>
CH-AE1- P-AH0-L</w>
B -IY0-Z</w>
AY0-D-EH1- N-T-IH0-
AH0-TH -AO1-R-AH0-T-IY0-Z</w>
AH0-P-IY1- L</w>
AH0-N- F-AO1-R-CH-AH0-N-AH0-T-L-IY0</w>
AH0-M-EH1-R-IH0- K-AH0-N-Z</w>
AH0-D-IH1- SH-AH0-N-AH0-L-IY0</w>
AE1- P-AH0-L</w>
AE1- L-IH0-S</w>
-AE2- N</w>
Y-UW1-Z -ER0</w>
T-R-AE0-N- Z-
S-T-EY1- B-AH0-L</w>
S-P-EH1- N-D</w>
S-IH0- S-IH1-
S-EH1- K-S</w>
S-AW1- TH-
S-AH0-L-EH1-K- T-IH0-D</w>
S-AE1- N-D-
P-L-EY1- N-Z</w>
P-AO1-R-CH-AH0-G -IY2-Z</w>
P -AH0-N-IH1-
M-AA1- D-ER0-
L-IH1- NG-K-T</w>
L-AE1- N-D-IH0-NG</w>
K-L-AE1- S-AH0-F-AY2-D</w>
K-EH1-R-AH0- K-T
K-AH0-N-V-ER1- T-IH0-D</w>
K-AE1- T-AH0-L</w>
K-AE1- N-S-AH0-
K-AA2- L
K-AA1- T</w>
IH0-N-T-EH1- N-D-IH0-D</w>
IH0-K-S-T-EH1- N-D-IH0-D</w>
IH0- N-T-R
IH0- L-UW1-
HH-EH1-L- P-S</w>
G- OW2-
F-OW1- T-OW2</w>
D-EH2-F-AH0-N-IH1- SH-AH0-N</w>
D-EH1-K-EY0- D-Z</w>
D-AH1- Z-AH0-N-T</w>
B -AH2-
AH0-K-W-AY1- ER0-D</w>
AE1-L- B-ER0-T</w>
AA1-R- TH-ER0</w>
AA1- N-ER0-
-UH1- R</w>
-UH0- D</w>
-L -AH0-
W-EH1-L- N-OW1-N</w>
V-IY0- EH2-
V -AH1-L-
T- OW0-Z</w>
T -AO2-R-IY0-Z</w>
S- L-EH1-
R-IY2 -IH0-N-
N-OW0- V-EH1-
N-EH1- K</w>
M-IY1- T-S</w>
M-AW1- S</w>
K -AW2-T</w>
HH- W-IH1-N</w>
G-R-AE1-N-D- F-AA2-DH-ER0</w>
G-AH1- S-IY0</w>
F -EY1-M</w>
D-IH0-Z -AE1-
D-IH0-K-L-AY1- N-D</w>
D-AH0-B-EY1- T</w>
D-AE1- M-AH0-
B -AA0-R-
AH0-S-OW1- SH-IY0-EY2-T-AH0-D</w>
-ER0 -AH0</w>
-AA2- N-T-S</w>
TH -AA1-
T-R-AH1- B-AH0-L</w>
T-EH1-M-P-R-AH0- CH-ER0</w>
T-EH1-L-AH0- F-OW2-N</w>
S-T-UW1- ER0-
S-M-UW1- DH</w>
S-M-AY1- L</w>
S-K-R -IH2-
S-EH1- N-ER0</w>
S-EH0- P-T-EH1-M-B-ER0</w>
R- OW2-
P-R -OW2-
N-T -IY0-
N-IY0- ER0</w>
M-EH2- N-T-AH0-D</w>
K-L -AW1-
K-ER0- R-IY1-
K-AH0-N-S-ER1- N-D</w>
K-AH0-M-P-OW1- N-AH0-N-T-S</w>
K-AH0-L-EH1-K- T-AH0-D</w>
IH0-L-EH1- V-AH0-N</w>
G-R-AE1- N-T</w>
G-AH1-V-ER0- N-D</w>
F-R -AA1-
F-L-AY1- T-S</w>
F-EY1-V-UH1- R-AY0-T</w>
EH1-K- S-
D-R-AO1- IH0-NG</w>
D-IH1- SH-AH0-N-Z</w>
D-EH1- M-AH0-N-S-T-R
CH -AH0-L</w>
AO2-R-G-AH0-N -IH0-Z-EY1-SH-AH0-N</w>
AH0-P-EH1-R -AH0-N-T-L-IY0</w>
AH0- L-AY1-V</w>
AA2-R-T-AH0- F-IH1-SH-AH0-L</w>
W-ER1- S</w>
W -IH2-
TH -ER0-
T-W-EH1- N-T-IY0</w>
T-IY1- N-AH0</w>
T -AO0-
SH-EH1- L</w>
S-T-AH1- F</w>
S-P-IY1- K-ER0</w>
S-P-AH0- S-IH1-F-IH0-
S-P-AH0-S-IH1-F-IH0- K-L-IY0</w>
R-AH1- F</w>
R -AH0-N
P-EY1- N-T-IH0-D</w>
P-AE1- S-IH0-NG</w>
M-AE1- P</w>
L-AH0- Z</w>
K-OW1- T-AH0</w>
K-AH0-M-B -AY1-N-D</w>
K -IH2-
JH -IY0-
HH-AA1-R- D-W
G-OW1- L-D-
G-AE1- L-ER0-IY0</w>
F-AE1- K-T-ER0-Z</w>
EY2- T-ER0</w>
EH1-D-AH0-N- B-ER0-OW0</w>
D-L-AY2- F</w>
D-IH1-S-AH0- P-L
D-IH0-P-EH1- N-D-IH0-NG</w>
D-IH0-K-L-EH1- R-D</w>
D-AE1- T-AH0</w>
D-AA1- N</w>
CH -OW1-Z</w>
B-L-IH0- N</w>
AA2- B-
-ER0-AA1- ZH</w>
V -IY0-AH0-N</w>
S-T-AE1- N-D-ER0-D-Z</w>
S-M-OW1- K-IH0-NG</w>
S-ER1- K-AH0-T</w>
S-AH0-P-AO1-R- T-IH0-D</w>
S-AE1- M</w>
R-IY1-S-AO0-R- S-IH0-Z</w>
R-EH1-S-T-ER0 -AA2-N-T</w>
P-R-IH0-V-EH1- N-T</w>
P-AH0-N-IH1- N-S-AH0-
N-AE1- V-AH0-
N -AO2-
M-EH1- M-B-ER0-D</w>
M -AW2-
K-L -ER1-
K-AO2-R- P-ER0-EY2-T-IH0-D</w>
K-AH0-N-S-IH1- S-T-AH0-D</w>
G- N-AY1-
G -AA2-R-
F-OW2- N-Z</w>
D-IH0-S-K-R-AY1- B</w>
B-IH0- K-AO1-Z</w>
AH2-N-S-AH0- K-S-EH1-
AH2-N-IH0-N- K-AO2-R-P-ER0-EY2-T-IH0-D</w>
AH0-T-AE1- K-T</w>
AH0- L-UW1-
AE1-K- T-IH0-
-AO2- N</w>
Z- D-EY2</w>
Y-UW1- M-AH0-N</w>
W-IH0- K</w>
TH-AW1- Z-AH0-N-Z</w>
T-R -IH0-K-S</w>
T-AH0- F-AY2-D</w>
SH-IH0- P</w>
S-W-IH1- T-
S-T-AA1-R- T-S</w>
S-IY1- S-T</w>
R-AA1- K-IY0</w>
N-IY1- ZH-AH0</w>
N-AH2- T</w>
K-R-AH0- S-IY0</w>
K-AA2-N-S-T-AH0-T-UW1- SH-AH0-N</w>
K-AA1- N</w>
JH-AH1- M-P-S</w>
JH -AH0-L</w>
IH0-N-K-R-IY1-S-IH0- NG-L-IY0</w>
IH0-K-S-P-R-EH1- S</w>
G-AA1-R- D-IY0-AH0-N</w>
F-L -IY1-T</w>
F-AH0-N -AA1-
EY1-P-R -AH0-L</w>
D-IH0-S- P-L-EY1-D</w>
D-EH1- Z-ER0-
D-AY0-R-EH1- K-T-ER0</w>
CH-AO1- K-
B-IH0- TH</w>
B-AE1- NG-
B-AA1- D-IY0-Z</w>
AA1- L-
-AH0-L -IH2-Z-AH0-M</w>
-AE0- K-T</w>
Z -ER0-D</w>
W-IY1- V</w>
W-AO1- N-IH0-D</w>
W-AH1- N-
W -AH0-N</w>
T-R -OW0-
T- OW2-
SH-AA1-R- P</w>
S-IH1-M-AH0- L-ER0-L-IY0</w>
S-AY1- N-Z</w>
R-IH1- NG-Z</w>
R-IH0-S-IY1- V</w>
R-EH2-P-R-IH0-Z-EH1- N-T</w>
R-EH1- Z-IH0-D-AH0-N-T</w>
P-OW1- L-IH0-SH</w>
P-L-EY1- S-AH0-Z</w>
P-AE1- R-IH0-SH</w>
N -IY1</w>
M-IH1- R-L-IY0</w>
M-B -AA1-
M-AH0- L-EH1-
M-AA1- T-OW0</w>
L-AO1- T</w>
K-IY1- P-S</w>
K-IH0- SH</w>
K-EY1- S-AH0-Z</w>
K-AH0-N- V-EH1-N-SH-AH0-N</w>
K-AH0-M-P-IY1- T-IH0-D</w>
IH0-K-S-P-R-EH1- S-T</w>
HH-OW2- L-D</w>
HH-AH0- W-AY1-
HH-AE1- N-D-AH0-L</w>
HH -AH0-M</w>
G-L-OW1- B-AH0-L</w>
G-AH1- N-Z</w>
G -EY1</w>
F-IY1-M -EY2-L-Z</w>
F-IH2- SH</w>
D-EH1- R</w>
B-IY1- T</w>
B-EH1- K</w>
B-AE1- TH</w>
B- OW1</w>
AO1-TH -ER0-Z</w>
AH0-F-EH1- R-Z</w>
AH0- M-EH1-
AA1-R- CH-
W-EY1- K</w>
TH-AH0- D-AA2-K-S</w>
T-IH1-P-AH0- K-AH0-L</w>
S-T-IH1- K</w>
S-IH1- K</w>
S-EH1-T-AH0-L- M-AH0-N-T-S</w>
S-AH0- S-T-EY1-
R-IY0- L-IH1-
P-OY2- N-T</w>
P-AH0- D-EH1-
M-OW1- T</w>
M-EH1-M-B-ER0- SH-IH2-P</w>
M-AH0-N -EY2-T</w>
L-IH1- B-R
K-W-AA1-L-AH0- F-AY2-D</w>
K-R-IY0-EY1- T-AH0-D</w>
K-L-AE2-S-AH0- F-AH0-K-EY1-SH-AH0-N</w>
K-AH0-N-EH1- T-AH0-K-AH0-T</w>
K-AH0-N- T-AH1-
K-AE1-N-S-AH0- L-D</w>
K-AA1- T-AH0-N</w>
JH-OW1-S-AH0- F</w>
JH-OW1- Z-AH0-
IH0-S-K-EY1- P-T</w>
IH0-N-S-T-AO1- L-D</w>
HH-OW1- M-AH0</w>
HH-IH1- L-
HH-AW1- ER0-D</w>
G-IH1- L-
G-AA1- D-Z</w>
D-IH0-M-AE1- N-D</w>
D-IH0- M-EH1-N-
D-EY1-N-JH -ER0-AH0-S</w>
D-AA2- K-Y-AH0-
CH-EH1- R-IH0-T-IY0</w>
B-R-EY1- K-S</w>
B-R-AA1- N-Z</w>
B- OY2</w>
AY0-D-EH1- N-AH0-
AA1- D-IY0-OW2</w>
-IY2- M</w>
-AA 0</w>
W-EH1- P-AH0-N-Z</w>
V-IH1- ZH-AH0-W-AH0-L</w>
T-IY1- N-TH</w>
T -AY0-
SH-IY1- P</w>
S-T-R-EH1- S</w>
S-T-R-AY1- K</w>
S-T -AA2-R</w>
S-ER0-V-AY1- V</w>
S-ER0-V-AY1- V-IH0-NG</w>
S-AH1-B- W-EY2</w>
R-OW1- L-IH0-NG</w>
R-AH0- B-AH0-L</w>
P-R-IY0- Z-EH1-
P-R-AA1-S-EH0- S-IH0-NG</w>
P-IY0-AE1- N-OW0</w>
P-AH1- L-
M-IH1- L-ER0</w>
M-AH0- N-IH1-
M-AH0- L-
K-OW1- D-IH0-NG</w>
K-EY2- S</w>
K-EH1- N-AH0-
K-AH1-M-F-ER0- T-AH0-B-AH0-L</w>
K-AA2-M-B -AH0-N-EY1-SH-AH0-N</w>
K-AA1-R- L</w>
IH0-N-T-ER1- N-AH0-L</w>
IH0-K-S-P-IH1-R-IY0 -AH0-N-S-T</w>
IH0- L-AE1-
F-AE1- SH-AH0-N</w>
EH1- N-D-AH0-D</w>
D-R-AA1- P</w>
D-EY1- T-S</w>
D -AY2-
B-EH1- N</w>
B-EH1- D-R
AE1- N-D-ER0-S-AH0-N</w>
-AO2-R- Z</w>
W-UH1- D-Z</w>
W-EY1- V-Z</w>
SH -L-IY0</w>
S-ER1-K-AH0-M- S-T-AE2-
S-AH0-K-S-EH1- S-F-AH0-L-IY0</w>
S-AH0-K- Y-UW1-
R-IH0- V-ER1-
R-EH1- S-
P-IH1- R-
P-AH2-B-L-IH0- K-EY1-SH-AH0-N-Z</w>
P- Y-UH1-R</w>
OW1- N-ER0-Z</w>
N-UW1- T-R
N-EH1- F-
N- M-OW2-S-T</w>
M-EY1- SH-AH0-N-Z</w>
M-ER1- JH-D</w>
M-EH1-ZH -ER0-
M-AE1-G-AH0-Z -IY2-N-Z</w>
L-AO1- Y-ER0</w>
K-AH0-N- S-AH1-L-
IH2-N-S-T-IH0-T-UW1- SH-AH0-N</w>
IH0-M-P-R-UW1- V</w>
IH0-F-EH1- K-T-S</w>
G-AA1- T-AH0-N</w>
F-IH0- N</w>
EY1-JH -AH0-N-S-IY0</w>
ER0-EH1- S-T-AH0-D</w>
EH1- N-T-ER0</w>
D-IH0-L-IH1- V-ER0-D</w>
CH-AO1-K- L-AH0-T</w>
B-ER1- N-D</w>
AY0-D-EH1-N-T-AH0- F-AY2-D</w>
AA1- N-
-IY0 -AH0-L-AA1-JH-IH0-K-AH0-L</w>
ZH-AA1-N- R-AH0</w>
W-AY1-L- D-L-AY2-F</w>
V-Y-UW1- D</w>
V- OW0</w>
S-EH1-N-CH -ER0-IY0-Z</w>
S-AA1- L-
S- D-IH1-
R-IH0-T-AY1- ER0-M-AH0-N-T</w>
P-R -AE1-
P-OW1-AH0- M-Z</w>
P-L-AE1- S-T-IH0-K</w>
P-ER1- S-AH0-N-Z</w>
P -AA2-R
N-UW1-K-L -IY0-ER0</w>
N-S-EH2- T</w>
N-D-R -AH0</w>
M-IH2- S-IH0-S-IH1-
L-AH1- N-CH</w>
K-AH1-L-ER0- F-AH0-L</w>
K-AH0-N-S-T-IH1-CH-UW0 -AH0-N-S-IY0</w>
K-AA2- M-P
IY0-V-EH1- N-T</w>
IH0-N-SH-UH1- R-AH0-N-S</w>
HH-EH1-L- M-AH0-T</w>
HH-AA1-R- T-
HH -AA0-R-
G- S-AH0-N</w>
G -AH0-L
F-R -EY1-M</w>
F-L -UW1</w>
F-IH2-L-AH0-D-EH1-L- F-IY0-AH0</w>
EH1- F</w>
D-R -IH0-K</w>
D-L -ER0</w>
B-L -UW1-Z</w>
AH0- T-R-IH1-B-Y-AH0-
AH0- T-ER1-
AH0- K-AW1-N-T
Y-UW1-N-IH0- T</w>
V-IY0- EY1-SH-AH0-N</w>
V -AE0-N-
T-AH0- B-AH0-L-Z</w>
T- S-IY0</w>
SH -AY2-R</w>
S-W-IH1-T- S-ER0-
S-K-IY1- M</w>
S-AH1-B-JH-IH0- K-T-S</w>
S-AH0-G-JH-EH1- S-T-S</w>
R-IH0-P-AO1-R- T-S</w>
R-IH0- N</w>
R-EH2-P-R-AH0- Z-EH1-
R-AY1- D-Z</w>
P-UH1- L</w>
P-R-IH1- N-S
P-IY1- T-ER0-
P-IH1- K</w>
P-ER2-S-AH0- N-AE1-
P-AA2-P-Y-AH0- L-EH1-R-AH0-T-IY0</w>
P -IY0
N-CH -AH0-N-T</w>
M-UW1- V-M-AH0-N-T-S</w>
M-AH0- K-AA1-R-
L-IH0- SH-T</w>
L-AH0-N- D-ER0</w>
K-L-AY1- M-IH0-T</w>
K-AH0-N-T-AH1- K-IY0</w>
K-AE2- T-AH0-
IH0-K-S-P-EH1- K-T</w>
HH -UH1-
G-UH1- D-
G -AA2-N</w>
F-R -IY2</w>
F-IH1-L-AH0- P</w>
EY2- T-S</w>
D-IH0-P-EH1-N-D -AH0-N-T</w>
CH-AA1- R-AH0-L-Z</w>
CH -UW0</w>
B- OW2</w>
AW2-T- S-T-AE1-N-D-IH0-NG</w>
AH0-K-AH1-M-P-AH0-N -IY0-D</w>
AH0- F-IH1-SH-AH0-L-IY0</w>
AE1-D-V-ER0-T-AY2- Z-IH0-NG</w>
AA1-P-ER0-EY2- T</w>
-OW2- M</w>
-AW 2
-AO0- L</w>
Z -OW1-N</w>
Y-EH1- S-T-ER0-
W-AY1- D-
T-OW1- B-ER0</w>
T-IY1- CH-ER0-Z</w>
T-EH1- S-T-S</w>
T-AH0- V
T-AA1-R- G-AH0-T</w>
S-T -AH0-M</w>
S-EH1-N-T -AH0-N-S</w>
S-AY2- T-S</w>
S-AO1- L-
S-AH0- T</w>
S-AE1- T-ER0-
S-AE1- NG</w>
S-AA1-L-AH0- D</w>
S- M-AA1-R-
R-IH0- S-T</w>
P-UW2- L</w>
P-OW1- AH0-M</w>
P-AH0- T-EY1-
P-AE1- N-T-S</w>
M-Y-UW0- Z-IH1-SH-AH0-N</w>
M-IH1- L-Z</w>
M-AE1- S-IH0-V</w>
M-AA2- N-T</w>
L-EY1- D-IY0-Z</w>
K-AH0-M-IH1- T-AH0-D</w>
K-AH0-L-EH1-K- SH-AH0-N-Z</w>
K-AE1-R-IH0- K-T-ER0-Z</w>
K-AE1- N-AH0-N</w>
K-AA0- S-T-UW1-
JH-AA1- B-Z</w>
IH0-N-K-R-IY1- S</w>
HH -AO1-R-AH0-
G-R-EY1- V</w>
G-N-IH1- SH-AH0-N</w>
F-IH2- G-Y
F-EY1- S-IH0-NG</w>
EY1- T-IY1-N</w>
D-IH0-F-IY1- T</w>
B-OW1- T-S</w>
AO1- N-T</w>
AH0-D-AH1- L-T-S</w>
AH0- S-T-R-AA1-
AE1-L-K-AH0- HH-AA2-
-IY2- OW0-
-ER0 -AH0-N</w>
-AH0-N -AA1-
Z -L-IY0</w>
Y-UW2-N-AH0-V-ER1- S-AH0-L</w>
Y -ER0-
W-ER1- K-ER0</w>
V-AY1-AH0-L -AH0-N-S</w>
V -AO1-
TH-ER1- D-IY0</w>
T-IY1- CH</w>
SH-EH1- R-Z</w>
S-W-IY1- D-AH0-N</w>
S-T-EY1- T-M-AH0-N-T</w>
S-IH1- M-B-AH0-L</w>
S-IH0- JH-IH0-Z</w>
S-ER1- N-EY2-
S-AH0-B- JH-EH1-
S -AA0-R-
R-IH0-JH-EH1- K-T-IH0-D</w>
R-IH0- D-UW1-S</w>
R-EY1- Z</w>
P-AY2-AH0-N-IH1- R</w>
N -AH0-N-S</w>
M-AH0- L-EY1-
M -AO1-R-AH0-
K-AO1- S-T</w>
K-AA1-M- Y-AH0-
K -IY1-N</w>
IH1- L</w>
IH0-N-V-EH2-S-T-AH0- G-EY1-SH-AH0-N</w>
IH0- R-EH1-
G-OW1- L-Z</w>
F-AY1- ER0-D</w>
F- T-IH0-NG</w>
D-IH0- V-IH1-ZH-AH0-N-Z</w>
D-IH0- S-AO1-R-
D-ER0- IH0-NG</w>
D-AE1- M-IH0-
B-UH1- L-AH0-
B-R-EH1- K-
B-IH1- L-IY0</w>
B-AE1- L-AH0-N-S</w>
AH0- L-AY1-AH0-
AE1-L-K-AH0-HH-AA2- L</w>
-UW2- T</w>
-AE1- K-T</w>
Y-AH1- NG-G-AH0-S-T</w>
W-IH1- N-
V -AW1-
TH-R -AY1-
T -EH2-R-IY0-Z</w>
SH -UH1-K</w>
S-IH0- T</w>
S-EH2- M-IY0-
S-EH1- N-AH0-T</w>
S- B-ER0-G</w>
S -IY0-AH0</w>
R-IY0- L-OW1-
R-IH0-T-AY1- R-D</w>
R-IH0-L-IY1- F</w>
R-IH0-L-IH1- JH-AH0-N</w>
R-AH0-K-AO1-R- D-Z</w>
P-ER0-EY2- T-IH0-NG</w>
P-AA2-R -L-AH0-
P -EH0-
N-AH0- T-IY0-Z</w>
M-OW1-T-ER0-S-AY2- K-AH0-L</w>
M-IH2-S-IH0-S-IH1- P-IY0</w>
M-AH0- T-AE1-
M-AE1- L-
M-AE0-G- N-EH1-
L-UW1- Z-IH0-NG</w>
L-IY1- N</w>
K-R -UW1-Z</w>
K-OY1- N-Z</w>
K-L-AH0- HH-OW1-M-AH0</w>
K-AH0-M-P-OW1- N-AH0-N-T</w>
K-AH0-M-IH1- SH-AH0-N
K-AH0-L-OW1- N-IY0-AH0-L</w>
K-AA1- M</w>
IH1-N-T-R -IH0-
IH0-M-IY1-D-IY0 -AH0-T</w>
IH0-K-S-P-AE1- N-SH-AH0-N</w>
HH-AO1-R- S-AH0-Z</w>
F-EH2- D-ER0-EY1-SH-AH0-N</w>
EH2-JH-AH0- K-EY1-SH-AH0-N-AH0-L</w>
DH -AH0-M-Z</w>
D-R-AH1- G</w>
D-IH2-S-AH0- P-IH1-
D-EY1- V</w>
D-EH1- V-AH0-L</w>
CH -L
B-R-IH2- JH</w>
B-L -AY1-N-D</w>
B-L -AH0-
AH2- N-D-IH0-
AH0-K-AA1-M-P-L -IH0-
AH0-K- S-EH1-P-T</w>
AA1-N-ER0- EH2-R-IY0</w>
-IY2- D</w>
-ER0-AH0- B-L-IY0</w>
TH-IH1- K</w>
T-R-AH1- K</w>
T-AY1- D</w>
S-W-IH1-T-S-ER0- L-AH0-N-D</w>
S-K -AO1-
S-EH1- P-ER0-
S-AH0-G-JH-EH1- S-T-AH0-D</w>
R-OW1- P</w>
P-R-AH0-D-UW1- S-IH0-Z</w>
P-R-AH0-D-UW1- S-IH0-NG</w>
P-ER1- F-IH2-
P-ER1-F-IH2- K-T</w>
OW2- K-L-AH0-HH-OW1-M-AH0</w>
M-IH1- S-T-ER0-IY0</w>
M-IH1- D-AH0-L-
M -ER0-AH0-L</w>
L-Y -AH0-B-AH0-L</w>
L-AY1- K-T</w>
L-AY1- AH0-N</w>
L-AO1- N-CH</w>
K-UW1- L</w>
K-R-AA1- P-S</w>
K-L -IH0-
K -ER0-AH1-
IY1-K-W -AH0-L</w>
F-Y-UW1- N-ER0-AH0-L</w>
F-R-AE1- N-CH
F-AH0- K</w>
EY1- N-CH-AH0-N-T</w>
EH0-K-S-T-R-IY1- M</w>
D-R-AH1- M-Z</w>
D-IH0- P-L-OY1-
B-R -UW0-
AO1-R- TH-AH0-D-AA2-K-S</w>
AH0-T-R-IH1-B-Y-AH0- T-AH0-D</w>
AH0- K-AW1-N-T-S</w>
AE2- L-IH0-
AA1-R- M-D</w>
-AH0-N -EY1-SH-AH0-N-Z</w>
V-EH1- S-AH0-L-Z</w>
TH-EH1-R-AH0- P-IY0</w>
TH-AW1- Z-AH0-N-D</w>
T-AH1- NG</w>
SH-IY0- EY2-T-IH0-D</w>
S-UW1- P-ER0</w>
S-IH1-NG-G -AH0-
S-IH1- M-
S-AY1- L-AH0-N-T</w>
S-AO1-F- W-EH2-R</w>
S- W-EH2-R</w>
R-IY0- Z-AA1-
R-IH0-K-AO1-R- D-IH0-NG</w>
R-IH0- F-ER1-Z</w>
R-IH0- F-
NG- S-T</w>
N-OW0-V-EH1- M-B-ER0</w>
L-OW1- G-OW0</w>
L-AY1- D</w>
K-W -AY2-Z</w>
K-EH1- R-IY0-Z</w>
K-AA1-N-T-EH0- K-S-T</w>
K-AA1-N-F-L-IH0- K-T</w>
K-AA1- Z-AH0-Z</w>
K- OW2</w>
K -IY1-Z</w>
JH-IY1- Z-AH0-S</w>
JH-AY1- AH0-N-T</w>
IH2-N-S-T-IH0-T-UW1- SH-AH0-N-Z</w>
HH-AY1- D-R-AH0-
HH -AO2-R-
G-EY1- SH-AH0-N-Z</w>
F-ER0- EH1-V-ER0</w>
F-EH1- N-S</w>
F-AE1- K-T-ER0</w>
F-AA1-R- M-ER0-Z</w>
F -EY2-S</w>
EH2-K-S-P-L -AH0-N-EY1-SH-AH0-N</w>
D-IH0-S-K-AH1- SH-AH0-N</w>
D-IH0-K-L-AY1- N</w>
D-AY2-AH0-G- N-OW1-
D-AH0- L-Z</w>
B-R-AO1-D- W-EY2</w>
B-IH1-Z-N-AH0- S-AH0-Z</w>
B-EY1- S-AH0-S</w>
0 -AA1-
Y -ER1-
W-UH1- L-F</w>
W-AO1- K-T</w>
W-AH1- Z-AH0-N-T</w>
W -AA0-
V-IH1-Z-IH0- T-ER0-Z</w>
V -IH0-S</w>
T- S-AH0-N</w>
S-T-R-EH1- NG-K-TH</w>
S-T-AH1-D-IY0- IH0-NG</w>
S-T- M-AH0-N-T</w>
S-OW1- L-ER0</w>
S-K -AO1-R-
S-ER0- EH1-
S-AH0- L-EH1-K-SH-AH0-N</w>
S-AE1- M-Y-UW0-
S- W-EY1-
R-IH0-Z -UW1-
P-R-IH1-N-S -EH0-S</w>
P-L-AE1- N-AH0-T</w>
P-ER0- Z-EH1-N-T-AH0-D</w>
P-EH1- N</w>
P-AH0-N-IH1-N-S-AH0- L-AH0</w>
M-IH1-N-IH0- S-T-ER0</w>
M-AE1- T-ER0-Z</w>
M -ER0-D</w>
L-EH1- JH-AH0-N-
L -UW0</w>
K-R-AE1- SH</w>
K-OW1- S-T-AH0-L</w>
K-L-AY1- M-AH0-T</w>
K-EH1-R-AH0-K-T -ER0-AY2-Z-D</w>
K -ER0-AA1-
JH-AH0-N -EH1-
IH1-N-JH -AH0-N</w>
IH0-K-S-P-R-EH1- SH-AH0-N</w>
IH0-F-EH1- K-S</w>
G-R-IY1- S</w>
G-R-EH1- G-S-AH0-N</w>
G-R-AE1- M-ER0</w>
F-ER0 -AH0-N-S</w>
EH2-JH-Y-UW0- K-EY1-SH-AH0-N</w>
EH1-N-T-ER0- IH0-NG</w>
EH1- R-ER0</w>
D-IH0-V-EH1-L-AH0- P-IH0-NG</w>
D-IH0- S-AH0-
D-EY1- T-AH0-
D-EH1-Z-ER0- T</w>
CH-ER1- CH-IH0-Z</w>
B-L-AA1- K-S</w>
B-AO2-R- N</w>
B-AH1- S-IH0-Z</w>
B -UW0-
AO1-R-K-AH0- S-T-R-AH0</w>
AH0-D-AH1- L-T</w>
AH0- P-
AE1-N- Y-UW0-AH0-L-IY0</w>
AE1-F-R-IH0- K-AH0-N</w>
AA1-R- K
-AY2- T-S</w>
-AY2- K</w>
U H0-
S-K-R-IH1- P-T</w>
S-AE1-M-Y-UW0- L</w>
R-IY2 -AH0-
R-IY1- T-EY2-L</w>
R-IH0- S-P-EH1-K-
P-L-AA1- T</w>
P-ER0-F-AO1-R- M-Z</w>
P -AH0-T</w>
N-IH1-K-N-EY2- M-D</w>
N-IH1- K-AH0-
M-IY1- D-IY0-
M-EY1- N-IY0-AH0</w>
M-EH1-K-AH0- N-IH2-Z-AH0-M</w>
M -IH0-D</w>
L-AH0-JH -IY0-Z</w>
L-AE1- N-D-Z</w>
L-AA1- K</w>
K-AE1- N-Y-AH0-N</w>
K-AA2- M-
IY0- D</w>
HH-EH1-R-AH0- L-D</w>
HH -EY1</w>
HH -EH2-R
G-L-AE2- S-IH0-Z</w>
F-AH0-N -IY0</w>
EH1-N-IY0- B-AH0-D-IY0</w>
EH1-L- S-W-EH2-R</w>
D-R-AY1- V-ER0-Z</w>
D-IY1- V-AH0-L</w>
D-EH1- M-AH0-
D-EH1- K-ER0-
CH-EH1- R-AH0-
AE0-TH-L -EH1-T-IH0-K</w>
AE0-K-S-EH1- S-AH0-B-AH0-L</w>
-AY2- T-ER0</w>
W -AA2-R</w>
V-ER2- S</w>
V-AH0-L -R-IY0</w>
TH-R -IH1-
TH -IY0-
T-UH1- R-AH0-
T-R-AY1- B</w>
SH-UW1- T-IH0-NG</w>
S-P-EH1- K-T-IH0-V</w>
S-IY1-K-W -AH0-N-S</w>
S-AH0- P-R-IY1-M</w>
S-AH0- P-R-AY1-Z</w>
S- K-R-AY1-
R-UW1- L-D</w>
R-OW0-M-AE1- N-T-IH0-K</w>
R-IH0-L-IY1- S-IH0-Z</w>
R-EH1-JH-IH0- S-T-ER0-D</w>
R-AH0- L-D</w>
P-L -EY2</w>
P-EY1- N-T</w>
P-ER0-T-EH1- K-SH-AH0-N</w>
NG-G -AA1-
N- Z-IY0</w>
M-AE1- CH-IH0-Z</w>
L-IH1- F-T</w>
K-ER0- EH1-K-
K-AO1-R- T-
K-AA2-N-T-R-AH0- B-Y-UW1-SH-AH0-N-Z</w>
JH-ER1- N-IY0</w>
IH0-N- S-P-EH1-
IH0-N- JH-OY1</w>
IH0-L-IH1-Z-AH0- B-IH0-TH</w>
IH0-G-Z-IH1- B-IH0-T</w>
HH-ER1- T</w>
F-AO1-R- M-Y-AH0-L
F -EH2-R</w>
EH1- R-IH0-K</w>
EH1- G</w>
D-R-AH1- M-ER0</w>
D-OW0- M-EY1-N</w>
AW1-T- P-UH2-T</w>
AW1-T- F-IH2-
AO1- D-IY0-AH0-N-S</w>
AH0-F-IH1- SH-AH0-L-Z</w>
AH0- T-IY0-Z</w>
AE1- B-IY0</w>
-UW1- SH-AH0-N</w>
Z-IH1- R-OW0</w>
W-ER1- K-
V-EH1-JH- T-AH0-B-AH0-L-Z</w>
TH -IY2
T-UH1-R-AH0- S-T-S</w>
T- S-AH0</w>
T- L-AH0-S</w>
S-W-IH1- NG</w>
S-T-R-IH1- P</w>
S-P-EH1- S-AH0-
S-IY1- D</w>
S-IH1- NG-AH0-
S-IH1-NG-AH0- P
S-EY1- V-D</w>
S-ER1- V-ER0</w>
R-AH0- Z</w>
R -UW0</w>
P-OW1- L-AH0-N-D</w>
P-IH1- K-T</w>
P-AE1- S-IH0-Z</w>
N-EH1-T-W -ER2-K-S</w>
N-AO1-R- W-EY2</w>
N -IY0-AH0-
M-EY1- B-IY0</w>
L-IH1- S-T-S</w>
L-EH1- G</w>
L-AA1- K-T</w>
L -ER0
K-L-OW1- ZH-ER0</w>
K-L-EH1- R</w>
K-AH0- L-D</w>
K-AA1- S-T</w>
JH-OY1- N-T</w>
IH0-N-JH-OY1- D</w>
IH0-F-EH1- K-T</w>
HH-EH1- L-IH0-
G -ER0-AA1-ZH</w>
EY1- SH-AH0-N-AH0-L</w>
EH2-R -IH0-
EH1-D-IH0- T-IH0-D</w>
D-IH0-S-T-IH1-NG-K- T-IH0-V</w>
CH-AH0- W-AH0-L</w>
CH -IY0-
B-R-IY1- F</w>
AH0-M-AH1- NG-S-T</w>
AH0- L-AE1-
AA0-R- S-EH1-L-V-Z</w>
-EY0- L</w>
-EH2- L</w>
Y-AA1-R- D</w>
W-AY1-D- S-P-R-EH1-D</w>
T-AH1- N-AH0-L</w>
T-AE1- N</w>
SH-AH0- N-AH0-
S-IH1- N-TH-AH0-
S-EH1-P-ER0- IH0-T</w>
S-EH1- P-ER0-EY2-T-IH0-D</w>
S-AY0- K-AA1-L-AH0-JH-IY0</w>
S-AE1- K-R-AH0-
S- N-AH0-S</w>
R-IH0-Z-IH1- S-T-AH0-N-S</w>
R-IH0-V-IY1- L-D</w>
R-AA1- N</w>
P-UH1- L-D</w>
P-R-IH0-Z-ER1- V-D</w>
P-L-EY1- T</w>
P-EH1-R-AH0-L-EH2- L</w>
P-AE1-T-ER0- N</w>
P-AA1- K-AH0-T</w>
P- S-T</w>
P -AE0-
NG-G- Y-AH0-L-ER0</w>
N-AO2-R- W-IY1-
N- JH-AH0-Z</w>
N -IY0
M-EH1- ZH-ER0</w>
M -AO1-L</w>
L-OW1- D</w>
L-D-R -AH0-N</w>
K-EY1- N</w>
K-AH0-M- P-L-EY1-
K-AH0- D</w>
JH-IH0- N-Z</w>
IH1-N-JH -ER0-IY0-Z</w>
IH1-N- S-T-AH0-N-S</w>
IH0-L-EH1-K- T-ER0-AH0-L</w>
IH0-K-S-P-L-EY1- N-D</w>
IH0- M-OW1-
G-R -IY2-N</w>
G-EH1- T-S</w>
G -IH0-D</w>
F-IH1-SH -AH0-N-S-IY0</w>
F-EH1- R-
F-AY1- N-AH0-L-Z</w>
F-AE1- K-AH0-
EH2- V-AH0-L-UW1-
EH0- M-
DH -IH0-NG</w>
D-L -AH0-S</w>
D-ER0-EH1-K- T-AH0-D</w>
CH-AA1-R- T-ER0</w>
B-AA1-R- Z</w>
B -AO0-R-
AO0- T-AA1-
AH0- K-L-AA1-K</w>
-UH2- D-Z</w>
Y-UW0- K-R-EY1-
T -IH2-Z-AH0-M</w>
S-T-R -IY2-M</w>
S-IH1-T-IH0- Z-AH0-N-Z</w>
S-AH1- N-IY0</w>
R-OW1- L-D</w>
R-IY1-S -AH0-N-L-IY0</w>
R-AH1- F-L-IY0</w>
P-UH1- T-IH0-NG</w>
P-R-OW1- F-AY2-
P-R-IY0- HH-EH1-
P-R-IH1- Z-AH0-N
P-R-AY1- Z-IH0-Z</w>
P-AH0- L-IY0</w>
P-AH0- B-AH0-L</w>
N-AO2-R-W-IY1- JH-AH0-N</w>
N-AH0- M-IY0-Z</w>
L-IH1- P-S</w>
K-R-IH1-T-IH0- S-IH2-Z-AH0-M</w>
K-EH1- N-T</w>
K-AA1-N-S-ER0- T-S</w>
K-AA1- M-EH0-
JH-IH0- N</w>
JH-EH1- F-ER0-
JH-AH0- B-AH0-L</w>
JH -AH0-M</w>
IH1-N-F-L -UW2
IH0-K-S-P-EH1- K-T-IH0-D</w>
HH-AH1-N-D-R -AH0-D-Z</w>
HH-AA1-R- D-
F-R-IY1-K-W -AH0-N-T</w>
F-AO1- L-S</w>
EY1-JH -AH0-N-T-S</w>
EH1-V-R-IY0- B-AA2-D-IY0</w>
EH1-N-T-ER0- P-R
D-L -AH0-N-D</w>
D-EH1-M-AH0- K-R-AE2-
D-AY1-AH0- S-IY2-Z</w>
B-L -IY1-
B-IH1- R-
AH0-B- Z-AO1-R-
AE1-L-G-ER0-IH2- DH-AH0-M</w>
AE0- N-
AA1-R-G-Y-AH0- M-AH0-N-T</w>
AA0-K- T-OW1-B-ER0</w>
W-IH1- R</w>
W-AO1-L- T-ER0</w>
V-ER0- IH0-JH</w>
V-EH1-R-IY0 -AH0-N-T</w>
T-R-IH1- K</w>
T- OY1-
S-K-EH1-JH-UW0- L-D</w>
S-IH1- R-IY0-AH0-S-L-IY0</w>
S-CH -IY0-AE1-
S -IY0-AE1-
R-IH0-Z-AH1-L- T-IH0-NG</w>
R-IH0- K-AH0-L</w>
P-R-EY1- Z-D</w>
P-OW1- Z-IH0-NG</w>
N-Y-AH0- S-K-R-IH2-
M-ER0-IY1- AH0</w>
M-AY1-K-R-AH0- F-OW2-N</w>
M-AH0-K-AE1- N-IH0-K-AH0-L</w>
M-AE2-N-Y-AH0-F-AE1-K-CH-ER0- IH0-NG</w>
M-AE1- N-Y-AH0-S-K-R-IH2-
M- R</w>
L-AH1- M-
K-AO1- R-AH0-
K-AA2- N-T
K-AA1- L-AH0-M</w>
JH-OW1-Z-AH0- F</w>
IH1-N-S-EH2- K-T-S</w>
IH0-K-S-P-IH1-R-IY0 -AH0-N-S-IH0-Z</w>
HH-EH1- R-
HH-AH0-L -IY1-N</w>
HH-AA1-R- D-L-IY0</w>
G-L -AY1-
F-IH0- T-S</w>
F-AO1-R- M-IH0-NG</w>
F-AH2- N-D-AH0-
F-AH1- N-D-Z</w>
EH1-N-IY0- W-AH2-N</w>
EH1- G-
EH1- D</w>
D-AE1- N-Y-AH0-L</w>
B-Y-UW1- T-IY0</w>
B-R-IY1- D</w>
B-AY1- B-AH0-L</w>
B -AH0-S</w>
AW1- T-ER0</w>
AH0-N- T-S</w>
AH0- G-R-EH1-
AE2-L-AH0- B-AE1-
AE1- T-AH0-T-UW2-D</w>
-ER0-AH0- T-L-IY0</w>
-AY2- M</w>
W-IH0- S-K-AA1-
W -AA2-
V-IY0- EH1-
V-AY0 -AH0-
T-R-AY1- L</w>
T-R -AH0-M</w>
T-AY2- P</w>
T- F-AH0-L</w>
SH -ER0-Z</w>
S-P -AA2-
S-IH1-M-P- T-AH0-M-Z</w>
S-AH0- P-OW1-Z-D</w>
S-AE1- K-S-AH0-
R-IH1- M</w>
R-EH2-P-R-IH0-Z-EH1- N-T-S</w>
R-EH2- G-
R-EH1-JH-IH0- S-T-ER0</w>
P-L-EY1- AO2-
OY0- D</w>
N-OW1-T-AH0- B-L-IY0</w>
N-EH1-F- Y-UW0</w>
M-IH1- K-S</w>
M-AH0- D</w>
M -AY0-AE1-
L-AY2- Z</w>
L-AH1- V-L-IY0</w>
K-R-IH2- S-CH-IY0-AE1-
K-IY1- P-IH0-NG</w>
K-AH0-L-AE1- B-ER0-
K-AH0- L-IH1-
K-AH0- L-AE2-
K-AA1-N-T-R-AE0- S-T</w>
IY1- Z</w>
IH2-N-F-L-UW0- EH1-
IH2-N-F-L-UW0-EH1- N-CH-AH0-L</w>
IH1-N-T-R-AH0- S-T-S</w>
IH0-S-EH1- N-SH-AH0-L-IY0</w>
HH-AO1-R- N</w>
HH-AO1- L-
F-EY1- V-ER0-
F-EY1- T</w>
F-AY1- R-
EY1-N-JH -AH0-L</w>
D-IH1- Z-
D-IH0-S-EH1- M-B-ER0</w>
D-IH0- P-R-EH1-SH-AH0-N</w>
D-EH1- S-K</w>
CH-EY1- M-B-ER0</w>
B-R-UW1- S</w>
B-AA2- K-S</w>
AO1-R-AH0- JH-IH0-N-Z</w>
AO1-F-AH0- S-IH0-Z</w>
AH0- P-R-EH1-
AE1-M-AH0- CH
AA2-P-ER0-T-UW1- N-AH0-T-IY0</w>
Y-EH1-S-T-ER0- D-EY2</w>
W-IH1- S-P
V-ER1- CH-UW0-AH0-L</w>
V-AA1-L- V-D</w>
T-AY1- N-IY0</w>
S-P-IY1- K-S</w>
S-P-EH1-SH -AH0-L
S-AY1- T-IH0-D</w>
S-AY1- L-AH0-N-S</w>
S-AH0-L-EH1- B-R-IH0-
R-IH1- CH-
R-EH1- F-R
R -EY0-
P-IY0- EH1-R</w>
P-ER0-F-AO1-R-M-AH0-N- S-AH0-Z</w>
OW1-V-ER0-L -UH2-
N-UW1- L-IY0</w>
N-IH0- K-L-IY0</w>
N-AY1- DH-ER0</w>
M-IY1- T-IH0-NG-Z</w>
M-IH0-S-T-EY1- K</w>
M-AH2-L- T-IY0-
M-AH0- N-EY1-SH-AH0-N-Z</w>
M-AH0- L-IH1-
L -AO2-G</w>
L -AE0-
K-R-IH2-S-CH-IY0-AE1- N-IH0-T-IY0</w>
K-R-AO1- S-IH0-Z</w>
K-ER1- N-T</w>
K-AO1- T</w>
K-AH0-N-T-IH1-N- Y-UW0-AH0-S</w>
K-AE1-P-IH0- T-AH0-L</w>
K-AE1-L- K-Y-AH0-L
K-AA1-N-S -AH0-N-T-R
K-AA1- F-IY0</w>
IH2- N-D-OW0-
IH2- M-P-L-AH0-
IH0-M-P -EH1-
HH-EH1-R-IH0- T-IH0-JH</w>
G-IH1- L-T-IY0</w>
F- T-
EH1-N-IY0- W-EH2-R</w>
DH-ER0- IH0-NG</w>
D-IH0- NG-L-IY0</w>
D-AH1- G-L
B-R-IH1- JH-IH0-Z</w>
B-R-EH1-K- F-AH0-S-T</w>
B-OW1- L</w>
AO1- N-T-UW0</w>
AE1-K- Y
-IH2- L-D-R-AH0-N</w>
W-IH0-S-K-AA1- N-S-AH0-N</w>
W-AY1- Z</w>
V-EH1-R-IY0-AH0- B-AH0-L</w>
T-ER0- IH0-S-T</w>
T-AH0- S-AY2-Z-D</w>
T-AH0- JH</w>
T- OW1</w>
T -AO1-R-D</w>
S-T-UW1-ER0- T</w>
S-T-IH0- K-L-IY0</w>
S-P-R-IH1- NG-
S-IH1-NG-AH0-P -AO2-R</w>
S-IH0- S-T</w>
S-ER1-N-EY2- M</w>
S-ER1- K-Y-AH0-L-ER0</w>
R-IH0-K-W-AY1- ER0</w>
R-IH0-G-AA1-R- D-IH0-D</w>
R-IH0- S-IH1-
P-R-EH0- M-IH1-R</w>
P-R-AA1- B-L-IY0</w>
P-IH1-R-IY0 -AH0-D-Z</w>
P-AW1- ER0-D</w>
P -EH2-R
N-TH -R
N-IH0- N</w>
N-EY1- B-AO2-R-
N-AH0- K-S</w>
M-AE2-N-Y-AH0-F-AE1-K- CH-ER0-D</w>
M-AE2- S-T-ER0</w>
M-AA1- R</w>
M -UW0-
K-R-IY0-EY1- T-IH0-NG</w>
K-R -AY1</w>
K-EY1- K</w>
K-AH0-N-S-T-R-AH1- K-T-AH0-D</w>
K-AE1-P- CH-ER0</w>
JH-AH0-N -IY1-
IH2-N-D -IY0-AE1-N-AH0</w>
IH1-N-S -AY2-D</w>
IH1-N-F-L-UW2 -AH0-N-S-IH0-Z</w>
IH0-G-Z-IH1- S-T-AH0-D</w>
HH- Y-UW2-
HH -AO2-
G-R-AE2- M</w>
EH0- M-P-L-OY1-
D-R-OW1- V</w>
D-IH1- JH-AH0-
D-IH0-S-K-R-IH1- P-SH-AH0-N</w>
D-AH1- B-L-IH0-N</w>
D- F-ER0-D</w>
B-R-AH0-Z-IH1- L</w>
B-OW1- N</w>
B-EH1- L-T</w>
AO1- G-AH0-S-T</w>
AH0-K- Y-UW1-
AE1- NG-
AE0-K- S-EH1-P-
-EH0-K- T-AE1-
-AE2- K-S</w>
Z -EH0-
W-AH2- T-EH1-
W-AH2-T-EH1- V-ER0</w>
V-OW1- K-AH0-
V-EH1- R-IY0-D</w>
TH-ER1- T-IY1-N</w>
TH -IH0-K</w>
T-OW1- K-IY0-
SH-AE1- L-OW0</w>
S-IY1- L</w>
S-AH1-N- G-L-AE2-S-IH0-Z</w>
S-AH1-M- W-EH2-R</w>
R-IH0-Z-AH1-L- T-IH0-D</w>
R-IH0- T-ER1-N-Z</w>
R-EH1-S-T-R -AA2-N-T-S</w>
R -AE0-
P-R-IH1-N-S-AH0- P-AH0-L-Z</w>
P-L -EY2-N</w>
P-AA2- S-AH0-
P-AA1- N-D</w>
P- S-IY0</w>
OY2- Z</w>
NG-K- OW0</w>
N-EY1-B-AO2-R- HH
N -IY0-AH0-S-L-IY0</w>
N -AE0-
M-EH1- S-IH0-JH</w>
M-EH0- N-T-EY1-SH-AH0-N</w>
M-AH0- L-IY0-Z</w>
M-AH0- CH
K-W-IY1- N-Z</w>
K-R-IH1- T-AH0-S-AY2-Z-D</w>
K-EY0- T-IH0-D</w>
K- T-IH0-K</w>
IH0-N-HH-AE1-B-AH0- T-AH0-N-T-S</w>
HH-Y-UW1- S-T-AH0-N</w>
HH-EH1- R-IH0-S</w>
HH-AE1- T-S</w>
F-R-AE1-NG- K-L-IH0-N</w>
F-L-EY1- V-ER0</w>
F-EH1- D-R-AH0-L</w>
F -AH0-L
EH2- D-AH0-
D-AY0-N-AE1- M-IH0-K</w>
D- SH
B-IH0- G-AH1-N</w>
B-ER1- N</w>
B-EH1- R-Z</w>
AY1- AH0-
AH0- P-R-UW1-
AE1-D-AH0- M-Z</w>
AE1- S-T-ER0-
AA0- L-
W-UW1- N-D-IH0-D</w>
T-UH1- R-AH0-S-T</w>
T-R -AH2-
T-AH1- CH</w>
SH-AE1- D-OW2</w>
S-W-IH1- M</w>
S-T-AA1- K-
S-P -AH1-
S-EH1-V-AH0-N- TH</w>
S-AH0- P-L-AY1-D</w>
S-AE1- N-D-IY0</w>
S-AE1- K-S-AH0-N</w>
R-IY0-Z-AH1- L-T</w>
R-IY0-L-EY1-SH-AH0-N- SH-IH2-P-S</w>
R-IY0-K-W-AY1- ER0-Z</w>
R-IH1- CH-ER0-
R-EY2- D-IY0-
R-EH2- K-R-IY0-EY1-
P-R-AH0-JH-EH1- K-T</w>
P-R-AA1-S-EH0- S-AH0-Z</w>
P-ER0- EY1-D</w>
P-AO1-R- T-S</w>
OW1- N-ER0-SH-IH2-P</w>
N-AE1- CH-ER0-AH0-L</w>
M-AH0- S-L-IY0</w>
M-AE1- T</w>
L-AO1- N</w>
K-AO1- F-IY0</w>
K-AH0-N- T-R-AE1-
K-AH0-N- F-IH2-G-Y
K-AH0-M-Y-UW2-N-AH0- K-EY1-SH-AH0-N-Z</w>
K-AH0-M-B -AY1-
K-AE1-T-AH0-G -AO2-R-IY0</w>
K-AA1- P-IY0-Z</w>
HH-OW1- S-T-AH0-D</w>
HH-AY1- T</w>
G-AE1- DH-ER0-D</w>
D-IH1-F-R -AH0-N-S-AH0-Z</w>
D-IH0-V-AO1-R- S-T</w>
D-IH0-S-K-AH1- V-ER0-IY0</w>
CH-AA1-R- T</w>
B-IY0- L-OW1</w>
B-AH0-L -UW1-
B-AA1-K- S-IH0-NG</w>
AH0-S-OW2- SH-IY0-EY1-SH-AH0-N</w>
AH0-N- K-L-IH1-R</w>
AH0-D-V-AE1- N-S</w>
AH0- JH-AH1-
AE1-L- F-AH0</w>
Y-UW1-ZH -AH0-W-AH0-L-IY0</w>
TH-R -OW1</w>
T-S- B-ER0-G</w>
T-R -AW1-
T-IH1- V-AH0-T-IY0</w>
T-EY1- B-AH0-L-Z</w>
T-AE1- L-AH0-N-T</w>
T-AA1- P-IH0-
S-P-EH1-SH -AH0-L-AY2-Z-D</w>
S-M -IH2-
S-IH2-G-ER0- EH1-T</w>
S-IH0- N-
S-ER1- K-Y-AH0-L
S-EH1- K-T-ER0</w>
S-AY1- M-AH0-N</w>
S-AH1- N-S-EH2-T</w>
R-IH0-Z -AO1-R-
R-IH0- M-EH1-M-B-ER0-D</w>
R-EH2- K-R-IY0-EY1-SH-AH0-N</w>
R-EH1-K-AH0- G-N-AY1-
P-IH1- CH</w>
P-AY1- N</w>
P-AA2-R-L-AH0- M-EH1-N-T-ER0-IY0</w>
P-AA2- L-IY2-
P-AA1-R- T-L-IY0</w>
P- Y-UH1-
M-EY0-N-T-EY1- N-Z</w>
M-EH1- K-S-AH0-
M-AH0- N-AA1-
M-AE0-G-N-EH1- T-IH0-K</w>
M-AA1- N
L-IH1- N-IY0-ER0</w>
K-AO1- Z-IH0-Z</w>
K-AH0-N-S-IH1- S-T</w>
K-AH0-N- S
K-AH0-M-P-EH1- T-IH0-
K-AA1-R- T</w>
K-AA1- L-IH0-JH-IH0-Z</w>
JH-EH1-N-T-AH0- L-M-AH0-N</w>
JH-AH0- N-AH0-S</w>
I Y
HH-IY1- R-OW0</w>
F-R-EH1- SH-
F-OW1-T-AH0-G-R-AE2- F-S</w>
F-EY1- S-IH0-Z</w>
EH1- V-ER0-IY0</w>
D-EH1- F-AH0-
D-AY1- M-AH0-N-D</w>
D-AO1- N</w>
AO1- T-AH0-
AO 2-R
AH1-P- D
AH0-K- Y-UW1-Z-D</w>
AE1-N-JH-AH0-L -AH0</w>
AE1- N-D-IY0</w>
-IY0- EH1-
-ER0 -AE1-K-
-AY2 -ER0</w>
V-OW1- L-
V-ER0- T-IY0</w>
T-OW1-K-IY0- OW2</w>
T-EH1- K</w>
T -IY2-
SH-AH0- N-AH0-L-Z</w>
S-T -AH0-N-
S-OW1-L- JH-ER0</w>
S-K -IY1</w>
S-AY1-AH0- N-T-IH0-
S-AO1-R- D</w>
S-AH0-L-UW1- SH-AH0-N-Z</w>
S-AH0- L-IY1-
R-IY0-Z -AH1-L-
R-EH2-K-R-IY0-EY1- SH-AH0-N-AH0-L</w>
R-EH1-L-AH0- V-AH0-N-T</w>
R-EH1- S-AH0-
P-EY1-T-R -AH0-N</w>
P-EY1- N-T-ER0</w>
P-AH0-L -IH0-S</w>
P-AA1- V-ER0-T-IY0</w>
P-AA0-R-T-IH1-S-AH0-P -EY2-T-IH0-D</w>
OW1- N-Z</w>
N-AA1-L-AH0- JH</w>
M-AH2- N-T-R
M-AH0- T-S</w>
L-IH1-B-ER0- T-IY0</w>
L-AE1- F-T</w>
K-R-IH1-S-T-AH0- F-ER0</w>
K-R-EH1-D-IH0- T</w>
K-IH1- L-IH0-NG</w>
K-IH1- L-
K-EH2-R-AH0-K-T-ER0-IH1- S-T-IH0-K</w>
K-AO1-R- N</w>
K-AH0-M-P -IY1-T</w>
K-AH0-L-AE2- B-ER0-EY1-SH-AH0-N</w>
K-AA2-M-P-AH0- T-IH1-SH-AH0-N-Z</w>
K-AA2-M- P-R-IY0-HH-EH1-
IH2-N-S-T-R-AH0- M-EH1-N-T-AH0-L</w>
IH0-N-V-AA1-L- V-Z</w>
IH0-M-ER1- JH-AH0-N-S-IY0</w>
IH0-K-S-T-EH1- N-D-AH0-D</w>
IH0-K-S-K-L-UW1- S-IH0-V-L-IY0</w>
HH-IH1- D-AH0-N</w>
HH-EH2-R -D</w>
HH-AY1- D-R
HH-AE1- N-D-IH0-D</w>
G-R -OW1-Z</w>
G-IH0- T-ER0-IH0-S-T</w>
F-IY1- D-IH0-NG</w>
F-AW1- N-T-AH0-N</w>
F-AH1- N-D</w>
D-IH2- S-AY1-D</w>
D-IH0- F-AY1-
D-AY1- Z</w>
D-AE1- L-Y-AH0</w>
B-AA1- T</w>
AH0-G-R -IY1</w>
AH0- S-IH1-S-T</w>
AE2-L-AH0-B-AE1- M-AH0</w>
AE1- L</w>
AA1- P-SH-AH0-N</w>
AA0-R-T-IH1- S-T-IH0-K</w>
-ER0-AA1- D-OW0</w>
W-OW1- K</w>
V-EH1- S-AH0-L</w>
TH -AH0-N-Z</w>
T-UW1- L</w>
T-EH1- N-IH0-S</w>
S-K-IH1- L</w>
S-IY1- V</w>
S-AH0-K-S-IY1- D-AH0-D</w>
S-AH0- JH</w>
R-IY0- B-IH1-L-T</w>
R-EH2-P-R-IH0-Z-EH1- N-T-AH0-
R-AY1- D-ER0</w>
P-R-EH1- G-N
P-R-AH0-N -AW1-
P-R-AH0-M-OW1- T</w>
P-R-AA1- S-P
P-R -IH2-
P-EH1- R-Z</w>
P-AE1- L-AH0-
NG-G -AH0-L-Z</w>
N-S -IH0-S</w>
N-S -AA1-
N-CH -AH0-N</w>
N-AA1- V-AH0-
M-EH1- L-AH0-
M-AY1- N-Z</w>
M-AH2-N-T-R -IY0
M-AH2-N-T-R-IY0 -AO1-L</w>
K-L -EY1</w>
K-L -AW1-D</w>
K-EY1- D</w>
K-EH1-M-AH0- K-AH0-L</w>
K-AH0-N- V-IY1-
K-AE1-T-AH0-G -AO2-R-IY0-Z</w>
K-AA1-M-Y-AH0- N-AH0-S-T</w>
K- Y-UW1</w>
K- SH-AH0-N-AH0-L</w>
JH -UH2-R
IH0-K-S-P-AE1- N-D-IH0-D</w>
IH0- L-IY1-G-AH0-L</w>
HH-IH0-S-T-AO1-R-IH0- K-L-IY0</w>
HH-AY1- D</w>
HH-AH1- L</w>
F-R-AE1- N-S-IH0-S</w>
F-IH1-F- T-IY1-N</w>
F -AH0-T</w>
EH1-L- D-AH0-S-T</w>
EH0- N-JH
D-IH0- S-T-R-AH1-
D-AY1-N-AH0- S-T-IY0</w>
CH-EY1- S</w>
CH-EY1- N-JH-AH0-Z</w>
CH-AE1-M-P-IY0-AH0-N- SH-IH2-P-S</w>
B-L-IH0- NG-Z</w>
B-AH0- T-AH0-D</w>
AW1-T- D-AO1-R-Z</w>
AO1-F-AH0- S-AH0-Z</w>
AH0-T-R-AE1- K-SH-AH0-N</w>
AH0-L-AY1-AH0- N-S</w>
AH0-F-EH1- K-T-IH0-D</w>
AH0- L-EH1-
AA1-R- T-W
-AE1- N</w>
Y-UW0- T-IH1-
V-OW1- T-IH0-NG</w>
V-AY0-AH0- L-IH1-N</w>
V-AE1-L- Y-UW0-
V -AA2-R-D</w>
TH-IY1- M-Z</w>
TH -AH0</w>
T-EH1- S-T-AH0-
SH-AH0- S-L-IY0</w>
S-T -L
S-P-EH1-SH-AH0- L-AH0-S-T</w>
S-K- OW2</w>
S-IH1- L-AH0-
S-IH1- B-L-IH0-NG-Z</w>
S-AH0-P-AO1-R- T-ER0</w>
S- P</w>
R-OW1- D-
R-IY0-K-W-AY1- R-D</w>
R-IY0- EH2-
R-IH0- F-ER1</w>
R -AH0-N-Z</w>
P-R-IY1- F-EH2-
P-R-AY1-V-AH0- T-L-IY0</w>
P-R-AA1- F-IH0-T</w>
P-AA2-L-AH0- T-IH1-SH-AH0-N</w>
N-S -IY0-
N-S -ER0-D</w>
N-CH -AH0-W-AH0-L-IY0</w>
N-AW1- AH0-
N-AW1-AH0- D-EY2-Z</w>
M-IH0- NG-HH-AE2-M</w>
M-EH1- R-IY0-Z</w>
M-B-L -IH0-NG</w>
M-AA1-R- T-IH0-N</w>
L-OW1- K-AH0-L-IY0</w>
L-AY2- T-S</w>
K-W-AY1- ER0</w>
K-IY1- B-AO2-R-D</w>
K-EH1-R- F-AH0-L</w>
K-AH1-S-T-AH0- M-ER0-Z</w>
K-AH0-N- D-EH1-
K-AA1-N-F-AH0- D-AH0-N-S</w>
K- T-IH0-V-L-IY0</w>
JH-IH0- S-T-S</w>
JH-EH1-F-ER0- S-AH0-N</w>
IY1-Z -IY0-ER0</w>
IH1-N-T-ER0- V-
IH1-N-D-AH0- K-EY2-T</w>
IH0-N- K-W-AY1-
IH0-N- G-R-IY1-
IH0-N-G-R-IY1- D-IY0
IH0-K-S-T-ER1- N-AH0-L</w>
HH-AY1- ER0-D</w>
G-R-AE1-F-IH0- K-AH0-L</w>
F-OW1-T-AH0-G-R-AE2- F</w>
F-OW1- L-
F-AA1- L-AH0-N</w>
D-IH2-S-AH0- P-OY1-
D-AY0- V-ER1-
D-AH0- Z</w>
CH-IH1- L-IY0</w>
B-AY0-AA1- L-AH0-JH-IY0</w>
B-AO1-R- D-IH0-NG</w>
B-AH0- L-IH1-
AH2-N-D-ER0- S-T-UH1-D</w>
AH0-T-L-AE1- N-T-IH0-K</w>
AE2-L-IH0- G-Z-AE1-N-D-ER0</w>
AE2- D-AH0-
AE1-N-TH -AH0-N-IY0</w>
AE1-K-CH -L-IY0</w>
-IY0-AH0- T-S</w>
Y-UW0 -AH0-
W -AA2</w>
V-EH1- S-T</w>
TH-IH1- R-AH0-M</w>
T-UH1- R-D</w>
T-R -IH0-
SH-UW1- T</w>
S-P-EY1- S-
S-K-R-IH1- P-SH-AH0-N</w>
S-AH0- S-P-IH1-
S- L-AH1-
R-OW1- V-ER0</w>
R-IH0-P-IY1- T-IH0-D</w>
R-IH0- T-ER1-N-IH0-NG</w>
R-EH2-K-AH0- G-N-IH1-SH-AH0-N</w>
R-AA1- JH-ER0-Z</w>
R -IH2-
P-AH0-D-EH1- S-T-R
N-TH-R -AH0-
N-T-AY1- T-AH0-L-D</w>
N-T -AH0-N
N-IH0- JH</w>
N-EH1- R-OW0</w>
N-CH -IH0-NG</w>
N- S-T-AH0-N</w>
N -IY0-AH0-N-Z</w>
M-AH1- DH-ER0-Z</w>
L-IH0- S-T-S</w>
K-L-IY1- V-L
K-EY2- P-AH0-
K-AH0-N- F-Y-UW1-Z-D</w>
K-AE1- B-AH0-
K-AA1-R- B-AH0-N</w>
K-AA1- M-IH0-K-S</w>
IH1-M-AH0-G-R -AH0-N-T-S</w>
IH0-N-V-EH1- N-SH-AH0-N</w>
IH0-N-T -ER2-
IH0-K-S- P-L-EY1-N</w>
IH0- Z-AH0-N-T</w>
I Y2</w>
HH-ER1- AH0-
G-L-AE1- S-AH0-Z</w>
G- OW2-IH0-NG</w>
F-R-EY1- Z</w>
F-IH1-L-AH0- P
F-EY1- V-R
F -AY0-
F -AA0-
ER1- TH-
EH1-K-S-ER0- S-AY2-Z</w>
D-UW1- AH0-L</w>
D-IH0-Z-AY1- N-ER0</w>
D-AH1- S-T</w>
B-R-EY1- K-
B-EY1- S-IH0-S</w>
AY0-D-IY1- L</w>
AO1-R- D-AH0-N
AH0-T-ER1- N-IY0</w>
AH0-B- S-K-
AH0- S-AY1-D</w>
AE1- SH-
-IH0- NG-Z</w>
Z -AH0-L
Y-UW1-ZH -UW0-AH0-L</w>
Y-UW1-N-AH0-F-AO2-R- M-Z</w>
W-AY1-L- S-T</w>
T-R-AY1- Z</w>
T-R-AH0-D-IH1- SH-AH0-N-AH0-L-IY0</w>
T-EY1- P</w>
T-EH1-K- T-IH0-V</w>
T-AH0- M-AA1-
T-AH0- B-AE1-K-
T- M-AH0-N</w>
S-UW0- P-IH1-
S-T -AA2-K</w>
S-AH0-K-Y-UW1- SH-AH0-N</w>
S-AH0-K-S-EH1- S-ER0</w>
R-IH1- V-ER0-
R-EY1- T-S</w>
R-AY1- Z-IH0-NG</w>
R -AA1</w>
P-R-AH0-P-OW1- Z-AH0-L</w>
P-R-AH0-G-R-EH1- S-IH0-V</w>
P-ER0- EH1-
P-EH1- T</w>
P-AH0-T-EH1- N-SH-AH0-L</w>
N-UW1- Z</w>
N- OW0-Z</w>
M-EH1- L</w>
M-AE1-K-S-AH0- M-AH0-M</w>
M-AE1- CH-AH0-Z</w>
M-AA1-D-AH0- F-AY2-D</w>
M-AA1- N-
L-UW1- S</w>
L-IH1- V-ER0-
L-IH0- K-S</w>
L-AY1-AH0- B-AH0-L</w>
L-AH0-K- Y-UW2-
L-AA1- N</w>
K-R-IH1- P-
K-OW0 -AO1-R-D-AH0-N
K-EY1- V</w>
K-EH1-N-AH0- D-IY0</w>
K-EH1- R-AH0-L</w>
K-AW1- N-S-AH0-
K-AH0- B-AH0-L</w>
K-AA1-L-AH0- N-IY0</w>
JH-UH2-R -IH0-
JH-UH2-R-IH0- S-D-IH1-
IH1-N-D -IY0-AH0-N-Z</w>
IH0-N-T-ER2- P-R-IH0-
IH0-K-S-T-EH1- N-D</w>
IH0- D-IH1-SH-AH0-N-Z</w>
HH-IH2- L</w>
HH-IH1- P</w>
HH-AW1- Z-D</w>
HH-AA1-R- V-AH0-
G-R-AE1-F-IH0- K-S</w>
G-L-AE1- S-IH0-Z</w>
G-AH1- L-F</w>
F-EY1-V-ER0- IH0-T</w>
F-ER1- S-T-
F-ER1- DH-ER0-
F-ER1-DH-ER0- M-AO2-R</w>
F-AH0-S-IH1- L-IH0-T-IY0-Z</w>
ER0-AY1- V</w>
D-R-IH1- V-AH0-N</w>
D-R-IH1- NG-K-S</w>
D-IH0-S- P-L-EY1-Z</w>
D-IH0-S- M-IH1-S-T</w>
D-IH0-P-AA1-R- T-M-AH0-N-T-S</w>
D-AE1- L-AH0-S</w>
CH-IH1- P-S</w>
CH -EH2-
B-EH1- S-T-
B-AY1- IH0-NG</w>
B -AO1-T</w>
AE1- D-AH0-M</w>
-AW2 -ER0</w>
Z -IH0-K</w>
Y-UW1-N-AH0- V-ER2-S</w>
W-IY1-K -EH2-N-D</w>
TH-IH1- R-IY0-Z</w>
T-IH1-P-IH0- K-AH0-L</w>
T-IH1- M</w>
T-ER1- K-IY0</w>
SH-IY0- EY2-T</w>
S-K-R -AH1-
S-K-IY1- IH0-NG</w>
S-K-EY1-T-B -AO2-R-
S-AH0-L-EH1-K- T-AH0-D</w>
S-AE1- N-
R-EH2-V-AH0-L-UW1- SH-AH0-N-EH2-R-IY0</w>
P-R-AA1- F-AH0-
P-EY1- SH-AH0-N-Z</w>
P-AO0-R- T-R-EY1-D</w>
P-AA0-R-T-IH1-S-AH0-P -AH0-N-T-S</w>
P- T-ER0</w>
O Y0</w>
N-EY1- B-ER0-Z</w>
M-EH1-K-S-AH0- K-AH0-N</w>
M-B-ER0- G</w>
M-AA1- N-Y-UW0-
M-AA1- L-AH0-K-Y-UW2-
L-AY1-F- T-AY2-M</w>
L-AH0-B-R -EY1-SH-AH0-N</w>
K-AO1-R- S-IH0-Z</w>
K-AH0-N-S-ER1- N</w>
K-AH0-M-EH1- M-ER0-
K -AA2-R-
JH-AH0-N-IY1- V-AH0</w>
JH -UW0
HH-IY1- L</w>
HH-IH1- N-D
F-R -EH2-N-D</w>
F-IY1- CH-ER0-IH0-NG</w>
D-EY1-V -IH0-S</w>
D-AO1- R-AH0-
D-AH0- K-OW1-T-AH0</w>
D-AA1-K-Y-AH0- M-EH0-N-T</w>
B-R-IH1- L-Y
B-OW1- L-
B-ER1-TH- P-L-EY2-S</w>
B-ER0- IY0</w>
B-EH1-L- JH-AH0-M</w>
B-AA1- N-D</w>
AH1-N-D-ER0- T-EY2-
AE1-M-AH0-CH -ER2</w>
AE1-D-AH0- L-T</w>
W-IH0-DH -
V-EH1-N- Y-UW0</w>
T-R-AE1-N- Z-IH0-T</w>
T-IH0- S-
S-UW1- T-AH0-B-AH0-L</w>
S-M-AO1- L-AH0-S-T</w>
S-EH1- T-
R-IY1- D-Z</w>
R-IH0-P-L-EY1- S-M-AH0-N-T</w>
R-AY1- T-IH0-NG-Z</w>
P-R-OW0- L-IH1-
P-R-IH0-D-AA1- M-AH0-N-AH0-N-T-L-IY0</w>
P-R-AE1-K- T-AH0-K-AH0-L</w>
P-IY1- T</w>
P-ER0- D</w>
P-AO1-R- SH-AH0-N-Z</w>
P-AE1-T-ER0- N-Z</w>
P-AA0-R-T-IH1-S-AH0-P -EY2-T</w>
NG- K-IY0-Z</w>
M-IY1-D-IY0 -AH0-M</w>
M-ER1-CH -AH0-N-T</w>
M-AE2- N-AH0-
L-IY1- F</w>
L-AY1-S-AH0-N- S-T</w>
L -UW1</w>
K-W-AH0- B-EH1-K</w>
K-AH0-P-AE1- S-AH0-T-IY0</w>
K- SH-ER0</w>
JH-EH1- T</w>
IY1- JH-IH0-
IH0-N-K-ER1-AH0- JH-D</w>
HH-AY1- T-S</w>
HH-AH1- N-T-ER0</w>
HH-AE1-N-D-AH0- L-D</w>
HH-AE1-M-P- T-AH0-N</w>
HH-AE1- N-
HH- W-IH1-
G -UW0-
F-R-AE1- N-S-AH0-S</w>
F-AE1-K-AH0- L-T-IY0</w>
F-AE1- M-AH0-L-IY0-Z</w>
F-AE1- L-
EH1-R- L-AY2-N</w>
D-IH0-S-T-R -OY1</w>
D-IH0-F-EH1- N-S-IH0-V</w>
D- OW0-Z</w>
CH-IH1- K-AH0-N</w>
B-IH1-Z- N-IH0-S</w>
B-ER1- N-Z</w>
B-AY0-AA1- G-R-AH0-F-IY0</w>
AH0-S-UW1- M-D</w>
AH0-F-EH1- R</w>
AH0-D-M-IH1- T-AH0-D</w>
AE1-S-P-EH2- K-T-S</w>
AA1-R-K -AY2-
-IY0 -AH0-Z</w>
-IY0 -AH0-N
-IH0- Z-EY1-SH-AH0-N-Z</w>
-IH0- S-T-S</w>
ZH-AH0- N-AH0-L-IY0</w>
Z-OW1- N-AH0</w>
Y-UW1-Z -AH0-Z</w>
Y-UH1- R-D</w>
W-EY1- S-T</w>
W-ER0- TH</w>
W-EH1-L- K-AH0-M</w>
V-IY0-EH2- T-
V- N-AH0-S</w>
T-S- M-AH0-N</w>
T-R-IY1- T-IY0</w>
T-R-AE2- N-S-
T-AA1- D-L-ER0</w>
T- W-IH1-N</w>
SH-R -AY1-
S-T-R-EY1- SH-AH0-N-Z</w>
S-T-R-AE1-T-AH0- JH-IY0</w>
S-P-AO1-R- T-IH0-NG</w>
S-AY1- S</w>
S-AE1-K-R-AH0- F-AY2-
S-AE1- NG-K</w>
S-AE1- NG-K-
R-OW1- B-AA2-
R-IY0- T-ER1-N</w>
R-IH0-Z -AY1-N-D</w>
R-IH0- D-UW1-
R-EH1-L-AH0- T-IH0-V</w>
P-R-OW1- T
P-R-IH0- D-IH1-
P-R-AH0- F-ER1-D</w>
P-R-AA1- M-AH0-S</w>
P-AH1-B-L-IH0- SH-IH0-NG</w>
P-AH1- NG-K</w>
P-AA1-R- T-AH0-
M-AY1- G-R
M-AE2-N-Y-AH0-F-AE1-K-CH-ER0- ER0-Z</w>
L-UW0- IY2-
L-IH1-V-ER0- P-UW2-L</w>
L-EY1- IH0-NG</w>
L-EH1- DH-ER0</w>
L-AY1-B-R -EH2-R-IY0-Z</w>
L -IY0-AH0-M</w>
K-W -AA2-
K-S- CH-ER0</w>
K-R-IH1-S-CH -IH0-N</w>
K-R-IH1- T-IH0-K</w>
K-IH1- D</w>
K-AO1- L-IH0-NG</w>
K-AH0-N-V-IH1- K-T-AH0-D</w>
K-AH0-N-V-EH1-N- SH-AH0-N-AH0-L</w>
K-AH0-M-P-EH1- R-AH0-
K-AH0- S-IY1-
K-AA1- N-SH
K -AO2-R</w>
JH-UW1- Z</w>
JH-IH1- M-IY0</w>
JH-EH0- K-S</w>
IY2-K-AH0-N-AA1- M-IH0-K</w>
IY1- G-AH0-L</w>
IH1-N-K-R-IY2- S</w>
IH0-M-P-L -AY1-
IH0-K-S-P-L -AO1-
HH-ER1-AH0- K-EY2-
G-UW1- G-AH0-L</w>
G-R-EY1- S</w>
G-R-AE1- N-CH
G-IH1- F-T</w>
G-IH0- T-AA1-R-
F-AY1-N-AE2- N-S</w>
EY1- T-
DH-ER0- N-M-OW2-S-T</w>
D-AA1- K-T
D- Z-
B-EH1-N-AH0- F-IH0-T</w>
B-EH1-D-R -UW2-M</w>
B-AE0- K-T-IH1-
AO2-T-AH0- M-AE1-T-IH0-K</w>
AO0-R-G-AE1- N-IH0-K</w>
AH2-N-S-AH0-K-S-EH1- S-F-AH0-L</w>
AH0- L-AY1-
AE1-F-R-IH0- K-AH0</w>
AA2-R- K-AH0-
Z-L -AA1-
T-R-IH1- S-AH0-T-IY0</w>
T-R -OY1-
T- OY1-Z</w>
T -AO2</w>
S-UW1- AH0-
S-T-AA1- P-S</w>
S-T -AY2-N</w>
S-P-IH1-R-IH0- T</w>
S-P-ER0-IH1- NG</w>
S-P-AA2- N-S-AH0-
S-K-R-IY1- N-
S-IY1- D-IH0-D</w>
S-IH1- N-D-R
S-EH1-N-T -ER0-D</w>
S-EH1- SH-AH0-N-Z</w>
S-AH0-G-JH-EH1- S-T</w>
S- W-IH1-CH</w>
R-IY1- CH-IH0-NG</w>
R-IY0-K-W-AY1- R-Z</w>
R-IY0- S-P-AA2-N-S-AH0-
R-IH0-Z-UW1- M-D</w>
R-IH0-K-W-AY1-R- M-AH0-N-T-S</w>
P-AE1- S-AH0-Z</w>
P-AE1- R-IH0-S</w>
P-AA2-P- Y-AH0-L-EY1-SH-AH0-N-Z</w>
P-AA1-R-T- N-ER0-SH-IH2-P</w>
N-IH0- K-AH0</w>
M-EH1-T-R -OW2</w>
M -AE0-N-
L-UW0-IY2- Z
L-OY1- D</w>
L-EY1- T-AH0-S-T</w>
L-AE1-N-D- M-AA2-R-K</w>
K-L-IY1-V-L -AH0-N-D</w>
K-L-IH1- F</w>
K-EY1- P-AH0-B-AH0-L</w>
K-EH2-R-AH0-K-T-ER0-IH1- S-T-IH0-K-S</w>
K-AH1- T-IH0-NG</w>
K-AH0-N- S-T-R-EY1-
K-AE1- T-S</w>
K-AE1- M-R
K-AA2- K</w>
K- S-AY2-D</w>
JH-AE1- N-Y-UW0-
IH1- N-D-IH0-
IH0-M-P-L-OY1- IY0-Z</w>
IH0-K-S-T-EH1- N-D-Z</w>
IH0- JH-IH1-
HH-AE1-B-AH0-T-AE2- T</w>
G-R-OW1- V</w>
G-R-AE2- F</w>
G-AY1- D</w>
F-R-EH1- D</w>
F-L-AH1- D</w>
F-IH1- T-IH0-D</w>
F-AY2- Z</w>
F -UH0-
EH1-L- D-ER0</w>
EH1- P-IH0-
EH0- N-T-AY1-T-AH0-L-D</w>
DH -EY1-L</w>
D-R-AH0- M-AE1-T-IH0-K</w>
D-IH0-P-EH1- N-D-Z</w>
D-AY1-AH0-L-EH2- K-T</w>
D-AA1- M-AH0-N-EY2-T-AH0-D</w>
CH-AE1- N-AH0-L-Z</w>
B-ER1- M-IH0-NG-HH-AE2-M</w>
B-AE1- L-
B- Y-UW0-
AH0-K-EY1- ZH-AH0-N</w>
AH0- K-UW1-
AH0- D-R-EH1-S</w>
AE1-S-P-EH2- K-T</w>
AA2-R-K -IY0-AH0-L-AA1-JH-IH0-K-AH0-L</w>
AA1-R-G- Y-UW0-D</w>
-EY2- V</w>
W -AY2-
V- W-AA2-R</w>
TH-R-EH1- T-AH0-N-D</w>
TH -AA1-L-AH0-JH-IY0</w>
SH-AH0-N -IH0-NG</w>
S-K-UW1- L-
S-IH1- D-IY0-
S-EH2- S-ER0</w>
S-EH1-T-AH0- L-ER0-Z</w>
S-EH1- N-S-AH0-
R-IH0- P-L-AY1</w>
R-IH0- N
R-EH2- N-AH0-
P-R-AA1- JH-EH0-K-S</w>
N-IY0- OW0</w>
N-EY1-B-AO2-R-HH -UH0-D</w>
N-D -EY2</w>
N -AY0-
M-EH1-ZH -ER0-Z</w>
M-B -AA1-R-
M-AO1- R-IH0-
M-AH0-S- F-IH2-R</w>
M-AH0-K- D-AA1-N-AH0-L-D</w>
L-AE1-B-R-AH0- T-AO2-R-IY0</w>
K-R-AY1- S-AH0-S</w>
K-EH1- L-
K-AH0-N-S -AA2</w>
K-AH0-N-EH1- K-T</w>
K-AH0-N-EH1- K-T-S</w>
K-AH0-N- S-IH2-
K-AE1-N-AH0-D-IH0- T</w>
K-AA1-N-T-R -AE2-
K-AA1- N-D-AH0-
K- SH-IH0-
K- S-IY0</w>
JH-OY1- N-IH0-NG</w>
IH0-K-W-IH1- P-T</w>
IH0-K-S-P-AE1- N-D-AH0-D</w>
F -AO0-R</w>
EH1- V-ER0-
EH0-N-D -AO1-R-
D-IH0-S-T-IH1- NG-K-SH-AH0-N</w>
D-AH1-G-L -AH0-S</w>
D-AH1-B-AH0-L- Y-UW0</w>
AY0-D-EH1-N-T-IH0- K-AH0-L</w>
AH0-M-EH1-R-AH0- K-AH0</w>
AH0- L-AA1-R-
AE2-N-AH0- M-EY1-SH-AH0-N</w>
AE1- N-AH0</w>
AA1-R- K-AH0-N-S-AA2</w>
W-EH1-L- TH</w>
V-ER0-AY1- AH0-T-IY0-Z</w>
V -AA1-R-
TH -AY1-
T-R-AE1-N-S- F-ER0</w>
T-AH1- CH-T</w>
T-AH0- D-L-IY0</w>
T-AA1-R-G-AH0- T-S</w>
S-T-EY1- JH-IH0-Z</w>
S-IH1-N-D-R -OW2-M</w>
S-IH1-G-N-AH0- CH-ER0</w>
S-AY2- D-Z</w>
S -AA2-
R-IY0-K-W-AY1- R</w>
R-IY0- V-EH1-
R-IH0-S-P-EH1- K-T</w>
R-IH0- K-AH1-
R-AH1- B-ER0</w>
P-R-EH2- Z-AH0-N-
P-R-AA1-M-AH0- S-T</w>
P-L-EH1- Z-AH0-N-T</w>
P-IH1- R</w>
P-ER1- CH-AH0-S</w>
P-ER0- S-UW1</w>
P-AH0-Z-EH1- SH-AH0-N</w>
P-AA1-R- SH-AH0-L</w>
NG-G -EH1-
N-JH-AH0- L-Z</w>
N-AH0- S-EH1-
M-AE2- N-IH0-
M-AE1-N-AH0- JH-M-AH0-N-T</w>
M-AE1- P-S</w>
M-AA1- N-Y-AH0-
L-UW0-IY2-Z -IY0-AE1-N-AH0</w>
L-AH0- JH-IH0-S-T-S</w>
L-AE1-NG-G-W-AH0- JH-AH0-Z</w>
L -IY0-AH0-N-Z</w>
K-T-ER0- IY0-Z</w>
K-AH1-L- T-AH0-
K-AH0-N-S-ER1- N-Z</w>
K-AH0-M-P-L -EH1-
K-AE1-N-D-AH0-D-EY0- T</w>
JH-OY1- N-Z</w>
JH-AE1-N-Y-UW0- EH2-R-IY0</w>
JH-AA1- N-Z</w>
IY1- V-AH0-L</w>
IH2-N-T-AH0- L-EH1-K-
IH0-N-K-R-IY1- S-IH0-Z</w>
IH0- V-AE1-
IH0- N-EY1-
HH-EH1-L-IH0- K-AA2-
G-IH1- R</w>
G-EH1- S-T-S</w>
G- Z-IH1-
F-R -IY0</w>
F-EY1- L</w>
F-AO1-R- CH-AH0-N</w>
F-AH0-T-AA1- G-R-AH0-F-ER0</w>
EY1- JH-IH0-Z</w>
EH2-R-IH0- Z-OW1-N-AH0</w>
EH2- N-ER0-
EH1-N-T-R -IY0</w>
D-R-IY1- M-Z</w>
D-IH1- F-ER0</w>
D-IH0-L-IH1- V-ER0-IY0</w>
B-UH1-L-AH0- V-AA2-R-D</w>
B-EH1- T</w>
B-AE1- T-ER0-IY0</w>
B -AO2-
AH0-K-EY1-ZH -AH0-N-L-IY0</w>
AH0-K-EY1- ZH-AH0-N-AH0-L-IY0</w>
AH0- S-L-IY1-P</w>
AH0- P-R-UW1-V-D</w>
AH0- M-Y-UW1-Z
AH0- M-EY1-
AE1-L-G-ER0-IH2- DH-AH0-M-Z</w>
AA2-P-ER0-T-UW1- N-AH0-T-IY0-Z</w>
AA1-P- T-AH0-
-AH0- M-
V-IY0-EH1- N-AH0</w>
T-R-EY1- L-Z</w>
T-R-AW1- Z-ER0-Z</w>
T-EH1-R-AH0- B-AH0-L</w>
T-EH1- R-IY0</w>
T-AE1-K- S-IY0</w>
SH-IH1- P-
S-T-R-AH1- G-AH0-L</w>
S-N-OW1- IY0</w>
S-K-R-IH1- P-
S-IY0-AE1- T-AH0-L</w>
S-EH1-V-AH0-N- T-IY1-N</w>
S-EH1-N-T -AH0-N-S-T</w>
S-AH0-P-AO1-R- T-ER0-Z</w>
S-AH0-B- S-IH1-D-IY0-
R-IY0-S-P-AA2-N-S-AH0- B-IH1-L-AH0-T-IY0</w>
R-IH0- JH</w>
R-EH1-S-K- Y-UW0</w>
R-EH1- Z-AH0-
P-R -OW1</w>
P-OW1- L-Z</w>
P-ER0- EY1-SH-AH0-N-Z</w>
P-AE1- T</w>
N-EY1- B-ER0</w>
M-AE0-N- HH-AE1-
M-AA1-R-K-AH0- T-IH0-NG</w>
M-AA1-N-AH0- S-T
M-AA1- N-T</w>
M -UH0-
M -EY2-T-S</w>
L-EH2- JH-AH0-
L-EH1-JH-AH0-S-L -EY2-T-IH0-V</w>
L-AO1-NG- T-AY2-M</w>
K-Y-AH0-P -EY1-SH-AH0-N</w>
K-L-AE1- N</w>
K-AH0-N-T-EY1- N-IH0-NG</w>
K-AH0-M-IH1- SH-AH0-N-D</w>
K-AE1- ZH-AH0-
K-AA1-R- G-OW2</w>
K-AA1- P-IY0</w>
K -IH0-S</w>
JH-ER1-N-AH0- L-IH2-Z-AH0-M</w>
IY1-JH-IH0- P-T</w>
IY1- AH0-N</w>
IH0-N-V-EY1- ZH-AH0-N</w>
IH0-K-S-P-OW1- Z-D</w>
HH-AY1- K-IH0-NG</w>
HH-AW1-S- HH-OW2-L-D</w>
HH-AH0-W-AY1- IY2</w>
HH-AA1-R- V-ER0-D</w>
F-IH1- N-
F-EH1- S-T-IH0-
F-AO1-R- T-IY0</w>
F-AA1-R- M-Z</w>
EY2- V-IY0-EY1-SH-AH0-N</w>
ER0- IH0-NG</w>
D-AA1- L-ER0-Z</w>
CH-ER1- CH-AH0-Z</w>
CH -AH0-L
B-R-AE1- N-CH-IH0-Z</w>
B-ER1- S-T</w>
B-AH0-L- G-EH1-
AH0-P-R-OW1- CH-T</w>
AE1- P-AH0-
AE1- NG-G-L
Z-L-AA1- M-IH0-K</w>
Z- OW0</w>
Z -ER0-IY0</w>
W-IH1- N-IH0-
T-ER1- K-IH0-SH</w>
T-B -AO2-
T-AE1- P</w>
T-AA1-P-IH0- K-S</w>
SH-ER1- T-S</w>
S-P-EH1- R</w>
S-K-EY1-T-B -AO2-R-D</w>
S-K-AA1- L-ER0-
S-K -AW1-
S-AY2- M-AH0-L-
S-AH0- F-IH1-SH-AH0-N-T</w>
S- CH-ER0</w>
R-IY1- K-OW0</w>
R-IY0-L-OW1- K-EY0-T-IH0-D</w>
R-EH1-JH-AH0- M-AH0-N-T</w>
R-AH1- S-AH0-L</w>
R-AA1- JH-ER0</w>
P-R-OW0- HH-IH1-
P-R-AA1- T-AH0-
P-R-AA1- JH-EH0-K-T-S</w>
P-R -AE0-
P-IH1- T-S-B-ER0-G</w>
P-EY1-SH -AH0-N-T-S</w>
P-ER1- F-AH0-
P-AH1-B-L-IH0- SH-ER0</w>
P-AE1- T-R-IH0-K</w>
P-AA1-R-T- N-ER0-Z</w>
OW0-L-IH1-M-P -IH0-K-S</w>
N-T-AE1- N-AH0</w>
N-OW1- T-AH0-S-T</w>
N-IY1- D-AH0-D</w>
M-AW1- N-T-S</w>
M-AO1- R-AH0-L</w>
M-AH0-N -EH2-R-IY0</w>
M-AE1-N- Y-UW0-AH0-L</w>
M-AE1- S-T-ER0-
L-OW2- D</w>
L-EH1-JH-AH0- N-D</w>
L-AE1-N- S-K-EY2-P</w>
L -AO1-R-
K-IY2- P-ER0</w>
K-AH0-M-P-Y-UW1- T-ER0-Z</w>
K-AE1- N-D-IY0</w>
K-AA2- M-P-L-AH0-
K-AA1-M-P-AW0- N-D</w>
JH-AH0-L -AY1</w>
IH2-N- S-P-ER0-EY1-SH-AH0-N</w>
IH0-N-D -EH1-
IH0-K- S-EH1-
IH0- Z-L-AA1-M-IH0-K</w>
HH-IH0-S-T-AO1- R-IY0-AH0-N</w>
HH-AA1-R-D-W -EH2-R</w>
G-IH1- T-S</w>
G-AH1-V-ER0- M-AH0-N-T-S</w>
F-L -ER1-
F-ER0- G-AA1-T-AH0-N</w>
EY1- N-JH-AH0-L-Z</w>
ER0-EY1-N-JH -M-AH0-N-T</w>
EH1- N-D-IH0-NG</w>
D-IY1-T-EY0- L</w>
D-AA1- K</w>
D-AA1- K-T-ER0-Z</w>
B-EY1- S-AH0-N</w>
AY1- S-AH0-L
AO1-R-AH0- G-AH0-N</w>
AO0- R-EH1-D-IY0</w>
AH0-T-EH1- N-D-IH0-NG</w>
AH0-CH-IY1- V</w>
AE1-T- M-AH0-S-F-IH2-R</w>
AE1-N-S -EH0-
AE0-L- B-ER1-
AA 1</w>
Y-UW1-N-IH0- T-S</w>
W-AO1-R- N-IH0-NG</w>
V-EH2-R-IY0- EY1-SH-AH0-N</w>
V-EH1- T-ER0
V-AH0- B-AH0-L</w>
TH-R-OW1- IH0-NG</w>
T-IH1- M-B-ER0</w>
T-EY1- L-Z</w>
T-EH1- M-P-ER0-EH2-R-IY0</w>
T -IY1-Z</w>
SH-AH1- T</w>
S-W-IH1- S</w>
S-T-R-AY1- P-T</w>
S-T-OW1- N-Z</w>
S-T-AH0-T-IH1- S-T-IH0-K-S</w>
S-T -IH0-S</w>
R-EH1-F- Y-UW0-
R-AY1- AH0-N</w>
R-AH1- SH</w>
P-L -IH0-
P-IY1- T-S-AH0</w>
P-IY1- D-IY0-AH0</w>
P-EY1-SH -AH0-N-T</w>
P-ER2-S-AH0-N-AE1- L-IH0-T-IY0</w>
N-T -IH0-S</w>
N-T -AA1-
N-S-ER0- V-EY1-SH-AH0-N</w>
N-JH -IY0</w>
N-IH1- K</w>
N-EH1- S-T</w>
N-AY1- F</w>
N-AA2- M-AH0-N-EY1-SH-AH0-N</w>
N- S-K-IY0</w>
M-Y-UW2-N-IH0-S-AH0-P-AE1- L-IH0-T-IY0-Z</w>
M-IH1- T-AH0-D</w>
M-AH1-N-TH -L-IY0</w>
M-AH1- L-
M-AE1- N-Z</w>
M-AA1-R- Z</w>
M -AY2-Z</w>
L-IH1- S-
L-IH0- NG-G-
L -AW1-D</w>
K-R-IY1- CH-ER0</w>
K-R -OW0</w>
K-L -AH0-N</w>
K-IH1- L-Z</w>
K-EH1- V-IH0-N</w>
K-AH2- M-IH0-NG</w>
K-AA2- N-S-ER0-V-EY1-SH-AH0-N</w>
K-AA2- N-S
K -IY0-AH0</w>
K -ER0-IY0</w>
JH-EY1- S-AH0-N</w>
IH0-K-S-P-EH1-R-AH0- M-AH0-N-T-S</w>
HH-AE1- P-AH0-N-Z</w>
G-R-AE1- F</w>
G-R -AY1-
G-L-EH1- N</w>
G-IH0-T-AA1-R- Z</w>
F-Y-UW1- L</w>
F-Y-UW1- AH0-L</w>
F-IY1- L-IH0-NG-Z</w>
F-ER0- T</w>
F-AO1-R-M-Y-AH0-L -AH0</w>
F-AO1- L-T</w>
F -AO0-
ER0-AY1- V-AH0-L</w>
D-IH0-S-IH1- ZH-AH0-N-Z</w>
D-IH0-S-EH1- N-D-AH0-N-T-S</w>
D-EY1- T-IH0-NG</w>
D-AY1-AH0- T</w>
D-AE1-M-IH0- JH-D</w>
D -AA2-R</w>
B -EY2-S</w>
B -AW1-N-D</w>
B -AO1-R</w>
AO1-S-T-R -IY0-AH0</w>
AH2-N-D-ER0- G-R-AE1-JH-AH0-W-AH0-T</w>
AH0- T-AA1-
AH0- P-R-IY1-
AH0- P-AA1-L-AH0-
AE1- TH-AH0-N-Z</w>
AA2- K-Y-AH0-P-EY1-SH-AH0-N</w>
AA1-P-ER0-EY2- T-ER0</w>
AA0-R- M-IY1-
-AH0- T-S</w>
W-EY1- T-IH0-D</w>
TH-AW1- Z-AH0-N</w>
T-R-AH0-D-IH1- SH-AH0-N-Z</w>
T-EH1-R-AH0- B-L-IY0</w>
T-EH1-K- S-T-
T -EY2-T-IH0-D</w>
SH-IY1- L-D</w>
S-T-EH1- R-
S-P-IY1- K-ER0-Z</w>
S-L -EY1-SH-AH0-N</w>
S-K-AH1-L-P- CH-ER0</w>
S-AH0- P-R-AY1-Z-D</w>
S-AH0- L-AH0-M</w>
S-AE1-T-AH0- L-AY2-T</w>
S- M-AE1-
S -IY0-AH0-M</w>
R-IY0- M-UW1-V</w>
R-IH1- DH-AH0-M</w>
R-EY1- S-IH0-Z</w>
R -UW2-
P-AE1-K-IH0- S-T-AE2-N</w>
N-IY1- S</w>
N-EH1- L-S-AH0-N</w>
N-AO1-R- M-AH0-N</w>
N-AH2- P</w>
M-P- T-AH0-N</w>
M-B -AH0</w>
M-AE1-N-IH0- JH</w>
M-AA1- JH-UW0-
L-EH2-JH-AH0- S-L-EY1-SH-AH0-N</w>
L-AY1- M-
L-AH1- K</w>
L-AH0- S-T-S</w>
L-AH0- S-L-IY0</w>
K-L-IY1- N-IH0-NG</w>
K-L-AY1- M</w>
K-AO1-R- S-AH0-Z</w>
K-AH0-N-V-IY1- N-Y
K-AH0-N-T-R-OW1- L-Z</w>
K-AA2-N-T -AH0-N-EH1-
JH -UH1-R-IY0</w>
IH1-N-D -AO2-R</w>
IH1- M-P
IH0-N-T-ER1- P-R-AH0-
IH0-N-HH-AE1-B-AH0- T-AH0-D</w>
IH0-G-Z-IH1- B-AH0-T-S</w>
HH-IY1- B-R
HH-EH1- L</w>
HH-AH1- B</w>
F-UH1- T-B-AO2-
F-R -AE1-K-
F-AH0-N -AE1-
F-AH0- M-IH1-
F- S-K-IY0</w>
EH1-R- L-AY2-N-Z</w>
EH1- N-AH0-M-IY0-Z</w>
EH1- M-P-T-IY0</w>
D-R-EH1- S-IH0-Z</w>
D-IH0-S-K-AH1- S-T</w>
D-EH1- P-Y-AH0-
D-AE2- M</w>
D-AA1- M-AH0-N-AH0-N-T</w>
CH-AH0- W
B-AE1- L-AH0-N-
B -UH2-
AH0-T-R-AE1- K-SH-AH0-N-Z</w>
AH0-D-AE1- P-T-AH0-D</w>
AH0- M-IY1-
AE2-N-T -IY0-
AE1-N-S-EH0- S-T-R-IY0</w>
AA1-R-T-W -ER2-K</w>
-ER0 -AH0-L-IY0</w>
-AO1- R-AH0</w>
-AH2- N-T</w>
Y-AH0- L-AH0-S</w>
W-AO1- K-ER0</w>
T-IH1- SH
T-EH1-R-AH0- T-AO2-R-IY0-Z</w>
T-EH1- N-D-Z</w>
T-AH0-B-AE1-K- OW2</w>
T-AH0- N-IY0</w>
SH-AA1-R- K</w>
S-T -AW2-N</w>
S-P -AO2-R-T</w>
S-K-EH1- R-
S-K -AW1-T</w>
R-IH1-CH- M-AH0-N-D</w>
R-IH0- M-OW1-T</w>
P-R-AH0-N-AW1- N-S-T</w>
P-R-AA1-P-ER0- L-IY0</w>
P-IH1- R-AH0-
P-EY1- L</w>
P-AE1- SH-AH0-N</w>
P-AA1- L-
P- M-AH0-N-T-S</w>
N-T -IY1-
M-IH0- SH</w>
M-AE1-TH- Y-UW0</w>
M-AA2- D-AH0-
M-AA1-R-K-AH0- T-S</w>
L-Y -AH0-Z</w>
L- T-AY2-M</w>
K-W -EY2</w>
K-R-IY0-EY1- T-S</w>
K-L-IH1- K</w>
K-IH1- S</w>
K-AH1-S-T-AH0- M-ER0</w>
K-AH1- M-B
K-AA1-R- N-AH0-
K- M-AH0-N</w>
JH-EY1- K-AH0-
JH-EH1-N-ER0- EY2-T-IH0-D</w>
JH-EH1- F</w>
JH-AO1-R- D-AH0-N</w>
IH2-N- F-R-AH0-
IH0-L-EH2-K- T-R-IH1-S-AH0-T-IY0</w>
HH-IH0-S-T-AO1- R-IY0-AH0-N-Z</w>
HH -AO2-L</w>
G-R-AE1- S-IY0</w>
F-L-AE1- SH</w>
F-AY1- T-ER0</w>
F-AH0- L-Z</w>
F-AA1- L-IH0-NG</w>
ER0-AY1- V-Z</w>
EH1-K- S-AY2-
EH1- S-T-ER0</w>
DH-EH0- M-S-EH1-L-V-Z</w>
D-OW1- N
D-IH0-Z -AA1-
D-IH0-T-EY1- L-D</w>
D-EH1- N-S</w>
CH-AA1-R- JH-IH0-Z</w>
B-IH0- K-AH0-Z</w>
B-ER0- IH1-
B-AH1- JH-IH0-T</w>
B-AE1- G-Z</w>
B -ER0-D</w>
AH0-S-IH1-S-T -AH0-N-S</w>
AH0-N- S-ER1-T-AH0-N</w>
AH0-F-IH1- L-IY0-
AA2-P-ER0- EY1-SH-AH0-N-AH0-L</w>
AA1- D-IY0-AH0-N-S</w>
-IY2- T-S</w>
-IY0- EH0-
Y-UW1- T-AO2</w>
Y-UW1- T-AH0-
W-IH1- N-ER0-Z</w>
W-EY1- T-S</w>
T-R-AH2- S-T
T-AY1- ER0-D</w>
S-T-IY1- P</w>
S-P-AO1-R- T-AH0-D</w>
S-K -ER0</w>
S-IH0- N</w>
S-ER0- IY0-Z</w>
S-AH1- M-ER0-Z</w>
S-AH0-S-AY1-AH0- T-IY0-Z</w>
S-AH0- P-L-AY1-Z</w>
S-AH0- N-D</w>
S-AE1- D</w>
R-IY0-AE1-K- SH-AH0-N-Z</w>
R-IH0-K-AO1-R- D</w>
R-IH0- T</w>
R-EH1-F-R -AH0-N-S-IH0-Z</w>
R-AH0- F-ER1-Z</w>
R-AA1-B-ER0- T-S</w>
P-R -AW1-D</w>
P-ER1- ZH-AH0-N</w>
N-JH-AH0- M-AH0-N</w>
M-AY1- L-D</w>
M-AY0-AE1- M-IY0</w>
M-AH2- DH-ER0</w>
L-OW0- K-AE1-
L-EY1- ER0</w>
L-AH0- JH-IH1-
K-W-AY1- AH0-
K-R-AY1- IH0-NG</w>
K-AH0-N- F-Y-UW1-ZH-AH0-N</w>
K-AE1- L-AH0-
K-AE1- B-AH0-N</w>
K-AA2-N-S-T-AH0-T-UW1- SH-AH0-N-AH0-L</w>
K-AA1- M-ER0-
K- T-IH0-V-Z</w>
IH2-N-F-R-AH0- S-T-R-AH1-K-CH-ER0</w>
IH0-N- JH-EH1-
HH-OW1- S-T-IH0-D</w>
HH-EH1-L- TH-IY0</w>
HH-EH1- D
F-R-UW1- T-S</w>
F-AH0-T-AA1- G-R-AH0-F-IY0</w>
EH2-K-S-P-AH0- D-IH1-SH-AH0-N</w>
EH2-K-S-AH0- B-IH1-SH-AH0-N</w>
EH1- S-K-AH0-
D-IY0- EY1-
D-IH1-F-AH0-K-AH0- L-T-IY0</w>
D-IH0- T-R-OY1-
D-EY1- N-JH-ER0</w>
D-EH1- N-T-AH0-L</w>
D-EH1- N-IH0-S</w>
D-AO1-R-AH0- TH-IY0</w>
D-AH0- B-AH0-L</w>
CH-EH1- R-IY0</w>
B-R-IH1- S-T-AH0-L</w>
B-R-AO1-D-K-AE2- S-T-IH0-NG</w>
B-IH1-Z- N-IH0-
B-AH1- T-AH0-N</w>
AY1- S-
AO1-L-T-ER0- N-AH0-T</w>
AE1-K- CH-AH0-W-AH0-L</w>
AE1- K-S</w>
-AH0-N- D-Z</w>
Z-EH0- N-T-EY1-SH-AH0-N</w>
Z -IY0-AE1-
W-EY1- N</w>
W-AO1- SH-IH0-NG-T-AH0-N</w>
W-AA1- CH-T</w>
V-IH1-L-AH0- JH-AH0-Z</w>
V-ER1- CH-UW0</w>
V-EH1-N-CH -ER0-Z</w>
V-AH0-N- S-AH0-Z</w>
V-AA2-L-AH0-N-T-IH1- R</w>
T-R-EY1- D-IH0-NG</w>
T-OW1- L</w>
T-EY1- S-T</w>
T-AO1- K-T</w>
T-AH0- P-AA1-
SH-AO1-R- T-ER0</w>
S-UW1-P-ER0- V
S-UW1- T-S</w>
S-T-AO1- R-IY0-
S-P-EH1-K- T-R-AH0-M</w>
S-K-EH1- L-AH0-
S-IH0-K- Y-UH1-R</w>
S-AY2-M-AH0-L- T-EY1-
S-AH1- D-AH0-N</w>
R-IH0-M-EY1- N-D-ER0</w>
R-IH0- G-R-EH1-
R-EH2-P-R-AH0- Z-EH0-N-T-EY1-SH-AH0-N</w>
R-AH0-G-AA1-R- D-AH0-D</w>
P-R-IY1- S-T</w>
P-R-AA1- G-R
P-L -UW1-
P-IY2- S</w>
P-ER0- IH1-
P-AH1-B-L-IH0- K-L-IY0</w>
P-AH0-T-EH1- N-CH-AH0-L</w>
P-AA1-L-AH0- S-IY0-Z</w>
OW1- Z</w>
N-UW1- T-AH0-N</w>
N-AY1-N-T -IY1-
M-Y-UW1-Z -IH0-
M-OW1- M-AH0-N-T-S</w>
M-ER0 -AA1-
L-EH1- K-T</w>
L-AH1- K-IY0</w>
L-AE1- M-P</w>
K-R -IY1-T</w>
K-AA2- N</w>
K-AA1-M-ER0- S</w>
K -AW1</w>
JH-IH0- M-
JH-EH2-N-ER0- EY1-SH-AH0-N-Z</w>
JH-EH1- R-IY0</w>
IH0-N-V-EH1- S-T-M-AH0-N-T</w>
IH0-N-D-IH1- JH-AH0-N-AH0-S</w>
IH0-K-S- K-L-EY1-M-D</w>
HH-EH1-R-IH0- S-AH0-N</w>
HH-AE1- V-AH0-N-T</w>
HH-AA1- L-IH0-
G -AW1-
F-ER0- G-AA1-T</w>
F-AA1- L</w>
EY1- B-R-AH0-
ER0 -AA2-R-
D-IH0-T-R-OY1- T</w>
D-IH0-S-P-Y-UW1- T</w>
D-EH1-K-EY0- D</w>
D-AA1-R- K-N-AH0-S</w>
D- OW2-
B-ER1-TH- D-EY2</w>
B-EH1- N-JH-AH0-M-AH0-N</w>
B -AE2-N-D</w>
AY1- T-AH0-M</w>
AO1- S-T-AH0-N</w>
AE2-L-AH0- G-Z-AE1-N-D-ER0</w>
AE1- NG-G-R-IY0</w>
AA1- L-IY0</w>
-EY2- M</w>
-EH1- T-IH0-K-S</w>
-AO2-R -AH0-
Y-AO1-R- K-SH-ER0</w>
W-ER2- TH</w>
W-EH1- L-Z</w>
V-EY1- L</w>
T-R -AY0-
T-AA1- M-P-
S-T-R-EH1- NG-
S-T -AH0-L
S-M-OW1- K</w>
S-K-AA1- L-ER0</w>
S-AE1- M-AH0-N</w>
R-IY1-S-ER0- CH-ER0-Z</w>
R-IH0-S-IH1- P-IY0
R-IH0- D-AH0</w>
R-AE1- M-P</w>
R -ER0-
P-R-IY0- Z-EH1-N-T-AH0-D</w>
P-R -AY0
P-IH1-K- N-IH2-
P-EH1- R-IY0</w>
N-T -AH0-M</w>
N-S- M-AH0-N-T</w>
N-D -AH0-N-
N-CH -AH0-N-Z</w>
N-AA2- N-
M-EH1-D-AH0- L-Z</w>
M-EH1- M-
M-AH1- S-AH0-L</w>
M-AH0- K-EH1-
M-AE1- D</w>
L-UW1- P</w>
L-IH1- T</w>
L-IH0-NG-G- W-IH1-
L-EH1- S-AH0-N-Z</w>
L-AO1-NG- D</w>
K-OY1- N</w>
K-L-AE1- S-IH0-Z</w>
K-EH1- L-IY0</w>
K-AH0-N-T-IH1-N-Y-UW0- IH0-NG</w>
K-AH0-N-S-IH1-D -ER0-AH0-B-L-IY0</w>
K-AH0-N-S-IH1- S-T-AH0-N-T</w>
K-AH0-M-ER1- SH-AH0-L-IY0</w>
K-AE1-B-AH0- N-AH0-T</w>
K-AE1- N-IH0-K</w>
K-AE0- F-EY1</w>
K-AA2-L -ER0-AA1-D-OW0</w>
K-AA1-NG- G-R-AH0-
JH-ER1-N-AH0- L-AH0-S-T</w>
IH2-N-T -ER0-AE1-K-
IH2-N-T -ER0-AE1-
IH0-G-Z -AE2-
IH0- P-IH1-
HH-IY1-B-R -UW0</w>
HH-IH1- T-IH0-NG</w>
HH-EH1-D-K-W-AO2-R- T-ER0-D</w>
HH-AY2- P-ER0-
HH-AE1- N-AH0</w>
HH- W-AY1-T-
G-R-AE1-N-CH -IH2-L-D-R-AH0-N</w>
G-AE1- DH-ER0</w>
G -ER0-IY0</w>
G -AE2-
F-IH1-L-AH0-P -IY2-N-Z</w>
F-ER1- N-IH0-
F-AH1- N-IY0</w>
F-AA1- S-
EH2-L-AH0- V-EY1-SH-AH0-N</w>
EH1-K-S-P-ER0- T</w>
EH1- N-T-ER0-Z</w>
D-AY0- V-ER1-S</w>
D-AH0- T-IY0</w>
CH-AE1-M-P -IY0-AH0-N-Z</w>
B-UH1- L</w>
B-ER1- N-IH0-NG</w>
B-AO2-R- D-Z</w>
B-AO1- L-T-AH0-
B-AE1- S</w>
B- S-AH0-N</w>
AY 2-R
AH0-P-OY1- N-T-M-AH0-N-T</w>
AH0- P-AA1-R-
AH0- N-IY1-
AE1- M-P-L-AH0-
-EY2 -ER0</w>
Y-UW1- S-IH0-JH</w>
W-IY1- D</w>
W-EH1- N-Z-
W-AH1-N-D-ER0- F-AH0-L</w>
V-IH0-K-T-AO1- R-IY0-AH0-N</w>
V-AE2- L-
TH-IY1- ER0-IY0</w>
T-R-AE1- V-AH0-L-Z</w>
T-R-AE0-N-S- L-EY1-SH-AH0-N</w>
T-EH1-K- S-T-S</w>
SH-R -AH1-
S-UW0-P-IH1- R-IY0-ER0</w>
S-T-EH1- P-
S-T -AH0-L-EY1-SH-AH0-N</w>
S-P -EY2-S</w>
S-OW1- SH-AH0-
S-N-EY1- K</w>
S-L-AY1- D</w>
S-K- W-ER1-
S-IY1- JH</w>
S-IH1- T-AH0-
S-AY1- D-
S-AH1-B-ER0- B-Z</w>
S- B-IY0</w>
R-IH0- P-EH1-R</w>
R-IH0- M-AA1-R-K-AH0-
R-EY1- T-IH0-D</w>
P-R-EH2-Z-AH0-N- T-EY1-SH-AH0-N</w>
P-R-AH0-F-EH1- SH-AH0-N</w>
P-AO1-R-CH-AH0- G-AH0-L</w>
OW1-V-ER0- S-IY1-Z</w>
OW1- L-AH0</w>
N-JH -ER0-D</w>
N-AO2-R- TH-W-EH1-S-T-ER0-N</w>
N-AO1-R- F-AH0-K</w>
M-IH0- D-IY1-V-AH0-L</w>
M-EY1- S-AH0-N</w>
M-AO0- R-OW1-V-ER0</w>
M-AH0-N- D-Z</w>
M-AE2-TH-AH0-M-AE1- T-IH0-K-AH0-L</w>
M-AA2-R- K-IH0-T</w>
L-OW2-K-AH0-M-OW1- T-IH0-V-Z</w>
L-AE1- F-IH0-NG</w>
K-W-AH0- Z-IH1-SH-AH0-N</w>
K-UH1- D-AH0-N-T</w>
K-OW1- D-Z</w>
K-EY1- B-AH0-L</w>
K-ER1-AH0- N-S-IY0</w>
K-AH0-N-EH1- K-T-AH0-D</w>
K-AH0-M-P-AE1- N-Y-AH0-N</w>
JH-IH1- R-IY0-AH0</w>
JH-ER0- UW1-
JH-AH1- JH-M-AH0-N-T</w>
IH1-N-D-AH0- K-EY2-T-IH0-D</w>
IH0-M-P-R-IH1- Z-AH0-N-D</w>
HH-EY1- T</w>
HH-EH1- L-AH0-N</w>
HH-AO1- R-ER0</w>
HH-AH1- N-T</w>
HH- OW2</w>
G -L-IY0</w>
F-R-AY1- D-EY2</w>
F-R-AE1-N-CH -AY2-Z</w>
F-EY1-V-R -AH0-T</w>
F-AE1- N-T-AH0-
EH1-TH -IH0-K-S</w>
EH0-K- S-T-R
D-IY1- P-L-IY0</w>
D-IH0-Z-AE1- S-T-ER0</w>
D-IH0-V-EH1-L-AH0- P-M-AH0-N-T-S</w>
D-IH0-M-EH1-N- SH-AH0-N-AH0-L</w>
D-ER0-EH1-K- T-ER0-Z</w>
D-EH2-S-T -AH0-N-EY1-SH-AH0-N</w>
D-EH1- K</w>
D-AY0-R-EH1- K-T-IH0-D</w>
D -AH0-N-AH0-L</w>
CH-UW0 -AH0-L-IY0</w>
CH-IH1- R-
B-R-AY1- IH0-N</w>
B-AH1- T-L-ER0</w>
B-AH1- F-AH0-
B -IY0-AH0-S</w>
AH0-K-EY1-ZH -AH0-N-AH0-L</w>
AH0- L-AH1-M-
AH0- B-IH1-L-AH0-T-IY0-Z</w>
AA1- D</w>
-AH0-N- T-R-IY0</w>
-AH0-L -IH0-S-T</w>
-AH0- K</w>
-AA2-R- K</w>
W-IH1- N-Z</w>
W-ER2- D</w>
W-ER1- S-T</w>
W-AA1- SH-IH0-NG</w>
W -UH2-
V-Y-UW1- ER0-Z</w>
T-ER0- IY0-Z</w>
S-T-EH1- D-IY0</w>
S-P-AA1- N-S-ER0-D</w>
S-IH1-NG-G-AH0- L-
S-IH1-K- S-T-IY0</w>
S-IH0- NG-Z</w>
S-AW1- N-Z</w>
S-AH0- L-IH1-
R-IY0- T-EY1-N-D</w>
R-IH0-P-AO1-R- T-AH0-D-L-IY0</w>
R-IH0- V-ER1-S</w>
R-IH0- M-UW1-
R-EY1-N- F-AO2-L</w>
P-R-IH1- N-T-IH0-D</w>
P-R-AE1-K-T-AH0- S-IH0-NG</w>
P-R-AA1-G-R -EH2-S</w>
P-R -IY0-AH0-T</w>
P-ER2-S-AH0- N-EH1-L</w>
P-AY1- R-AH0-
P-AO1-R- T-ER0</w>
N-D -EH1-
N- S-IH1-
N -AY2</w>
M-ER1- IY0</w>
M-EH1-L- B-ER0-N</w>
M-EH1- N-Z</w>
M-AW2- N-T</w>
M-AH0-N -AA2-N</w>
M-AE1- K-S</w>
M-AA0- N-T-
L-IY1- S-AH0</w>
L-IH1- M-AH0-T</w>
L-AY1-AH0- N-Z</w>
K-EY2- T-IH0-NG</w>
K-AH1-N-T-R -IY0-
K-AH0-N-S-UW1- M-ER0</w>
K-AH0-N- S-P-IH1-
K-AH0-M-Y-UW1-N-IH0- T-IY0-Z</w>
K-AE1- TH-R
K-AA2-M-P-R-IY0-HH-EH1- N-S-IH0-V</w>
K-AA1- M-AH0-N-Z</w>
IY1-K-W -AH0-L-IY0</w>
IH1-Z-R -EY0-L</w>
IH1-N- S-T-AH0-N-T-L-IY0</w>
IH1- R-AH0</w>
IH0-G-Z -AO1-
IH0-F-EH1- K-T-IH0-V-L-IY0</w>
G-R-AH0- G-EY1-SH-AH0-N</w>
G-L -UW1-
G-IH0- N-Z</w>
G -EY2-T-IH0-D</w>
F-L-AE1- G-Z</w>
F-AE1- S-AH0-N
EH1-V-R-IY0- W-EH2-R</w>
EH1- K-W-AH0-
D-R-AH1- M</w>
D-IY0-EY1- G-OW0</w>
D-IH1-JH-AH0- T-AH0-L</w>
D-EH1-L- T-AH0</w>
D-EH1- V-AH0-
D-AH0- P-AA1-
D-AA1- N-AH0-
D-AA1- L-
D- W-AO1-R-
CH-AE1-P- T-ER0</w>
B-IY1- CH-IH0-Z</w>
B-IH0-L-IY1- V-Z</w>
AO2-T-AH0- M-AE1-T-IH0-K-L-IY0</w>
AO1- T-AH0-M</w>
AH0-K-AO1-R- D-IH0-NG-L-IY0</w>
AH0-D-M-IH1-N-AH0- S-T-ER0-D</w>
AH0-D- V-AY1-S</w>
AH0- B-R-AO1-D</w>
AE2- S-T-R
AE1-K- T-IH0-D</w>
Z- B
W-EH2- L-
W-EH1- P-AH0-N</w>
V-IH1- L-AH0</w>
V-IH1- K-T-ER0</w>
TH-ER1- OW0-
TH -AH0-M</w>
T-UH1- R-IH0-NG</w>
T-R-AY1- B-Z</w>
T-R-AE0-N-Z-L-EY1- T-AH0-D</w>
T-R -AH0-T</w>
T-EH1-K- CH-ER0-AH0-L</w>
T-AY1- W-AA1-N</w>
SH-AA1- K</w>
S-W-EH1- T-ER0</w>
S-OW1- SH
S-AY1- AH0-N-
S -AO2</w>
R-IY0 -AH0-T</w>
R-IH0- K-AH1-V-ER0-D</w>
R-EH2-P-R-IH0-Z-EH1- N-AH0-
R-AH1- N-
R-AH0- F-ER1</w>
R-AE1- N-D-AH0-M</w>
R -EY1-SH-AH0-N</w>
P-R-OW1-F-AY2- L</w>
P-R-AA1- V-AH0-N-S-AH0-Z</w>
P-EY1- M-AH0-N-T</w>
P-EH1- R-IH0-
P-AO1-R- T-L-AH0-N-D</w>
N-D-AH0- L-Z</w>
N-D -IY0-
N-CH -AH0-Z</w>
N-AE1-CH-R -AH0-L-IY0</w>
N- M-AH0-N-T-S</w>
M-EH1-ZH -ER0-D</w>
M-AH0- T-R-IY0</w>
M-AH0- K</w>
M- Y-AH0-L-EY1-SH-AH0-N</w>
L-EY1- Z</w>
L-EY1- ER0-Z</w>
L- M-IH0-N</w>
L -UW2-
L -IY0-AH0-T</w>
L -AA2-
K-AW1- N-T-ER0</w>
K-AH0- M-IY1-
K-AA2- R</w>
K-AA1-R- P-AH0-T</w>
K-AA1-N-S-AH0-K-W-EH2- N-T-L-IY0</w>
K-AA1-M-AH0- D
JH-ER0-UW1- S-AH0-L-AH0-M</w>
JH-EH1- S-IY0</w>
JH-AH1- S-T-AH0-
IY0- K-AA1-
IH2-N-T-R-AH0- D-AH1-K-SH-AH0-N</w>
IH0-N-T-EH1- N-S</w>
IH0-L-EH1-K-T-R -IH0-K-AH0-L</w>
IH0-JH-IH1- P-SH-AH0-N</w>
HH-EY1- Z</w>
HH-AH0- NG-G-EH1-
HH-AE0- N</w>
HH- OW0</w>
HH -UW0-
G-AA1-R- D-Z</w>
G -AA2-R-D</w>
F-IH1- K-SH-AH0-N-AH0-L</w>
F-EH1- D</w>
F-AH0-N-AA1- M-AH0-N-AA2-N</w>
F-AE1- B-R
F- Y-UH1-
EH1-K-S-AH0-K-Y-UW2- T-IH0-D</w>
D-R-AH1- G-Z</w>
D-IH1- S-T-AH0-N-T</w>
D- N-AH0-S</w>
CH-EH1- R-Z</w>
CH-AE1-L-AH0-N- JH-D</w>
CH -ER2-T</w>
CH -EH2-S-T-ER0</w>
B-R-EH1- TH</w>
B-R -UH1-K</w>
B-OW1- L-IH0-NG</w>
B-IH0- S-AY1-D</w>
B-IH0- S-AY1-D-Z</w>
B-ER1- B-AH0-N</w>
B-EH2- N-AH0-
B-AY1- T</w>
B-AH1- T-ER0-
B-AE1- D-L-IY0</w>
AW1-T-F-IH2- T</w>
AO1-L- W
AH0- SH-UH1-
AA2-R-K-AH0- T-EH1-K-CH-ER0-AH0-L</w>
AA1- K-S-IH0-
Y-UW1- D</w>
W-IY1- L-Z</w>
W-IH1- Z-
W-EH2- S-T-
W -AO0-R</w>
W -AA1</w>
V-EH2-JH-AH0- T-EY1-SH-AH0-N</w>
V-AE1- L-Y-AH0-B-AH0-L</w>
V-AE0-N- K-UW1-
UW 0-
T-R -AH0-N</w>
T-IH1- K-IH0-T</w>
T-EY1- SH-AH0-N-AH0-L</w>
T-ER1- M-AH0-N
T-EH2- K-
T- N-AH0-S</w>
SH -UW1</w>
S-UW 0</w>
S-T-R-AH0- T-IY1-
S-T -IY1-N</w>
S-T -AA0-
S-OW2- S
S-EH2- L-AH0-B-R-EY1-SH-AH0-N</w>
S-AY2- K-AH0-
S-AH0- M-
R-IY0- V-IY1-
R-IH0-G-AA1-R- D-IH0-NG</w>
R-IH0- K-W-EH1-S-T</w>
R-EH1-S- L-IH0-NG</w>
R-AA1- B</w>
R-AA1- B-AH0-N-
P-UH1- SH-T</w>
P-R-OW0-L-IH1- F-IH0-K</w>
P-R-IY0- P-EH1-R</w>
P-L-EH1- ZH-ER0</w>
P-ER0-EY2- T-S</w>
P-ER0- S-EH1-N-T</w>
P-ER0- P-EH1-
N-EH1- R-OW0-
N-D-ER0- IH0-NG</w>
M-OW2- T-AH0-
M-IH1- R-ER0</w>
M-EY2- K-ER0</w>
M-AE0-N-HH-AE1- T-AH0-N</w>
M-AA1-D -ER0-AH0-T</w>
M -UW2-
L-IH1- N-AH0-K-S</w>
L-AO1- R-IY0</w>
L-AA1- JH</w>
K-R-AY1- S-T</w>
K-OW1- N</w>
K-L-AO1- Z</w>
K-IH1- D-
K-AH1- V-ER0-IH0-NG</w>
K-AH0-N-T-EH1- S-T-AH0-D</w>
K-AE2- L-
K-AE1- M-P-
K-AA2-N-T-AH0-N-EH1- N-T-AH0-L</w>
JH-IH0- K-L-IY0</w>
JH -AH0-N-S</w>
IH0-N-JH-OY1- Z</w>
IH0-N- S-IH1-
IH0-M- P-R-EH1-
IH0-K-S-P-OW1- ZH-ER0</w>
IH0-K-S-P-EH1-R-AH0- M-AH0-N-T</w>
IH0- F-IH1-SH-AH0-N-T</w>
HH-IH0-S-T-AO1-R-IH0- K-AH0-L-IY0</w>
HH-AY0- P-AA1-
F-R -OW1-
F-R -AH2-N-T</w>
F-AY2 -ER0</w>
F-AH0-S-IH1- L-AH0-T
EH2-R -IY0-Z</w>
D-R-AH1- NG-K</w>
D-EH1-P- TH</w>
D-EH1-N- M-AA2-R-K</w>
D-AE1- N-IY0</w>
B-R -EY2-
B-AH1- S-T</w>
B -UW1</w>
B -AW2-N-D</w>
AO2-R-G-AH0-N -IH0-Z-EY1-SH-AH0-N-Z</w>
AH2-N-D-ER0- S-T-AE1-N-D-IH0-NG</w>
AH0- K-L-EY1-M</w>
AH0- K-AA1-M-AH0-D
AE1-D-AH0- L-T-S</w>
AE0-N- T-OW1-
AA0- N</w>
-AO0- NG</w>
-AA2- K-S</w>
Z-ER0- V-EY1-SH-AH0-N-Z</w>
Z-ER0- D-Z</w>
Z -IY0-AH0-M</w>
Y-UW1- T-UW1-B</w>
Y-EH1- L-OW0-
TH-R -AH1-
T-R-EY1- L-ER0</w>
T-IH1- R-Z</w>
T-IH1- L</w>
T-EY1- N-IH0-NG</w>
T-ER0-EY1- N-IY0-AH0-N</w>
T-EH1- L-IH0-NG</w>
T-AY2- N</w>
T-AH1- F</w>
T-AH0- W-AO1-R-D</w>
T- Y-UW1-
T- OW2-Z</w>
SH-UH1- R-L-IY0</w>
SH-IY0- EY1-SH-AH0-N-Z</w>
SH -AO1-N</w>
S-T-AE1- N-L-IY0</w>
S-P-AA1- T-S</w>
S-K-EY1- T-IH0-NG</w>
S-K-AE1- T-ER0-D</w>
S-IH1- M-P-L-AH0-
S-IH1- M-B
S-ER1- K-AH0-L-Z</w>
S-AH1-M- P-SH-AH0-N</w>
S-AH0-B-S-IH1-D-IY0- EH2-R-IY0</w>
R-IY0 -AA1-
R-IH0-N -AW1-N-D</w>
R-AA1- D</w>
P-R-AH0- P-EH1-
P-R-AH0- D-AH1-K-SH-AH0-N-Z</w>
P-R-AA1- F-AH0-T</w>
P-IH1- T</w>
P-AA2-S-AH0- B-IH1-L-AH0-T-IY0</w>
P-AA1-R- SH-AH0-L-IY0</w>
OY1- L-Z</w>
N-D -AH0-L
N-AH0- K</w>
M-AH0- TH-AA1-L-AH0-JH-IY0</w>
L-EH1- S-T-ER0</w>
L-AY1- K-W-AY2-Z</w>
L-AO1- NG-G-AH0-S-T</w>
L-AO1- G</w>
L-AA1- JH-IH0-K</w>
K-R-IH1- S-T-AH0-L</w>
K-L-IH1- N-T-AH0-N</w>
K-L-AE1- S-R
K-IH1- K</w>
K-EH1- N</w>
K-AW1- N-S-IH1-
K-AH1- L-T</w>
K-AH0-N-D-AH1- K-T-ER0</w>
K-AA2- NG-
K-AA1-N-S-AH0-K-W -AH0-N-S</w>
JH-UW1- S</w>
JH-AA1- N-AH0-
IH2-N-T -ER0-AH1-
IH1-N-D -EH0-K-S</w>
IH1- N-ER0-
IH0-S-T-AE1-B-L-IH0- SH-M-AH0-N-T</w>
IH0-N-T-EH1- N-D-AH0-D</w>
IH0-N- HH-AE1-
IH0-M-P -AE1-K-T</w>
IH0-K- S-K-
IH0-G- N-AO1-R-
HH-AY1-D-R-AH0- JH-AH0-N</w>
G-R-AE1- M</w>
F-R-AE1- G-
F-IH1- R-
F-AY1- B-ER0</w>
EY2- T-ER0-Z</w>
EY1- M</w>
EY1- M-D</w>
EH2-K-AH0-N-AA1- M-IH0-K-S</w>
EH1-P-IH0- S-OW2-
EH0-N- K-AH1-M-P
D-R-AO1- IH0-NG-Z</w>
D-R -AH0-N</w>
D-IY0 -AH0-S</w>
D-IH0-V-AO1-R- S</w>
D-AA1-R- L-IH0-NG</w>
D-AA1-K-Y-AH0- M-AH0-N-T-S</w>
CH-IH1- P</w>
B-EH1- L-AH0</w>
B-AO1-L-T-AH0- M-AO2-R</w>
AH2-N-D-ER0- N-IY1-TH</w>
AE1-F-T-ER0- W-ER0-D</w>
AE0- N-T-EH1-
AA2-R- JH-AH0-N-
AA1-T-AH0- W-AA2</w>
AA1- G-AH0-S-T</w>
-EY2- CH-ER0</w>
Z -UW1</w>
W-AA1- CH-IH0-Z</w>
V-OY1- S-T</w>
V-IH1-Z-IH0- T-IH0-NG</w>
V-AY1- T-AH0-L</w>
V-AH0- T-IY0-Z</w>
V-AA1- L-IY0-
TH-AE1- NG-K-S</w>
TH- F-AH0-L</w>
T-R-EH1- ZH
T-R-AY1- AE2-
T-AO1- K-S</w>
T- V</w>
T -EY2-T-IH0-NG</w>
T -AO1-R-Z</w>
T -AH2-P</w>
SH-EY1- K-
S-UW1- Z-AH0-N</w>
S-T-R-IH1- NG-Z</w>
S-P-EH1- L</w>
S-M -AE2-N</w>
S-K-AE1- R-
S-IH1- M-B-AH0-L-Z</w>
S-EH1-N-T-R -IH0-K</w>
S-AH1- P-L-AH0-
R-IH0-Z-AO1-R- T</w>
R-IH0-K-AO1-R- D-Z</w>
R-IH0- T-EY1-N-D</w>
R- OY1</w>
R -AA2-
P-R-OW1- T-IY2-N</w>
P-R-AY1- D</w>
P-L -AH0-S</w>
P-AH0-T-R-OW1- L</w>
P-AE1- N-
P-AA1- S-CH
OW0- B-R-AY1-IH0-N</w>
NG- G-OW1-
N-OW1- B-AH0-L</w>
M-IY0- OW2</w>
M-IH1- S-AH0-L</w>
M-IH0- K-AH0-L</w>
M-ER1- D-ER0-D</w>
M-AH0- S-IY0</w>
L-AE1- F</w>
K-IH0- NG-Z</w>
K-AO1- L-ER0</w>
K-AH1- T-S</w>
K-AH0-N-T-R-IH1-B-Y-UW0- T</w>
K-AH0-M-P -AY1-
K-AA2- M-AH0-
K-AA1-N-T-EH0- S-T</w>
K-AA1- P-ER0</w>
IY0- M-EY1-L</w>
IH1-M-P-L-AH0- M-EH2-N-T-AH0-D</w>
IH0-N-T-EH1-L-AH0-JH -AH0-N-T</w>
IH0-N-T H
IH0-N-S-T-R-AH1- K-SH-AH0-N</w>
IH0-N-S-T-R-AH1- K-SH-AH0-N-Z</w>
IH0-N- K-AW1-N-T
IH0-L-IH1- M-AH0-N-EY2-T-IH0-D</w>
IH0-K-S-P-EH1- K-T-AH0-D</w>
IH0- R-OW1-
HH-AH1- NG-G-R-IY0</w>
HH -AA2-R-T</w>
F-ER1-N-IH0- CH-ER0</w>
F-AY1- N-D-IH0-NG</w>
F -AH0-N-Z</w>
EH1- R-D</w>
EH0-N- K-ER1-
D-UW1- T-IY0</w>
D-R-AE1- G-AH0-N</w>
D-R-AE1- F-T</w>
D-IH0-V-OW1- T-IH0-D</w>
D-IH0-S-K-AH1- S</w>
D-IH0- K-R-IY1-
D-EY1- L-AY2-T</w>
D-ER0-AY1- V-Z</w>
D-AA1-R- K-ER0</w>
CH- M-AH0-N-T</w>
B-OW2- T</w>
B-IH0- N-IY1-TH</w>
B-IH0- L-AO1-NG-D</w>
B-IH0- K-AA1-Z</w>
B-EH1-N-AH0- F-IH0-T-S</w>
B-EH1- R-IH0-NG</w>
B-AO1- S-T-AH0-N</w>
B-AH1-F-AH0- L-OW2</w>
B-AE1- T-AH0-L-
AH0- D-EH1-L</w>
AE1- NG-G-
-EH2-R -AH0-N-
-AA1- N</w>
Z-AH0-N- T-
Z- M-AH0</w>
Z- B-IY0</w>
W-IH1- N-T-ER0-Z</w>
W-EH1-L- SH</w>
V-OW1- K-AH0-L</w>
V-EH1-R-IY0 -AH0-N-T-S</w>
V-EH1- R-IY0-IH0-NG</w>
V-AA1-L-IY0- IY0-
V-AA1-L-IY0-IY0- B-AO2-L</w>
T-R-AE1-V-AH0-L -IH0-NG</w>
T-R-AE0-N-S- M-IH1-
T-EH1- N-Y-ER0</w>
SH-IH1- R</w>
SH -IY1-T</w>
S-UW1-AH0- S-AY2-D</w>
S-T-R-OW1- K</w>
S-T-R -AH0-L</w>
S-T -AO1-L</w>
S-K -EY2-L</w>
S-ER0- V-EY1-
S- P-OY1-
R-IH0-P-IY1- T-IH0-D-L-IY0</w>
R-EY1-L- W-EY2-Z</w>
R-EH2- S-T-ER0-
R-EH1-F-Y-UW0- JH</w>
R-AH0- F-L-EH1-
P-R-IY0-P-EH1- R-IH0-NG</w>
P-IH1- L-
P-ER0-T-EH1- K-T</w>
P-AY1- L</w>
P-AO1-R- T-R-AH0-T</w>
P-AA1-R- K-ER0</w>
P-AA1- L-M</w>
OW2-V-ER0- W-EH1-L-
N-JH -D</w>
N-AH0- M
N-AH0- L-AA1-JH-IH0-K-AH0-L</w>
N-AE1-SH- N-AH0-L-IY0</w>
N -ER0-AH0-B-AH0-L</w>
M-IH1- N-S-T-ER0</w>
M-IH1- CH-AH0-L</w>
M-IH0- R</w>
M-AE2-N-Y-AH0-F-AE1-K-CH-ER0- ER0</w>
M-AA1-N-AH0-S-T -EH2-R-IY0</w>
L-Y -AH0-
L-IY1- N-IH0-NG</w>
L-IY1- G-Z</w>
L-ER0- IY0-Z</w>
L-AE1- S-T-AH0-D</w>
K-EY1- D-Z</w>
K-AA1-M-P-L-AH0- K-EY2-T-AH0-D</w>
JH-IH1- N</w>
IH2-N-T-ER0- M-IY1-D-IY0-
IH0-N-T-ER2-P-R-IH0- T-EY1-SH-AH0-N</w>
G-R-AE1-JH-UW0- L-IY0</w>
G-OW1- S-T</w>
G-AO1-R- D-AH0-N</w>
F-UW1- D-Z</w>
F-OW1-K-AH0- S-IH0-Z</w>
F-AH2-N-D-AH0- M-EH1-N-T-AH0-L</w>
F-AH1-NG-K- SH-AH0-N-AH0-L</w>
EH1-D-IH0- T-ER0</w>
D-IH2- F-ER0-EH1-
D-IH1-Z- N-IY0</w>
D-IH0-P-AA1-R- CH-ER0</w>
D-IH0-M-AA1- L-IH0-SH-T</w>
D-AY1- IH0-NG</w>
D-AH1- N-
D- OW1</w>
B-R-IH1-L-Y -AH0-N-T</w>
B-IH1- SH-AH0-N-Z</w>
B-IH0-L-AO1- NG-Z</w>
B-AE1- T-AH0-L-Z</w>
AY0-D-EH1-N-T-AH0- F-AY2</w>
AO1- R-AH0-L</w>
AH1- P-R
AH0-M- B-R-EH1-
AH0-K-UW1- S-T-IH0-K</w>
AH0-K-AA1-M-P-L-IH0- SH-T</w>
AH0-D- V-EH1-N-CH-ER0</w>
AH0-B- T-EY1-N</w>
AE1-TH-L -IY2-T</w>
AE1-K-CH -UW2
AE1- N-S-EH2-
AA1-B-V -IY0-AH0-S-L-IY0</w>
AA1- N-ER0-Z</w>
-AY2- Z-ER0</w>
W-IH1-N-IH0- P-AH0-
W-AA1- N-AH0</w>
V-AE0-N-K-UW1- V-ER0</w>
T-R-IH1-B-Y-AH0- T-EH2-R-IY0</w>
T-R-AE0-N-Z-L -EY1-SH-AH0-N</w>
T-IY1- M-
T-IH1- P</w>
T-AY1- Z-D</w>
S-T-R-IY1- M-Z</w>
S-T-AE1- T-IH0-K</w>
S-T -EH2-
S-P-EH1- L-IH0-NG</w>
S-L-EY1- V-Z</w>
S-K-IY1- M-Z</w>
S-K-EY1- L-Z</w>
S-K-AE1-R- K-R-OW0</w>
S-IH2- N-S-AH0-
S-IH2-N-S-AH0- N-AE1-
S-IH1- NG-Z</w>
S-EH2- T-S</w>
S-AE1-T-AH0- S-
R-IH0- S-EH1-P-SH-AH0-N</w>
R-EY1- T-IH0-NG</w>
R -EY0</w>
P-R-AH0-P-OW1- Z-AH0-L-Z</w>
P-R-AH0-F-EH1- SH-AH0-N-AH0-L-Z</w>
P- L-
OY2- D-Z</w>
N-ER1- S</w>
N-AH2- N-
N-AH2-N- DH-AH0-L-EH1-S</w>
N- SH-AH0-N-Z</w>
M-IH1- N-ER0-AH0-L</w>
M-EY2- K-IH0-NG</w>
M-EY1-N- S-T-R-IY2-M</w>
M-AA2-R- K-S</w>
M- N-IY0</w>
L-EH1- G-AH0-
K-UW1- P-ER0</w>
K-OW2 -AH0-L-IH1-
K-AO1-R- D</w>
K-AH0-M- P-R-AY1-Z-IH0-Z</w>
K-AE1- R-IY0-D</w>
K-AE1- M-B-AH0-L</w>
K-AA0-S-T-UW1- M</w>
JH-EH1- N-D-ER0</w>
IH1- Z-AH0-N</w>
IH0-N-V-AA1-L- V</w>
IH0-N-V-AA1-L- V-M-AH0-N-T</w>
IH0-M-AE1- JH-AH0-N</w>
IH0- Z-R
IH0- F-IH1-SH-AH0-N-S-IY0</w>
HH-AO1-R- S-IH0-Z</w>
HH-AE1- NG</w>
G-AH1- N-
G-AE1- N-AH0-
G-AE1- DH-ER0-IH0-NG</w>
F-OW2- T-OW0-
F-IH1-L- T-ER0</w>
F-AY2 -ER0-Z</w>
F-AY1- L-Z</w>
F-AE1- T</w>
F-AA1-R- M-
F- T-AH0-D</w>
F -IY1</w>
F -AH0-N-
EY1- N</w>
ER0-IH1-JH-AH0-N -EY2-T-AH0-D</w>
ER0-EH1- S-T-IH0-D</w>
EH1-N-T-ER0-P-R -AY2-Z</w>
D-IY0 -AH0-N-Z</w>
D-IH0-V-AY1- S-IH0-Z</w>
D-IH0- S</w>
D-IH0- S-P-ER1-
D-EY1- V-IH0-
D-EH1- T</w>
D-AY0-R-EH1- K-SH-IH0-
D-AY0-AE1- M-AH0-T-ER0</w>
D-AO1- K-T-ER0</w>
B-UW1- T-S</w>
B-OW1- L-D</w>
B-EY1- T-AH0</w>
B-AY1- AH0-
B-AW1- N-D-R-IY0</w>
B-AO1- L-Z</w>
B-AH0- T-AE1-
B-AE1- S-K-AH0-T</w>
AY1- R-
AO1-R- G-AH0-N</w>
AH0-B-JH-EH1- K-T-IH0-V</w>
AE1-K- T-S</w>
AE1-K- SH-AH0-L</w>
AE1-B- S-AH0-N-S</w>
AE1- N-T
AE1- M-B
AA1-R- M-
-ER0- IH0-NG</w>
-A H
- M-AH0-N-T-S</w>
Y-UH1- R-OW0</w>
W-ER1- SH-AH0-
W-AY1- R</w>
V-R -IY0</w>
V-AA2-L-AH0-N-T-IH1- R-Z</w>
T-UW1- M</w>
T-R-EY1- D-
T-EH2- M-P-ER0-
T-AY1- ER0</w>
S-T-EH1- R-D</w>
S-M-IH2- TH</w>
S-IH0-K- Y-UH1-R-D</w>
S-AH1-B- M-ER0-
S-AH1- NG</w>
S-AH0-P -EY1-SH-AH0-N</w>
S-AH0-K-S-EH1- SH-AH0-N</w>
S-AH0- P-R-AY1-
R-AY1- V-AH0-L</w>
R-AH0-G-AA1-R- D-L-AH0-S</w>
R-AE1- NG-K-S</w>
P-R-UW1- V</w>
P-R-AH0-D-UW1- S-ER0-Z</w>
P-ER0-T-EH1- K-T-IH0-D</w>
P-ER0- M-IH1-T-IH0-D</w>
P-EH1- N-IY0</w>
P-AH0- L-AH0-S</w>
P-AE1- N-AH0-L</w>
P -IH2-R
N-UW1- D</w>
N-T -EY1-SH-AH0-N-Z</w>
N-OW1- V-AH0</w>
N-AH1- M-B-ER0-D</w>
M-IH0- K-L-IY0</w>
M-EY1- T-R-IH0-K-S</w>
M-EH1- N-AH0-L</w>
M-AY1- L</w>
M-AE1-N-IH0- T-IY0</w>
M-AE1- N-SH-AH0-N</w>
L-IH2- M-IH0-
L-IH1-B-R -AH0-L</w>
L-AH0- Z-EY1-SH-AH0-N</w>
L -UW2</w>
L -AO2-
K-W-AY1-AH0- T-L-IY0</w>
K-R-EY1- Z-IY0</w>
K-L-AY1- AH0-N-T</w>
K-EH1-M-AH0- S-T-R-IY0</w>
K-AO2-R-AH0-S-P-AA1- N-D-IH0-NG</w>
K-AH0-M-IH1-SH-AH0-N -ER0</w>
K-AH0- HH-AA1-
K-AA2-N-T-R-AH0- B-Y-UW1-SH-AH0-N</w>
K-AA2-M-P-AH0- Z-IH1-SH-AH0-N-Z</w>
K-AA1-P-IY0- R-AY2-T</w>
IH2-N-T-AH0-L-EH1-K- CH-UW0-AH0-L</w>
IH2-N-D-OW0- N-IY1-ZH-AH0</w>
IH2-N-AH0- V-EY1-SH-AH0-N</w>
IH1-N-T-ER0- V-Y-UW2</w>
IH1- L-N-AH0-S</w>
IH0-V-EH1- N-CH-AH0-W-AH0-L-IY0</w>
IH0-N-V-AA1-L- V-IH0-NG</w>
IH0-N-JH-OY1- IH0-NG</w>
IH0-M-ER1- JH-D</w>
IH0-K- S-EH1-P-SH-AH0-N</w>
HH-OW0- T-EH1-L-Z</w>
HH-EH1-L- P-IH0-NG</w>
HH-AE1- NG-
HH-AA1- L-AH0-N-D</w>
