{
    "<pad>": 0,
    "<unk>": 1,
    "<s>": 2,
    "</s>": 3,
    "DH-AH0": 4,
    "AH0": 5,
    "IH0-N": 6,
    "AH0-V": 7,
    "IH0-Z": 8,
    "AE1-N-D": 9,
    "T-AH0": 10,
    "AH1-V": 11,
    "W-AH1-Z": 12,
    "DH-IY0": 13,
    "HH-IY1": 14,
    "T-UW1": 15,
    "AH0-N-D": 16,
    "IH1-N": 17,
    "AA1-R": 18,
    "B-AY1": 19,
    "IH0-T": 20,
    "AY1": 21,
    "IH1-Z": 22,
    "AE1-T": 23,
    "AO1-L-S-OW0": 24,
    "DH-IH0-S": 25,
    "AA1-N": 26,
    "DH-EH1-R": 27,
    "EH1-Z": 28,
    "F-ER0": 29,
    "F-AO1-R": 30,
    "Y-UW1": 31,
    "HH-IH0-Z": 32,
    "IH1-T": 33,
    "HH-AE1-Z": 34,
    "SH-IY1": 35,
    "EY1": 36,
    "W-IH0-TH": 37,
    "HH-AE1-V": 38,
    "B-IY0": 39,
    "AH0-N": 40,
    "N-AA1-T": 41,
    "DH-EY1": 42,
    "DH-AE1-T": 43,
    "W-ER0": 44,
    "ER0": 45,
    "HH-AE1-D": 46,
    "HH-IH1-Z": 47,
    "F-ER0-M": 48,
    "Z": 49,
    "AH0-@@": 50,
    "W-AH1-N": 51,
    "T-S": 52,
    "AO1-L": 53,
    "AO1-N": 54,
    "N": 55,
    "T": 56,
    "DH-AH1": 57,
    "B-AH1-T": 58,
    "D": 59,
    "IH0-T-S": 60,
    "N-OW1": 61,
    "AE1-F-T-ER0": 62,
    "AE1-Z": 63,
    "K": 64,
    "L-@@": 65,
    "W-AA1-Z": 66,
    "AO1-R": 67,
    "S": 68,
    "DH-AH0-T": 69,
    "F-ER1-S-T": 70,
    "W-IH0-DH": 71,
    "M-AY1": 72,
    "S-AH1-M": 73,
    "F-R-AH1-M": 74,
    "DH-IY1-Z": 75,
    "HH-ER0": 76,
    "AH1-DH-ER0": 77,
    "M-AE1-N": 78,
    "N-Z": 79,
    "S-@@": 80,
    "K-AH0-N": 81,
    "D-IH0-@@": 82,
    "M-EH1-N-IY0": 83,
    "R-IY0-@@": 84,
    "K-S": 85,
    "L": 86,
    "W-IY1": 87,
    "N-@@": 88,
    "AE1-@@": 89,
    "S-T": 90,
    "M": 91,
    "T-AY1-M": 92,
    "Y-UW1-Z-D": 93,
    "D-UW1": 94,
    "N-Y-UW1": 95,
    "M-AH0-@@": 96,
    "S-K-UW1-L": 97,
    "M-IY1": 98,
    "T-@@": 99,
    "M-AO1-R": 100,
    "K-@@": 101,
    "W-AO1-Z": 102,
    "AH1-P": 103,
    "HH-AW2-EH1-V-ER0": 104,
    "TH-R-IY1": 105,
    "L-EY1-T-ER0": 106,
    "OW1-N-L-IY0": 107,
    "W-UH1-D": 108,
    "DH-EH1-N": 109,
    "IH0-@@": 110,
    "DH-IH1-S": 111,
    "P-IY1-P-AH0-L": 112,
    "D-Z": 113,
    "AW1-T": 114,
    "L-Z": 115,
    "HH-IH1-M": 116,
    "EH1-@@": 117,
    "N-AW1": 118,
    "W-ER1": 119,
    "K-AE1-@@": 120,
    "N-AH0-@@": 121,
    "V-EH1-R-IY0": 122,
    "R-IH0-@@": 123,
    "S-IH1-T-IY0": 124,
    "N-OW1-N": 125,
    "M-@@": 126,
    "S-EH1-D": 127,
    "AE1-N": 128,
    "S-AH0-@@": 129,
    "B-OW1-TH": 130,
    "HH-ER1": 131,
    "L-IY0": 132,
    "P": 133,
    "N-EY1-M": 134,
    "M-OW1-S-T": 135,
    "K-AA1-@@": 136,
    "L-AH0-@@": 137,
    "B-IH0-N": 138,
    "K-AH0-@@": 139,
    "B-AE1-@@": 140,
    "M-AE1-@@": 141,
    "AH0-B-AW1-T": 142,
    "B-IH1-N": 143,
    "B-IY1": 144,
    "T-AH0-@@": 145,
    "N-D": 146,
    "R": 147,
    "W-IH1-TH": 148,
    "B-AO1-R-N": 149,
    "L-D": 150,
    "TH-R-UW1": 151,
    "OW1-V-ER0": 152,
    "T-ER0": 153,
    "M-EY1-D": 154,
    "K-T": 155,
    "HH-AE1-@@": 156,
    "HH-UW1": 157,
    "EH1-R-IY0-AH0": 158,
    "L-AY1-K": 159,
    "S-EH1-@@": 160,
    "L-IH1-@@": 161,
    "S-IY1": 162,
    "M-EY1": 163,
    "S-IH1-@@": 164,
    "M-IH1-@@": 165,
    "B-EH1-@@": 166,
    "T-AW1-N": 167,
    "D-@@": 168,
    "N-EY1-M-D": 169,
    "W-ER1-K": 170,
    "N-IY0": 171,
    "S-OW1": 172,
    "IH1-T-S": 173,
    "R-AH0-@@": 174,
    "T-IH0-NG": 175,
    "P-AA1-R-T": 176,
    "IH0-N-@@": 177,
    "P-@@": 178,
    "K-AO1-L-D": 179,
    "T-IY0": 180,
    "T-IH0-D": 181,
    "N-AH0": 182,
    "W-EH1-L": 183,
    "K-AE1-N": 184,
    "W-AH0-L": 185,
    "M-Z": 186,
    "M-AH0-N": 187,
    "L-AE1-@@": 188,
    "R-AE1-@@": 189,
    "P-AE1-@@": 190,
    "Y-UH1-R": 191,
    "D-EH1-@@": 192,
    "Y-IH1-R": 193,
    "Y-IH1-R-Z": 194,
    "K-OW1-@@": 195,
    "V": 196,
    "W-AH1-T": 197,
    "M-EH1-@@": 198,
    "P-S": 199,
    "K-AH0-N-@@": 200,
    "S-IY1-@@": 201,
    "L-OW1-K-EY2-T-AH0-D": 202,
    "JH": 203,
    "IH0-N-T-AH0": 204,
    "R-EH1-@@": 205,
    "HH-AY1": 206,
    "F-R-ER0": 207,
    "G": 208,
    "S-EH1-V-R-AH0-L": 209,
    "F": 210,
    "D-IH0-D": 211,
    "W-UH1-M-AH0-N": 212,
    "L-EH1-@@": 213,
    "T-EH1-@@": 214,
    "IY1-CH": 215,
    "S-AE1-@@": 216,
    "W-IH1-@@": 217,
    "S-AH1-CH": 218,
    "Z-@@": 219,
    "N-IH0-@@": 220,
    "S-IH0-Z": 221,
    "T-ER0-Z": 222,
    "N-AA1-@@": 223,
    "G@@": 224,
    "G-R-UW1-P": 225,
    "EY1-@@": 226,
    "OW0-@@": 227,
    "Y-AH1-NG": 228,
    "D@@": 229,
    "N-EH1-V-ER0": 230,
    "D-AH0-@@": 231,
    "L-IH0-@@": 232,
    "M-Y-UW1-Z-IH0-K": 233,
    "P-ER0-@@": 234,
    "G-@@": 235,
    "N@@": 236,
    "T-AE1-@@": 237,
    "HH-IY1-R": 238,
    "K-UH1-D": 239,
    "S-T@@": 240,
    "B-IH0-K-EY1-M": 241,
    "AH0-N-AH1-DH-ER0": 242,
    "HH-AW1": 243,
    "B@@": 244,
    "OW1-@@": 245,
    "D-IH1-@@": 246,
    "Y-UW2-N-AH0-V-ER1-S-AH0-T-IY0": 247,
    "M-AA1-@@": 248,
    "IH1-@@": 249,
    "T-AH0-N": 250,
    "TH": 251,
    "R-EY1-@@": 252,
    "D-AW1-N": 253,
    "S-T-IH1-L": 254,
    "R-IY0": 255,
    "NG-@@": 256,
    "CH-IH1-L-D-R-AH0-N": 257,
    "N-T": 258,
    "HH-W-AH1-N": 259,
    "L-IH1-T-AH0-L": 260,
    "R-IH1-V-ER0": 261,
    "SH": 262,
    "T-IH0": 263,
    "L-IH0-NG": 264,
    "B-AA1-@@": 265,
    "S-IH0-@@": 266,
    "EH1-N-IY0": 267,
    "M-AH1-CH": 268,
    "D-EY1": 269,
    "IH0-NG": 270,
    "V@@": 271,
    "N-IH0-NG": 272,
    "L-ER0": 273,
    "P-EH1-@@": 274,
    "HH-W-AH1-T": 275,
    "S-M-AO1-L": 276,
    "L-IY1-@@": 277,
    "AH1-N-D-ER0": 278,
    "Y-UW1-Z": 279,
    "S-T-S": 280,
    "B-L-AE1-K": 281,
    "AH0-N-@@": 282,
    "R-AA1-@@": 283,
    "P-AA1-R-K": 284,
    "AE1-L-B-AH0-M": 285,
    "W-IH1-CH": 286,
    "W-AO1-T-ER0": 287,
    "HH-EH1-@@": 288,
    "IY1-@@": 289,
    "L@@": 290,
    "T-AH0-D": 291,
    "F-AO1-R-@@": 292,
    "W-ER1-L-D": 293,
    "F-AW1-N-D": 294,
    "M-IH0-@@": 295,
    "AA1-@@": 296,
    "S-IY0": 297,
    "F-@@": 298,
    "P@@": 299,
    "HH-AW1-S": 300,
    "K-AW1-N-T-IY0": 301,
    "HH-OW1-M": 302,
    "W-AY1-T": 303,
    "R-EH1-D": 304,
    "W-AO1-R": 305,
    "S-AW1-TH": 306,
    "S-EY1-M": 307,
    "IH0-N-K-L-UW1-D": 308,
    "R-IH1-@@": 309,
    "P-IH1-@@": 310,
    "B": 311,
    "B-IH1-@@": 312,
    "P-L-EY1": 313,
    "L-AA1-R-JH": 314,
    "T-IH1-@@": 315,
    "HH@@": 316,
    "S@@": 317,
    "P-L-EY1-D": 318,
    "S-T-EY1-SH-AH0-N": 319,
    "S-T-EY1-T": 320,
    "B-AH1-@@": 321,
    "N-AO1-R-TH": 322,
    "D-IY0": 323,
    "S-AH1-N": 324,
    "B-UH1-K": 325,
    "S-AH0-N": 326,
    "W-EH1-N": 327,
    "T-IH0-V": 328,
    "F-IH1-L-M": 329,
    "W-EY1": 330,
    "L-OW1-@@": 331,
    "D-IH1-D": 332,
    "SH-AH0-N": 333,
    "L-AH0": 334,
    "B-AE1-K": 335,
    "JH@@": 336,
    "R-IY1-@@": 337,
    "R-OW1-@@": 338,
    "P-AH1-B-L-IH0-K": 339,
    "L-AY1-F": 340,
    "DH-AH0-N": 341,
    "L-AO1-NG": 342,
    "B-IY1-IH0-NG": 343,
    "G-OW1": 344,
    "JH-EH1-@@": 345,
    "OW0": 346,
    "T-R@@": 347,
    "T@@": 348,
    "K-AH1-M-P-AH0-N-IY0": 349,
    "P-T": 350,
    "M-EY1-N": 351,
    "G-AE1-@@": 352,
    "SH@@": 353,
    "G-EY1-M": 354,
    "NG": 355,
    "T-AA1-@@": 356,
    "N-ER0": 357,
    "M-EH1-N": 358,
    "P-L-EY1-IH0-NG": 359,
    "K-AA1-L-IH0-JH": 360,
    "F-IH1-@@": 361,
    "OW1-L-D": 362,
    "S-AH0-Z": 363,
    "SH-AH0-N-Z": 364,
    "S-AY1-@@": 365,
    "TH@@": 366,
    "S-AH1-@@": 367,
    "CH": 368,
    "S-AA1-@@": 369,
    "G-UH1-D": 370,
    "M-EY1-@@": 371,
    "K-IH0-NG": 372,
    "M-AA1-R-@@": 373,
    "F-AY1-V": 374,
    "N-AH1-M-B-ER0": 375,
    "L-OW1-K-AH0-L": 376,
    "B-IH0-T-W-IY1-N": 377,
    "R-AY1-T": 378,
    "D-IH1-S-T-R-IH0-K-T": 379,
    "N-D@@": 380,
    "P-AA1-@@": 381,
    "F-EH1-@@": 382,
    "T-IH0-@@": 383,
    "M@@": 384,
    "HH-AY1-@@": 385,
    "R-@@": 386,
    "D-AH1-@@": 387,
    "R-Z": 388,
    "AO1-F": 389,
    "-AH0-N-T": 390,
    "P-AH0-@@": 391,
    "W-EH1-R": 392,
    "-IH0-NG": 393,
    "D-Y-UH1-R-IH0-NG": 394,
    "P-L-EY1-S": 395,
    "B-ER1-@@": 396,
    "N-D-Z": 397,
    "Z@@": 398,
    "F-AA1-L-OW0-IH0-NG": 399,
    "S-ER1-V-D": 400,
    "S-ER1-@@": 401,
    "V-IH1-@@": 402,
    "S-EY1-@@": 403,
    "K@@": 404,
    "B-IY1-@@": 405,
    "W-IH1-L": 406,
    "D-IY1-@@": 407,
    "S-T-R-IY1-T": 408,
    "-IH0-@@": 409,
    "L-AY1-@@": 410,
    "W-AY1-L": 411,
    "B-EY1-@@": 412,
    "AY1-@@": 413,
    "D-AA1-@@": 414,
    "AA1-R-@@": 415,
    "L-EH1-F-T": 416,
    "K-AA1-R-@@": 417,
    "D-IH1-F-R-AH0-N-T": 418,
    "M-EY1-K": 419,
    "B-L-UW1": 420,
    "T-UH1-K": 421,
    "OW1-N": 422,
    "SH-OW1": 423,
    "IH0-N-T-UW1": 424,
    "D-IH0-NG": 425,
    "T-AY1-M-Z": 426,
    "K-IH1-@@": 427,
    "S-IH1-S-T-AH0-M": 428,
    "B-IH1-L-D-IH0-NG": 429,
    "N-IH1-R": 430,
    "N-AH0-S": 431,
    "S-T-EY1-T-S": 432,
    "-AH0-@@": 433,
    "W-EH1-S-T": 434,
    "F@@": 435,
    "S-EH1-N-T-ER0": 436,
    "M-EH1-R-IY0-D": 437,
    "HH-AA1-@@": 438,
    "T-EY1-K": 439,
    "R-AH0": 440,
    "S-IH1-R-IY0-Z": 441,
    "M-AH1-S-T": 442,
    "AE2-@@": 443,
    "HH-IH1-@@": 444,
    "K-ER1-AH0-N-T-L-IY0": 445,
    "B-OY1": 446,
    "N-IY1-D": 447,
    "L-UW1-@@": 448,
    "R-OW1-D": 449,
    "Y-UW1-@@": 450,
    "AO1-F-AH0-N": 451,
    "V-Z": 452,
    "K-AH0": 453,
    "HH-AH1-@@": 454,
    "B-AH0-L": 455,
    "B-IH0-@@": 456,
    "B-@@": 457,
    "M-AH0": 458,
    "W@@": 459,
    "W-EH1-N-T": 460,
    "K-IY0": 461,
    "F-AY1-N-D": 462,
    "T-IY1-M": 463,
    "L-AA1-@@": 464,
    "W-EH1-R-IH0-NG": 465,
    "S-P@@": 466,
    "JH-AA1-N": 467,
    "S-IH0-NG": 468,
    "P-OW1-@@": 469,
    "S-AO1-NG": 470,
    "M-OW1-@@": 471,
    "W-AA1-@@": 472,
    "SH-UH1-D": 473,
    "P-L-IY1-Z": 474,
    "B-IH0-F-AO1-R": 475,
    "B-AE1-N-D": 476,
    "TH-IH1-NG-K": 477,
    "M-AH0-N-T": 478,
    "D-ER0": 479,
    "N-OW1-@@": 480,
    "-AH0": 481,
    "N-EH1-@@": 482,
    "M-AH1-@@": 483,
    "ER1-L-IY0": 484,
    "K-W@@": 485,
    "B-EH1-S-T": 486,
    "HH-W-EH1-N": 487,
    "K-AH1-@@": 488,
    "W-AH0-Z": 489,
    "F-AO1-R-M": 490,
    "HH-W-IH1-CH": 491,
    "DH-EH1-M": 492,
    "G-R-EY1-T": 493,
    "-AH0-S": 494,
    "F-AA1-DH-ER0": 495,
    "DH-AH0-M": 496,
    "-EY2-T-IH0-D": 497,
    "S-IH1-N-S": 498,
    "T-UW1-@@": 499,
    "K-AO1-@@": 500,
    "N-AE1-@@": 501,
    "L-AY1-N": 502,
    "K-ER0": 503,
    "W-AA1-N-T": 504,
    "M-ER0": 505,
    "IH0-F": 506,
    "AA0-@@": 507,
    "M-EY1-JH-ER0": 508,
    "W-IH1-DH": 509,
    "V-EH1-@@": 510,
    "F-AE1-@@": 511,
    "S-T-ER0": 512,
    "AH0-G-EH1-N": 513,
    "T-AY1-@@": 514,
    "V-ER0": 515,
    "G-ER1-L": 516,
    "S-EY1-N-T": 517,
    "K-R@@": 518,
    "G-R-AE1-@@": 519,
    "R-IH0-NG": 520,
    "F-Y-UW1": 521,
    "L-EY1-@@": 522,
    "AO1-@@": 523,
    "SH-@@": 524,
    "P-AA1-P-Y-AH0-L-ER0": 525,
    "S-IY1-N": 526,
    "P-IY1-@@": 527,
    "M-EH1-M-B-ER0": 528,
    "D-OW1-N-T": 529,
    "F-AE1-M-L-IY0": 530,
    "B-R@@": 531,
    "-ER0-Z": 532,
    "W-EH1-@@": 533,
    "P-AA1-R-T-IY0": 534,
    "AH0-L-AO1-NG": 535,
    "F-AH0-@@": 536,
    "D-AO1-G": 537,
    "D-AE1-@@": 538,
    "-AE1-@@": 539,
    "K-AA1-M-AH0-N": 540,
    "G-AA1-T": 541,
    "K-ER1-@@": 542,
    "D-AH0": 543,
    "S-T-R@@": 544,
    "JH-AH1-S-T": 545,
    "CH@@": 546,
    "G-AA1-@@": 547,
    "IY1-S-T": 548,
    "V-IH0-@@": 549,
    "V-ER1-@@": 550,
    "K-AO1-R-@@": 551,
    "S-EH1-T": 552,
    "P-EY1-@@": 553,
    "-EY2-T": 554,
    "K-AH1-M": 555,
    "K-AA1-R": 556,
    "M-AH0-N-T-S": 557,
    "V-AE1-@@": 558,
    "D-AY1-D": 559,
    "B-AH0-@@": 560,
    "CH-ER1-CH": 561,
    "N-T-S": 562,
    "M-EH1-M-B-ER0-Z": 563,
    "K-EY1-@@": 564,
    "B-EY1-S-T": 565,
    "HH-AA1-R-@@": 566,
    "S-AY1-D": 567,
    "D-IH0-S-@@": 568,
    "R-D": 569,
    "M-AY1-@@": 570,
    "AY1-M": 571,
    "M-D": 572,
    "W-AO1-@@": 573,
    "L-AO1-S-T": 574,
    "T-AH0-G-EH1-DH-ER0": 575,
    "R-AY1-@@": 576,
    "AY1-L-AH0-N-D": 577,
    "-AA1-@@": 578,
    "N-UW1-@@": 579,
    "K-SH-AH0-N": 580,
    "R-UW1-@@": 581,
    "EH1-N-D": 582,
    "K-AH0-N-S-IH1-D-ER0-D": 583,
    "W-AY1-@@": 584,
    "D-AH0-N": 585,
    "IY1-V-IH0-N": 586,
    "EH1-R": 587,
    "AH0-G-EH1-N-S-T": 588,
    "K-L-AH1-B": 589,
    "K-EY1-M": 590,
    "-AH0-N": 591,
    "R@@": 592,
    "F-L@@": 593,
    "ER0-IH1-JH-AH0-N-AH0-L": 594,
    "S-OW1-@@": 595,
    "K-EH1-@@": 596,
    "W-EY1-@@": 597,
    "B-AY1-@@": 598,
    "HH-EH1-L-D": 599,
    "T-IH0-K": 600,
    "G-R-IY1-N": 601,
    "HH-EH1-D": 602,
    "-IY1-@@": 603,
    "F-IH0-@@": 604,
    "D-R@@": 605,
    "Y@@": 606,
    "Y-UW1-Z-IH0-NG": 607,
    "B-IH1-L-T": 608,
    "AH0-V-EY1-L-AH0-B-AH0-L": 609,
    "T-AH0-D-EY1": 610,
    "K-L@@": 611,
    "S-T-EY1-@@": 612,
    "T-AH0-L": 613,
    "S-EY1": 614,
    "L-AH0-S": 615,
    "IH0-M-P-AO1-R-T-AH0-N-T": 616,
    "S-K-UW1-L-Z": 617,
    "AO1-L-W-EY2-Z": 618,
    "K-AH0-L": 619,
    "L-AO1-@@": 620,
    "IH1-F": 621,
    "Y-UW0-N-AY1-T-IH0-D": 622,
    "G-EY1-@@": 623,
    "D-EH1-TH": 624,
    "B-AA1-R-@@": 625,
    "R-IH1-T-AH0-N": 626,
    "L-IY0-@@": 627,
    "CH-AY1-L-D": 628,
    "Y-AO1-R-K": 629,
    "G-AH0-@@": 630,
    "R-AH1-@@": 631,
    "ER0-AW1-N-D": 632,
    "T-ER1-@@": 633,
    "S-AH1-M-TH-IH0-NG": 634,
    "OW1-P-AH0-N": 635,
    "DH-OW1-Z": 636,
    "N-AY1-T": 637,
    "L-EY1-K": 638,
    "K-ER0-IH1-R": 639,
    "B-OW1-@@": 640,
    "S-P-IY1-SH-IY0-Z": 641,
    "K-AH0-M-Y-UW1-N-AH0-T-IY0": 642,
    "T-IY1-@@": 643,
    "N-EY1-@@": 644,
    "SH-ER1-T": 645,
    "HH-W-AY1-L": 646,
    "G-R@@": 647,
    "F-AY1-@@": 648,
    "P-R-EH1-@@": 649,
    "W-ER1-K-T": 650,
    "F-EY1-@@": 651,
    "T-OW1-@@": 652,
    "R-IY0-L-IY1-S-T": 653,
    "K-AA1-N-@@": 654,
    "F-AO1-R-M-ER0": 655,
    "-ER0": 656,
    "W-ER1-K-S": 657,
    "OW1": 658,
    "N-S": 659,
    "B-IH0-K-AH1-M": 660,
    "S-UW1-N": 661,
    "L-AH1-@@": 662,
    "F-IY1-@@": 663,
    "AW1-T-S-AY1-D": 664,
    "N-OW0": 665,
    "T-ER0-@@": 666,
    "V-EH1-R-IY0-AH0-S": 667,
    "IH0-M": 668,
    "AE1-D": 669,
    "-IY0-Z": 670,
    "-AE2-@@": 671,
    "EH1-V-R-IY0": 672,
    "T-ER1-M": 673,
    "S-K@@": 674,
    "AH0-M-AH1-NG": 675,
    "V-IH1-L-IH0-JH": 676,
    "N-T@@": 677,
    "P-AH1-@@": 678,
    "JH-IH0-Z": 679,
    "P-R-AH0-D-UW1-S-T": 680,
    "EH0-@@": 681,
    "S-T-AE1-@@": 682,
    "CH-EH1-@@": 683,
    "S-T-@@": 684,
    "S-ER1-V-AH0-S": 685,
    "F-R@@": 686,
    "G-EH1-T": 687,
    "S-AY1-T": 688,
    "P-OY1-N-T": 689,
    "W-AY1-F": 690,
    "F-R-AH1-N-T": 691,
    "AH0-M-EH1-R-IH0-K-AH0-N": 692,
    "S-EH1-K-AH0-N-D": 693,
    "Y-UW1-ZH-AH0-L-IY0": 694,
    "N-D-IH0-D": 695,
    "N-AE1-SH-N-AH0-L": 696,
    "S-IH1-K-S": 697,
    "G-R-EY1-@@": 698,
    "-AA2-@@": 699,
    "B-ER0-@@": 700,
    "W-AH1-N-S": 701,
    "IH0-N-K-L-UW1-D-IH0-NG": 702,
    "W-IH1-M-AH0-N": 703,
    "T-R-IH1-@@": 704,
    "S-T-AE1-N-D-IH0-NG": 705,
    "N-IH0-K": 706,
    "V-AY1-@@": 707,
    "L-AH1-V": 708,
    "S-AH1-M-T-AY2-M-Z": 709,
    "S-P-EH1-@@": 710,
    "DH-AE1-T-S": 711,
    "M-AO1-R-@@": 712,
    "S-EH1-V-ER0-AH0-L": 713,
    "G-OW1-IH0-NG": 714,
    "B-IH0-G-AE1-N": 715,
    "Z-IH0-NG": 716,
    "T-R-AE1-@@": 717,
    "HH-IH0-M-S-EH1-L-F": 718,
    "L-AO1": 719,
    "F-AA1-@@": 720,
    "P-IH0-NG": 721,
    "F-UH1-T-B-AO2-L": 722,
    "L-UH1-K": 723,
    "S-IH1-NG-G-AH0-L": 724,
    "P-L@@": 725,
    "F-IY1-L-D": 726,
    "V-AH0-@@": 727,
    "K-AH0-N-T-IH1-N-Y-UW0-D": 728,
    "-IY0-@@": 729,
    "M-IY0": 730,
    "B-R-IH1-T-IH0-SH": 731,
    "IY0": 732,
    "N-IY1-@@": 733,
    "M-OW1-S": 734,
    "T-EY1-@@": 735,
    "AH0-W-EY1": 736,
    "JH-AH0-@@": 737,
    "G-IH1-V": 738,
    "AH0-Z": 739,
    "-EY2-@@": 740,
    "M-AH1-DH-ER0": 741,
    "L-AY1-T": 742,
    "HH-OW1-@@": 743,
    "SH-EH1-@@": 744,
    "S-UW1-@@": 745,
    "W-AO1-K-IH0-NG": 746,
    "S-T-UW1-D-AH0-N-T-S": 747,
    "P-AE1-S-T": 748,
    "D-UH1-R-IH0-NG": 749,
    "OW1-V-ER0-@@": 750,
    "HH-@@": 751,
    "L-AH1-N-D-AH0-N": 752,
    "B-EH1-T-ER0": 753,
    "-AH0-N-@@": 754,
    "S-IH1-M-AH0-L-ER0": 755,
    "S-EH2-@@": 756,
    "-AH0-L": 757,
    "D-ER0-Z": 758,
    "ER0-@@": 759,
    "S-AO1-NG-Z": 760,
    "-AH0-N-S": 761,
    "S-IH1-T-IH0-NG": 762,
    "T-IY0-Z": 763,
    "ER1-@@": 764,
    "S-IY1-Z-AH0-N": 765,
    "P-R-IY0-@@": 766,
    "S-T-EH1-@@": 767,
    "D-EY1-Z": 768,
    "JH-UW1-@@": 769,
    "B-R-AE1-@@": 770,
    "-AH0-N-Z": 771,
    "R-IH0-S-IY1-V-D": 772,
    "L-AE1-S-T": 773,
    "V-ER0-@@": 774,
    "N-UW1": 775,
    "DH-AE1-N": 776,
    "B-R-AW1-N": 777,
    "-ER0-@@": 778,
    "V-ER1-ZH-AH0-N": 779,
    "K-T-S": 780,
    "D-UW1-@@": 781,
    "D-ER1-IH0-NG": 782,
    "R-AA1-K": 783,
    "IH0-N-K-L-UW1-D-IH0-D": 784,
    "S-IY1-T": 785,
    "L-OW0": 786,
    "B-IH1-Z-N-AH0-S": 787,
    "K-AH1-N-T-R-IY0": 788,
    "AH1-S": 789,
    "W-ER1-@@": 790,
    "HH-IY1-@@": 791,
    "D-AH1-Z": 792,
    "-AH0-N-T-S": 793,
    "ER0-Z": 794,
    "G-IH1-@@": 795,
    "W-ER1-K-IH0-NG": 796,
    "L-UH1-K-IH0-NG": 797,
    "IH2-N-T-ER0-@@": 798,
    "W-EY2": 799,
    "N-IH1-@@": 800,
    "B-UW1-@@": 801,
    "M-IY1-@@": 802,
    "M-IH0-NG": 803,
    "W-AO1-R-@@": 804,
    "P-AH1-B-L-IH0-SH-T": 805,
    "JH-EH1-N-ER0-AH0-L": 806,
    "CH-AE1-@@": 807,
    "M-AH0-N-@@": 808,
    "F-R-EH1-N-CH": 809,
    "N-T-AH0-@@": 810,
    "K-AA0-@@": 811,
    "S-AO1": 812,
    "TH-R-UW0-AW1-T": 813,
    "P-ER1-S-AH0-N": 814,
    "P-ER1-@@": 815,
    "F-S": 816,
    "M-ER1-@@": 817,
    "HH-EY1-@@": 818,
    "G-AH1-V-ER0-M-AH0-N-T": 819,
    "B-IY2-F-AO1-R": 820,
    "T-OW0": 821,
    "V-IH0-NG": 822,
    "P-R-AH0-@@": 823,
    "S-T-AO1-R-IY0": 824,
    "NG-K": 825,
    "M-UW1-V-IY0": 826,
    "Z-AH0-@@": 827,
    "M-ER0-@@": 828,
    "-UW1-@@": 829,
    "-EH2-@@": 830,
    "TH-ER1-D": 831,
    "R-OW1-T": 832,
    "P-AW1-ER0": 833,
    "M-AA0-@@": 834,
    "Z-D": 835,
    "N-T-IH0-D": 836,
    "-AY2-@@": 837,
    "JH-D": 838,
    "IH1-N-@@": 839,
    "D-OW1-N": 840,
    "-IH2-@@": 841,
    "V-@@": 842,
    "M-UW1-V-D": 843,
    "F-ER0-@@": 844,
    "AH0-T-EH1-N-D-AH0-D": 845,
    "B-Z": 846,
    "S-T-IH1-@@": 847,
    "W-IH0-TH-IH1-N": 848,
    "B-AH0-N": 849,
    "B-IY0-K-EY1-M": 850,
    "R-OW1-L": 851,
    "EH1-R-IY0-AH0-Z": 852,
    "AO1-F-AH0-S": 853,
    "G-EY1-M-Z": 854,
    "L-EH1-D": 855,
    "W-EH1-DH-ER0": 856,
    "P-L-EY1-ER0": 857,
    "IH1-NG-G-L-IH0-SH": 858,
    "HH-AE1-N-D": 859,
    "S-EH1-N-T-R-AH0-L": 860,
    "K-AW1-N-S-AH0-L": 861,
    "S-EH1-K-AH0-N": 862,
    "L-AE1-N-D": 863,
    "R-UW1-M": 864,
    "M-IY1-N-Z": 865,
    "AO1-F-T-AH0-N": 866,
    "HH-EH1-L-P": 867,
    "S-T-AH0-@@": 868,
    "N-AO1-R-@@": 869,
    "L-AA1-R-JH-AH0-S-T": 870,
    "K-IY1-@@": 871,
    "AH0-P-AA1-N": 872,
    "P-ER0": 873,
    "M-P@@": 874,
    "-AO1-@@": 875,
    "F-T": 876,
    "AH1-DH-ER0-Z": 877,
    "D-AH0-D": 878,
    "P-L-EY1-@@": 879,
    "AH0-N-T-IH1-L": 880,
    "SH-AO1-R-T": 881,
    "M-OW0-@@": 882,
    "-IY0": 883,
    "JH-IH0-S-T": 884,
    "D-AO1-T-ER0": 885,
    "N-EH1-K-S-T": 886,
    "T-L-IY0": 887,
    "P-R-IH0-@@": 888,
    "IH1-NG-G-L-AH0-N-D": 889,
    "B-R-AH1-DH-ER0": 890,
    "IH0-N-K-L-UW1-D-Z": 891,
    "L-AH0-N": 892,
    "-AA0-@@": 893,
    "P-L-AE1-@@": 894,
    "HH-ER1-@@": 895,
    "-EY1-SH-AH0-N": 896,
    "S-EH1-V-AH0-N": 897,
    "W-ER1-D": 898,
    "K-EY1-S": 899,
    "T-EH1-L": 900,
    "IH2-N-T-ER0-N-AE1-SH-AH0-N-AH0-L": 901,
    "AH0-K-R-AO1-S": 902,
    "F-OW1-@@": 903,
    "B-R-IH1-@@": 904,
    "L-ER0-Z": 905,
    "-AE0-@@": 906,
    "TH-@@": 907,
    "F-ER0-D": 908,
    "R-IY1-JH-AH0-N": 909,
    "R-AH1-N": 910,
    "K-AO1-R-T": 911,
    "G-AH0-N": 912,
    "-AH0-N@@": 913,
    "-EY2-T-AH0-D": 914,
    "EH1-V-ER0": 915,
    "D-OW1-@@": 916,
    "D-L-IY0": 917,
    "AH1-@@": 918,
    "-IY0-AH0-N": 919,
    "Y-AO1-R": 920,
    "S-L-IY0": 921,
    "-AH0-L-IY0": 922,
    "-EH0-@@": 923,
    "P-IH1-R-IY0-AH0-D": 924,
    "B-UH1-@@": 925,
    "N-D-IH0-NG": 926,
    "AH0-P-IH1-R-D": 927,
    "Y-UW1-S": 928,
    "K-T-IH0-D": 929,
    "F-IY1-CH-ER0-Z": 930,
    "T-R-AH0-@@": 931,
    "D-AY1-@@": 932,
    "Y-UW0-@@": 933,
    "K-AH0-L-Z": 934,
    "T-EY1-SH-AH0-N": 935,
    "N-S@@": 936,
    "NG-G@@": 937,
    "L-IH1-S-T": 938,
    "JH-@@": 939,
    "-EY2-T-IH0-NG": 940,
    "-AO2-@@": 941,
    "D-EH2-@@": 942,
    "Z-IH0-Z": 943,
    "OW2-@@": 944,
    "K-IH1-NG": 945,
    "TH-AO1-T": 946,
    "N-ER0-Z": 947,
    "-EY1-@@": 948,
    "F-ER1-DH-ER0": 949,
    "V-AA1-@@": 950,
    "V-AH0-L": 951,
    "D-EY1-@@": 952,
    "L-T": 953,
    "K-AE2-@@": 954,
    "G-Z": 955,
    "AO1-R-@@": 956,
    "L-EH1-T": 957,
    "K-AE1-N-T": 958,
    "F-ER1-@@": 959,
    "W-IY1-@@": 960,
    "V-AH0-N": 961,
    "B-L@@": 962,
    "IH0-G-Z-AE1-M-P-AH0-L": 963,
    "W-IH1-N": 964,
    "CH-IH1-@@": 965,
    "-EY0-@@": 966,
    "W-IH0-DH-IH1-N": 967,
    "M-B@@": 968,
    "M-AA1-D-ER0-N": 969,
    "D-IH0-V-EH1-L-AH0-P-T": 970,
    "S-IH2-@@": 971,
    "N-D-ER0": 972,
    "CH-ER0": 973,
    "AA1-R-T": 974,
    "N-AY1-@@": 975,
    "EY1-SH-AH0-N": 976,
    "B-UH1-K-S": 977,
    "-AH0-M": 978,
    "V-OY1-S": 979,
    "D-IH0-Z-AY1-N": 980,
    "D-IH0-V-EH1-L-AH0-P-M-AH0-N-T": 981,
    "K-AE2-L-AH0-F-AO1-R-N-Y-AH0": 982,
    "T-AH1-@@": 983,
    "S-AH0-S": 984,
    "N-D-@@": 985,
    "JH-AE1-@@": 986,
    "S-T-IH0-NG": 987,
    "N-EH1-K-S": 988,
    "L-OW1": 989,
    "EY1-T": 990,
    "-IY0@@": 991,
    "P-R-EH1-Z-IH0-D-AH0-N-T": 992,
    "N-AH1-TH-IH0-NG": 993,
    "T-EY1-B-AH0-L": 994,
    "P-L-EY1-Z": 995,
    "L-AH0-N-D": 996,
    "K-W-AY1-T": 997,
    "K-L-IH1-@@": 998,
    "B-AO1-R-D": 999,
    "V-EY1-@@": 1000,
    "K-AO1-R-S": 1001,
    "P-R-OW1-G-R-AE2-M": 1002,
    "K-L-IY0": 1003,
    "K-ER0-Z": 1004,
    "NG-Z": 1005,
    "P-AA1-R-@@": 1006,
    "JH-ER1-M-AH0-N": 1007,
    "G-IH1-T": 1008,
    "-IY0-AA1-@@": 1009,
    "OW2": 1010,
    "G-EY1-V": 1011,
    "AE0-@@": 1012,
    "S-T-IH0-K": 1013,
    "S-ER1": 1014,
    "T-R-EY1-@@": 1015,
    "B-AA1-D-IY0": 1016,
    "-@@": 1017,
    "S-T-AH0-N": 1018,
    "IH2-@@": 1019,
    "G-ER0": 1020,
    "-IY1-Z": 1021,
    "-AH0-L@@": 1022,
    "F-UW1-D": 1023,
    "F-R-IY1": 1024,
    "F-EY1-S": 1025,
    "CH-@@": 1026,
    "CH-ER0-Z": 1027,
    "-UW0-@@": 1028,
    "T-R-AE1-K": 1029,
    "T-AW1-N-SH-IH0-P": 1030,
    "D-AH1-N": 1031,
    "UW1-@@": 1032,
    "S-ER0": 1033,
    "K-AA2-@@": 1034,
    "AO1-R-D-ER0": 1035,
    "N-JH@@": 1036,
    "T-EH1-L-AH0-V-IH2-ZH-AH0-N": 1037,
    "N-AO1-R-DH-ER0-N": 1038,
    "K-ER0-@@": 1039,
    "P-IH0-@@": 1040,
    "K-IH0-@@": 1041,
    "B-EH1-R-IY0-D": 1042,
    "AH0-D-IH1-SH-AH0-N": 1043,
    "T-AH0-S": 1044,
    "SH-T": 1045,
    "P-R-IH1-@@": 1046,
    "TH-IH1-NG-Z": 1047,
    "AY1-L": 1048,
    "AO1-L-M-OW2-S-T": 1049,
    "N-IH1-R-B-AY1": 1050,
    "D-IY0-@@": 1051,
    "V-IH2-L": 1052,
    "-IY2-@@": 1053,
    "-AH2-@@": 1054,
    "P-R-AA1-@@": 1055,
    "N-AE1-SH-AH0-N-AH0-L": 1056,
    "EY1-EH1-M": 1057,
    "B-IH0-HH-AY1-N-D": 1058,
    "F-AO1-R-M-D": 1059,
    "S-AO1-@@": 1060,
    "S-AH0-L": 1061,
    "R-AH0-N": 1062,
    "F-UH1-L": 1063,
    "W-EH1-S-T-ER0-N": 1064,
    "B-IY1-CH": 1065,
    "B-R-EY1-@@": 1066,
    "P-UH1-T": 1067,
    "L-EH1-S": 1068,
    "R-AH1-N-IH0-NG": 1069,
    "F-AY1-N-AH0-L": 1070,
    "B-IH1-G": 1071,
    "P-AY1-@@": 1072,
    "N-T-@@": 1073,
    "V-IH1-D-IY0-OW0": 1074,
    "T-AY1-T-AH0-L": 1075,
    "D-IH0-Z-AY1-N-D": 1076,
    "S-AH1-B-@@": 1077,
    "DH-AH1-S": 1078,
    "Z-ER0": 1079,
    "HH-W-EH1-R": 1080,
    "P-AO1-R-@@": 1081,
    "HH-AH0-Z": 1082,
    "AE1-L-@@": 1083,
    "W-AA1-N": 1084,
    "T-EH1-N": 1085,
    "HH-IH1-L": 1086,
    "EH1-R-P-AO2-R-T": 1087,
    "-IY1": 1088,
    "ZH-AH0-N": 1089,
    "NG-K-@@": 1090,
    "CH-IH0-Z": 1091,
    "SH-AE1-@@": 1092,
    "-IY0-AH0": 1093,
    "-ER0-AH0-@@": 1094,
    "JH-AA1-@@": 1095,
    "TH-IH1-NG": 1096,
    "S-IH1-S-T-AH0-M-Z": 1097,
    "G-R-UW1-P-S": 1098,
    "S-AH0-P-AO1-R-T": 1099,
    "-UW2-@@": 1100,
    "S-IH0-V": 1101,
    "T-W@@": 1102,
    "S-T-ER0-Z": 1103,
    "L-AE1-NG-G-W-IH0-JH": 1104,
    "D-IH0-S-K-R-AY1-B-D": 1105,
    "CH-T": 1106,
    "-AO0-@@": 1107,
    "S-T-IH0-D": 1108,
    "K-R-AE1-@@": 1109,
    "-ER0-D": 1110,
    "HH-AO1-L": 1111,
    "CH-EY1-N-JH": 1112,
    "K-ER1-AH0-N-T": 1113,
    "HH-OW1-L-D-IH0-NG": 1114,
    "F-EY1-M-AH0-S": 1115,
    "-AH0-N-T-L-IY0": 1116,
    "R-EH2-@@": 1117,
    "IY0-@@": 1118,
    "Y-EH1-L-OW0": 1119,
    "V-D": 1120,
    "TH-ER1-@@": 1121,
    "R-AH0-L": 1122,
    "M-P-@@": 1123,
    "T-EY1-K-AH0-N": 1124,
    "S-AH0": 1125,
    "S-AW1-N-D": 1126,
    "N-CH@@": 1127,
    "-EY2": 1128,
    "S-T-EY1-JH": 1129,
    "L-IY1-G": 1130,
    "G-R-UW1": 1131,
    "CH-EY1-N-JH-D": 1132,
    "S-AH1-DH-ER0-N": 1133,
    "SH-IH1-@@": 1134,
    "SH-AH0-N-AH0-L": 1135,
    "L-EH1-V-AH0-L": 1136,
    "JH-EH1-N-ER0-AH0-L-IY0": 1137,
    "M-AH0-N-Z": 1138,
    "K-R-IH1-@@": 1139,
    "K-AH0-N-T-R-OW1-L": 1140,
    "T-AA1-P": 1141,
    "SH-EY1-@@": 1142,
    "-EH1-@@": 1143,
    "P-AH0-Z-IH1-SH-AH0-N": 1144,
    "N-D-R@@": 1145,
    "S-T-AY1-L": 1146,
    "M-EY1-K-S": 1147,
    "M-AH1-N-TH-S": 1148,
    "JH-IH1-@@": 1149,
    "EH2-@@": 1150,
    "R-IY2-@@": 1151,
    "M-AH1-N-IY0": 1152,
    "L-AY1-Z": 1153,
    "K-UW1-@@": 1154,
    "F-R-IY1-@@": 1155,
    "-AY1": 1156,
    "M-AE2-@@": 1157,
    "L-IH1-V-D": 1158,
    "HH-AE1-F": 1159,
    "T-AO1-@@": 1160,
    "K-IY1-P": 1161,
    "W-IY1-K": 1162,
    "S-T-IY1-@@": 1163,
    "N-UW1-M-ER0-AH0-S": 1164,
    "N-D-AH0-D": 1165,
    "S-T-AH1-D-IY0-D": 1166,
    "R-IY0-AH0": 1167,
    "N-T-IH0-@@": 1168,
    "K-AH1-M-P-AH0-N-IY0-Z": 1169,
    "HH-OW1-L": 1170,
    "SH-UH1-R": 1171,
    "AY1-Z": 1172,
    "T-AH0-B-AH0-L": 1173,
    "K-AH0-N-S-T-R-AH1-K-SH-AH0-N": 1174,
    "B-IH0-K-AH1-Z": 1175,
    "R-IH0-Z-AH1-L-T": 1176,
    "F-AO1-R-M-Z": 1177,
    "T-AY1-P": 1178,
    "HH-AE1-V-IH0-NG": 1179,
    "F-AH0-L": 1180,
    "R-OW0": 1181,
    "P-AH0-L-IY1-S": 1182,
    "JH-AO1-R-JH": 1183,
    "W-IH0-DH-AW1-T": 1184,
    "SH-OW1-Z": 1185,
    "IH0-V-EH1-N-SH-AH0-L-IY0": 1186,
    "D-AH0-L": 1187,
    "AH0-L": 1188,
    "F-R-EH1-@@": 1189,
    "D-ER0-@@": 1190,
    "K-T-ER0": 1191,
    "-ER0@@": 1192,
    "EY1-JH": 1193,
    "P-R-OW0-@@": 1194,
    "F-AA1-L-OW0-D": 1195,
    "AA1-R-M-IY0": 1196,
    "M-IH1-SH-AH0-N": 1197,
    "K-EH1-R-IH0-K-T-ER0": 1198,
    "K-S-AH0-@@": 1199,
    "G-AH1-@@": 1200,
    "AO2-L-DH-OW1": 1201,
    "K-AW1-@@": 1202,
    "JH-IH0-NG": 1203,
    "Z-IH0-@@": 1204,
    "P-R@@": 1205,
    "JH-OY1-N-D": 1206,
    "EH1-K-@@": 1207,
    "R-IH0-T-ER1-N-D": 1208,
    "F-IY2-L-D": 1209,
    "AY1-V": 1210,
    "G-AH0": 1211,
    "F-IY1-CH-ER0-D": 1212,
    "Y-EH1-T": 1213,
    "W-IH1-L-Y-AH0-M": 1214,
    "R-IY0-AH0-N": 1215,
    "JH-AH1-@@": 1216,
    "F-AE1-M-AH0-L-IY0": 1217,
    "-UW0": 1218,
    "K-AH0-N-T-EY1-N-Z": 1219,
    "EH0-N-@@": 1220,
    "IH0-N-S-T-EH1-D": 1221,
    "Y-UW2-@@": 1222,
    "B-AO1-L": 1223,
    "S-AH0-S-AY1-AH0-T-IY0": 1224,
    "R-EY1-L-W-EY2": 1225,
    "P-L-EY1-ER0-Z": 1226,
    "L-IH1-V": 1227,
    "K-AO1-L": 1228,
    "T-IY0-@@": 1229,
    "M-AW1-N-T-AH0-N": 1230,
    "AO1-L-@@": 1231,
    "S-T-AA1-@@": 1232,
    "K-AH1-V-ER0-D": 1233,
    "G-R-IH1-@@": 1234,
    "B-R-IH1-JH": 1235,
    "-EY2-T-S": 1236,
    "JH-EY1-M-Z": 1237,
    "EH1-R-@@": 1238,
    "CH-IY1-@@": 1239,
    "R-EY1-Z-D": 1240,
    "N-IY0-@@": 1241,
    "L-IH1-V-Z": 1242,
    "R-IH0-M-EY1-N-Z": 1243,
    "R-EY1-D-IY0-OW2": 1244,
    "SH-AH0-@@": 1245,
    "P-ER0-F-AO1-R-M-D": 1246,
    "AH0-B-AH1-V": 1247,
    "K-AY1-@@": 1248,
    "R-EY1-N-JH": 1249,
    "B-EY1-S": 1250,
    "Z-IY0": 1251,
    "M-IH2-@@": 1252,
    "EH2-JH-AH0-K-EY1-SH-AH0-N": 1253,
    "AW1-T-@@": 1254,
    "S-W-IH1-@@": 1255,
    "B-AH0-L-Z": 1256,
    "R-AH1-N-Z": 1257,
    "IH1-N-T-UW0": 1258,
    "CH-IH0-NG": 1259,
    "L-ER0-@@": 1260,
    "ZH@@": 1261,
    "S-AH0-B-@@": 1262,
    "S-P-IH1-@@": 1263,
    "P-R-AY1-V-AH0-T": 1264,
    "G-ER1-L-Z": 1265,
    "B-ER0-G": 1266,
    "T-EY1-K-S": 1267,
    "K-OW0": 1268,
    "OY1-@@": 1269,
    "OW1-N-D": 1270,
    "K-S-@@": 1271,
    "P-EH1-R-AH0-N-T-S": 1272,
    "HH-ER1-D": 1273,
    "F-AA1-R": 1274,
    "-AO0-R-@@": 1275,
    "R-OW0-@@": 1276,
    "P-R-AY1-M-EH2-R-IY0": 1277,
    "P-EH1-R-AH0-@@": 1278,
    "K-AE1-P-AH0-T-AH0-L": 1279,
    "V-AE1-L-IY0": 1280,
    "TH-S": 1281,
    "R-EY1-S": 1282,
    "K-OW0-@@": 1283,
    "IH0-N-T-EH1-@@": 1284,
    "M-AH0-N@@": 1285,
    "F-R-EH1-N-D": 1286,
    "S-P-EY1-S": 1287,
    "M-IH1-D-AH0-L": 1288,
    "ER0-AW1-N": 1289,
    "R-IY2-P-L-EY1-S-T": 1290,
    "TH-IY1-AH0-T-ER0": 1291,
    "IH2-N-F-ER0-M-EY1-SH-AH0-N": 1292,
    "IH1-N-D-AH0-S-T-R-IY0": 1293,
    "AE1-K-T-IH0-V": 1294,
    "V-OW1-@@": 1295,
    "M-IY1-N": 1296,
    "-UW1": 1297,
    "-AW1-@@": 1298,
    "S-P-AY1-@@": 1299,
    "P-R-AA1-JH-EH0-K-T": 1300,
    "P-L-EY1-L-IH0-S-T": 1301,
    "M-ER0-Z": 1302,
    "K-L-AE1-@@": 1303,
    "-IH0-S": 1304,
    "N-IY0-AH0-N": 1305,
    "JH-IY1-@@": 1306,
    "S-OW1-SH-AH0-L": 1307,
    "D-OW0": 1308,
    "T-IY1-M-Z": 1309,
    "K-AH1-N-T-R-IY0-Z": 1310,
    "JH-AH0-N": 1311,
    "W-ER1-D-Z": 1312,
    "G-R-AW1-N-D": 1313,
    "DH-OW1": 1314,
    "N-T-AH0-D": 1315,
    "M-EH1-T": 1316,
    "HH-IH1-S-T-ER0-IY0": 1317,
    "F-L-AE1-@@": 1318,
    "T-ER1-N-D": 1319,
    "P-AA1-S-AH0-B-AH0-L": 1320,
    "OW0-Z": 1321,
    "IH2-N-D-IH0-P-EH1-N-D-AH0-N-T": 1322,
    "K-L-AE1-S": 1323,
    "M-AY1-T": 1324,
    "S-OW1-L-D": 1325,
    "N-AA0-@@": 1326,
    "AO0-S-T-R-EY1-L-Y-AH0": 1327,
    "S-ER0-@@": 1328,
    "K-AE1-N-AH0-D-AH0": 1329,
    "G-OW1-@@": 1330,
    "G-AA1-R-@@": 1331,
    "-AH0-T": 1332,
    "S-P-EH1-SH-AH0-L": 1333,
    "G-EH1-@@": 1334,
    "W-IH0-TH-AW1-T": 1335,
    "N-D-ER0-@@": 1336,
    "B-R-EH1-@@": 1337,
    "T-R-AH1-@@": 1338,
    "M-AO1-@@": 1339,
    "Y-EH1-S": 1340,
    "T-R-EY1-N": 1341,
    "P-AA2-P-Y-AH0-L-EY1-SH-AH0-N": 1342,
    "CH-IY0": 1343,
    "S-T-IH0-@@": 1344,
    "S-EH1-N-T": 1345,
    "S-AH0-K-S-EH1-S": 1346,
    "IH0-N-V-AA1-L-V-D": 1347,
    "N-AH0-L": 1348,
    "OW1-L-D-ER0": 1349,
    "L-EY1-T": 1350,
    "HH-AO1-@@": 1351,
    "EY2-T-IH0-D": 1352,
    "AY0-D-IY1-AH0": 1353,
    "W-AY1": 1354,
    "P-AA1-R-T-S": 1355,
    "N-OW0-@@": 1356,
    "K-R-IY0-EY1-T-IH0-D": 1357,
    "HH-AA1-R-T": 1358,
    "Z-AA1-@@": 1359,
    "M-AY1-N-D": 1360,
    "HH-AW2-S": 1361,
    "N-IY0-AH0": 1362,
    "K-W-IH1-K-L-IY0": 1363,
    "P-UH1-@@": 1364,
    "T-R-AH0-D-IH1-SH-AH0-N-AH0-L": 1365,
    "SH-IH2-P": 1366,
    "AH0-F-IH1-SH-AH0-L": 1367,
    "K-IH1-L-D": 1368,
    "IH0-K-@@": 1369,
    "D-IH0-S-P-AY1-T": 1370,
    "CH-AA1-R-@@": 1371,
    "-AA1-R-@@": 1372,
    "R-IY0-L-IY1-S": 1373,
    "G-L@@": 1374,
    "M-EY1-N-L-IY0": 1375,
    "K-T-AH0-D": 1376,
    "D-L@@": 1377,
    "SH-IH0-Z": 1378,
    "M-IH1-S-T-ER0": 1379,
    "M-EY1-K-IH0-NG": 1380,
    "G-R-IY1-@@": 1381,
    "DH-EH1-R-F-AO2-R": 1382,
    "S-IH1-T-IY0-Z": 1383,
    "P-AO1-L": 1384,
    "-ER0-IY0": 1385,
    "-AY2-N": 1386,
    "V-AH0": 1387,
    "T-R-EH1-@@": 1388,
    "SH-IY1-@@": 1389,
    "S-AH1-N-Z": 1390,
    "S-AH0-K-S-EH1-S-F-AH0-L": 1391,
    "-IY2-N": 1392,
    "T-AY2-@@": 1393,
    "S-AH1-M-ER0": 1394,
    "P-IY0": 1395,
    "M-IY1-T": 1396,
    "AH0-P-IH1-R-Z": 1397,
    "W-AO1-L": 1398,
    "N-Y@@": 1399,
    "N-AH0-T": 1400,
    "-AY0-@@": 1401,
    "SH-AE1-L": 1402,
    "S-AH1-B-S-AH0-K-W-AH0-N-T-L-IY0": 1403,
    "K-R-AH0-@@": 1404,
    "K-L-OW1-Z-D": 1405,
    "EH1-L-@@": 1406,
    "D-IH2-S-AY1-D-IH0-D": 1407,
    "R-AY1-T-IH0-NG": 1408,
    "AH0-K-AO1-R-D-IH0-NG": 1409,
    "Y-UH1-R-AH0-P": 1410,
    "S-K": 1411,
    "M-EH2-@@": 1412,
    "F-AO1-R-S": 1413,
    "R-IY1-L": 1414,
    "R-AW1-N-D": 1415,
    "L-OW0-@@": 1416,
    "ER0-IH1-JH-AH0-N-AH0-L-IY0": 1417,
    "AW1-@@": 1418,
    "-AY2-Z": 1419,
    "P-R-AH0-F-EH1-SH-AH0-N-AH0-L": 1420,
    "K-AH1-P-AH0-L": 1421,
    "G-IH1-V-IH0-N": 1422,
    "B-AE1-T-AH0-L": 1423,
    "V-ER0-Z": 1424,
    "R-IH0-M-EY1-N-D": 1425,
    "HH-AA1-R-D": 1426,
    "-AH0-D": 1427,
    "Z-AH0-N": 1428,
    "IH0-N-V-EH1-@@": 1429,
    "D-AO1-R": 1430,
    "B-R-AO1-T": 1431,
    "F-AY2-D": 1432,
    "-AY2-Z-D": 1433,
    "W-AO1-T-ER0-@@": 1434,
    "T-IH0-V-Z": 1435,
    "AH1-P-@@": 1436,
    "S-ER1-V-Z": 1437,
    "P-IY1-S": 1438,
    "L-IH0-K": 1439,
    "B-IH1-L-D-IH0-NG-Z": 1440,
    "B-IH0-L-OW1": 1441,
    "AW1-ER0": 1442,
    "N-S-IH0-Z": 1443,
    "EY1-B-AH0-L": 1444,
    "S-AE1-N": 1445,
    "R-OY1-AH0-L": 1446,
    "NG-K-S": 1447,
    "N-EY1-T-IH0-V": 1448,
    "N-D-IH0-@@": 1449,
    "HH-EH1-R": 1450,
    "D-AA1-K-T-ER0": 1451,
    "N-ER0-@@": 1452,
    "JH-ER0": 1453,
    "IH0-S-T-AE1-B-L-IH0-SH-T": 1454,
    "S-ER1-V-AH0-S-AH0-Z": 1455,
    "IH0-T-S-EH1-L-F": 1456,
    "AA2-@@": 1457,
    "-IY1-N": 1458,
    "T-OW1-L-D": 1459,
    "S-K-@@": 1460,
    "M-AO1-R-N-IH0-NG": 1461,
    "K-W-AA1-@@": 1462,
    "-ER2-@@": 1463,
    "S-AY1-AH0-N-S": 1464,
    "P-ER0-F-AO1-R-M-AH0-N-S": 1465,
    "HH-OW2-@@": 1466,
    "D-AA1-R-K": 1467,
    "-AY2-T": 1468,
    "T-R-AE0-N-S-@@": 1469,
    "P-EY1-P-ER0": 1470,
    "L-IY1-S-T": 1471,
    "IY1-S-T-ER0-N": 1472,
    "Y-ER0-Z": 1473,
    "V-IY1-@@": 1474,
    "S-EH1-L-@@": 1475,
    "HH-IH1-S-T-R-IY0": 1476,
    "S-T-OW1-@@": 1477,
    "N-D-AH0": 1478,
    "L-UH1-K-T": 1479,
    "K-AH0-T": 1480,
    "B-EY1": 1481,
    "AH0-M": 1482,
    "T-AO2-R-IY0": 1483,
    "S-T-AA1-R-T": 1484,
    "N-T-IH0-NG": 1485,
    "L-AO1-S": 1486,
    "K-AH1-V-ER0": 1487,
    "F-IH1-L-M-Z": 1488,
    "D-UW1-IH0-NG": 1489,
    "W-UH1-@@": 1490,
    "F-AH1-@@": 1491,
    "-EY1": 1492,
    "T-IH0-K-AH0-L": 1493,
    "M-IY1-D-IY0-AH0": 1494,
    "-AA2-R-@@": 1495,
    "K-R-AA1-@@": 1496,
    "K-AA1-M-AH0-N-L-IY0": 1497,
    "Y-UW1-N-Y-AH0-N": 1498,
    "TH-AH0-@@": 1499,
    "S-T-AA1-P": 1500,
    "N-EY1-M-Z": 1501,
    "L-AH0-N-@@": 1502,
    "IY0-Z": 1503,
    "S-AO1-R-S": 1504,
    "L-AY1-B-R-EH2-R-IY0": 1505,
    "V-IY0-@@": 1506,
    "K-IY1": 1507,
    "G-R-AH0-@@": 1508,
    "G-OW1-L-D": 1509,
    "EH1-N-IY0-TH-IH2-NG": 1510,
    "T-AW1-N-Z": 1511,
    "S-IH1-S-T-ER0": 1512,
    "N-D-AH0-@@": 1513,
    "L-IH2-@@": 1514,
    "K-L-AY1-@@": 1515,
    "JH-AE2-P-AH0-N-IY1-Z": 1516,
    "D-IH1-R": 1517,
    "R-AY1-T-S": 1518,
    "N-Z-@@": 1519,
    "T-IY1": 1520,
    "T-AH0-N-Z": 1521,
    "S-EH1-M-AH0-T-EH2-R-IY0": 1522,
    "N-S-@@": 1523,
    "L-OW1-ER0": 1524,
    "K-AW1-N-IY0": 1525,
    "G-IH0-T-AA1-R": 1526,
    "F-R-AE1-N-S": 1527,
    "F-IY0": 1528,
    "-EY0": 1529,
    "Y-UH2-R-AH0-P-IY1-AH0-N": 1530,
    "M-AA1-D-AH0-L": 1531,
    "K-AH1-M-Z": 1532,
    "AH0-W-AO1-R-D": 1533,
    "-IH0-D": 1534,
    "EH1-R-K-R-AE2-F-T": 1535,
    "B-AO1-R-@@": 1536,
    "P-R-AY1-@@": 1537,
    "P-R-AY0-M-EH1-R-AH0-L-IY0": 1538,
    "P-R-AH0-V-AY1-D-Z": 1539,
    "M-UW1-V-M-AH0-N-T": 1540,
    "M-EH1-R-IY0": 1541,
    "D-AO1-@@": 1542,
    "T-ER0-D": 1543,
    "N-AE1-CH-R-AH0-L": 1544,
    "M-Y-UW1-Z-IH0-K-AH0-L": 1545,
    "K-AH0-N-S-IH1-S-T-S": 1546,
    "F-AO1-@@": 1547,
    "B-AO1-@@": 1548,
    "N-AY1-N": 1549,
    "L-AH0-T": 1550,
    "K-L-OW1-@@": 1551,
    "HH-AO1-R-@@": 1552,
    "T-R-EY1-N-IH0-NG": 1553,
    "S-P-EH1-N-T": 1554,
    "AE1-K-S-EH2-S": 1555,
    "AE1-K-@@": 1556,
    "T-R-AE1-K-S": 1557,
    "SH-IH0-NG": 1558,
    "F-AO1-R-AH0-S-T": 1559,
    "-IY0-AE1-@@": 1560,
    "Z-EH1-@@": 1561,
    "S-T-R-AO1-NG": 1562,
    "L-IH1-V-IH0-NG": 1563,
    "K-R-UW1-@@": 1564,
    "D-IY0@@": 1565,
    "AE1-K-SH-AH0-N": 1566,
    "-AH0-Z": 1567,
    "S-T-AH0-D": 1568,
    "S-AH0-N-Z": 1569,
    "K-W-IH1-@@": 1570,
    "CH-EY1-@@": 1571,
    "L-OW0-K-EY1-SH-AH0-N": 1572,
    "HH-AY1-L-IY0": 1573,
    "S-T-AE1-N-D-Z": 1574,
    "S-AY2-@@": 1575,
    "B-L-AE1-@@": 1576,
    "S-AY2-D": 1577,
    "K-R-AO1-S": 1578,
    "F-IY1-M-EY2-L": 1579,
    "F-IY1-CH-ER0": 1580,
    "DH@@": 1581,
    "S-EH1-K-SH-AH0-N": 1582,
    "P-R-EH1-Z-AH0-N-T": 1583,
    "P-L-EY1-S-T": 1584,
    "P-AE2-@@": 1585,
    "M-EY1-L": 1586,
    "N-D-ER0-Z": 1587,
    "L-AO1-NG-G-ER0": 1588,
    "K-AH1-L-ER0": 1589,
    "-UW2": 1590,
    "Z-AH0-M": 1591,
    "N-AA1-V-AH0-L": 1592,
    "HH-W-AY1": 1593,
    "D-IH2-@@": 1594,
    "Z-IH1-@@": 1595,
    "T-AH0-L-Z": 1596,
    "P-L-AE1-N-T": 1597,
    "M-IH1-L-AH0-T-EH2-R-IY0": 1598,
    "L-IY1-V": 1599,
    "D-IH0-V-IH1-ZH-AH0-N": 1600,
    "B-OY1-Z": 1601,
    "T-IH0-V-L-IY0": 1602,
    "T-EH0-K-N-AA1-L-AH0-JH-IY0": 1603,
    "S-IH1-V-AH0-L": 1604,
    "AA1-P-ER0-EY2-T-AH0-D": 1605,
    "W-EH1-L-@@": 1606,
    "L-Y@@": 1607,
    "JH-IH0-@@": 1608,
    "D-IH0-Z": 1609,
    "T-R-AY1-@@": 1610,
    "S-T-ER0-@@": 1611,
    "N-IY0-Z": 1612,
    "K-L-OW1-Z": 1613,
    "K-AH0-M-ER1-SH-AH0-L": 1614,
    "IH0-V-EH1-N-T-S": 1615,
    "F-AY1-ER0": 1616,
    "B-IH0-L-IY1-V": 1617,
    "-OW0-@@": 1618,
    "OW2-Z": 1619,
    "SH-AH0-N@@": 1620,
    "D-EY2": 1621,
    "T-R-AE0-N-@@": 1622,
    "T-AY2-M": 1623,
    "S-T-AE1-N-D": 1624,
    "S-IY0-@@": 1625,
    "-EH2-R-IY0": 1626,
    "R-AY1-D-IH0-NG": 1627,
    "OY1-L": 1628,
    "F-AO1-R-TH": 1629,
    "T-R-UW1": 1630,
    "S-T-AH1-@@": 1631,
    "S-P-AO1-R-T-S": 1632,
    "N-S-AH0-@@": 1633,
    "IH0-N-K-L-UW1-D-AH0-D": 1634,
    "W-AY1-D": 1635,
    "IH2-N-@@": 1636,
    "IH1-N-D-IY0-AH0-N": 1637,
    "S-T-EY1-SH-AH0-N-Z": 1638,
    "R-AA1-B-ER0-T": 1639,
    "N-ER1-@@": 1640,
    "M-AH0-L": 1641,
    "K-R-IY1-@@": 1642,
    "JH-AH0-Z": 1643,
    "SH-AO1-R-T-L-IY0": 1644,
    "S-T-AH1-D-IY0": 1645,
    "S-T-AA1-R-Z": 1646,
    "JH-ER1-M-AH0-N-IY0": 1647,
    "F-EH1-L-T": 1648,
    "K-AY1-N-D": 1649,
    "B-R-UW1-@@": 1650,
    "T-EY1-K-IH0-NG": 1651,
    "S-T-R-AH1-K-CH-ER0": 1652,
    "N-CH": 1653,
    "K-AH0-M-P-L-IY1-T": 1654,
    "B-L-IY0": 1655,
    "S-T-R-AE1-@@": 1656,
    "S-N-OW1": 1657,
    "P-AH0-L": 1658,
    "V-IY0": 1659,
    "B-EY1-B-IY0": 1660,
    "B-AH1-S": 1661,
    "-IH0-N": 1662,
    "W-UH2-D": 1663,
    "W-AY1-D-L-IY0": 1664,
    "T-R-IY1-@@": 1665,
    "T-R-IY1": 1666,
    "M-AH0-K-@@": 1667,
    "K-SH-AH0-N-Z": 1668,
    "HH-IY1-Z": 1669,
    "P-R-OW1-G-R-AE2-M-Z": 1670,
    "F-R-EY1-@@": 1671,
    "CH-IY1-F": 1672,
    "B-R-AY1-@@": 1673,
    "B-AW1-@@": 1674,
    "SH-AH0": 1675,
    "K-EY1-SH-AH0-N": 1676,
    "HH-Y-UW1-M-AH0-N": 1677,
    "HH-AA1-T": 1678,
    "F-IH1-SH": 1679,
    "B-IH1-L": 1680,
    "TH-R@@": 1681,
    "S-T-AE1-N-D-ER0-D": 1682,
    "P-AA2-@@": 1683,
    "D-EY1-V-IH0-D": 1684,
    "R-IH1-CH-ER0-D": 1685,
    "L-IY1-D": 1686,
    "IH0-N-AH1-F": 1687,
    "F-L-AO1-R": 1688,
    "S-T-IY0": 1689,
    "M-AA2-@@": 1690,
    "L-EH1-K-@@": 1691,
    "D-AE1-N-S": 1692,
    "P-AH0-L-IH1-T-AH0-K-AH0-L": 1693,
    "L-AY2-@@": 1694,
    "G-R-EH1-@@": 1695,
    "EH1-V-R-IY0-TH-IH2-NG": 1696,
    "Y-AA1-@@": 1697,
    "N-EY1-SH-AH0-N": 1698,
    "N-AH1-@@": 1699,
    "L-AY1-N-Z": 1700,
    "IH0-V-EH1-N-T": 1701,
    "AY1-S": 1702,
    "AE1-N-AH0-@@": 1703,
    "T-EH1-S-T": 1704,
    "S-IH1-CH-UW0-EY2-T-IH0-D": 1705,
    "S-ER1-T-AH0-N": 1706,
    "P-R-AA1-B-L-AH0-M-Z": 1707,
    "N-EH1-T-W-ER2-K": 1708,
    "N-AH0-L-Z": 1709,
    "L-AY1-V": 1710,
    "B-IH1-L-IH0-T-IY0": 1711,
    "M-P": 1712,
    "L-AH0-T-IY0": 1713,
    "K-L-EH1-@@": 1714,
    "W-EY1-T": 1715,
    "S-T-OW1-N": 1716,
    "L-EY1-D-IY0": 1717,
    "HH-OW1-L-D-Z": 1718,
    "K-OW1-L-D": 1719,
    "K-AH0-N-Z": 1720,
    "F-Y-UW1-@@": 1721,
    "AE1-K-T": 1722,
    "T-ER1-N": 1723,
    "S-T-AO1-R": 1724,
    "R-AE1-N": 1725,
    "L-T-AH0-N": 1726,
    "K-OW1-S-T": 1727,
    "HH-EH1-L-TH": 1728,
    "M-AY1-K-AH0-L": 1729,
    "AH1-N-D-ER0-@@": 1730,
    "-IY2": 1731,
    "M-AA1-R-K": 1732,
    "K-T-IH0-V": 1733,
    "IH0-N-T-AY1-ER0": 1734,
    "T-EH1-K-S-AH0-S": 1735,
    "T-AA0-@@": 1736,
    "K-AH0-M-P-Y-UW1-T-ER0": 1737,
    "JH-EY1-@@": 1738,
    "Z-AH0-N-@@": 1739,
    "M-AH0-SH-IY1-N": 1740,
    "-IH0-K": 1741,
    "R-IY1-S-AH0-N-T": 1742,
    "P-R-IY1-@@": 1743,
    "JH-OW1-@@": 1744,
    "P-R-AH0-V-AY1-D-IH0-D": 1745,
    "P-L-AH0-@@": 1746,
    "Z-EY1-SH-AH0-N": 1747,
    "P-R-AA1-B-L-AH0-M": 1748,
    "K-R-EY1-@@": 1749,
    "HH-AE1-T": 1750,
    "P-AO1-R-T": 1751,
    "DH-EH1-R-Z": 1752,
    "D-IH0-P-AA1-R-T-M-AH0-N-T": 1753,
    "-EY2-T-ER0": 1754,
    "SH-R@@": 1755,
    "B-AE1-N-D-Z": 1756,
    "P-AH0-L@@": 1757,
    "M-Y-UW1-@@": 1758,
    "M-IH0-K": 1759,
    "K-OW1-D": 1760,
    "B-R-AH1-DH-ER0-Z": 1761,
    "B-IY0-G-AE1-N": 1762,
    "AH0-L-AW1-D": 1763,
    "-IH1-@@": 1764,
    "S-T-AA1-R": 1765,
    "N-AH0-N": 1766,
    "L-EY1": 1767,
    "JH-IY0": 1768,
    "F-AO1-R-S-IH0-Z": 1769,
    "B-AH0": 1770,
    "B-AA0-@@": 1771,
    "-ER0-AE1-@@": 1772,
    "Y-UW1-Z-IH0-Z": 1773,
    "T-AA1-M-AH0-S": 1774,
    "M-AE1-G-AH0-Z-IY2-N": 1775,
    "K-T-IH0-NG": 1776,
    "AH2-N-D-ER0-@@": 1777,
    "-UH1-@@": 1778,
    "SH-AH0-S": 1779,
    "P-IH1-K-CH-ER0": 1780,
    "M-AW1-@@": 1781,
    "G-AO1-N": 1782,
    "TH-IY1-@@": 1783,
    "T-AO1-K": 1784,
    "G-R-EY1": 1785,
    "ER1-TH": 1786,
    "-AE2-N-D": 1787,
    "T-AY1-P-S": 1788,
    "R-IH0-T-ER1-N": 1789,
    "P-R-IY1-V-IY0-AH0-S-L-IY0": 1790,
    "NG-T-AH0-N": 1791,
    "IH0-M-IY1-D-IY0-AH0-T-L-IY0": 1792,
    "AH0-F-EH1-@@": 1793,
    "-OW2-@@": 1794,
    "Z-AH0": 1795,
    "SH-IH1-P": 1796,
    "S-T-AA1-R-T-AH0-D": 1797,
    "P-OW1-S-T": 1798,
    "N-S-IH0-@@": 1799,
    "M-AE1-T-ER0": 1800,
    "HH-AY1-ER0": 1801,
    "EY2-T": 1802,
    "D-AO1-G-Z": 1803,
    "AO0-L-R-EH1-D-IY0": 1804,
    "V-ER0-AY1-AH0-T-IY0": 1805,
    "R-EH1-G-Y-AH0-L-ER0": 1806,
    "N-S-T": 1807,
    "K-Y-UW1-@@": 1808,
    "EH1-S": 1809,
    "-OW0": 1810,
    "V-AH0-N-@@": 1811,
    "P-OY1-N-T-S": 1812,
    "L-IY1-D-ER0": 1813,
    "F-AY1-N": 1814,
    "D-R-IH1-@@": 1815,
    "D-EY1-T-AH0": 1816,
    "IH0-N-IH1-SH-AH0-L-IY0": 1817,
    "D-AA1-R-@@": 1818,
    "CH-AY0-N-IY1-Z": 1819,
    "V-AH0-L@@": 1820,
    "TH-IY0": 1821,
    "S-P-IY1-K": 1822,
    "N-TH@@": 1823,
    "M-Y-UW1-Z-IY0-AH0-M": 1824,
    "M-IY1-N-IH0-NG": 1825,
    "F-AO0-R-@@": 1826,
    "B-AA1-R": 1827,
    "R-AW1-@@": 1828,
    "P-R-AH0-D-AH1-K-SH-AH0-N": 1829,
    "N-AH0-M": 1830,
    "M-IH1-N-AH0-@@": 1831,
    "K-R-IY1-K": 1832,
    "F-IY1-L": 1833,
    "T-ER1-M-Z": 1834,
    "R-IH0-L-EY1-T-IH0-D": 1835,
    "P-IH1-NG-K": 1836,
    "M-OW1-M-AH0-N-T": 1837,
    "F-Y-UW1-CH-ER0": 1838,
    "TH-IH1-R-IY0": 1839,
    "T-EY2-@@": 1840,
    "OW1-P-AH0-N-D": 1841,
    "HH-EH1-V-IY0": 1842,
    "S-K-IY0": 1843,
    "P-R-IH1-N-S-AH0-P-AH0-L": 1844,
    "N-AH0-S-T": 1845,
    "M-AE1-CH": 1846,
    "K-AE1-S-AH0-L": 1847,
    "D-IH0-F-EH1-@@": 1848,
    "AY0-@@": 1849,
    "T-AW2-N": 1850,
    "S-K-AE1-@@": 1851,
    "L-IH0-N": 1852,
    "K-EH1-R-AH0-@@": 1853,
    "D-R-AE1-@@": 1854,
    "R-EH1-S-T": 1855,
    "N-JH": 1856,
    "HH-IH0-@@": 1857,
    "B-AO1-R-D-ER0": 1858,
    "B-AE1-K-@@": 1859,
    "AH0-K-AE1-D-AH0-M-IY0": 1860,
    "W-IH1-L-@@": 1861,
    "P-R-AH0-V-AY1-D": 1862,
    "N-Y-UW1-Z": 1863,
    "M-IH1-K-S-T": 1864,
    "K-Y-AH0-@@": 1865,
    "-AO2-R-@@": 1866,
    "R-OW1-M-AH0-N": 1867,
    "R-IY0-S-ER1-CH": 1868,
    "P-UW1-R": 1869,
    "K-AH0-N-T-IH1-N-Y-UW0-Z": 1870,
    "HH-AO1-R-S": 1871,
    "Z-AH0-Z": 1872,
    "Y-AH1-NG-G-ER0": 1873,
    "N-EY1-CH-ER0": 1874,
    "N-AH1-M-B-ER0-Z": 1875,
    "K-AH0-M-@@": 1876,
    "F-AY1-R": 1877,
    "ER0-D": 1878,
    "D-EY1-T": 1879,
    "S-EH0-@@": 1880,
    "D-ER0-EH1-K-T-ER0": 1881,
    "S-EH1-L": 1882,
    "R-AH0-S": 1883,
    "L-D-@@": 1884,
    "JH-ER1-@@": 1885,
    "G-UW1-@@": 1886,
    "G-AA1-D": 1887,
    "T-R-IY1-Z": 1888,
    "S-UW2-P-ER0-@@": 1889,
    "HH-OW1-L-D": 1890,
    "F-EY1-L-D": 1891,
    "IH1-N-D-IY0-AH0": 1892,
    "V-IH1-L-AH0-JH": 1893,
    "S-IY1-M-Z": 1894,
    "M-AH1-L-T-AH0-P-AH0-L": 1895,
    "K-AE1-TH-L-IH0-K": 1896,
    "D-R-EH1-S-T": 1897,
    "W-IH1-N-T-ER0": 1898,
    "SH-AA1-@@": 1899,
    "L-F": 1900,
    "HH-IH0-S-T-AO1-R-IH0-K": 1901,
    "HH-AA1-S-P-IH2-T-AH0-L": 1902,
    "AY1-L-AH0-N-D-Z": 1903,
    "P-R-AA1-S-EH2-S": 1904,
    "N-OW1-T-AH0-B-AH0-L": 1905,
    "K-AH0-N-EY1-D-IY0-AH0-N": 1906,
    "G-AH1-V-ER0-N-ER0": 1907,
    "F-AH0-K-EY1-SH-AH0-N": 1908,
    "D-IH0-V-AY1-D-AH0-D": 1909,
    "B-AE1-NG-K": 1910,
    "-AY2": 1911,
    "P-AO1-@@": 1912,
    "K-T@@": 1913,
    "K-AH0-S": 1914,
    "S-IH1-M-P-AH0-L": 1915,
    "R-IY1-JH-AH0-N-AH0-L": 1916,
    "P-R-EH1-S": 1917,
    "L-AH0-JH-IY0": 1918,
    "-AH0-N-S-IY0": 1919,
    "V-Y-UW1": 1920,
    "T-OW0-@@": 1921,
    "M-EH1-TH-AH0-D": 1922,
    "L-AY2-N": 1923,
    "L-AA1-R-JH-ER0": 1924,
    "K-AA0-R-@@": 1925,
    "SH-OW1-N": 1926,
    "M-AH0-T-IH1-R-IY0-AH0-L": 1927,
    "L-UH1-K-S": 1928,
    "EH1-JH-AH0-K-EY2-T-AH0-D": 1929,
    "D-EH1-D": 1930,
    "-AH1-@@": 1931,
    "-AA2-N": 1932,
    "T-IH1-P-IH0-K-L-IY0": 1933,
    "S-P-AE1-@@": 1934,
    "S-AY1-N": 1935,
    "M-EH1-T-AH0-L": 1936,
    "K-EH1-R": 1937,
    "F-IH1-SH-IH0-NG": 1938,
    "D-W@@": 1939,
    "AO1-F-ER0-Z": 1940,
    "AH0-P-IH1-R": 1941,
    "-AW1": 1942,
    "SH-AA1-T": 1943,
    "S-M-AO1-L-ER0": 1944,
    "M-AY2-@@": 1945,
    "IH0-L-EH1-K-SH-AH0-N": 1946,
    "IH0-K-S-P-IH1-R-IY0-AH0-N-S": 1947,
    "G-AA1-R-D-AH0-N": 1948,
    "F-AA1-R-@@": 1949,
    "B-D": 1950,
    "B-AE2-@@": 1951,
    "AA1-R-T-S": 1952,
    "Z-AH0-L": 1953,
    "M-UW1-V": 1954,
    "M-EY1-ER0": 1955,
    "JH-AH0-P-AE1-N": 1956,
    "HH-OW1-P": 1957,
    "D-AH0-L@@": 1958,
    "AH0-S-EH1-@@": 1959,
    "S-T-AH1-D-IY0-Z": 1960,
    "N-SH@@": 1961,
    "HH-Y-UW1-@@": 1962,
    "HH-IH0-S-T-AO1-R-IH0-K-AH0-L": 1963,
    "D-IH0-G-R-IY1": 1964,
    "B-IH1-T": 1965,
    "AO1-N-L-AY2-N": 1966,
    "AH0-T-AE1-K": 1967,
    "S-P-AE1-N-IH0-SH": 1968,
    "S-ER1-CH": 1969,
    "K-AH0-M-P-OW1-Z-D": 1970,
    "F-L-EH1-@@": 1971,
    "AE1-M": 1972,
    "-UW0@@": 1973,
    "-AA0-N": 1974,
    "T-AO1-K-IH0-NG": 1975,
    "S-T-UW1-D-AH0-N-T": 1976,
    "N-D-IY0": 1977,
    "M-AH0-N-D": 1978,
    "L-AE1-T-AH0-N": 1979,
    "HH-AE1-P-IY0": 1980,
    "G-R-AE2-@@": 1981,
    "B-IY0-T-W-IY1-N": 1982,
    "-AH0-L-Z": 1983,
    "T-S-@@": 1984,
    "R-AE1-DH-ER0": 1985,
    "N-IH1-R-L-IY0": 1986,
    "B-EY1-S-B-AO1-L": 1987,
    "AO1-TH-ER0": 1988,
    "AH2-N-@@": 1989,
    "Z-AE1-@@": 1990,
    "S-K-AA1-@@": 1991,
    "S-AA0-@@": 1992,
    "N-T-R@@": 1993,
    "M-EH1-N-T-AH0-L": 1994,
    "L-AE2-N-D": 1995,
    "K-AA1-M-P-L-EH0-K-S": 1996,
    "D-AO1-T-ER0-Z": 1997,
    "B-AE1-K-G-R-AW2-N-D": 1998,
    "T-UH1-R": 1999,
    "S-ER0-V-AY1-V-D": 2000,
    "R-IH1-L-IY0": 2001,
    "P-L-EY1-N": 2002,
    "M-UW1-@@": 2003,
    "M-P-S": 2004,
    "L-IY1-V-Z": 2005,
    "K-L-IH1-R": 2006,
    "G-R-AE1-S": 2007,
    "K-AH1-L-CH-ER0": 2008,
    "EY1-SH-AH0-N-Z": 2009,
    "S-AH0-N-@@": 2010,
    "M-AE1-T-IH0-K": 2011,
    "L-T-S": 2012,
    "K-AH0-L-EH1-K-SH-AH0-N": 2013,
    "F-AY2": 2014,
    "CH-EH1-R": 2015,
    "B-AH0-N@@": 2016,
    "SH-AH1-@@": 2017,
    "R-L-IY0": 2018,
    "R-IH0-F-ER1-D": 2019,
    "P-R-AA1-P-ER0-T-IY0": 2020,
    "K-AE1-M-P-AH0-S": 2021,
    "-OW1-@@": 2022,
    "T-R-EY1-D": 2023,
    "P-R-IY1-V-IY0-AH0-S": 2024,
    "P-R-AA1-V-AH0-N-S": 2025,
    "F-AY1-N-AH0-L-IY0": 2026,
    "D-AO1-R-@@": 2027,
    "R-EH1-S-T-R-AA2-N-T": 2028,
    "P-ER0-Z": 2029,
    "NG-L-IY0": 2030,
    "K-EY1": 2031,
    "IH2-N-T-R-AH0-D-UW1-S-T": 2032,
    "IH0-G-Z-IH1-S-T": 2033,
    "HH-IH1-T": 2034,
    "F-IH1-N-IH0-SH-T": 2035,
    "F-EH1-L-OW0": 2036,
    "B-AH0-L@@": 2037,
    "AO1-R-AH0-JH-AH0-N": 2038,
    "AO1-F-ER0-D": 2039,
    "-IY0-AH0-@@": 2040,
    "S-IY0-Z": 2041,
    "R-IY1-D": 2042,
    "L-IY0-Z": 2043,
    "K-AA2-M-P-AH0-T-IH1-SH-AH0-N": 2044,
    "F-IH2-@@": 2045,
    "P-ER0-T-IH1-K-Y-AH0-L-ER0-L-IY0": 2046,
    "M-UW1-V-IY0-Z": 2047,
    "M-IH1-D-@@": 2048,
    "IH1-SH-UW0": 2049,
    "G-L-AE1-@@": 2050,
    "F-R-IY1-K-W-AH0-N-T-L-IY0": 2051,
    "AA2-P-ER0-EY1-SH-AH0-N": 2052,
    "S-T-AO1-@@": 2053,
    "R-AH0-K-AO1-R-D-AH0-D": 2054,
    "M-AH0-T": 2055,
    "M-AH0-JH-AO1-R-AH0-T-IY0": 2056,
    "B-R-AH1-@@": 2057,
    "V-IH0-L": 2058,
    "S-AY1-N-D": 2059,
    "K-AH0-M-IH1-T-IY0": 2060,
    "D-IY1-P": 2061,
    "CH-AY1-N-AH0": 2062,
    "W-AH0": 2063,
    "P-OY1-@@": 2064,
    "JH-UW1-IH0-SH": 2065,
    "B-OW1-T": 2066,
    "T-W-IH1-@@": 2067,
    "N-AA1-N-@@": 2068,
    "L-D-Z": 2069,
    "IH0-T-AE1-L-Y-AH0-N": 2070,
    "Y-AE1-@@": 2071,
    "W-IY1-K-S": 2072,
    "W-AO1-K": 2073,
    "S-T-AA1-R-@@": 2074,
    "R-EY1-N": 2075,
    "R-EH1-Z-IH0-D-AH0-N-T-S": 2076,
    "P-R-OW1-@@": 2077,
    "L-AA0-@@": 2078,
    "F-IH1-SH@@": 2079,
    "R-UW1-T": 2080,
    "R-IH0-K-AO1-R-D-IH0-D": 2081,
    "L-Y-AH0-N": 2082,
    "K-OW2-@@": 2083,
    "K-L-OW1-S": 2084,
    "R-EH1-K-ER0-D-Z": 2085,
    "N-L-IY0": 2086,
    "F-EH1-S-T-AH0-V-AH0-L": 2087,
    "V-L@@": 2088,
    "K-AH1-L-ER0-Z": 2089,
    "F-AY1-T": 2090,
    "M-Y-UW2-N-IH0-S-AH0-P-AE1-L-AH0-T-IY0": 2091,
    "M-EH1-R-IH0-JH": 2092,
    "IY1-T": 2093,
    "G-R-IY1-K": 2094,
    "D-IH1-F-AH0-K-AH0-L-T": 2095,
    "-UH2-@@": 2096,
    "-AW2-@@": 2097,
    "-AA1": 2098,
    "SH-AH0-L": 2099,
    "S-K-AH0-@@": 2100,
    "L-IH0-S-T": 2101,
    "L-AA1-R-JH-L-IY0": 2102,
    "F-L-AH1-@@": 2103,
    "SH-OW1-@@": 2104,
    "P-ER0-T-IH1-K-Y-AH0-L-ER0": 2105,
    "IH0-K-S-EH1-P-T": 2106,
    "EY1-ZH-AH0-N": 2107,
    "AH0-F-EH1-K-T": 2108,
    "Z-ER0-Z": 2109,
    "S-T-R-EY1-@@": 2110,
    "P-R-AA1-D-AH0-K-T": 2111,
    "M-B-R@@": 2112,
    "M-AW1-TH": 2113,
    "L-T-IY0": 2114,
    "K-AH0-M-P-L-IY1-T-L-IY0": 2115,
    "EH1-N-ER0-JH-IY0": 2116,
    "B-R-AA1-@@": 2117,
    "B-EH1-L": 2118,
    "SH-ER0": 2119,
    "S-T-AA1-R-T-IH0-D": 2120,
    "P-IY1-T-ER0": 2121,
    "NG-IH0-NG": 2122,
    "N-S-AH0-N": 2123,
    "K-UH1-@@": 2124,
    "K-OW1-CH": 2125,
    "EH1-R-AH0-@@": 2126,
    "AH0-P-R-OW1-CH": 2127,
    "AH0-B-@@": 2128,
    "S-K-S": 2129,
    "S-AH1-B-JH-IH0-K-T": 2130,
    "L-UW1-IH0-S": 2131,
    "L-AE1-NG-G-W-IH0-JH-IH0-Z": 2132,
    "K-IH1-NG-D-AH0-M": 2133,
    "IY1-DH-ER0": 2134,
    "IH2-N-D-AH0-V-IH1-JH-AH0-W-AH0-L": 2135,
    "G-ER0-@@": 2136,
    "F-L-AO1-@@": 2137,
    "S-T-AO1-R-IY0-Z": 2138,
    "P-EH1-R-IH0-SH": 2139,
    "N-T-AH0-N": 2140,
    "L-IY1-D-IH0-NG": 2141,
    "K-SH@@": 2142,
    "AA2-P-ER0-EY1-SH-AH0-N-Z": 2143,
    "Y-AH0-@@": 2144,
    "R-IY1-L-IY0": 2145,
    "HH-AY2-@@": 2146,
    "T-R-AY1-D": 2147,
    "T-EH1-L-AH0-@@": 2148,
    "S-IH1-T-S": 2149,
    "S-AH0-L-Z": 2150,
    "P-AA2-R-@@": 2151,
    "K-R-AW1-D": 2152,
    "F-EH1-L": 2153,
    "EH1-L-AH0-M-AH0-N-T-S": 2154,
    "B-L-AH1-D": 2155,
    "-IY0-AH0-L": 2156,
    "P-L-AE1-N": 2157,
    "M-AY0-@@": 2158,
    "M-AW1-N-T-AH0-N-Z": 2159,
    "L-AE1-S": 2160,
    "G-AY1-@@": 2161,
    "S-T-OW2-N": 2162,
    "N-S-ER0": 2163,
    "N-OW1-T": 2164,
    "N-IH0-NG-Z": 2165,
    "L-IY1-G-AH0-L": 2166,
    "L-D-ER0": 2167,
    "HH-EH1-L-P-T": 2168,
    "G-R-AE1-N-D": 2169,
    "D-IH0-V-AY1-@@": 2170,
    "AE1-S-T": 2171,
    "AE1-N-Y-UW0-AH0-L": 2172,
    "-IY0-AH0-S": 2173,
    "S-AY1-Z": 2174,
    "P-L-EH1-@@": 2175,
    "L-EH1-T-ER0": 2176,
    "IH1-N-T-ER0-N-EH2-T": 2177,
    "EH1-L-AH0-@@": 2178,
    "-ER0-AH0-T": 2179,
    "R-OW1-D-Z": 2180,
    "R-AO1-@@": 2181,
    "JH-ER0-Z": 2182,
    "IH1-SH-UW0-Z": 2183,
    "AA1-R-M-Z": 2184,
    "AA1-P-ER0-EY2-T-S": 2185,
    "-AE2-K": 2186,
    "T-EH1-K-@@": 2187,
    "S-T-EY1-D-IY0-AH0-M": 2188,
    "S-ER1-V": 2189,
    "R-IY0-AH0-S": 2190,
    "P-ER1-S-IH0-N-IH0-L": 2191,
    "F-R-IH1-@@": 2192,
    "AH0-W-AO1-R-D-Z": 2193,
    "S-K-IH1-@@": 2194,
    "S-AA1-K-ER0": 2195,
    "M-AE1-S-T-ER0": 2196,
    "K-R-IH1-T-IH0-K-S": 2197,
    "K-AH0-T-S": 2198,
    "K-AH0-N-T-IH1-N-Y-UW0": 2199,
    "F-L-IH1-@@": 2200,
    "D-R-AY1-V": 2201,
    "-UH0-@@": 2202,
    "V-ER0-JH-IH1-N-Y-AH0": 2203,
    "SH-UW1-@@": 2204,
    "S-AH0-T-IY0": 2205,
    "R-IH0-K": 2206,
    "R-EY1-T": 2207,
    "P-AA1-Z-AH0-T-IH0-V": 2208,
    "N-D-AH0-L": 2209,
    "M-AY1-N-ER0": 2210,
    "L-ER1-N-IH0-NG": 2211,
    "D-R-EH1-@@": 2212,
    "AH0-S-OW2-S-IY0-EY1-SH-AH0-N": 2213,
    "T-R-AY1": 2214,
    "S-T-R-EH1-@@": 2215,
    "S-AH0-N-T": 2216,
    "R-IY0-ER0": 2217,
    "P-L-AE1-N-T-S": 2218,
    "L-AH0-M": 2219,
    "IH0-M-P@@": 2220,
    "F-R-AE1-@@": 2221,
    "B-R-IY1-@@": 2222,
    "B-OY1-@@": 2223,
    "B-AY1-K": 2224,
    "-AO1-R": 2225,
    "W-AH1-@@": 2226,
    "T-AE1-K-@@": 2227,
    "S-UW0-@@": 2228,
    "S-T-IY1-L": 2229,
    "P-R-AA2-@@": 2230,
    "M-IH1-N-AH0-S-T-ER0": 2231,
    "K-T-ER0-Z": 2232,
    "K-AH1-T": 2233,
    "IH0-N-T-AY1-ER0-L-IY0": 2234,
    "HH-EH1-N-R-IY0": 2235,
    "HH-AH0-@@": 2236,
    "F-AE1-K-T": 2237,
    "T-IH0-K-S": 2238,
    "T-EY1-SH-AH0-N-Z": 2239,
    "S-UW1-T": 2240,
    "N-UW1-Z-P-EY2-P-ER0": 2241,
    "M-EH1-R-AH0-@@": 2242,
    "IY2-@@": 2243,
    "-ER1": 2244,
    "Y-UW1-TH": 2245,
    "T-R-EY1-N-Z": 2246,
    "R-IH0-Z-AH1-L-T-S": 2247,
    "R-AA0-@@": 2248,
    "P-AH0-L-IH1-T-IH0-K-AH0-L": 2249,
    "K-EH1-P-T": 2250,
    "K-AH1-M-IH0-NG": 2251,
    "IH1-N-F-L-UW0-AH0-N-S": 2252,
    "CH-UW0-@@": 2253,
    "B-EH1-L-@@": 2254,
    "AH0-M-EH1-R-IH0-K-AH0": 2255,
    "-ER0-AA1-@@": 2256,
    "S-T-ER1-@@": 2257,
    "P-R-UW1-@@": 2258,
    "M-AA1-R-K-T": 2259,
    "L-AY1": 2260,
    "L-AH0-S-T": 2261,
    "HH-OW0-T-EH1-L": 2262,
    "B-L-EY1-@@": 2263,
    "B-ER0": 2264,
    "B-EH2-R-IY0": 2265,
    "AH0-P-IH1-R-AH0-N-S": 2266,
    "W-IH1-SH": 2267,
    "T-AO1-R-@@": 2268,
    "S-ER1-V@@": 2269,
    "S-EH1-P-@@": 2270,
    "R-IY0-Z": 2271,
    "R-AH1-SH-AH0-N": 2272,
    "L-EY1-B-ER0": 2273,
    "K-EH1-R-IY0-D": 2274,
    "K-AH1-L-CH-ER0-AH0-L": 2275,
    "K-AE1-P-T-AH0-N": 2276,
    "W-EY2-Z": 2277,
    "S-ER1-F-AH0-S": 2278,
    "S-EH1-N-CH-ER0-IY0": 2279,
    "P-L-AE1-T-F-AO2-R-M": 2280,
    "OW1-P@@": 2281,
    "K-W-EH1-@@": 2282,
    "HH-ER0-S-EH1-L-F": 2283,
    "AH0-N-N-OW1-N": 2284,
    "-AW1-N-D": 2285,
    "W-AE1-@@": 2286,
    "SH-IH1-P-S": 2287,
    "P-R-AA1-M-AH0-N-AH0-N-T": 2288,
    "M-P-AH0-@@": 2289,
    "AH1-P-ER0": 2290,
    "S-IY1-M-D": 2291,
    "N-AO1-@@": 2292,
    "B-AE1-D": 2293,
    "M-AY2-S-EH1-L-F": 2294,
    "M-AE1-N-IH0-JH-D": 2295,
    "L-AE1-N-D-@@": 2296,
    "K-L-EY1-M-D": 2297,
    "K-AH0-M-AE1-N-D": 2298,
    "IH0-N-S-AY1-D": 2299,
    "B-IH1-L-D": 2300,
    "AE0-D-@@": 2301,
    "AA1-R-T-IH0-S-T-S": 2302,
    "S-T-UH1-D": 2303,
    "R-AY1-T-ER0": 2304,
    "N-OW1-T-IH0-D": 2305,
    "CH-AA1-R-JH": 2306,
    "B-AH0-T": 2307,
    "Z-IY1-@@": 2308,
    "Y-UW0-N-AY1-T-AH0-D": 2309,
    "W-ER1-K-ER0-Z": 2310,
    "T-EH1-K-S-T": 2311,
    "T-AH0-N-T": 2312,
    "L-AE2-@@": 2313,
    "JH-AH1-M-P-IH0-NG": 2314,
    "JH-AA1-B": 2315,
    "IY1": 2316,
    "IH0-S-T-EY1-T": 2317,
    "IH0-K-AA1-N-AH0-M-IY0": 2318,
    "HH-EH1-R-IY0": 2319,
    "D-IH0-K": 2320,
    "D-EY1-L-IY0": 2321,
    "T-R-AA1-@@": 2322,
    "T-AH0-N-@@": 2323,
    "S-P-AA1-@@": 2324,
    "S-K-EH1-@@": 2325,
    "G-R-EY1-T-ER0": 2326,
    "ER1-L-IY0-ER0": 2327,
    "EH2-K-@@": 2328,
    "CH-EY1-N-JH-IH0-Z": 2329,
    "AE1-N-S-ER0": 2330,
    "AE1-L-AH0-S": 2331,
    "AA0-R-@@": 2332,
    "V-R@@": 2333,
    "V-OY1-@@": 2334,
    "T-AO1-T": 2335,
    "R-IY1-D-IH0-NG": 2336,
    "R-EH1-K-ER0-D": 2337,
    "P-R-EH2-@@": 2338,
    "OW0@@": 2339,
    "N-T-IY0": 2340,
    "M-IH1-S": 2341,
    "L-AY1-K-L-IY0": 2342,
    "HH-EH1-L-@@": 2343,
    "D-IH1-S-T-AH0-N-S": 2344,
    "SH-AH0-K-AA1-G-OW2": 2345,
    "S-L-OW1-@@": 2346,
    "S-IH1-M-P-L-IY0": 2347,
    "M-EH1-N-T": 2348,
    "M-B-ER0-@@": 2349,
    "G-AH1-V-ER0-@@": 2350,
    "F-AO1-R-T": 2351,
    "AE1-N-AH0-M-AH0-L-Z": 2352,
    "-IH2-Z-AH0-M": 2353,
    "S-T-R-IH1-@@": 2354,
    "S-P-IY1-CH": 2355,
    "S-M-IH1-TH": 2356,
    "P-AA1-R-T-IY0-Z": 2357,
    "M-R@@": 2358,
    "M-P-L@@": 2359,
    "L-AA1-R-@@": 2360,
    "HH-EH2-@@": 2361,
    "D-Y-UW1": 2362,
    "B-R-AY1-T": 2363,
    "B-ER1-D": 2364,
    "B-AE1-S-K-AH0-T-B-AO2-L": 2365,
    "AH0-K-ER1": 2366,
    "-EY2-N": 2367,
    "R-EH1-R": 2368,
    "P-R-AH0-F-EH1-S-ER0": 2369,
    "P-R-AE1-K-T-AH0-S": 2370,
    "P-L-AH1-@@": 2371,
    "P-AA1-L-AH0-T-IH2-K-S": 2372,
    "L-IY1": 2373,
    "K-IH0-T": 2374,
    "K-AH2-@@": 2375,
    "K-AH0-N-T-EH1-@@": 2376,
    "G-IH1-V-Z": 2377,
    "F-AO1-L-Z": 2378,
    "EH1-V-AH0-D-AH0-N-S": 2379,
    "D-R-EH1-S": 2380,
    "-AY1-@@": 2381,
    "W-OW1-N-T": 2382,
    "S-T-UW1-D-IY0-OW2": 2383,
    "N-EY1-SH-AH0-N-Z": 2384,
    "IH0-M-@@": 2385,
    "EH1-P-AH0-S-OW2-D": 2386,
    "AE0-K-T-IH1-V-IH0-T-IY0-Z": 2387,
    "V-ER1-ZH-AH0-N-Z": 2388,
    "V-EH2-@@": 2389,
    "P-AA1-L-AH0-S-IY0": 2390,
    "K-R-IH1-S-M-AH0-S": 2391,
    "IY1-Z-IY0": 2392,
    "IH1-NG-L-IH0-SH": 2393,
    "D-ER1-@@": 2394,
    "AW1-ER0-Z": 2395,
    "SH-IH0-@@": 2396,
    "S-IH1-T": 2397,
    "R-EY1-L-R-OW2-D": 2398,
    "N-S-AH0-Z": 2399,
    "K-W-IY1-N": 2400,
    "HH-AY1-W-EY2": 2401,
    "HH-AW1-@@": 2402,
    "G-IH1-V-AH0-N": 2403,
    "D-IY1": 2404,
    "Y-UH1-@@": 2405,
    "T-W-AY1-S": 2406,
    "S-P-IY1-D": 2407,
    "R-IY1-CH-T": 2408,
    "P-UW1-L": 2409,
    "P-R-AH0-D-UW1-S": 2410,
    "L-EH1-T-S": 2411,
    "IH0-K": 2412,
    "HH-AE1-P-AH0-N-D": 2413,
    "F-AW0-N-D-EY1-SH-AH0-N": 2414,
    "EH1-M": 2415,
    "Z-UW1-@@": 2416,
    "S-T-AH0": 2417,
    "S-T-AE1-F": 2418,
    "M-AW1-N-T": 2419,
    "G-OW1-Z": 2420,
    "F-AE2-@@": 2421,
    "D-AH1-Z-AH0-N": 2422,
    "AO0-@@": 2423,
    "W-IH1-N-D-OW0-Z": 2424,
    "S-K-EH1-JH-UW0-L": 2425,
    "R-AH1-DH-ER0": 2426,
    "P-ER0-F-AO1-R-M-IH0-NG": 2427,
    "P-EH2-@@": 2428,
    "L-OW1-K-EY2-D": 2429,
    "IH0-S": 2430,
    "F-AO2-R-@@": 2431,
    "S-T-R-IY0": 2432,
    "P-AA0-@@": 2433,
    "M-B-AH0-L": 2434,
    "M-AH1-N-TH": 2435,
    "IH0-G-Z-AE1-M-P-AH0-L-Z": 2436,
    "HH-AH1-Z-B-AH0-N-D": 2437,
    "G-OW0": 2438,
    "DH-ER0-@@": 2439,
    "D-OW0-@@": 2440,
    "AA1-N-ER0": 2441,
    "AA0-N-T-EH1-R-IY0-OW0": 2442,
    "T-R-AE1-F-IH0-K": 2443,
    "S-T-R-AY1-@@": 2444,
    "S-ER0-Z": 2445,
    "R-IY0@@": 2446,
    "NG-G-AH0-L": 2447,
    "N-AH0-L-IY0": 2448,
    "M-IY0-@@": 2449,
    "M-AA1-N-AH0-@@": 2450,
    "K-AH0-L-EH1-K-@@": 2451,
    "K-AE1-M-P": 2452,
    "G-D": 2453,
    "D-IY0-Z": 2454,
    "B-IH0-L-IY1-V-D": 2455,
    "AE1-D-IH0-D": 2456,
    "-IY2@@": 2457,
    "V-EY1-SH-AH0-N": 2458,
    "T-R-EY1-L": 2459,
    "SH-AA1-R-@@": 2460,
    "SH-AA1-P-IH0-NG": 2461,
    "S-W-IY1-@@": 2462,
    "S-AH0-S-P-EH1-@@": 2463,
    "R-ER0": 2464,
    "K-R-IH1-T-IH0-K-AH0-L": 2465,
    "K-IY0-@@": 2466,
    "K-AH0-N-D-IH1-SH-AH0-N-Z": 2467,
    "EY1-N-SH-AH0-N-T": 2468,
    "ER0@@": 2469,
    "CH-AA1-R-L-Z": 2470,
    "B-Y-UW1-T-AH0-F-AH0-L": 2471,
    "B-OW0-@@": 2472,
    "AO2-R-G-AH0-N-AH0-Z-EY1-SH-AH0-N": 2473,
    "AE1-F-T-ER0-W-ER0-D-Z": 2474,
    "-IH0-S-T": 2475,
    "-EH2-R@@": 2476,
    "-AH0-N-S-IH0-Z": 2477,
    "P-R-AY1-Z": 2478,
    "L-AY2-Z-D": 2479,
    "L-AO1-R-D": 2480,
    "K-AH0-N-S-IH1-@@": 2481,
    "IH0-L-EH1-K-T-IH0-D": 2482,
    "HH-OW1-M-@@": 2483,
    "G-R-OW1-IH0-NG": 2484,
    "F-AO1-R-S-T": 2485,
    "F-AA1-L-OW0": 2486,
    "CH-IH0-@@": 2487,
    "B-IH1-L-AH0-T-IY0": 2488,
    "AW1-R": 2489,
    "AO1-F-ER0": 2490,
    "AE1-L-AH0-N": 2491,
    "W-IH1-N-D-OW0": 2492,
    "S-M-AH0-N-T": 2493,
    "S-IH1-NG-ER0": 2494,
    "S-AH1-F-ER0-D": 2495,
    "P-AW1-@@": 2496,
    "NG-K-T": 2497,
    "M-AH0-S": 2498,
    "L-OW1-N": 2499,
    "K-W-AA1-L-AH0-T-IY0": 2500,
    "K-AH0-M-Y-UW1-N-IH0-T-IY0": 2501,
    "K-AA1-N-S-EH0-P-T": 2502,
    "IH0-G-Z-EH1-K-Y-AH0-T-IH0-V": 2503,
    "F-AO1-R-W-ER0-D": 2504,
    "DH-AH0-M-S-EH1-L-V-Z": 2505,
    "B-ER1-D-Z": 2506,
    "W-EY1-Z": 2507,
    "T-AW1-ER0": 2508,
    "S-EH1-L-F-@@": 2509,
    "S-AO1-R-T": 2510,
    "R-IY1-S-ER0-CH": 2511,
    "OW1-SH-AH0-N": 2512,
    "N-OW1-Z": 2513,
    "N-D-AH0-N-T": 2514,
    "K-EY1-S-IH0-Z": 2515,
    "K-AE1-T-AH0-@@": 2516,
    "G-IH0-@@": 2517,
    "F-L-OW1-Z": 2518,
    "AE1-N-JH-AH0-L-IH0-S": 2519,
    "TH-R-EH1-@@": 2520,
    "S-K-W-EH1-R": 2521,
    "S-EH1-T-AH0-L-M-AH0-N-T": 2522,
    "N-T-ER0": 2523,
    "L-IH1-T-ER0-AH0-CH-ER0": 2524,
    "L-AA1-T": 2525,
    "JH-IY1-N": 2526,
    "G-L-AE1-S": 2527,
    "B-EH2-@@": 2528,
    "AE1-K-T-ER0": 2529,
    "S-AW2-TH-IY1-S-T": 2530,
    "R-IH0-P-AO1-R-T-AH0-D": 2531,
    "N-IH0-K-S": 2532,
    "M-L-IY0": 2533,
    "L-UW0-@@": 2534,
    "L-IY1-V-IH0-NG": 2535,
    "JH-ER1-Z-IY0": 2536,
    "F-R-AY1-@@": 2537,
    "F-OW1-N": 2538,
    "-AY2@@": 2539,
    "S-IH1-NG-IH0-NG": 2540,
    "S-AO1-R-@@": 2541,
    "R-IY1-Z-AH0-N": 2542,
    "P-OW2-@@": 2543,
    "K-R-EH1-@@": 2544,
    "K-AH1-P": 2545,
    "JH-EY1": 2546,
    "HH-W-AH1-T-S": 2547,
    "D-AH0-N@@": 2548,
    "-UW2-M": 2549,
    "R-OW1-Z": 2550,
    "P-IY0-@@": 2551,
    "P-AH0-L-Z": 2552,
    "N-T-AH0-L": 2553,
    "M-OW1-S-T-L-IY0": 2554,
    "D-R-AY1": 2555,
    "TH-R-IY1-@@": 2556,
    "P-ER0-HH-AE1-P-S": 2557,
    "M-EH2-T-R-AH0-P-AA1-L-AH0-T-AH0-N": 2558,
    "L-EH1-V-AH0-L-Z": 2559,
    "K-OW1-T": 2560,
    "IH1-N-S-T-AH0-T-UW2-T": 2561,
    "HH-UW1-@@": 2562,
    "D-IY1-L": 2563,
    "B-EH1-R": 2564,
    "B-AA1-K-S": 2565,
    "AH0-S-OW1-S-IY0-EY2-T-AH0-D": 2566,
    "-EH2-R-AH0-@@": 2567,
    "-AO2-R": 2568,
    "SH-AA1-P": 2569,
    "S-EH1-T-AH0-L-D": 2570,
    "M-AH0-M-AO1-R-IY0-AH0-L": 2571,
    "L-IH0-S": 2572,
    "K-AE0-M-P-EY1-N": 2573,
    "JH-UW1-N-Y-ER0": 2574,
    "IH0-K-W-IH1-P-M-AH0-N-T": 2575,
    "AY1-R-IH0-SH": 2576,
    "AA1-R-T-AH0-S-T": 2577,
    "T-AA2-@@": 2578,
    "L-IH1-S-T-AH0-D": 2579,
    "L-IH1-M-IH0-T-IH0-D": 2580,
    "K-Y-AH0-L@@": 2581,
    "HH-AE1-N-D-Z": 2582,
    "F-L-EY1-@@": 2583,
    "F-IH1-N-IH0-SH": 2584,
    "F-AH1-NG-K-SH-AH0-N": 2585,
    "B-AA2-@@": 2586,
    "T-AW1-@@": 2587,
    "S-M@@": 2588,
    "S-L-IH1-@@": 2589,
    "P-UW1-@@": 2590,
    "P-EY1": 2591,
    "M-OW1-S-L-IY0": 2592,
    "M-EH0-@@": 2593,
    "L-EH0-@@": 2594,
    "AY1-ER0-L-AH0-N-D": 2595,
    "AO0-S-T-R-EY1-L-Y-AH0-N": 2596,
    "ZH-AH0-N-Z": 2597,
    "R-IH0-M-EH1-M-B-ER0": 2598,
    "P-Y-UW1-@@": 2599,
    "N-IY1-D-IH0-D": 2600,
    "M-AA1-D-AH0-L-Z": 2601,
    "K-R-AO1-@@": 2602,
    "K-EY2-@@": 2603,
    "K-EH1-R-AH0-K-T-ER0-Z": 2604,
    "IH1-N-T-R-AH0-S-T": 2605,
    "D-IH0-S-K-AH1-V-ER0-D": 2606,
    "B-IH0-G-IH1-N-IH0-NG": 2607,
    "S-EH1-K-AH0-N-D-EH2-R-IY0": 2608,
    "S-AO1-L-T": 2609,
    "P-ER0-D-AH1-K-SH-AH0-N": 2610,
    "M-ER0@@": 2611,
    "L-AE1-T-ER0": 2612,
    "K-AH1-V-ER0-Z": 2613,
    "D-IH1-D-AH0-N": 2614,
    "B-R-AE1-N-CH": 2615,
    "-EY2-K": 2616,
    "TH-IH1-@@": 2617,
    "R-EH1-L-AH0-T-IH0-V-L-IY0": 2618,
    "K-AH0-N-EH1-@@": 2619,
    "IH0-L-EH1-K-T-R-IH0-K": 2620,
    "D-IH0-S-IH1-ZH-AH0-N": 2621,
    "D-AH0-M": 2622,
    "B-L-AA1-@@": 2623,
    "B-AE2-K": 2624,
    "AY1-D": 2625,
    "Z-L@@": 2626,
    "V-IH1-ZH-AH0-N": 2627,
    "V-AE1-L-Y-UW0": 2628,
    "S-P-OW1-K": 2629,
    "S-AW1-@@": 2630,
    "R-IY0-L-EY1-SH-AH0-N-SH-IH2-P": 2631,
    "R-EH1-G-Y-AH0-L-ER0-L-IY0": 2632,
    "P-AH1-B-L-IH0-@@": 2633,
    "N-SH-AH0-N": 2634,
    "B-ER2-@@": 2635,
    "W-EH1-B-S-AY2-T": 2636,
    "T-EH2-R-IY0": 2637,
    "S-L-AE1-@@": 2638,
    "M-EH1-TH-AH0-D-Z": 2639,
    "K-AH0-L-AH1-M-B-IY0-AH0": 2640,
    "D-AW1-N-@@": 2641,
    "SH-AO1-R-@@": 2642,
    "N-SH-AH0-L": 2643,
    "N-IH0-T": 2644,
    "M-AA1-R-K-AH0-T": 2645,
    "K-R-UW1": 2646,
    "K-AA1-R-Z": 2647,
    "IY1-Z-AH0-L-IY0": 2648,
    "F-IY1-T": 2649,
    "D-R-UW1": 2650,
    "S-N-OW1-@@": 2651,
    "P-R-AH0-S-IY1-@@": 2652,
    "HH-AY1-AH0-S-T": 2653,
    "F-IH1-Z-IH0-K-AH0-L": 2654,
    "AA1-P-@@": 2655,
    "-AO1": 2656,
    "-AE1-K-@@": 2657,
    "S-IH1-L-V-ER0": 2658,
    "S-AE2-@@": 2659,
    "R-EH2-Z-ER0-V-EY1-SH-AH0-N": 2660,
    "P-SH-AH0-N": 2661,
    "M-AE1-N-AH0-@@": 2662,
    "L-OW2-@@": 2663,
    "L-AW1-@@": 2664,
    "JH-AH0-N@@": 2665,
    "D-R-IH1-NG-K": 2666,
    "AO1-R-AH0-N-JH": 2667,
    "AE1-G-R-IH0-K-AH2-L-CH-ER0": 2668,
    "S-CH@@": 2669,
    "S-AH1-M-W-AH2-N": 2670,
    "R-IY0-K-W-AY1-ER0-D": 2671,
    "P-R-AY1-M": 2672,
    "NG-K-IY0": 2673,
    "N-EY1-V-IY0": 2674,
    "N-AO1-R": 2675,
    "M-UW1-V-IH0-NG": 2676,
    "IH0-N-D@@": 2677,
    "D-IH0-F-EH1-N-S": 2678,
    "CH-AH0-@@": 2679,
    "B-L-EH1-@@": 2680,
    "AH2-N-D-ER0-S-T-AE1-N-D": 2681,
    "Y-AH0-L-ER0": 2682,
    "T-ER0@@": 2683,
    "S-K-R-IY1-@@": 2684,
    "S-IH0-K-Y-UH1-R-AH0-T-IY0": 2685,
    "OW1-L-D-AH0-S-T": 2686,
    "K-AE1-L-@@": 2687,
    "IH0-G-Z-AE1-@@": 2688,
    "G-AY1": 2689,
    "B-R-OW1-K-AH0-N": 2690,
    "V-AH0-L-Z": 2691,
    "S-OW1-L": 2692,
    "P-R-AA1-B-AH0-B-L-IY0": 2693,
    "N-IY1-D-Z": 2694,
    "G-N@@": 2695,
    "G-ER1-@@": 2696,
    "EH1-N-JH-AH0-N-IH1-R-IH0-NG": 2697,
    "AH0-T-EH1-M-P-T": 2698,
    "AH0-L-OW1-N": 2699,
    "W-AO1-R-D": 2700,
    "T-IY1-CH-ER0": 2701,
    "S-IY1-M": 2702,
    "S-ER0-AW1-N-D-IH0-NG": 2703,
    "S-AY1-D-Z": 2704,
    "P-EY1-N-T-IH0-NG": 2705,
    "N-AO1-R-M-AH0-L": 2706,
    "L-AO1-NG-@@": 2707,
    "K-EY2-T": 2708,
    "G-R-AE1-F-IH0-K": 2709,
    "G-EY1-N-D": 2710,
    "G-AH0-L": 2711,
    "F-IH1-L-D": 2712,
    "-ER1-@@": 2713,
    "Y-OW1-@@": 2714,
    "T-R-IY1-T-M-AH0-N-T": 2715,
    "R-IY1-S-AH0-N-T-L-IY0": 2716,
    "K-R-IH1-S-CH-AH0-N": 2717,
    "K-R-EY1-T-ER0": 2718,
    "G-AH1-V-ER0-N-M-AH0-N-T": 2719,
    "S-AO1-R-S-AH0-Z": 2720,
    "R-OW0-Z": 2721,
    "OW0-HH-AY1-OW0": 2722,
    "NG-G-@@": 2723,
    "N-AA0-N-@@": 2724,
    "F-R-EH1-N-D-Z": 2725,
    "F-ER0-Z": 2726,
    "F-AY2-@@": 2727,
    "EH1-N-@@": 2728,
    "D-IH0-S-K-AH1-@@": 2729,
    "AE1-L-B-AH0-M-Z": 2730,
    "-AW1-T": 2731,
    "-AA0-R-@@": 2732,
    "W-IH0-@@": 2733,
    "S-W-IH1-M-IH0-NG": 2734,
    "R-EY1-L": 2735,
    "N-T-ER0-@@": 2736,
    "JH-OW1-N-Z": 2737,
    "IH0-N-D-AH1-S-T-R-IY0-AH0-L": 2738,
    "HH-AE1-N-D-@@": 2739,
    "D-R-EY1-@@": 2740,
    "D-IH0-S-T-R-OY1-D": 2741,
    "D-AH0-S-T": 2742,
    "B-L-UW1-@@": 2743,
    "Y-UW0-N-IY1-K": 2744,
    "T-R-UW1-@@": 2745,
    "R-UH1-R-AH0-L": 2746,
    "P-OW0-@@": 2747,
    "M-IY1-T-IH0-NG": 2748,
    "K-L-AE1-S-IH0-K-AH0-L": 2749,
    "D-IH0-P-IH1-@@": 2750,
    "B-R-IH1-T-AH0-N": 2751,
    "B-R-AW1-@@": 2752,
    "B-ER1-OW2": 2753,
    "B-AE0-@@": 2754,
    "S-EH1-L-Z": 2755,
    "R-IH0-M-EY1-N": 2756,
    "P-R-UW1-V-D": 2757,
    "K-AA1-Z": 2758,
    "F-R-UW1-T": 2759,
    "F-L-AW1-ER0-Z": 2760,
    "D-R-AA1-P-T": 2761,
    "D-IY0-AH0-N": 2762,
    "CH-EH1-R-M-AH0-N": 2763,
    "AE1-K-T-IH0-NG": 2764,
    "S-W-AA1-@@": 2765,
    "R-IH1-NG": 2766,
    "P-R-AY1-ER0": 2767,
    "M-EH1-N-SH-AH0-N-D": 2768,
    "K-L-AH1-@@": 2769,
    "K-AO1-R": 2770,
    "HH-IH1-L-Z": 2771,
    "G-EY2-T": 2772,
    "F-IH1-G-Y-ER0": 2773,
    "B-IH1-SH-AH0-P": 2774,
    "B-EH0-@@": 2775,
    "-AH0-N-S-AH0-Z": 2776,
    "S-T-AE2-@@": 2777,
    "S-L-AY1-T-L-IY0": 2778,
    "S-AH0-L@@": 2779,
    "P-ER0-F-AO1-R-M": 2780,
    "P-AA1-R-K-S": 2781,
    "NG@@": 2782,
    "M-AH0-Z": 2783,
    "HH-EH1-V-AH0-L-IY0": 2784,
    "G-IY0": 2785,
    "F-AA1-R-M": 2786,
    "D-EH1-D-AH0-K-EY0-T-AH0-D": 2787,
    "CH-ER0-@@": 2788,
    "B-IH0-K-AH1-M-Z": 2789,
    "AH0-G-OW1": 2790,
    "AE0-M-@@": 2791,
    "S-IH1-L-@@": 2792,
    "P-R-AH0-V-AY1-D-AH0-D": 2793,
    "OW1-P-AH0-N-IH0-NG": 2794,
    "K-AO0-@@": 2795,
    "K-AH0-M-IH1-@@": 2796,
    "JH-OW1": 2797,
    "EH0-K-S-T-R-IY1-M-L-IY0": 2798,
    "D-AW1-@@": 2799,
    "-EY1-SH-AH0-N-Z": 2800,
    "T-R-AY1-IH0-NG": 2801,
    "SH-EY1-P": 2802,
    "S-EH1-Z": 2803,
    "M-AA1-R-K-IH0-T": 2804,
    "L-OY1-@@": 2805,
    "F-AO1-R-M-ER0-L-IY0": 2806,
    "B-IY2-AO1-N-D": 2807,
    "-AY2-Z-IH0-NG": 2808,
    "W-EH2-R": 2809,
    "T-UH1-R-N-AH0-M-AH0-N-T": 2810,
    "T-M-AH0-N-T": 2811,
    "S-T-AH0-N-T": 2812,
    "S-AY1-D-W-AO2-K": 2813,
    "N-AO2-R-TH-W-EH1-S-T": 2814,
    "N-AA2-@@": 2815,
    "G-EY1-SH-AH0-N": 2816,
    "F-IH1-L-@@": 2817,
    "-IH0-JH": 2818,
    "T-UW1-N": 2819,
    "S-IH0-S": 2820,
    "S-EH1-N-S": 2821,
    "R-IY0-M-UW1-V-D": 2822,
    "K-EY2-T-IH0-D": 2823,
    "K-AO1-R-N-ER0": 2824,
    "K-AH1-L-@@": 2825,
    "HH-AA1-K-IY0": 2826,
    "CH-AH0-Z": 2827,
    "AE2-N-AH0-@@": 2828,
    "W-IH1-T-@@": 2829,
    "V-ER0-IY0": 2830,
    "S-T-R-EY1-T": 2831,
    "P-EH2-N-S-AH0-L-V-EY1-N-Y-AH0": 2832,
    "N-OW1-T-AH0-D": 2833,
    "M-IH0-N": 2834,
    "K-IH1-D-Z": 2835,
    "F-AW1-@@": 2836,
    "AH0-P-OY1-N-T-IH0-D": 2837,
    "-EY1-M": 2838,
    "V-AE1-N": 2839,
    "S-IH0-G-N-IH1-F-IH0-K-AH0-N-T": 2840,
    "S-AY1-T-S": 2841,
    "R-UW1-L": 2842,
    "R-OW1-L-Z": 2843,
    "M-Y-UW0-Z-IY1-AH0-M": 2844,
    "K-AH0-N-T-R-IH1-B-Y-UW0-T-IH0-D": 2845,
    "K-AA1-L-AH0-@@": 2846,
    "G-R-OW1-@@": 2847,
    "G-AO1-@@": 2848,
    "D-R-AY1-V-IH0-NG": 2849,
    "D-AH0-N-T": 2850,
    "AH0-N-L-AY1-K": 2851,
    "AE2-L-@@": 2852,
    "S-P-AO1-R-T": 2853,
    "S-K-AA1-T-IH0-SH": 2854,
    "R-IY0-S-IY1-V-D": 2855,
    "R-IY0-AH0-L": 2856,
    "R-IH0-L-IH1-JH-AH0-S": 2857,
    "R-AH0-N-@@": 2858,
    "P-L-AE1-N-Z": 2859,
    "N-TH": 2860,
    "L-EY1-B-AH0-L": 2861,
    "K-AH0-M-P@@": 2862,
    "G-OW1-L": 2863,
    "D-ER0-AY1-V-D": 2864,
    "T-R-AH1-S-T": 2865,
    "S-P-L-IH1-T": 2866,
    "P-EY1-D": 2867,
    "P-AE1-S": 2868,
    "N-ER0-D": 2869,
    "K-AH0-M-Y-UW1-N-AH0-T-IY0-Z": 2870,
    "B-ER0-T": 2871,
    "W-AA1-CH": 2872,
    "S-AH0-K-S-IY1-D-IH0-D": 2873,
    "R-EY1-S-IH0-NG": 2874,
    "P-R-AH0-T-EH1-@@": 2875,
    "P-AA1-R-L-AH0-M-AH0-N-T": 2876,
    "M-EH1-K-S-AH0-K-OW2": 2877,
    "M-AY1-K-R-AH0-@@": 2878,
    "L-Z-@@": 2879,
    "K-AH0-N-T-EY1-N": 2880,
    "K-AE1-S-T": 2881,
    "-EH0-K-@@": 2882,
    "V-ER1-S": 2883,
    "S-L@@": 2884,
    "S-AY2-Z-D": 2885,
    "P-R-AO1-S-EH2-S": 2886,
    "D-AO2-R": 2887,
    "B-R-EY1-K": 2888,
    "B-R-AH0-@@": 2889,
    "B-IH0-G-IH1-N-Z": 2890,
    "B-EY2-S-T": 2891,
    "AH0-L-AW1": 2892,
    "AH0-B-Z-ER1-@@": 2893,
    "W-UW1-@@": 2894,
    "T-R-IY0": 2895,
    "R-AH0-N-S": 2896,
    "P-EY1-JH": 2897,
    "N-W@@": 2898,
    "N-AH1-N": 2899,
    "L-EY1-D": 2900,
    "K-AO2-R-@@": 2901,
    "IH1-T-AH0-L-IY0": 2902,
    "F-AA1-L-OW0-Z": 2903,
    "DH-ER0": 2904,
    "D-IH0-T-EH1-@@": 2905,
    "D-AH0-N-S": 2906,
    "B-IH0-K": 2907,
    "AH0-K-ER1-Z": 2908,
    "-EH2-R": 2909,
    "T-IH2-@@": 2910,
    "T-EH2-@@": 2911,
    "SH-IY0": 2912,
    "S-T-AA1-P-T": 2913,
    "R-IY1-AH0-@@": 2914,
    "P-AE1-TH": 2915,
    "N-Y-AH0": 2916,
    "N-AO2-R-TH-IY1-S-T": 2917,
    "M-OW1-SH-AH0-N": 2918,
    "M-AE1-N-ER0": 2919,
    "K-R-IY0-EY1-T": 2920,
    "K-AO2-@@": 2921,
    "K-AH0-N-D-IH1-SH-AH0-N": 2922,
    "K-AE1-P-@@": 2923,
    "JH-ER0-@@": 2924,
    "HH-W-AY1-T": 2925,
    "F-AO1-R-AH0-N": 2926,
    "AH0-T-EH1-N-SH-AH0-N": 2927,
    "-EY2-Z": 2928,
    "TH-IY1-M": 2929,
    "S-T-AY1-@@": 2930,
    "NG-G-ER0": 2931,
    "K-L-AH1-B-Z": 2932,
    "HH-ER0-@@": 2933,
    "F-AY2-N-AE1-N-SH-AH0-L": 2934,
    "D-IH0-Z-AY1-@@": 2935,
    "TH-EH1-@@": 2936,
    "SH-AH0-N-D": 2937,
    "JH-EH1-N-AH0-@@": 2938,
    "G-AE1-S": 2939,
    "ER1-N-D": 2940,
    "ER1-B-AH0-N": 2941,
    "EH1-L-S": 2942,
    "AH0-TH-AO1-R-AH0-T-IY0": 2943,
    "AH0-D-AA1-P-T-AH0-D": 2944,
    "AE0-L-@@": 2945,
    "-IY0-AH0-N-Z": 2946,
    "W-AO1-L-Z": 2947,
    "V-EY2-T-IH0-D": 2948,
    "T-OW1-T-AH0-L": 2949,
    "S-K-EY1-@@": 2950,
    "S-AH1-N-D-EY2": 2951,
    "P-R-IH1-N-S": 2952,
    "P-OW1-S-T-@@": 2953,
    "P-IH0-K": 2954,
    "L-R@@": 2955,
    "L-IH1-R-IH0-K-S": 2956,
    "K-AH0-L-IY0": 2957,
    "K-AE1-M-ER0-AH0": 2958,
    "JH-AE1-Z": 2959,
    "JH-AE1-K": 2960,
    "F-R-EH1-N-Z": 2961,
    "F-R-AE1-NG-K": 2962,
    "F-IY1-L-D-Z": 2963,
    "-AO1-R-@@": 2964,
    "T-EY1-L": 2965,
    "T-EH1-M-P-AH0-L": 2966,
    "T-AO1-P": 2967,
    "T-AE2-@@": 2968,
    "R-IY0-S-P-AA1-N-S-AH0-B-AH0-L": 2969,
    "N-ER0-IY0": 2970,
    "L-ER0-IY0": 2971,
    "K-AE1-T": 2972,
    "JH-AA1-N-S-AH0-N": 2973,
    "G-R-UW1-@@": 2974,
    "G-AA0-@@": 2975,
    "F-L-AY1-T": 2976,
    "B-AH0-L-D": 2977,
    "W-AO1-L-@@": 2978,
    "T-OW2": 2979,
    "SH-AO1-R": 2980,
    "S-T-UW1-@@": 2981,
    "S-P-EY1-@@": 2982,
    "R-IH1-V-ER0-Z": 2983,
    "P-AH0-S-IH1-F-IH0-K": 2984,
    "M-EH1-M-ER0-IY0": 2985,
    "K-AA1-N-T-R-AE2-K-T": 2986,
    "HH-OW1-L-@@": 2987,
    "G-R-AW1-@@": 2988,
    "F-UH1-T": 2989,
    "F-AO1-L": 2990,
    "B-AY0-@@": 2991,
    "AO1-F-AH0-S-ER0": 2992,
    "AH0-S": 2993,
    "AE1-D-AH0-D": 2994,
    "T-W-EH1-L-V": 2995,
    "T-AO1-R-D-Z": 2996,
    "S-AH0-P-OW1-Z": 2997,
    "P-R-EH1-S-T": 2998,
    "P-R-AH0-P-OW1-Z-D": 2999,
    "P-R-AH0-D-UW1-S-ER0": 3000,
    "N-S-IY0": 3001,
    "N-EH1-T": 3002,
    "N-AH0-B-AH0-L": 3003,
    "M-IH1-N-IH0-@@": 3004,
    "HH-OW1-S-T-S": 3005,
    "G-R-OW1-TH": 3006,
    "F-AH1-NG-K-SH-AH0-N-Z": 3007,
    "D-IH0-S-P-L-EY1": 3008,
    "D-AY1": 3009,
    "AH1-NG-K-AH0-L": 3010,
    "-AO2-R@@": 3011,
    "Y-UW1-V": 3012,
    "W-EY1-T-IH0-NG": 3013,
    "R-IY1-JH-AH0-N-Z": 3014,
    "M-EY1-SH-AH0-N": 3015,
    "K-W-AO1-R-@@": 3016,
    "K-R-AW1-@@": 3017,
    "K-R-AH1-@@": 3018,
    "K-AH0-N-K-L-UW1-@@": 3019,
    "IH1-N-F-L-UW0-AH0-N-S-T": 3020,
    "EY1-ZH-AH0": 3021,
    "-AH0-N-D": 3022,
    "Z-AY1-@@": 3023,
    "W-UH1-D-AH0-N-T": 3024,
    "T-IY1-N": 3025,
    "S-UW2-@@": 3026,
    "R-IY2@@": 3027,
    "R-AH0-F-ER1-D": 3028,
    "P-AH0": 3029,
    "M-AH0-N-EY1-SH-AH0-N": 3030,
    "K-EH2-R-AH0-L-AY1-N-AH0": 3031,
    "IH0-M-P-L-OY1-@@": 3032,
    "F-AY1-T-IH0-NG": 3033,
    "F-AE1-S-T": 3034,
    "EH1-N-D-IH0-D": 3035,
    "B-ER1-TH": 3036,
    "AE1-N-AH0-M-AH0-L": 3037,
    "AE1-L-AH0-@@": 3038,
    "AE0-N-T-IH1-@@": 3039,
    "T-W-EH1-@@": 3040,
    "T-AA1-M": 3041,
    "S-K-AA1-R-@@": 3042,
    "S-IH2-CH-UW0-EY1-SH-AH0-N": 3043,
    "S-ER1-V-IH0-NG": 3044,
    "R-IY0-N-EY1-M-D": 3045,
    "P-L-EY1-L-IH1-S-T": 3046,
    "P-AO1-R-SH-AH0-N": 3047,
    "M-AE2-S-AH0-CH-UW1-S-AH0-T-S": 3048,
    "K-EH1-R-IY0-IH0-NG": 3049,
    "IH0-N-K-R-IY1-S-T": 3050,
    "F-R-AH1-@@": 3051,
    "AY1-DH-ER0": 3052,
    "AH0-K-AW1-N-T": 3053,
    "-IY0-AA1-L-AH0-JH-IY0": 3054,
    "S-K-AA1-T-L-AH0-N-D": 3055,
    "P-R-IH1-Z-AH0-N": 3056,
    "L-AY1-T-@@": 3057,
    "K-Y-UW0-@@": 3058,
    "K-W-AH0-@@": 3059,
    "JH-EH1-N-R-AH0-L": 3060,
    "HH-UW1-M": 3061,
    "F-AE1-N-Z": 3062,
    "D-IH0-L-IH1-@@": 3063,
    "AH0-V-OY1-D": 3064,
    "AH0-P-OW1-@@": 3065,
    "AH0-L-AW1-Z": 3066,
    "AH0-K-ER1-D": 3067,
    "AA1-R-M": 3068,
    "Z-IY1-L-AH0-N-D": 3069,
    "Y-AH0": 3070,
    "W-EY1-L-Z": 3071,
    "TH-AH0-N": 3072,
    "SH-AY1-@@": 3073,
    "S-P-IY1-K-IH0-NG": 3074,
    "S-K-AO1-R": 3075,
    "R-IH1-CH": 3076,
    "P-R-IH1-T-IY0": 3077,
    "L-M": 3078,
    "K-AE1-N-S-ER0": 3079,
    "F-EH1-R": 3080,
    "EH1-V-R-IY0-W-AH2-N": 3081,
    "EH1-D-W-ER0-D": 3082,
    "D-AH1-B-AH0-L": 3083,
    "CH-OY1-S": 3084,
    "B-EY1-S-IH0-K": 3085,
    "AY1-ER0-N": 3086,
    "AH0-G-EY1-N": 3087,
    "SH-OW1-IH0-NG": 3088,
    "S-P-IY1-@@": 3089,
    "S-M-AH0-N": 3090,
    "R-EH1-K-AH0-G-N-AY2-Z-D": 3091,
    "P-ER1": 3092,
    "N-JH-ER0": 3093,
    "M-AE0-@@": 3094,
    "K-R-AY1-D": 3095,
    "K-L-OW1-S-L-IY0": 3096,
    "K-L-EY1-M-Z": 3097,
    "K-AE0-@@": 3098,
    "HH-OW1-S-T": 3099,
    "G-R-AH0-F-IY0": 3100,
    "F-L-UW1-@@": 3101,
    "CH-EY1-N": 3102,
    "B-EH1-N-CH": 3103,
    "B-AO2-R-D": 3104,
    "AE1-M-@@": 3105,
    "W-AA1-CH-IH0-NG": 3106,
    "T-AY1-T-AH0-L-Z": 3107,
    "S-L-EY1-@@": 3108,
    "S-IY1-N-Y-ER0": 3109,
    "R-UW1-T-S": 3110,
    "OY1": 3111,
    "K-AA2-N-@@": 3112,
    "G-AH1-N": 3113,
    "EH2-R-IY0": 3114,
    "EH1-N-D-Z": 3115,
    "D-R-IH1-NG-K-IH0-NG": 3116,
    "AE0-K-T-IH1-V-IH0-T-IY0": 3117,
    "-AH0-L-AA1-JH-IH0-K-AH0-L": 3118,
    "Y-UW1-S-F-AH0-L": 3119,
    "L-IY0-AH0-N": 3120,
    "K-R-OW0-@@": 3121,
    "K-IH0-N": 3122,
    "K-EH1-R-IY0": 3123,
    "K-AE1-N-AA0-T": 3124,
    "HH-AW1-S-AH0-Z": 3125,
    "G-IH1-T-IH0-NG": 3126,
    "G-IH0-NG": 3127,
    "F-T-S": 3128,
    "F-AW1-N-D-ER0": 3129,
    "AH0-P-L-AY1-D": 3130,
    "AH0-M-EH1-R-AH0-K-AH0-N": 3131,
    "W-AO1-K-S": 3132,
    "V-IH2-@@": 3133,
    "TH-IY1-AH0-T-ER0-Z": 3134,
    "S-P-AA1-R-@@": 3135,
    "S-ER1-V-IH0-S-IH0-Z": 3136,
    "R-IH0-S": 3137,
    "R-EH1-D-IY0": 3138,
    "N-D-ER0-D": 3139,
    "M-OW0": 3140,
    "L-Y-AH0": 3141,
    "K-R-IH0-@@": 3142,
    "K-AO2-R-P-ER0-EY1-SH-AH0-N": 3143,
    "K-AH0-N-S-ER1-V-AH0-T-IH0-V": 3144,
    "K-AE1-N-AH0-@@": 3145,
    "IH0-S-K-EY1-P": 3146,
    "HH-AE2-@@": 3147,
    "F-OW1-K-AH0-S": 3148,
    "B-R-OW1-K": 3149,
    "B-AY1-S-IH0-K-AH0-L": 3150,
    "S-K-AH0": 3151,
    "R-EY1-N-JH@@": 3152,
    "R-AY1-D": 3153,
    "L-IY1-D-Z": 3154,
    "F-UH1-L-IY0": 3155,
    "F-AE1-K-T-ER0-IY0": 3156,
    "D-IH0-F-AY1-N-D": 3157,
    "D-AW1-N-T-AW1-N": 3158,
    "B-OW0": 3159,
    "AH0-D-@@": 3160,
    "-AE0-K": 3161,
    "Y-UW2-N-AH0-V-ER1-S-AH0-T-IY0-Z": 3162,
    "W-AY1-N": 3163,
    "T-AH0-N-D": 3164,
    "S-M-AY1-L-IH0-NG": 3165,
    "S-K-OW1-@@": 3166,
    "S-EY1-L-Z": 3167,
    "S-AO1-F-T": 3168,
    "P-OW1-AH0-T-R-IY0": 3169,
    "M-OW2-@@": 3170,
    "M-AA1-R-SH-AH0-L": 3171,
    "K-AH0-L-AE1-@@": 3172,
    "K-AA1-M-AH0-N-@@": 3173,
    "JH-IY1-N-AH0-S": 3174,
    "JH-AH1-M-P": 3175,
    "IH1-N-S-T-R-AH0-M-AH0-N-T-S": 3176,
    "F-IH1-F-T-IY0": 3177,
    "CH-AA1-@@": 3178,
    "Z-OW1-@@": 3179,
    "W-AH1-N-Z": 3180,
    "T-IH0-K-L-IY0": 3181,
    "P-R-AA1-D-AH0-K-T-S": 3182,
    "N-IH2-@@": 3183,
    "N-IH0-S": 3184,
    "L-IH1-S-T-IH0-D": 3185,
    "K-L-AO1-@@": 3186,
    "JH-AO1-R-@@": 3187,
    "IH0-K-S-@@": 3188,
    "F-IH1-R": 3189,
    "EH1-N-JH-AH0-N": 3190,
    "CH-AE1-N-AH0-L": 3191,
    "B-R-AH0": 3192,
    "B-AO1-R-D-ER0-Z": 3193,
    "AH0-S-P-EH1-SH-L-IY0": 3194,
    "AE0-D-M-IH2-N-IH0-S-T-R-EY1-SH-AH0-N": 3195,
    "Y-UW1-L": 3196,
    "T-ER0-IH0-NG": 3197,
    "S-AH1-B-S-AH0-K-W-AH0-N-T": 3198,
    "R-IH0-P-L-AY1-D": 3199,
    "N-Y-AH0-N-Z": 3200,
    "N-S-IH0-NG": 3201,
    "K-AO1-Z-D": 3202,
    "JH-IY1-N-Z": 3203,
    "IY1-V-N-IH0-NG": 3204,
    "IY1-T-IH0-NG": 3205,
    "IH0-K-S-T-EH1-N-S-IH0-V": 3206,
    "G-R-OW1": 3207,
    "G-R-AE1-N-D-@@": 3208,
    "F-IH1-K-SH-AH0-N": 3209,
    "AE1-V-AH0-N-UW2": 3210,
    "W-AA1-SH-IH0-NG-T-AH0-N": 3211,
    "TH-AE1-@@": 3212,
    "S-EH1-K-R-AH0-T-EH2-R-IY0": 3213,
    "S-AH1-B-ER0-B": 3214,
    "R-IY0-AH0-@@": 3215,
    "N-IH1-R-AH0-S-T": 3216,
    "N-EY1-B-ER0-HH-UH2-D": 3217,
    "M-P-T": 3218,
    "K-Y-AH0-L-ER0": 3219,
    "K-AH0-M-P-L-IY1-T-IH0-D": 3220,
    "IH0-N-IH1-SH-AH0-L": 3221,
    "HH-AE1-N-Z": 3222,
    "G-OW1-L-D-AH0-N": 3223,
    "F-EH1-R-IY0": 3224,
    "AH0-D-M-IH1-N-AH0-S-T-R-EY2-T-IH0-V": 3225,
    "AH0-D-IH1-SH-AH0-N-AH0-L": 3226,
    "AE2-F-T-ER0-N-UW1-N": 3227,
    "-AY2-Z-IH0-Z": 3228,
    "-AH0-L-IH0-NG": 3229,
    "W-ER0-D": 3230,
    "W-AA1-N-T-AH0-D": 3231,
    "T-UH1-@@": 3232,
    "T-ER1-N-Z": 3233,
    "S-T-EY1-T-IH0-D": 3234,
    "N-AE2-@@": 3235,
    "M-AY1-N": 3236,
    "HH-AE1-F-@@": 3237,
    "EH1-N-T-ER0-D": 3238,
    "D-IH1-N-ER0": 3239,
    "B-ER0-N": 3240,
    "AH0-T-EH1-@@": 3241,
    "AH0-P-R-OW1-@@": 3242,
    "AE1-K-T-R-AH0-S": 3243,
    "T-EH1-R-IH0-T-AO2-R-IY0": 3244,
    "OW1-N-ER0": 3245,
    "F-ER1": 3246,
    "D-IH0-S-EH1-N-T": 3247,
    "B-IY0-@@": 3248,
    "AH0-JH-EY1-S-AH0-N-T": 3249,
    "AH0-D-V-AE1-N-S-T": 3250,
    "V-IY0-AH0": 3251,
    "T-R-AE1-V-AH0-L": 3252,
    "T-ER0-IY0": 3253,
    "S-K-AY1": 3254,
    "S-AY2-AH0-N-T-IH1-F-IH0-K": 3255,
    "P-L-AE1-N-D": 3256,
    "NG-K-IH0-NG": 3257,
    "M-AH0-T-IH1-R-IY0-AH0-L-Z": 3258,
    "K-AH0-N-T-EH1-M-P-ER0-EH2-R-IY0": 3259,
    "JH-IH1-M": 3260,
    "HH-UW1-Z": 3261,
    "F-IH1-F-TH": 3262,
    "EY2-T-IH0-NG": 3263,
    "EH1-M-P-AY0-ER0": 3264,
    "EH1-JH": 3265,
    "D-EY2-L": 3266,
    "B-L-AE1-K-@@": 3267,
    "AH0-D-V-AE1-@@": 3268,
    "-EY2-L": 3269,
    "T-AH0-M": 3270,
    "SH-AH0-N-EH2-R-IY0": 3271,
    "S-T-AO1-R-@@": 3272,
    "S-AH0-P-AO1-R-T-AH0-D": 3273,
    "S-AH0-L-UW1-SH-AH0-N": 3274,
    "N-D-L@@": 3275,
    "N-AA1-V-AH0-L-Z": 3276,
    "M-IH1-N-AH0-T-S": 3277,
    "M-EH1-D-AH0-L": 3278,
    "M-AE1-G-@@": 3279,
    "K-T-IH0-@@": 3280,
    "K-R-AW1-N": 3281,
    "K-AO1-L-Z": 3282,
    "D-R-AY1-@@": 3283,
    "AO1-F-@@": 3284,
    "AH0-N-AW1-N-S-T": 3285,
    "AH0-G-EY1-N-S-T": 3286,
    "S-OW0": 3287,
    "S-L-IY1-P": 3288,
    "P-AW1-ER0-F-AH0-L": 3289,
    "N-IH0-S-T": 3290,
    "M-EY0-N-T-EY1-N-D": 3291,
    "L-IH1-S-AH0-N": 3292,
    "L-EY1-K-S": 3293,
    "K-AH0-N-T-EY1-N-D": 3294,
    "K-AH0-M-IH1-SH-AH0-N": 3295,
    "JH-OY1-N": 3296,
    "G-EH1-S-T": 3297,
    "F-IH0-K": 3298,
    "EH2-K-AH0-N-AA1-M-IH0-K": 3299,
    "D-R-AO1-N": 3300,
    "-ER0-AH0-S": 3301,
    "Z-AH0-N-Z": 3302,
    "S-AW2-TH-W-EH1-S-T": 3303,
    "P-R-EH1-Z-AH0-N-S": 3304,
    "P-R-AA0-@@": 3305,
    "N-EH1-S-AH0-S-EH2-R-IY0": 3306,
    "M-AA0-R-@@": 3307,
    "L-AY0-@@": 3308,
    "HH-OW1-M-Z": 3309,
    "HH-AW1-S-IH0-Z": 3310,
    "F-AE1-M-L-IY0-Z": 3311,
    "D-IY1-T-EY0-L-Z": 3312,
    "D-IH1-D-AH0-N-T": 3313,
    "D-AY0-R-EH1-@@": 3314,
    "B-L-AH1-@@": 3315,
    "AE2-P-L-AH0-K-EY1-SH-AH0-N-Z": 3316,
    "W-IH1-L-Y-AH0-M-Z": 3317,
    "V-Y-UW1-Z": 3318,
    "T-R-AH0-D-IH1-SH-AH0-N": 3319,
    "T-R-AE1-N-S-P-AO0-R-T": 3320,
    "S-T-EY1": 3321,
    "S-AE1-N-D": 3322,
    "M-AY1-K": 3323,
    "L-D-IH0-NG": 3324,
    "K-W-IH0-@@": 3325,
    "K-AO1-Z": 3326,
    "K-AH1-L-ER0-D": 3327,
    "IH0-N-V-AY1-R-AH0-N-M-AH0-N-T": 3328,
    "IH0-N-T-IH1-R-IY0-ER0": 3329,
    "IH0-N-IH1-@@": 3330,
    "F-L-AE1-T": 3331,
    "F-AH0-S-IH1-L-IH0-T-IY0": 3332,
    "D-ER0-EH1-K-T-L-IY0": 3333,
    "Z-AH0-M-Z": 3334,
    "W-IH1-N-D": 3335,
    "S-T-AH0-L": 3336,
    "S-AH1-M-W-AH1-T": 3337,
    "P-EH1-R-IH0-S": 3338,
    "L-EY1-N": 3339,
    "K-AA1-N-T-EH0-N-T": 3340,
    "G-R-EY1-D": 3341,
    "D-AE1-N-S-IH0-NG": 3342,
    "AH2-@@": 3343,
    "AH1-DH-ER0-W-AY2-Z": 3344,
    "AH0-S-P-EH1-SH-AH0-L-IY0": 3345,
    "AE2-K-AH0-D-EH1-M-IH0-K": 3346,
    "-ER0-AH0-L": 3347,
    "S-EH1-P-R-AH0-T": 3348,
    "S-AH0-V-IH1-@@": 3349,
    "P-AA1-P": 3350,
    "N-D-AH0-N": 3351,
    "M-EH1-D-AH0-K-AH0-L": 3352,
    "M-AE1-N-IH0-JH-M-AH0-N-T": 3353,
    "L-AE1-K": 3354,
    "K-AE1-P-CH-ER0-D": 3355,
    "F-IH1-L": 3356,
    "EH1-R-AH0": 3357,
    "D-IH1-S-T-R-IH0-K-T-S": 3358,
    "D-EH1-L-AH0-@@": 3359,
    "AE1-B-@@": 3360,
    "SH-ER1-@@": 3361,
    "R-OW1": 3362,
    "R-AO1-NG": 3363,
    "N-AH0-Z": 3364,
    "M-UH1-@@": 3365,
    "M-IH1-S-IH0-NG": 3366,
    "L-IH0-T": 3367,
    "IH0-N-T@@": 3368,
    "F-R-EH1-SH": 3369,
    "D-IH0-Z-IY1-Z": 3370,
    "CH-AE1-N-S": 3371,
    "-EH2-R-IH0-@@": 3372,
    "S-T-AY2-L": 3373,
    "R-UW1-L-Z": 3374,
    "P-R-AH0-M-OW1-@@": 3375,
    "P-L-IY1-@@": 3376,
    "P-L-EY1-S-IH0-Z": 3377,
    "P-EY1-P-ER0-Z": 3378,
    "P-ER1-P-AH0-S": 3379,
    "P-EH1-R": 3380,
    "N-AY1-S": 3381,
    "L-AY2-T": 3382,
    "K-OW1-L": 3383,
    "K-AH0-N-S-IH1-D-ER0": 3384,
    "JH-AH1-JH": 3385,
    "IH0-G-@@": 3386,
    "G-IH1-V-IH0-NG": 3387,
    "-AY2-D": 3388,
    "-AO1-R-Z": 3389,
    "W-ER2-@@": 3390,
    "T-R-EY1-N-D": 3391,
    "S-K-UW1-@@": 3392,
    "S-IY1-Z-AH0-N-Z": 3393,
    "S-IH0-K-S": 3394,
    "S-EH1-SH-AH0-N": 3395,
    "R-IY1-Z-AH0-N-Z": 3396,
    "R-IH0-S-P-AA1-N-S": 3397,
    "R-IH0-F-L-EH1-@@": 3398,
    "P-R-EH1-SH-ER0": 3399,
    "N-IH0-T-IY0": 3400,
    "M-EH1-N-@@": 3401,
    "M-AH0-TH": 3402,
    "M-AA1-R-K-S": 3403,
    "JH-IY2-AH0-@@": 3404,
    "IH0-M-P-R-UW1-@@": 3405,
    "F-AW1-N-D-AH0-D": 3406,
    "F-AO1-R-AH0-@@": 3407,
    "ER0-IH1-JH-N-AH0-L-IY0": 3408,
    "ER0-AY1-V-D": 3409,
    "D-UW0-@@": 3410,
    "CH-AE1-M-P-IY0-AH0-N-SH-IH2-P": 3411,
    "AY1-T-AH0-M-Z": 3412,
    "-ER0-AH0-B-AH0-L": 3413,
    "-AH0-N-IH1-@@": 3414,
    "V-IH1-Z-AH0-B-AH0-L": 3415,
    "S-K-W-AA1-@@": 3416,
    "S-K-R@@": 3417,
    "S-AA1-R-@@": 3418,
    "P-R-EY1-@@": 3419,
    "NG-G-AH0-@@": 3420,
    "N-OW1-T-S": 3421,
    "M-IY1-N-W-AY2-L": 3422,
    "L-M-AH0-N": 3423,
    "L-EH1-T-ER0-Z": 3424,
    "F-IY1-L-IH0-NG": 3425,
    "AO1-R-IH0-N-JH": 3426,
    "W-UH1-D-AH0-N": 3427,
    "S-AA1-R-IY0": 3428,
    "R-AA1-K-S": 3429,
    "P-EY1-N": 3430,
    "M-EY1-L-Z": 3431,
    "L-Y-AH0-N-Z": 3432,
    "L-OW2": 3433,
    "L-IH1-T-ER0-EH2-R-IY0": 3434,
    "L-AO0-@@": 3435,
    "K-OW0@@": 3436,
    "K-L-EY1-M": 3437,
    "IH1-N-D-AH0-S-T-R-IY0-Z": 3438,
    "IH1-M-IH0-JH": 3439,
    "G-R-EY1-T-AH0-S-T": 3440,
    "G-R-AE1-JH-UW0-EY2-T-IH0-D": 3441,
    "G-AH0-N-Z": 3442,
    "F-L-AE1-G": 3443,
    "D-AH1-CH": 3444,
    "B-IH1-L-@@": 3445,
    "B-AA1-B": 3446,
    "AE2-P-L-AH0-K-EY1-SH-AH0-N": 3447,
    "AE1-S-K-T": 3448,
    "W-AY1-L-D": 3449,
    "T-AO1-L": 3450,
    "S-UW1-P-ER0-@@": 3451,
    "S-P-AA1-T": 3452,
    "S-EH1-L-IH0-NG": 3453,
    "R-IY0-S-T-R-IH1-@@": 3454,
    "N-AY2-T": 3455,
    "M-IH0-K-S": 3456,
    "K-AA1-R-D-Z": 3457,
    "K-AA1-R-D": 3458,
    "JH-IY1-V-Z": 3459,
    "JH-AH1-S-T-AH0-S": 3460,
    "IH2-N-D-AH0-V-IH1-JH-AH0-W-AH0-L-Z": 3461,
    "HH-AE1-M-@@": 3462,
    "F-AH0-L-IY0": 3463,
    "CH-ER1-@@": 3464,
    "CH-EH1-K": 3465,
    "B-EH1-D": 3466,
    "AO1-R-D-ER0-D": 3467,
    "AO0-L-T-ER1-N-AH0-T-IH0-V": 3468,
    "AH2-N-AH0-@@": 3469,
    "-Z": 3470,
    "-EY2-T-ER0-Z": 3471,
    "W-IY1-K-L-IY0": 3472,
    "W-ER1-TH": 3473,
    "W-EH0-@@": 3474,
    "W-AO1-R-N": 3475,
    "T-R-UW1-TH": 3476,
    "T-R-IH1-P": 3477,
    "SH-EH1-R": 3478,
    "S-T-R-IY1-M": 3479,
    "S-T-AO1-R-M": 3480,
    "S-IH1-N-AH0-@@": 3481,
    "S-AE1-T": 3482,
    "P-T-IH0-D": 3483,
    "M-UW1-N": 3484,
    "M-IH1-SH-IH0-G-AH0-N": 3485,
    "K-W-EH1-S-CH-AH0-N-Z": 3486,
    "JH-IY0-AA1-@@": 3487,
    "HH-EH1-D-@@": 3488,
    "G-AH0-N@@": 3489,
    "EH1-M-@@": 3490,
    "D-IH0-F-IY1-T-IH0-D": 3491,
    "CH-AE1-M-P-IY0-AH0-N": 3492,
    "B-L-IH1-@@": 3493,
    "B-IY2-@@": 3494,
    "AO2-@@": 3495,
    "AO1-F-AH0-S-ER0-Z": 3496,
    "AH0-D-AE1-@@": 3497,
    "-AO1-R-AH0-@@": 3498,
    "V-AE2-@@": 3499,
    "SH-IY0-@@": 3500,
    "SH-EH1-L-@@": 3501,
    "S-OW1-V-IY0-AH0-T": 3502,
    "S-EY1-F-T-IY0": 3503,
    "P-L-AE1-T-F-AO2-R-M-Z": 3504,
    "OW2-V-ER0-@@": 3505,
    "K-ER0-IH1-@@": 3506,
    "JH-AO1-R-JH-AH0": 3507,
    "IH0-N-D-IY1-D": 3508,
    "IH0-M-P-R-UW1-V-D": 3509,
    "DH-EH0-R-AE1-F-T-ER0": 3510,
    "D-IH0-Z-AY1-N-Z": 3511,
    "W-EH1-S-T-@@": 3512,
    "T-EH1-R-AH0-@@": 3513,
    "S-T-AH0-T-IH1-S-T-IH0-K-AH0-L": 3514,
    "S-EH1-T-S": 3515,
    "R-AH1-SH-AH0": 3516,
    "P-R-IY2-@@": 3517,
    "P-R-EH1-Z-AH0-D-EH2-N-T": 3518,
    "P-R-AY1-S": 3519,
    "M-IH1-L-IH0-T-EH2-R-IY0": 3520,
    "L-OW0-Z": 3521,
    "K-W-IY1-@@": 3522,
    "F-AO1-R-M-AH0-L": 3523,
    "F-AO1-R-M-AE2-T": 3524,
    "F-AH0-L-AA1-S-AH0-F-IY0": 3525,
    "D-R-AO1-@@": 3526,
    "D-R-AA1-@@": 3527,
    "D-IH0-S-EH1-@@": 3528,
    "AO2-R-G-AH0-N-AH0-Z-EY1-SH-AH0-N-Z": 3529,
    "AH0-P-IH1-R-AH0-N-S-AH0-Z": 3530,
    "-IY0-AH0-M": 3531,
    "-AW0-@@": 3532,
    "-AH0-N-EH1-@@": 3533,
    "W-UH1-D-@@": 3534,
    "W-IH1-M-AH0-N-Z": 3535,
    "T-EH1-K-N-IH0-K-AH0-L": 3536,
    "S-P-EH2-@@": 3537,
    "S-ER0-V-AY1-@@": 3538,
    "S-AH0-G-N-IH1-F-IH0-K-AH0-N-T": 3539,
    "K-AH0-N-EH1-K-T-IH0-D": 3540,
    "G-L-AO1-@@": 3541,
    "EH1-F-ER0-T-S": 3542,
    "D-IH0-NG-Z": 3543,
    "AH0-S-EH1-M-B-L-IY0": 3544,
    "0@@": 3545,
    "T-IY1-CH-IH0-NG": 3546,
    "S-IH1-S-T@@": 3547,
    "N-EH1-G-AH0-T-IH0-V": 3548,
    "M-EH1-L-@@": 3549,
    "M-EH1-D-AH0-S-AH0-N": 3550,
    "M-AE1-S": 3551,
    "L-T-IY0-Z": 3552,
    "L-AH0-T-S": 3553,
    "D-AE1-M": 3554,
    "AE2-L-AH0-@@": 3555,
    "-IH0-Z": 3556,
    "V-AH0-S": 3557,
    "T-IH0-S": 3558,
    "T-EH1-M-P@@": 3559,
    "S-W-IY1-T": 3560,
    "S-T-R-AO1-@@": 3561,
    "S-P-R@@": 3562,
    "S-L-IY1-@@": 3563,
    "R-IY1-CH": 3564,
    "NG-K-ER0": 3565,
    "NG-ER0": 3566,
    "N-UW0-@@": 3567,
    "N-EH2-@@": 3568,
    "F-L-AO1-R-AH0-D-AH0": 3569,
    "F-AO1-R-D": 3570,
    "F-AA1-R-M-IH0-NG": 3571,
    "EY0-@@": 3572,
    "EH0-N-G-EY1-JH-D": 3573,
    "AY0-D-IY1-AH0-Z": 3574,
    "AH0-M-AW1-N-T": 3575,
    "AE1-D-V-AH0-@@": 3576,
    "AE1-D-@@": 3577,
    "W-AO2-T-ER0": 3578,
    "V-IH0-K-T-AO1-R-IY0-AH0": 3579,
    "S-K-R-IY1-N": 3580,
    "S-K-OW0": 3581,
    "S-K-ER1-@@": 3582,
    "S-AO1-F-T-W-EH2-R": 3583,
    "R-IH1-S-K": 3584,
    "R-ER0-Z": 3585,
    "R-EH1-R-L-IY0": 3586,
    "P-R-AE1-K-T-IH0-S": 3587,
    "L-OW0-K-EY1-SH-AH0-N-Z": 3588,
    "K-L-AE1-S-IH0-K": 3589,
    "K-AH0-N-V-IH1-@@": 3590,
    "JH-IH0-K": 3591,
    "JH-EH2-N-ER0-EY1-SH-AH0-N": 3592,
    "HH-AE1-P-AH0-N": 3593,
    "F-UW1-@@": 3594,
    "F-UH1-T-@@": 3595,
    "F-UH1-@@": 3596,
    "F-EH0-@@": 3597,
    "AH0-G-R-IY1-D": 3598,
    "-OW1-Z": 3599,
    "-AH0-N-AH0-L": 3600,
    "T-OW1-N": 3601,
    "T-EH0-K-N-IY1-K-S": 3602,
    "S-T-UW1-D-IY0-OW2-Z": 3603,
    "S-T-AO1-R-Z": 3604,
    "S-OW0-@@": 3605,
    "R-IY0-V-Y-UW1-Z": 3606,
    "M-AY1-L-Z": 3607,
    "L-IH1-M-AH0-T-AH0-D": 3608,
    "L-IH0-NG-T-AH0-N": 3609,
    "IH1-N-AH0-@@": 3610,
    "IH1-L-AH0-S-T-R@@": 3611,
    "IH0-K-S-P-EH1-@@": 3612,
    "IH0-K-S-P-AE1-@@": 3613,
    "G-OW1-IH0-N": 3614,
    "F-OW1-K": 3615,
    "F-AH0-S-IH1-L-AH0-T-IY0-Z": 3616,
    "B-L-AA1-K": 3617,
    "AH0-L-Z": 3618,
    "AA1-K-S-F-ER0-D": 3619,
    "2-R@@": 3620,
    "-AY0": 3621,
    "-AH0-N-S-IY0-Z": 3622,
    "Y-UW1-N-AH0-T-S": 3623,
    "V-IH1-Z-AH0-@@": 3624,
    "V-AY1-AH0": 3625,
    "SH-OW1-D": 3626,
    "S-T-R-AH0-@@": 3627,
    "S-T-EH1-P": 3628,
    "S-EY1-IH0-NG": 3629,
    "R-UW0-@@": 3630,
    "R-IY0-AH0-M": 3631,
    "P-AH0-Z-EH1-@@": 3632,
    "M-IH1-R": 3633,
    "M-IH1-L-K": 3634,
    "L-EH2-@@": 3635,
    "K-S-IH0-Z": 3636,
    "K-AA1-N-T@@": 3637,
    "IH0-L-IH1-@@": 3638,
    "G-W@@": 3639,
    "G-ER0-Z": 3640,
    "G-AH0-S": 3641,
    "F-L-IY0": 3642,
    "EH1-D-@@": 3643,
    "D-EH2-M-AH0-K-R-AE1-T-IH0-K": 3644,
    "B-AE1-NG-K-S": 3645,
    "AO1-R-G-AH0-N-AY2-Z-D": 3646,
    "Z-ER0-@@": 3647,
    "Y-EH1-@@": 3648,
    "S-K-R-AE1-@@": 3649,
    "S-IH1-D-N-IY0": 3650,
    "M-ER1-D-ER0": 3651,
    "M-AE1-N-@@": 3652,
    "M-AA1-R-CH": 3653,
    "K-R-OW1-@@": 3654,
    "HH-IY1-T": 3655,
    "HH-AY0-@@": 3656,
    "B-R-UH1-@@": 3657,
    "AA1-R-K-AH0-T-EH2-K-CH-ER0": 3658,
    "V-AH0-N-Z": 3659,
    "T-R-UW1-P-S": 3660,
    "T-OW1-N-IY0": 3661,
    "S-EH1-K-SH-AH0-N-Z": 3662,
    "R-IY0-P-AH1-B-L-IH0-K": 3663,
    "R-IH0-F-Y-UW1-Z-D": 3664,
    "R-EH2-K-AH0-M-EH1-@@": 3665,
    "M-OW1-D": 3666,
    "M-EH1-R-IH0-@@": 3667,
    "M-AE1-N-IH0-JH-ER0": 3668,
    "L-EH1-NG-K-TH": 3669,
    "JH-OY1-@@": 3670,
    "IH0-N-S-P-AY1-ER0-D": 3671,
    "B-R-AE1-N-D": 3672,
    "B-IH0-K-AH1-M-IH0-NG": 3673,
    "AH0-S-IH1-S-T-AH0-N-T": 3674,
    "AH0-K-S-EH1-P-T-AH0-D": 3675,
    "AH0-B-JH-EH1-@@": 3676,
    "AE2-G-R-AH0-K-AH1-L-CH-ER0-AH0-L": 3677,
    "AA1-B-JH-EH0-K-T": 3678,
    "Z-EY1-@@": 3679,
    "T-W-EH2-N-IY0-@@": 3680,
    "S-T-R-EY1-N-JH": 3681,
    "S-T-R-AH1-K": 3682,
    "S-T-R-AH1-@@": 3683,
    "S-L-OW1-L-IY0": 3684,
    "S-IH1-R-IY0-AH0-S": 3685,
    "S-ER0-AW1-N-D-AH0-D": 3686,
    "S-AA1-L-AH0-@@": 3687,
    "R-IY0-AE1-K-SH-AH0-N": 3688,
    "M-IH1-L-@@": 3689,
    "L-AY2-K": 3690,
    "K-L-AA1-@@": 3691,
    "K-AH2-P": 3692,
    "K-AH0-M-P-EH1-@@": 3693,
    "IH0-K-S-P-L-OW1-@@": 3694,
    "HH-OW1-L-IY0": 3695,
    "G-R-EY1-T-L-IY0": 3696,
    "F-R-AH0-@@": 3697,
    "F-IH1-G-Y-ER0-Z": 3698,
    "EH1-L": 3699,
    "D-EY1-SH-AH0-N": 3700,
    "B-R-IH1-NG": 3701,
    "B-IH0-G-IH1-N": 3702,
    "AY2-@@": 3703,
    "AH1-L-T-AH0-M-AH0-T-L-IY0": 3704,
    "AA1-R-T-IH0-S-T": 3705,
    "-ER0-AY2-Z-D": 3706,
    "W-AH1-T-S": 3707,
    "TH-AH1-@@": 3708,
    "T-AH0-L-IY0": 3709,
    "SH-AO1-R-T-S": 3710,
    "S-K-AY1-@@": 3711,
    "S-IH1-NG-G-AH0-L-Z": 3712,
    "S-AH0-M": 3713,
    "P-AE1-K-IH0-@@": 3714,
    "N-OW1-B-AH0-D-IY0": 3715,
    "N-IH0-K-AH0-L": 3716,
    "N-AH0-M-IY0": 3717,
    "K-IH1-NG-@@": 3718,
    "K-AH0-N-EH1-K-SH-AH0-N": 3719,
    "K-AH0-M": 3720,
    "IH1-N-S-AH0-D-AH0-N-T": 3721,
    "F-L-AA1-@@": 3722,
    "EH1-M-P-ER0-ER0": 3723,
    "D-R-AY1-V-ER0": 3724,
    "B-IH1-Z-IY0": 3725,
    "B-AY2-@@": 3726,
    "AH0-CH-IY1-V-D": 3727,
    "AE1-S-K": 3728,
    "W-IH1-N-IH0-NG": 3729,
    "T-AH0-W-AO1-R-D-Z": 3730,
    "S-P-OW1-K-AH0-N": 3731,
    "S-P-AH0-S-IH1-F-IH0-K": 3732,
    "S-IH0-T-IY0": 3733,
    "S-EY1-V": 3734,
    "R-IY0-ER0-Z": 3735,
    "R-EH2-V-AH0-L-UW1-SH-AH0-N": 3736,
    "P-AE1-S-AH0-N-JH-ER0": 3737,
    "NG-G-AH0": 3738,
    "M-IH1-N-AH0-T": 3739,
    "JH-UW0-@@": 3740,
    "IH1-N-D@@": 3741,
    "HH-AW2-@@": 3742,
    "HH-AA1-R-B-ER0": 3743,
    "B-R-AO1-D-K-AE2-S-T": 3744,
    "AH0-T-IY0": 3745,
    "Z-IH1-SH-AH0-N": 3746,
    "W-IH1-N-ER0": 3747,
    "W-ER2-K": 3748,
    "W-ER1-L-D-Z": 3749,
    "W-EH1-R-@@": 3750,
    "UW1": 3751,
    "T-EY1-L-ER0": 3752,
    "T-EH1-R-IY0-AH0-N": 3753,
    "S-T-R-IY1-T-S": 3754,
    "S-EY1-L": 3755,
    "S-EH1-L-AH0-B-R@@": 3756,
    "P-IH1-K-CH-ER0-Z": 3757,
    "K-R-AO1-S-IH0-NG": 3758,
    "K-L-IY1-N": 3759,
    "JH-AE1-K-S-AH0-N": 3760,
    "HH-Y-UW1-JH": 3761,
    "HH-AO1-NG": 3762,
    "HH-AH1-N-D-ER0-D": 3763,
    "F-OW2-N": 3764,
    "F-L-AW1-ER0": 3765,
    "F-EY1-L-Y-ER0": 3766,
    "D-IH2-S-T-R-AH0-B-Y-UW1-SH-AH0-N": 3767,
    "D-IH0-N": 3768,
    "AE0-B-@@": 3769,
    "2": 3770,
    "Y-UW1-R": 3771,
    "Y-UW1-N-AH0-T": 3772,
    "V-OW1-T": 3773,
    "T-IH0-NG-Z": 3774,
    "T-EH0-K-N-IY1-K": 3775,
    "T-AE1-K-S": 3776,
    "SH-AH0-N-AH0-L-IY0": 3777,
    "S-T-EH1-R-Z": 3778,
    "S-ER1-K-AH0-L": 3779,
    "R-OW1-M": 3780,
    "P-R-OW1-G-R-AE2-M-IH0-NG": 3781,
    "P-IY1-K": 3782,
    "M-IH0-S-@@": 3783,
    "L-IH1-S-AH0-@@": 3784,
    "K-R-IH1-S": 3785,
    "K-IH1-NG-Z": 3786,
    "K-AA1-N-S-ER0-T": 3787,
    "JH-AH0-N-T": 3788,
    "IH1-N-S-T-R-AH0-M-AH0-N-T": 3789,
    "IH0-G-Z-IH1-S-T-S": 3790,
    "G-AO1-R-@@": 3791,
    "D-IH0-T-ER1-M-AH0-N-D": 3792,
    "B-Y-UW1-@@": 3793,
    "AH0-P-R-AA1-K-S-AH0-M-AH0-T-L-IY0": 3794,
    "-AH2-N": 3795,
    "Y-AA2-R-D": 3796,
    "S-P-IH1-R-IH0-@@": 3797,
    "R-IY0-L-EY1-SH-AH0-N-Z": 3798,
    "P-R-AA1-D-AH0-K-S": 3799,
    "P-AH0-N-@@": 3800,
    "OW2-N": 3801,
    "N-T-EH1-@@": 3802,
    "N-AH0-M-AH0-S": 3803,
    "M-IH1-L": 3804,
    "M-AY1-N-IH0-NG": 3805,
    "L-AY1-IH0-NG": 3806,
    "K-AH0-M-P-L-IY1-@@": 3807,
    "K-AH0-M-AE1-@@": 3808,
    "K-AE1-CH": 3809,
    "G-EH1-T-IH0-NG": 3810,
    "F-L-AY1-IH0-NG": 3811,
    "F-AA1-K-S": 3812,
    "CH-IH1-L-D-R-AH0-N-Z": 3813,
    "AW1-T-D-AO2-R": 3814,
    "T-AO1-R-IY0-AH0-L": 3815,
    "S-AH0-P-L-AY1": 3816,
    "R-IY2-V-Y-UW1": 3817,
    "R-AW1-T": 3818,
    "N-IH1-K-N-EY2-M": 3819,
    "K-R-EH1-D-AH0-@@": 3820,
    "K-L-OW1-S-AH0-S-T": 3821,
    "K-AA1-NG-G-R-AH0-S": 3822,
    "IH2-Z-AH0-M": 3823,
    "IH0-JH": 3824,
    "F-OW2-@@": 3825,
    "F-IH1-K-S-T": 3826,
    "D-EH1-Z-IH0-G-N-EY2-T-IH0-D": 3827,
    "AH0-L-AO1-NG-S-AY1-D": 3828,
    "AH0-B-AE1-N-D-AH0-N-D": 3829,
    "-AW2-T": 3830,
    "Y-UW1-Z-ER0-Z": 3831,
    "Y-UW0-Z": 3832,
    "Y-IY1-@@": 3833,
    "W-EH1-B": 3834,
    "V-IY1-AH0": 3835,
    "TH-AE1-NG-K": 3836,
    "T-UW0-@@": 3837,
    "T-AH0-S-T": 3838,
    "R-UW1-F": 3839,
    "P-ER0-EY1-SH-AH0-N": 3840,
    "P-AA1-Z-AH0-@@": 3841,
    "N-D-L-IY0": 3842,
    "N-CH-AH0-L": 3843,
    "M-Y-UW0-Z-IH1-SH-AH0-N-Z": 3844,
    "L-V-D": 3845,
    "K-W-EH1-S-CH-AH0-N": 3846,
    "IH2-N-D-IH0-P-EH1-N-D-AH0-N-S": 3847,
    "IH0-N-T-EH1-L-AH0-JH-AH0-N-S": 3848,
    "IH0-L-EH1-K-T-AH0-D": 3849,
    "F-AY1-L": 3850,
    "F-AW1-N-D-IH0-NG": 3851,
    "D-ER0-EH1-K-SH-AH0-N": 3852,
    "B-ER0-OW0": 3853,
    "AH0-N-AE1-L-AH0-S-AH0-S": 3854,
    "AA2-P-AH0-Z-IH1-SH-AH0-N": 3855,
    "-IH0-K-S": 3856,
    "V-IY1-IH0-K-AH0-L": 3857,
    "V-AH0-N@@": 3858,
    "S-T-R-AH1-K-CH-ER0-Z": 3859,
    "S-T-AA1-K": 3860,
    "S-P-R-IH1-NG": 3861,
    "S-EH1-N-T-ER0-Z": 3862,
    "R-IH0-P-AO1-R-T": 3863,
    "P-R-OW1-T-AH0-@@": 3864,
    "P-R-AA1-P-ER0-T-IY0-Z": 3865,
    "OW1-V-ER0-AO2-L": 3866,
    "M-EH1-N-SH-AH0-N": 3867,
    "K-L-IY1-@@": 3868,
    "K-EY1-M-B-R-IH0-JH": 3869,
    "K-AH0-N-AA1-T": 3870,
    "K-AA2-N-T-R-AH0-V-ER1-SH-AH0-L": 3871,
    "IH0-K-S-AY1-@@": 3872,
    "EH1-N-JH-AH0-N-Z": 3873,
    "D-AH1-K-SH-AH0-N": 3874,
    "B-AA1-K-@@": 3875,
    "W-IH0-N": 3876,
    "V-AY1-S": 3877,
    "T-UH1-R-IH2-Z-AH0-M": 3878,
    "T-R-IY1-T-IH0-D": 3879,
    "T-AH0-M-AA1-R-OW2": 3880,
    "R-IH0-M-EY1-N-IH0-NG": 3881,
    "P-SH-AH0-N-Z": 3882,
    "P-ER1-P-AH0-L": 3883,
    "N-IH0-SH": 3884,
    "M-OW1-B-AH0-L": 3885,
    "L-AE1-NG-G-W-AH0-JH": 3886,
    "K-T-AH0-@@": 3887,
    "K-R-IY1-M": 3888,
    "K-R-AO1-S-@@": 3889,
    "K-IH1-L": 3890,
    "K-AA1-N-F-R-AH0-N-S": 3891,
    "F-IY0-L-D": 3892,
    "F-EH2-@@": 3893,
    "F-AO1-R-K-AE2-S-T": 3894,
    "D-R-AO1": 3895,
    "D-IH1-JH-IH0-T-AH0-L": 3896,
    "D-IH0-T-ER1-@@": 3897,
    "B-R-IH1-K": 3898,
    "AH0-P-OW1-Z-D": 3899,
    "AA1-R-G-@@": 3900,
    "-UW2-Z": 3901,
    "T-R-AE1-N-S-@@": 3902,
    "T-ER2-@@": 3903,
    "S-K-EY1-L": 3904,
    "S-AH1-M-@@": 3905,
    "R-AY1-T-ER0-Z": 3906,
    "N-AA1-L-IH0-JH": 3907,
    "K-AH1-Z-AH0-N": 3908,
    "F-L-OW1-@@": 3909,
    "EH1-D-AH0-@@": 3910,
    "D-AH0-N-@@": 3911,
    "AE1-R-AH0-@@": 3912,
    "0": 3913,
    "-EY2-D": 3914,
    "-AH0-L-EY1-SH-AH0-N": 3915,
    "Y-AO1-R-@@": 3916,
    "W-EH1-T": 3917,
    "W-AA1-Z-AH0-N-T": 3918,
    "T-B@@": 3919,
    "SH-L@@": 3920,
    "S-EH1-T-IH0-NG": 3921,
    "R-EH1-D-@@": 3922,
    "R-AE1-NG-K": 3923,
    "OW1-K": 3924,
    "M-Y-UW0-N-IH1-S-AH0-P-AH0-L": 3925,
    "IH1-SH-UW0-D": 3926,
    "HH-EH1-D-K-W-AO2-R-T-ER0-Z": 3927,
    "ER0-AY1-@@": 3928,
    "EH1-N": 3929,
    "D-UH1-@@": 3930,
    "D-IH0-S-T-IH1-NG-K-T": 3931,
    "CH-ER0-D": 3932,
    "B-IH0-L-IY1-@@": 3933,
    "AO0-R-@@": 3934,
    "-AA2-P": 3935,
    "W-EY1-V": 3936,
    "T-R-AE1-V-AH0-L-D": 3937,
    "T-R-AA1-P-IH0-K-AH0-L": 3938,
    "T-EH1-N-D": 3939,
    "SH-IY1-Z": 3940,
    "S-P-EY1-N": 3941,
    "S-OW1-L-OW2": 3942,
    "S-L-OW1": 3943,
    "S-IH1-NG": 3944,
    "S-CH-AH0-N": 3945,
    "S-AH1-D-AH0-N-L-IY0": 3946,
    "R-EH2-P-R-IH0-Z-EH1-N-T-IH0-D": 3947,
    "N-EH2-V-ER0-DH-AH0-L-EH1-S": 3948,
    "N-AO1-R-TH-@@": 3949,
    "N-AH0-T-IY0": 3950,
    "M-B-AH0-@@": 3951,
    "JH-EH1-N-ER0-@@": 3952,
    "IH0-L-EH1-K-SH-AH0-N-Z": 3953,
    "G-R-EY1-SH-AH0-N": 3954,
    "F-AO0-R-M-EY1-SH-AH0-N": 3955,
    "EH2-N-T-ER0-T-EY1-N-M-AH0-N-T": 3956,
    "AH0-P-IH1-N-Y-AH0-N": 3957,
    "Y-UW1-N-AH0-@@": 3958,
    "W-AO1-R-M": 3959,
    "TH-AO1-R-@@": 3960,
    "T-UW0-D-EY1": 3961,
    "T-R-AE2-N-S-P-ER0-T-EY1-SH-AH0-N": 3962,
    "SH-UH1-@@": 3963,
    "SH-AO1-R-T-@@": 3964,
    "S-T-R-IY1-@@": 3965,
    "S-IH1-G-@@": 3966,
    "R-IY0-T-AY1-ER0-D": 3967,
    "P-L-IH1-@@": 3968,
    "N-IY0-AH0-M": 3969,
    "M-AH1-Z-L@@": 3970,
    "K-AW1-N-T@@": 3971,
    "K-AO2-R-AH0-S-P-AA1-@@": 3972,
    "IH1-N-F@@": 3973,
    "HH-EH1-R-AH0-@@": 3974,
    "HH-AW1-Z-IH0-NG": 3975,
    "EH1-N-T-R-AH0-N-S": 3976,
    "D-IH0-S-K-R-AY1-B-Z": 3977,
    "D-AW2-N": 3978,
    "D-AW1-T": 3979,
    "CH-UW0-AH0-L": 3980,
    "CH-OW1-Z-AH0-N": 3981,
    "B-R-EY1-N": 3982,
    "AO1-R-G-AH0-N@@": 3983,
    "-UH2-D": 3984,
    "ZH": 3985,
    "Z-ER1-@@": 3986,
    "Y-UW0": 3987,
    "W-IH1-NG-Z": 3988,
    "T-IH0-S-T": 3989,
    "S-T-IY1-V-AH0-N": 3990,
    "S-P-R-EH1-D": 3991,
    "S-OY1-L": 3992,
    "S-IY1-V-D": 3993,
    "P-OW0": 3994,
    "P-ER0-EY2-T": 3995,
    "P-AE1-K": 3996,
    "OW2@@": 3997,
    "NG-G-OW0": 3998,
    "M-OY1-@@": 3999,
    "M-IY0-AH0": 4000,
    "M-IH1-SH-AH0-N-Z": 4001,
    "L-EY1-SH-AH0-N": 4002,
    "L-ER1-N-D": 4003,
    "L-AA1-JH-IH0-K-AH0-L": 4004,
    "IH1-N-T-AH0-G-R@@": 4005,
    "HH-AA1-L-AH0-@@": 4006,
    "G-R-EY1-T-@@": 4007,
    "F-OW1-K-AH0-S-T": 4008,
    "D-IH0-N-AY1-D": 4009,
    "CH-UW1-Z": 4010,
    "B-IH0-HH-EY1-V-Y-ER0": 4011,
    "B-AO1-L-@@": 4012,
    "2@@": 4013,
    "-EH2-R-IY0-Z": 4014,
    "T-R-OW1-@@": 4015,
    "S-P-IH0-S-IH1-F-IH0-K": 4016,
    "S-OW1-L-JH-ER0-Z": 4017,
    "S-AY0-@@": 4018,
    "S-AH0-N-S": 4019,
    "R-IH0-S-IY1-@@": 4020,
    "P-AH0-Z-IH1-SH-AH0-N-Z": 4021,
    "OY2-@@": 4022,
    "K-UW0-@@": 4023,
    "K-IH0-N-Z": 4024,
    "IH0-NG-Z": 4025,
    "IH0-G-Z-IH1-S-T-AH0-N-S": 4026,
    "HH-EH1-D-K-AO2-R-T-ER0-Z": 4027,
    "G-R-OW1-N": 4028,
    "G-R-IY1-N-@@": 4029,
    "F-AY2-IH0-NG": 4030,
    "ER1-L-IY0-AH0-S-T": 4031,
    "AH0-B-Z-ER1-V-D": 4032,
    "-AO0-F": 4033,
    "S-T-AA1-R-D": 4034,
    "S-ER0-IY0": 4035,
    "R-EH2-P-Y-AH0-T-EY1-SH-AH0-N": 4036,
    "P-R-EH1-D-AH0-@@": 4037,
    "M-EH1-T-R-IH0-K": 4038,
    "M-AE2-N": 4039,
    "K-S-IH0-@@": 4040,
    "K-AH0-N-D-AH1-K-T-AH0-D": 4041,
    "IH2-N-T-ER1-D": 4042,
    "IH1-N-JH-ER0-IY0": 4043,
    "IH0-M-P-AO1-R-T-AH0-N-S": 4044,
    "G-R-IH0-@@": 4045,
    "G-R-AE1-N-@@": 4046,
    "F-AY1-N-D-Z": 4047,
    "EH1-M-F-AH0-@@": 4048,
    "EH1-K-S": 4049,
    "D-ER0-EH1-K-@@": 4050,
    "D-AE1-M-IH0-JH": 4051,
    "AH0-T-AE1-@@": 4052,
    "AH0-N-AW1-@@": 4053,
    "-IH0-K-AH0-L": 4054,
    "-EH2-D": 4055,
    "W-AO1-T-ER0-Z": 4056,
    "V-IH0-K": 4057,
    "T-EH1-L-Z": 4058,
    "S-IH1-S-T-ER0-Z": 4059,
    "S-EH1-M-IH0-T-EH2-R-IY0": 4060,
    "R-IH0-S-P-AA1-@@": 4061,
    "R-AY1-Z": 4062,
    "N-AH0-T-L-IY0": 4063,
    "N-AA1-M-AH0-N-EY2-T-AH0-D": 4064,
    "L-AY1-F-@@": 4065,
    "K-R-IH1-K-AH0-T": 4066,
    "K-L-AA1-R-K": 4067,
    "K-AA1-N-T-AE2-K-T": 4068,
    "K-AA1-N-S-AH0-@@": 4069,
    "K-AA1-M-AH0-D-IY0": 4070,
    "IH0-N-F-EH1-@@": 4071,
    "IH0-M-ER1-@@": 4072,
    "F-UH1-L-@@": 4073,
    "F-L-OW1": 4074,
    "F-IH1-L-IH0-P": 4075,
    "F-AE1-S-T-ER0": 4076,
    "D-S-AH0-N": 4077,
    "D-IH0-V-EH1-L-AH0-P": 4078,
    "B-Y-AH0-L@@": 4079,
    "AH0-D-V-AY1-@@": 4080,
    "AA1-R-T-AH0-K-AH0-L": 4081,
    "-AW0": 4082,
    "-AA2-R": 4083,
    "W-IH0-TH-@@": 4084,
    "T-IY1-N-EY2-@@": 4085,
    "S-P-ER0-@@": 4086,
    "S-ER1-V-IH0-S": 4087,
    "R-IH0-Z-EH1-@@": 4088,
    "R-EY1": 4089,
    "P-R-AE1-K-@@": 4090,
    "P-OW1-AH0-T": 4091,
    "P-L-AE1-N-IH0-NG": 4092,
    "M-EH1-N-T@@": 4093,
    "K-W-IH1-K": 4094,
    "K-L-AH0-N-D": 4095,
    "K-L-AH0-@@": 4096,
    "JH-AY1-@@": 4097,
    "IH1-N-JH-ER0-D": 4098,
    "HH-EH2-D": 4099,
    "HH-EH1-N-S": 4100,
    "HH-AH1-N-D-R-AH0-D": 4101,
    "EY1-JH-AH0-N-T": 4102,
    "EH1-S-T-AH0-@@": 4103,
    "EH1-N-AH0-M-IY0": 4104,
    "EH1-D-AH0-T-ER0": 4105,
    "EH0-K-@@": 4106,
    "D-EH0-@@": 4107,
    "D-AY0-@@": 4108,
    "B-AH0-L-@@": 4109,
    "AH0-T-R-AE1-@@": 4110,
    "AH0-T-EH1-N-D": 4111,
    "-AY2-AH0-@@": 4112,
    "-AA2-K": 4113,
    "T-R-AE0-N-S-L-EY1-T-IH0-D": 4114,
    "SH-AH0-Z": 4115,
    "S-IH1-K-S-TH": 4116,
    "P-ER0-AE1-@@": 4117,
    "P-EH2-R-AH0-@@": 4118,
    "N-UH1-@@": 4119,
    "N-OW2-@@": 4120,
    "N-AH0-N-T-S": 4121,
    "K-R-EH1-D-IH0-T-IH0-D": 4122,
    "K-R-AY1-@@": 4123,
    "K-AA1-N-T-R-AH0-V-ER2-S-IY0": 4124,
    "F-R-IY1-K-W@@": 4125,
    "F-EY1-S-T": 4126,
    "F-AY1-ER0-@@": 4127,
    "D-IH0-S-T-IH1-NG-G-W-IH0-SH-T": 4128,
    "D-AA1-T": 4129,
    "B-R-AO1-@@": 4130,
    "B-AH1-L-@@": 4131,
    "V-Y-UW1-@@": 4132,
    "T-EH2-N-AH0-S-IY1": 4133,
    "S-T-AE1-T-AH0-S": 4134,
    "S-L-AY1-@@": 4135,
    "S-K-AA1-T": 4136,
    "R-AY1-S": 4137,
    "P-AY1-L-AH0-T": 4138,
    "P-AA1-S-AH0-B-L-IY0": 4139,
    "N-IY1-L": 4140,
    "L-IY1-D-ER0-Z": 4141,
    "IH0-K-S-CH-EY1-N-JH": 4142,
    "IH0-G-Z-AE1-K-T-L-IY0": 4143,
    "EY1-CH": 4144,
    "D-IH0-V-AY1-S": 4145,
    "B-IH0-NG": 4146,
    "B-ER1-T-IY0": 4147,
    "AE1-N-AH0-M-EY2-T-IH0-D": 4148,
    "W-IY1-L": 4149,
    "V-IH1-Z-IH0-T-IH0-D": 4150,
    "V-AA0-L-@@": 4151,
    "S-T-R-AO1-NG-L-IY0": 4152,
    "S-T-AY1-L-Z": 4153,
    "S-T-AA1-R-T-IH0-NG": 4154,
    "S-IY1-N-Z": 4155,
    "R-IH0-D-UW1-S-T": 4156,
    "P-ER1-M-AH0-N-AH0-N-T": 4157,
    "N-UW1-Z-P-EY2-P-ER0-Z": 4158,
    "N-AH0-T-S": 4159,
    "M-IY2-@@": 4160,
    "M-ER0-IY1-N": 4161,
    "L-IY0-AH0": 4162,
    "L-IH0-T-IY0": 4163,
    "L-EH1-G-Z": 4164,
    "K-L-AY1-M-IH0-NG": 4165,
    "K-AH0-M-P-Y-UW1-@@": 4166,
    "K-AA1-M-IH0-K": 4167,
    "IH0-N-K-AO1-R-P-ER0-EY2-T-IH0-D": 4168,
    "IH0-K-S-P-EH1-N-S-IH0-V": 4169,
    "HH-AA0-@@": 4170,
    "G-UH1-D-Z": 4171,
    "F-ER1-M": 4172,
    "F-AH0-K-EY1-SH-AH0-N-Z": 4173,
    "AO1-T": 4174,
    "AH0-T-EH1-M-P-T-AH0-D": 4175,
    "Y-UH1-R-AH0-@@": 4176,
    "V-EH0-@@": 4177,
    "S-T-R-AH1-K-@@": 4178,
    "S-IY1-T-S": 4179,
    "S-EH2-T": 4180,
    "P-T-S": 4181,
    "NG-TH": 4182,
    "N-AH0-N-T": 4183,
    "M-AE2-TH-AH0-M-AE1-T-IH0-K-S": 4184,
    "K-OW1-L-@@": 4185,
    "K-L-OW1-DH-IH0-NG": 4186,
    "JH-ER1-N-AH0-L": 4187,
    "IH0-M-P-AA1-S-AH0-B-AH0-L": 4188,
    "IH0-L-EH1-K-T-R@@": 4189,
    "IH0-K-S-T-IH1-@@": 4190,
    "G-OW0-@@": 4191,
    "F-AO1-T": 4192,
    "D-IY0-AH0": 4193,
    "D-IH1-F-ER0-AH0-N-T": 4194,
    "D-IH0-V-EH1-L-AH0-@@": 4195,
    "D-ER0-EH1-K-T": 4196,
    "B-UH2-K": 4197,
    "-ER0-EY1-SH-AH0-N": 4198,
    "-ER0-AH0-L-Z": 4199,
    "Y-AH0-L@@": 4200,
    "W-UH1-L-@@": 4201,
    "W-EH1-R-Z": 4202,
    "SH-AW1-@@": 4203,
    "S-IY1-K-W@@": 4204,
    "S-AH0-G-JH-EH1-@@": 4205,
    "R-UW1-M-Z": 4206,
    "P-R-IY0-P-EH1-R-D": 4207,
    "P-R-AH0-M-OW1-T-AH0-D": 4208,
    "P-R-AA1-P-ER0": 4209,
    "N-IY0-AH0-S": 4210,
    "L-T-AH0-@@": 4211,
    "L-AO1-Z": 4212,
    "L-AH0-D": 4213,
    "K-L-EY1-@@": 4214,
    "HH-Y-UW1-M-AH0-N-Z": 4215,
    "EH1-L-D-ER0-L-IY0": 4216,
    "D-EY1-B-Y-UW0": 4217,
    "D-AH0-M-EH1-S-T-IH0-K": 4218,
    "CH-IY1-Z": 4219,
    "AA1-K-Y-AH0-P-AY2-D": 4220,
    "-R@@": 4221,
    "-OY1-@@": 4222,
    "-AO2-G": 4223,
    "V-IH1-L-IH0-JH-IH0-Z": 4224,
    "T-OY1": 4225,
    "T-AE0-@@": 4226,
    "S-T-AE1-CH-UW2": 4227,
    "S-EH1-R-AH0-M-OW2-N-IY0": 4228,
    "S-AH0-B-S-T-AE1-@@": 4229,
    "R-IH0-K-AO1-R-D-IH0-NG-Z": 4230,
    "R-IH0-K-AA1-R-D-OW0": 4231,
    "R-EH2-Z-IH0-D-EH1-N-CH-AH0-L": 4232,
    "N-T-IH0-JH": 4233,
    "N-EH0-@@": 4234,
    "N-AW1-@@": 4235,
    "L-IH1-NG-K": 4236,
    "K-AH0-N-T-R-OW1-L-D": 4237,
    "K-AH0-N-AE1-L": 4238,
    "G-R-AH1-@@": 4239,
    "F-EH1-D-ER0-AH0-L": 4240,
    "EY1-D": 4241,
    "D-IH0-Z-ER1-@@": 4242,
    "B-R-IH0-@@": 4243,
    "AH0-N-L-EH1-S": 4244,
    "-EH1-T-IH0-K": 4245,
    "W-EH1-D-IH0-NG": 4246,
    "V-M-AH0-N-T": 4247,
    "TH-R-OW1-N": 4248,
    "T-EH0-@@": 4249,
    "S-K-AO1-R-D": 4250,
    "R-IY0-T-ER1-N-D": 4251,
    "R-IY0-M-EY1-N-D": 4252,
    "P-R-AH0-F-ER1": 4253,
    "N-T-AE1-@@": 4254,
    "N-S-ER0-Z": 4255,
    "N-IH0-D": 4256,
    "N-EY1-B-ER0-IH0-NG": 4257,
    "M-EH1-R-AH0-L-AH0-N-D": 4258,
    "K-R-IH1-M-AH0-N-AH0-L": 4259,
    "K-R-AY1-M": 4260,
    "K-AH0-TH-IY1-D-R-AH0-L": 4261,
    "K-AH0-N-S-EH1-@@": 4262,
    "K-AE1-SH": 4263,
    "F-ER0-G-EH1-T": 4264,
    "F-EH1-R-L-IY0": 4265,
    "EH1-K-S-AH0-L-AH0-N-T": 4266,
    "EH0-N-G-EY1-@@": 4267,
    "D-EY0-@@": 4268,
    "CH-EY1-N-JH-IH0-NG": 4269,
    "B-IH1-R": 4270,
    "AH0-T-EH1-M-P-S": 4271,
    "AE1-N-D-R@@": 4272,
    "AA1-R-K-AH0-T-EH2-K-T": 4273,
    "-IH0-Z-EY1-SH-AH0-N": 4274,
    "-ER0-D-Z": 4275,
    "Z-AH0-T": 4276,
    "T-AY1": 4277,
    "T-AA1-R-@@": 4278,
    "S-T-IY1-V": 4279,
    "S-EH1-N-D": 4280,
    "S-AO1-T": 4281,
    "P-IY1-S-IH0-Z": 4282,
    "NG-K-AH0-@@": 4283,
    "M-IH2-N-IH0-S-OW1-T-AH0": 4284,
    "M-AA1-R-T-AH0-N": 4285,
    "L-D-ER0-Z": 4286,
    "K-AH0-M-Y-UW1-@@": 4287,
    "IH0-N-K-AO1-R-@@": 4288,
    "IH0-K-S-T-EH1-N-S-IH0-V-L-IY0": 4289,
    "F-R-AE0-N-S-IH1-S-K-OW0": 4290,
    "F-EY1-V-ER0": 4291,
    "F-AE1-N": 4292,
    "EY2-@@": 4293,
    "ER0-EY1-N-JH-D": 4294,
    "D-IY1-N": 4295,
    "D-IH1-F-R-AH0-N-S": 4296,
    "AH0-N-Z": 4297,
    "AH0-N-Y-UW1-ZH-UW2-AH0-L": 4298,
    "ZH-@@": 4299,
    "W-ER1-L-D-W-AY1-D": 4300,
    "T-ER1-N-AH0-L": 4301,
    "SH-EH1-R-D": 4302,
    "S-IY1-L-Y-AH0": 4303,
    "S-IH1-G-N-AH0-L": 4304,
    "S-EY1-SH-AH0-N": 4305,
    "S-EY1-F": 4306,
    "P-AW1-ER0-Z": 4307,
    "K-AO1-NG": 4308,
    "K-AH0-N-S-IH1-D-ER0-AH0-B-AH0-L": 4309,
    "G-AA1-R-D": 4310,
    "D-IH2-S-AH0-@@": 4311,
    "D-IH0-R-EH1-@@": 4312,
    "D-AA0-@@": 4313,
    "B-R-EH1-D": 4314,
    "B-ER0-Z": 4315,
    "B-ER0-L-IH1-N": 4316,
    "AH0-T-AE1-CH-T": 4317,
    "AE0-K-S-EH1-@@": 4318,
    "-EY0-T": 4319,
    "Z-B-ER0-G": 4320,
    "Z-AH0-B-AH0-L": 4321,
    "W-EH2-L": 4322,
    "V-Y-UW2": 4323,
    "V-IH1-K-T-ER0-IY0": 4324,
    "T-ER1-M-AH0-N-AH0-L": 4325,
    "SH-AH0-N-@@": 4326,
    "S-IH0-G-N-IH1-F-IH0-K-AH0-N-T-L-IY0": 4327,
    "S-EH1-K-SH-UW0-AH0-L": 4328,
    "R-AH0-K-AO1-R-D-IH0-NG": 4329,
    "P-AO2-R-T": 4330,
    "P-AA1-R-T-N-ER0": 4331,
    "N-IY1-DH-ER0": 4332,
    "N-IH0-SH-T": 4333,
    "N-D-IH0-NG-Z": 4334,
    "N-AA1-R-@@": 4335,
    "M-EH2-T-AH0-@@": 4336,
    "M-EH2-D-AH0-@@": 4337,
    "M-AH0-Z-UH1-R-IY0": 4338,
    "K-AO1-R-T-S": 4339,
    "G-AY1-Z": 4340,
    "F-R-AO1-@@": 4341,
    "F-AH1-N": 4342,
    "CH-EH1-S": 4343,
    "B-AE1-G": 4344,
    "B-AA1-S-T-AH0-N": 4345,
    "AH1-N-D-ER0-G-R-AW2-N-D": 4346,
    "AH0-D-IH1-SH-N-AH0-L": 4347,
    "AE1-N-@@": 4348,
    "AA0-N-ER0": 4349,
    "V-IH0-N": 4350,
    "V-AA0-@@": 4351,
    "SH-EY1-P-T": 4352,
    "S-T-AE2-N": 4353,
    "S-EH1-K-AH0-N-@@": 4354,
    "S-AH1-N-@@": 4355,
    "S-AH1-L-@@": 4356,
    "R-AE1-P-AH0-D-L-IY0": 4357,
    "P-ER2-@@": 4358,
    "OW0-L-IH1-M-P-IH0-K": 4359,
    "N-T-ER0-Z": 4360,
    "N-OY1-Z": 4361,
    "N-JH-AH0-@@": 4362,
    "N-EY1-V-AH0-L": 4363,
    "N-D-OW0": 4364,
    "N-AY1-T-S": 4365,
    "N-AH0-N-@@": 4366,
    "L-AA1-T-S": 4367,
    "K-OY1-@@": 4368,
    "K-ER1-N-AH0-L": 4369,
    "JH-IY0-Z": 4370,
    "IH2-L-AH0-N-OY1": 4371,
    "IH0-K-S-K-L-UW1-@@": 4372,
    "G-L-AE1-D": 4373,
    "ER1-L": 4374,
    "EH1-P-AH0-S-OW2-D-Z": 4375,
    "D-UW1-K": 4376,
    "B-L-AA1-N-D": 4377,
    "AE2-B-S-AH0-L-UW1-T-L-IY0": 4378,
    "AE1-N-D-R-UW0": 4379,
    "AE1-F-R-AH0-K-AH0-N": 4380,
    "-AO2-L": 4381,
    "-AH2-P": 4382,
    "Y-UW2-Z": 4383,
    "W-IH1-L-S-AH0-N": 4384,
    "TH-IH1-NG-K-IH0-NG": 4385,
    "T-ER0-AA1-N-T-OW0": 4386,
    "S-K-IH1-L-Z": 4387,
    "R-AH0-V-Y-UW1-Z": 4388,
    "P-ER1-CH-AH0-S-T": 4389,
    "M-OW1-T-ER0-@@": 4390,
    "M-IH1-L-Y-AH0-N": 4391,
    "M-AE1-S-T-ER0-Z": 4392,
    "K-ER0-EH1-K-T": 4393,
    "JH-UW1-N": 4394,
    "IH2-N-ER0-N-AE1-SH-AH0-N-AH0-L": 4395,
    "IH0-M-P-IH1-R-IY0-AH0-L": 4396,
    "G-L-EH1-@@": 4397,
    "F-T-IH0-D": 4398,
    "F-IH1-L-M-D": 4399,
    "F-AW1-N-D-IH0-D": 4400,
    "ER0-IY0": 4401,
    "EH1-F-ER0-T": 4402,
    "D-ER0-EH1-K-T-IH0-D": 4403,
    "CH-AH1-@@": 4404,
    "B-R-OW1-@@": 4405,
    "AH0-W-AO1-R-D-AH0-D": 4406,
    "AH0-P-AA1-R-T": 4407,
    "AE1-N-S-ER0-D": 4408,
    "AE1-K-S-AH0-D-AH0-N-T": 4409,
    "AA1-L-AH0-@@": 4410,
    "-D": 4411,
    "-AA2-R-Z": 4412,
    "Y-IH1-@@": 4413,
    "W-IH1-NG": 4414,
    "T-AE1-NG-K": 4415,
    "S-W-EH1-@@": 4416,
    "S-K-AH1-@@": 4417,
    "S-IY1-IH0-NG": 4418,
    "S-ER1-JH-ER0-IY0": 4419,
    "S-AE1-N-T-AH0": 4420,
    "R-IH0-P-AO1-R-@@": 4421,
    "P-R-AH0-V-IH1-N-SH-AH0-L": 4422,
    "P-IH2-@@": 4423,
    "M-AO0-@@": 4424,
    "M-AH0-SH-IY1-N-Z": 4425,
    "L-AO1-N-CH-T": 4426,
    "K-W-OW1-@@": 4427,
    "JH-EH1-N-ER0@@": 4428,
    "IY1-T-AH0-N": 4429,
    "G-OW2": 4430,
    "G-L-OW1-@@": 4431,
    "F-IH1-T": 4432,
    "EH2-L-AH0-M-EH1-N-T-R-IY0": 4433,
    "D-R-AA1-M-AH0": 4434,
    "D-IH1-S-K": 4435,
    "D-IH1-K-@@": 4436,
    "D-IH0-S-T-R-IH1-B-Y-AH0-T-AH0-D": 4437,
    "CH-AA1-R-L-IY0": 4438,
    "AO2-T-AH0-@@": 4439,
    "AH0-CH-IY1-@@": 4440,
    "-EY2@@": 4441,
    "-AO1-NG": 4442,
    "V-EH2-R-IY0-EY1-SH-AH0-N-Z": 4443,
    "V-EH1-R-IY0-Z": 4444,
    "T-AY1-M-@@": 4445,
    "T-AE1-S-K": 4446,
    "T-AA2-P": 4447,
    "S-UW1-D": 4448,
    "S-IY1-D-Z": 4449,
    "S-ER1-T-AH0-N-L-IY0": 4450,
    "R-AH0-N-T": 4451,
    "P-R-AH0-JH-EH1-@@": 4452,
    "P-AO0-R-@@": 4453,
    "P-AA1-P-Y-AH0-L@@": 4454,
    "N-T-AH0": 4455,
    "M-IY0-Z": 4456,
    "M-IH1-S-IH0-Z": 4457,
    "M-AE1-N-CH-EH2-S-T-ER0": 4458,
    "K-S-IH0-NG": 4459,
    "K-AA2-M-P-AH0-Z-IH1-SH-AH0-N": 4460,
    "JH-EH1-N-R-AH0-L-IY0": 4461,
    "JH-AH0-N-Z": 4462,
    "IH1-M-AH0-@@": 4463,
    "G-EY1-T": 4464,
    "F-AO1-R-AH0-S-T-S": 4465,
    "D-ER1-T": 4466,
    "D-ER0-D": 4467,
    "D-AH0-N-T-S": 4468,
    "B-R-AY1-AH0-N": 4469,
    "AO1-F@@": 4470,
    "Y-UH0-R-S-EH1-L-F": 4471,
    "SH-UW1-Z": 4472,
    "SH-UH1-G-ER0": 4473,
    "S-T-IH0-K-S": 4474,
    "S-T-EH1-P-S": 4475,
    "S-P-R-IH1-NG-Z": 4476,
    "S-P-EH1-K-@@": 4477,
    "R-IH0-V-AY1-@@": 4478,
    "R-IH0-P-EH1-@@": 4479,
    "R-AH0-T": 4480,
    "P-EH1-N-AH0-@@": 4481,
    "P-AA1-R-K-IH0-NG": 4482,
    "NG-R@@": 4483,
    "N-T-R-AH0-@@": 4484,
    "N-S-IH0-V": 4485,
    "N-D-AH0-N-S": 4486,
    "N-AH0-D": 4487,
    "M-EH1-R-AH0-K-AH0-N": 4488,
    "L-AY1-S-AH0-N-S": 4489,
    "L-AH0-N-Z": 4490,
    "K-W-EY1-@@": 4491,
    "K-W-AY1-AH0-T": 4492,
    "K-L-AE2-S": 4493,
    "K-EH1-M-IH0-@@": 4494,
    "K-AH0-N-S-UW1-@@": 4495,
    "K-AH0-M-P-EH1-R-D": 4496,
    "JH-IY1": 4497,
    "JH-AH0-S": 4498,
    "HH-EH0-@@": 4499,
    "F-R-IY1-D-AH0-M": 4500,
    "EH1-L-AH0-M-AH0-N-T": 4501,
    "D-IY0-AH0-M": 4502,
    "CH-UW0@@": 4503,
    "CH-AA1-R-JH-D": 4504,
    "AW0-@@": 4505,
    "AH0-HH-EH1-D": 4506,
    "AA1-P-AH0-Z-AH0-T": 4507,
    "ZH-ER0": 4508,
    "Z-IY0-@@": 4509,
    "V-OW0-@@": 4510,
    "V-IH1-Z-IH0-T": 4511,
    "V-IH1-K-@@": 4512,
    "V-AE1-L-Y-UW0-Z": 4513,
    "T-UW1-L-Z": 4514,
    "T-R-AH0": 4515,
    "T-EH1-N-AH0-S": 4516,
    "T-AH0-N-AY1-T": 4517,
    "S-K-IH1-N": 4518,
    "S-AY1-K-AH0-L": 4519,
    "S-AW2-@@": 4520,
    "S-AH0-V-IH1-R": 4521,
    "R-EH0-@@": 4522,
    "P-ER1-P-AH0-S-AH0-Z": 4523,
    "N-AY1-T-@@": 4524,
    "N-AO2-R-@@": 4525,
    "M-IY1-L": 4526,
    "M-EH1-N-T-ER0-IY0": 4527,
    "M-AE1-S-K-AA2-T": 4528,
    "M-AE1-N-IH0-@@": 4529,
    "L-IH0-SH": 4530,
    "L-AA1": 4531,
    "K-R-AO1-S-T": 4532,
    "K-EY1-SH-AH0-N-Z": 4533,
    "K-AA1-NG-@@": 4534,
    "IH1-N-T-ER0-AH0-@@": 4535,
    "G-L-IH1-@@": 4536,
    "G-L-EY1-@@": 4537,
    "G-L-AH1-@@": 4538,
    "G-AA1-R-D-AH0-N-Z": 4539,
    "F-IH0-NG": 4540,
    "D-R-AH0-@@": 4541,
    "B-L-AY1-@@": 4542,
    "B-IY0-AH0-N": 4543,
    "AH0-V-OY1-@@": 4544,
    "AH0-B-IH1-L-AH0-T-IY0": 4545,
    "AE1-V-R@@": 4546,
    "AE1-K-T-ER0-Z": 4547,
    "ZH-AH0": 4548,
    "W-OW1-@@": 4549,
    "T-IY1-TH": 4550,
    "T-EH1-S-T-IH0-NG": 4551,
    "SH-OW1-L-D-ER0": 4552,
    "S-N-AE1-@@": 4553,
    "S-IH0-K-@@": 4554,
    "S-AY1-K-L@@": 4555,
    "S-AH1-M-ER0-@@": 4556,
    "S-AE0-@@": 4557,
    "R-IH1-JH": 4558,
    "P-IY1-P-AH0-L-Z": 4559,
    "OY2-D": 4560,
    "NG-HH-AE2-M": 4561,
    "N-S-T@@": 4562,
    "N-AO1-R-M-AH0-L-IY0": 4563,
    "M-Y-UW0-@@": 4564,
    "M-AE1-JH-IH0-K": 4565,
    "L-IY1-D-ER0-SH-IH2-P": 4566,
    "L-AH1-V-D": 4567,
    "K-AH0-N-S-T-R-AH1-K-T-IH0-D": 4568,
    "K-AH0-M-P-OW1-Z-ER0": 4569,
    "IH0-N-V-EH1-S-T-AH0-G@@": 4570,
    "HH-EH1-D-Z": 4571,
    "F-L-AY1": 4572,
    "F-AA1-DH-ER0-Z": 4573,
    "EH1-G-Z": 4574,
    "D-UW1-T-IY0-Z": 4575,
    "B-R-IY1-F-L-IY0": 4576,
    "B-R-IY1-D-IH0-NG": 4577,
    "B-L-OW1-@@": 4578,
    "B-IH1-G-AH0-S-T": 4579,
    "B-AA1-T-AH0-M": 4580,
    "AH0-W-AO1-R-D-IH0-D": 4581,
    "AH0-T-R-AE1-K-T-AH0-D": 4582,
    "AH0-G-R-IY1-M-AH0-N-T": 4583,
    "AE1-S-AH0-D": 4584,
    "AA1-P-ER0-EY2-T-IH0-NG": 4585,
    "Y-UW2": 4586,
    "Y-UW1-N-IH0-@@": 4587,
    "T-AY1-T-AH0-L-D": 4588,
    "S-T-L-IY0": 4589,
    "R-IY0-OW0": 4590,
    "R-IH0-Z-AY1-D-Z": 4591,
    "R-EH1-F-R-AH0-N-S": 4592,
    "P-IY1": 4593,
    "NG-K-AH0": 4594,
    "M-AA1-R-K-AH0-@@": 4595,
    "L-UW1-Z": 4596,
    "L-IH2-Z-AH0-M": 4597,
    "L-IH1-NG-K-S": 4598,
    "K-S-T": 4599,
    "K-R-IY0-EY1-T-IH0-V": 4600,
    "K-R-IY0-EY1-SH-AH0-N": 4601,
    "K-R-EH1-D-IH0-T-S": 4602,
    "K-L-IH1-R-L-IY0": 4603,
    "K-AA1-N-K-R-IY0-T": 4604,
    "IH2-N-T-R-AH0-@@": 4605,
    "IH0-N-F-AO1-R-@@": 4606,
    "IH0-N-D-AH1-@@": 4607,
    "HH-Y-UW0-@@": 4608,
    "HH-IH1-T-S": 4609,
    "HH-AE1-M-AH0-L-T-AH0-N": 4610,
    "HH-AA2-@@": 4611,
    "F-L-EH1-D": 4612,
    "F-EY1-TH": 4613,
    "B-EH1-R-IY0": 4614,
    "AH0-P-L-AY1": 4615,
    "AH0-B-T-EY1-N-D": 4616,
    "AE1-K-SH-AH0-N-Z": 4617,
    "AA1-K-Y-AH0-P@@": 4618,
    "AA1-B-JH-EH0-K-T-S": 4619,
    "-IY0-AH0-S-T": 4620,
    "TH-L@@": 4621,
    "T-AO0-R-@@": 4622,
    "S-K-OW2-P": 4623,
    "S-IY1-K": 4624,
    "S-ER0-AW1-@@": 4625,
    "S-EH1-N-AH0-T-ER0": 4626,
    "R-IY0-M-EY1-N-Z": 4627,
    "R-IH1-R": 4628,
    "R-IH0-Z-IH1-@@": 4629,
    "P-L-AY1-@@": 4630,
    "P-AH2-B-L-IH0-K-EY1-SH-AH0-N": 4631,
    "P-AE1-S-AH0-N-JH-ER0-Z": 4632,
    "M-S-AH0-N": 4633,
    "M-EY2-T-IH0-D": 4634,
    "M-EY0-N-T-EY1-N": 4635,
    "M-B-AH0-L-D": 4636,
    "K-IH1-CH-AH0-N": 4637,
    "K-AW1-N-T-ER0-@@": 4638,
    "K-AH0-M-Y-UW2-N-AH0-K-EY1-SH-AH0-N": 4639,
    "K-AA1-N-S-T-AH0-N-T": 4640,
    "JH-IH0-K-AH0-L": 4641,
    "JH-AE1-K-IH0-T": 4642,
    "IY0-V-EH1-N-T-S": 4643,
    "IH1-N-T-ER0-@@": 4644,
    "IH1-N-K-AH2-M": 4645,
    "HH-AA1-L-IY0-W-UH2-D": 4646,
    "G-IY1-@@": 4647,
    "F-AH0-N": 4648,
    "D-IH0-G-R-IY1-Z": 4649,
    "D-AH0-S": 4650,
    "D-AH0-L-IY0": 4651,
    "CH-UW1-@@": 4652,
    "B-AE1-P-@@": 4653,
    "AH0-S-AY1-N-D": 4654,
    "AE2-N-T-AY0-@@": 4655,
    "AE1-K-SH-AH0-L-IY0": 4656,
    "AA2-R-@@": 4657,
    "AA1-R-T-AH0-K-AH0-L-Z": 4658,
    "V-IH0-T-IY0": 4659,
    "T-R-IY1-T": 4660,
    "SH-AA1-P-S": 4661,
    "S-L-AA1-@@": 4662,
    "S-AH2-B-@@": 4663,
    "R-EH1-L-AH0-@@": 4664,
    "P-R-IH1-N-T": 4665,
    "P-R-EY1": 4666,
    "P-OW1-L": 4667,
    "M-OW1-T-ER0": 4668,
    "M-EH1-D-IH0-K-AH0-L": 4669,
    "M-AE1-N-AH0-JH-ER0": 4670,
    "K-W-AO1-@@": 4671,
    "K-L-OW1-DH-Z": 4672,
    "K-IH0-T-S": 4673,
    "K-AE1-P": 4674,
    "K-AA1-R-AH0-N-T": 4675,
    "K-AA1-M-B-AE0-T": 4676,
    "JH-AE1-K-AH0-T": 4677,
    "IH0-N-HH-EH1-R-AH0-@@": 4678,
    "IH0-M-P-L-OY1-D": 4679,
    "IH0-L-EH2-K-T-R-AA1-N-IH0-K": 4680,
    "IH0-K-S-T-EH1-N-SH-AH0-N": 4681,
    "IH0-K-S-P@@": 4682,
    "G-AH0-N-@@": 4683,
    "EH1-N-JH-AH0-N-IH1-R": 4684,
    "EH1-K-S-T-R-AH0": 4685,
    "D-AE1-N": 4686,
    "AH0-N-EY1-B-AH0-L": 4687,
    "AH0-N-AE1-@@": 4688,
    "AA1-P-R-AH0": 4689,
    "W-IH0-CH": 4690,
    "W-AH1-N-D-ER0": 4691,
    "V-IY1-IH0-K-AH0-L-Z": 4692,
    "V-AY0-@@": 4693,
    "SH-N-AH0-L-IY0": 4694,
    "S-TH@@": 4695,
    "S-T-R-OW1-@@": 4696,
    "S-P-ER1-@@": 4697,
    "S-EH1-R-AH0": 4698,
    "S-AH0-P-AO1-R-T-S": 4699,
    "R-AH0-K-AO1-R-D": 4700,
    "P-EY1-N-T-IH0-NG-Z": 4701,
    "N-EH1-DH-ER0-L-AH0-N-D-Z": 4702,
    "M-UW1-V-Z": 4703,
    "M-AO0-R": 4704,
    "L-IH1-NG-K-AH0-N": 4705,
    "L-IH1-B-ER0-AH0-L": 4706,
    "L-AY1-T-S": 4707,
    "K-L-AE1-S-AH0-Z": 4708,
    "K-AH0-N-F-ER1-M-D": 4709,
    "K-AH0-M-AE1-N-D-ER0": 4710,
    "IY0-V-EH1-N-SH-AH0-L-IY0": 4711,
    "IH1-N-ER0": 4712,
    "IH0-K-W-IH1-V-AH0-L-AH0-N-T": 4713,
    "G-AO1-L-F": 4714,
    "G-AH0-N-AH0-@@": 4715,
    "F-R-IY1-K-W-AH0-N-S-IY0": 4716,
    "F-IH1-N-IH0-@@": 4717,
    "ER0-IY1-N-AH0": 4718,
    "D-OW2": 4719,
    "CH-AY1-L-D-HH-UH2-D": 4720,
    "AH0-S-AY1-@@": 4721,
    "AH0-K-EY1-ZH-AH0-N-Z": 4722,
    "-AO2-NG": 4723,
    "-AA1-L-AH0-JH-IY0": 4724,
    "W-AA1-N-T-S": 4725,
    "V-AA1-L-Y-UW0-M": 4726,
    "T-UW1-N-Z": 4727,
    "T-IH1-P-IH0-K-AH0-L-IY0": 4728,
    "S-W-IY1-D-IH0-SH": 4729,
    "S-T-R-IH1-NG": 4730,
    "S-L-IY1-P-IH0-NG": 4731,
    "S-EH1-G-@@": 4732,
    "S-AH0-P-AO1-R-T-IH0-NG": 4733,
    "R-IH0-Z-ER1-V": 4734,
    "R-IH0-S-T-AO1-R-D": 4735,
    "P-R-OW1-T-EH2-@@": 4736,
    "P-AH1-B": 4737,
    "NG-D": 4738,
    "N-Y-AH0-@@": 4739,
    "N-T-OW0": 4740,
    "M-IH1-T": 4741,
    "M-EY2-T": 4742,
    "L-AO1-R-AH0-N-S": 4743,
    "K-Y@@": 4744,
    "K-S-AH0-N": 4745,
    "K-AE1-N-Z-AH0-S": 4746,
    "K-AA1-Z-D": 4747,
    "IH2-R@@": 4748,
    "IH0-N-V-AY2-R-AH0-N-M-EH1-N-T-AH0-L": 4749,
    "IH0-G-Z-AE1-K-T": 4750,
    "IH0-F-EH1-K-T-IH0-V": 4751,
    "HH-AA1-L-AH0-D-EY2": 4752,
    "G-AA1-D-@@": 4753,
    "F-L-AY1-@@": 4754,
    "F-IH1-Z-IH0-K-S": 4755,
    "F-ER0-IH0-NG": 4756,
    "F-AH0": 4757,
    "CH-AE1-L-AH0-N-JH": 4758,
    "AH0-B-AH0-L": 4759,
    "-AH0-L-AY2-Z-D": 4760,
    "Z-AA0-@@": 4761,
    "Y-UW1-N-AH0-F-AO2-R-M": 4762,
    "V-OW1-K-AH0-L-Z": 4763,
    "V-AH0-T-IY0": 4764,
    "TH-IY1-S-T-ER0-N": 4765,
    "T-IH0-N": 4766,
    "S-IH1-N-AH0-M-AH0": 4767,
    "R-IY2-AE1-L-AH0-T-IY2": 4768,
    "R-EY1-N-@@": 4769,
    "P-EY2-@@": 4770,
    "L-ER1-N": 4771,
    "L-ER1-@@": 4772,
    "L-AY1-V-Z": 4773,
    "K-UH1-K-IH0-NG": 4774,
    "K-EY2-T-S": 4775,
    "K-EY2-T-AH0-D": 4776,
    "K-EH1-R-F-AH0-L-IY0": 4777,
    "K-AA2-N-V-ER0-S-EY1-SH-AH0-N": 4778,
    "JH-AH1-NG-K-SH-AH0-N": 4779,
    "IH1-M-IH0-JH-IH0-Z": 4780,
    "IH0-N-AE1-@@": 4781,
    "G-AH0-L-Z": 4782,
    "F-IY1-D": 4783,
    "D-IH0-Z@@": 4784,
    "B-IH2-@@": 4785,
    "AH0-T-AE1-K-S": 4786,
    "AH0-F-R-EY1-D": 4787,
    "AA1-N-T-UW0": 4788,
    "-AE1-L-AH0-T-IY0": 4789,
    "W-AO1-R-Z": 4790,
    "TH-AO1-@@": 4791,
    "S-T-IY1-M": 4792,
    "S-K-AA1-L-ER0-Z": 4793,
    "S-IY1-K-R-IH0-T": 4794,
    "S-AW1-N-D-T-R-AE2-K": 4795,
    "R-AH1-G-B-IY0": 4796,
    "R-AH0-M": 4797,
    "P-L-AE2-@@": 4798,
    "P-AH0-N@@": 4799,
    "P-AE1-L-AH0-S": 4800,
    "N-M-AH0-N-T": 4801,
    "L-UW0-T-EH1-N-AH0-N-T": 4802,
    "K-Y-UH1-@@": 4803,
    "K-EY1-P": 4804,
    "K-AO0-R-@@": 4805,
    "K-AH0-N-F-EH1-@@": 4806,
    "JH-EY1-N": 4807,
    "JH-AA1-N-IY0": 4808,
    "IY1-S-T-@@": 4809,
    "IH0-G-Z-IH1-S-T-IH0-NG": 4810,
    "F-IH1-NG-G-ER0-Z": 4811,
    "DH-ER0-Z": 4812,
    "D-R-IY1-M": 4813,
    "D-IY2-@@": 4814,
    "B-UH1-SH": 4815,
    "B-IY0-AH0": 4816,
    "AO1-TH@@": 4817,
    "AO1-R-D-ER0-Z": 4818,
    "AE1-F-ER0-K-AH0": 4819,
    "-UH2-K": 4820,
    "W-AO1-N-T": 4821,
    "T-M-AH0-N-T-S": 4822,
    "S-T-EY1-D": 4823,
    "R-IY0-Z@@": 4824,
    "R-IH0-P-AH1-B-L-IH0-K-AH0-N": 4825,
    "R-EH1-Z-IH0-D-AH0-N-S": 4826,
    "R-EH1-N-AH0-@@": 4827,
    "P-ER0-EY2-T-AH0-D": 4828,
    "N-T-L-IY0": 4829,
    "M-B-EH1-@@": 4830,
    "L-AH1-V-Z": 4831,
    "K-UH1-K": 4832,
    "K-UH1-D-AH0-N": 4833,
    "K-AW1-N-T-IY0-Z": 4834,
    "K-AH0-M-AE1-N-D-Z": 4835,
    "K-AA1-L-IH0-@@": 4836,
    "IH0-N-K-R-IY1-S-IH0-NG": 4837,
    "IH0-K-W-EY1-@@": 4838,
    "IH0-K-S-EH1-P-@@": 4839,
    "HH-AH1-N-T-IH0-NG": 4840,
    "G-R-AE1-JH-UW0-@@": 4841,
    "G-EY1-N": 4842,
    "F-IY0-@@": 4843,
    "F-EY1-Z": 4844,
    "F-AH1-N-D-IH0-NG": 4845,
    "EH1-TH-N-IH0-K": 4846,
    "D-AY1-AH0-@@": 4847,
    "CH-AE1-P-AH0-L": 4848,
    "B-IY0-Z": 4849,
    "AH0-TH-AO1-R-AH0-T-IY0-Z": 4850,
    "AH0-P-IY1-L": 4851,
    "AH0-N-F-AO1-R-CH-AH0-N-AH0-T-L-IY0": 4852,
    "AH0-M-EH1-R-IH0-K-AH0-N-Z": 4853,
    "AH0-D-IH1-SH-AH0-N-AH0-L-IY0": 4854,
    "AH0-B-AH1-@@": 4855,
    "AE1-P-AH0-L": 4856,
    "AE1-L-IH0-S": 4857,
    "Z-AH0-N-T": 4858,
    "Y-UW1-Z-ER0": 4859,
    "T-R-AE0-N-Z-@@": 4860,
    "T-IY2-N": 4861,
    "S-T-EY1-B-AH0-L": 4862,
    "S-P-OW1-@@": 4863,
    "S-P-EH1-N-D": 4864,
    "S-EH1-K-S": 4865,
    "S-AW1-TH-@@": 4866,
    "S-AH0-L-EH1-K-T-IH0-D": 4867,
    "S-AE1-N-D-@@": 4868,
    "P-L-EY1-N-Z": 4869,
    "P-AO1-R-CH-AH0-G-IY2-Z": 4870,
    "N-Y-AH0-N": 4871,
    "M-Y-AH0-L@@": 4872,
    "M-AA1-D-ER0-@@": 4873,
    "L-IH1-NG-K-T": 4874,
    "L-AE1-N-D-IH0-NG": 4875,
    "K-L-AE1-S-AH0-F-AY2-D": 4876,
    "K-AW1-N-T": 4877,
    "K-AH0-N-V-ER1-T-IH0-D": 4878,
    "K-AE1-T-AH0-L": 4879,
    "K-AA1-T": 4880,
    "IH0-N-T-R@@": 4881,
    "IH0-N-T-EH1-N-D-IH0-D": 4882,
    "IH0-L-UW1-@@": 4883,
    "IH0-K-S-T-EH1-N-D-IH0-D": 4884,
    "IH0-K-S-T-EH1-@@": 4885,
    "IH0-K-S-P-R-EH1-@@": 4886,
    "HH-EH1-L-P-S": 4887,
    "G-OW2-@@": 4888,
    "F-OW1-T-OW2": 4889,
    "EH2-K-S-@@": 4890,
    "D-EH2-F-AH0-N-IH1-SH-AH0-N": 4891,
    "D-EH1-K-EY0-D-Z": 4892,
    "D-AY2-AH0-@@": 4893,
    "D-AH1-Z-AH0-N-T": 4894,
    "B-AH2-@@": 4895,
    "AH0-K-W-AY1-ER0-D": 4896,
    "AE1-L-B-ER0-T": 4897,
    "AA1-R-TH-ER0": 4898,
    "-UH1-R": 4899,
    "W-EH1-L-N-OW1-N": 4900,
    "V-AH1-L-@@": 4901,
    "T-OW0-Z": 4902,
    "S-UW1": 4903,
    "S-L-EH1-@@": 4904,
    "R-IY2-IH0-N-@@": 4905,
    "P-ER0-F-AO1-R-@@": 4906,
    "N-EH1-K": 4907,
    "M-IY1-T-S": 4908,
    "M-AW1-S": 4909,
    "M-AH1-L-T-AH0-@@": 4910,
    "L-AH0-N-D-Z": 4911,
    "K-OW2@@": 4912,
    "K-AW2-T": 4913,
    "IH0-N-V-AY1-@@": 4914,
    "HH-W-IH1-N": 4915,
    "G-R-AE1-N-D-F-AA2-DH-ER0": 4916,
    "G-AH1-S-IY0": 4917,
    "F-EY1-M": 4918,
    "D-IH0-K-L-AY1-N-D": 4919,
    "D-AH0-B-EY1-T": 4920,
    "D-AE1-M-AH0-@@": 4921,
    "B-AA0-R-@@": 4922,
    "AH0-S-OW1-SH-IY0-EY2-T-AH0-D": 4923,
    "-ER0-AH0": 4924,
    "-AO2-T-ER0": 4925,
    "-AO1-R-AH0-T-IY0": 4926,
    "TH-AA1-@@": 4927,
    "T-R-AH1-B-AH0-L": 4928,
    "T-EH1-M-P-R-AH0-CH-ER0": 4929,
    "T-EH1-L-AH0-F-OW2-N": 4930,
    "S-M-UW1-DH": 4931,
    "S-M-AY1-L": 4932,
    "S-EH1-N-ER0": 4933,
    "S-EH0-P-T-EH1-M-B-ER0": 4934,
    "R-OW2-@@": 4935,
    "P-R-OW2-@@": 4936,
    "N-T-IY0-@@": 4937,
    "K-L-AW1-@@": 4938,
    "K-ER0-R-IY1-@@": 4939,
    "K-AH0-N-S-ER1-N-D": 4940,
    "K-AH0-M-P-OW1-N-AH0-N-T-S": 4941,
    "K-AH0-L-EH1-K-T-AH0-D": 4942,
    "IH1-N-T-R-AH0-@@": 4943,
    "IH0-L-EH1-V-AH0-N": 4944,
    "G-R-AE1-N-T": 4945,
    "G-AH1-V-ER0-N-D": 4946,
    "F-R-AA1-@@": 4947,
    "F-L-AY1-T-S": 4948,
    "F-EY1-V-UH1-R-AY0-T": 4949,
    "EY2-T-AH0-D": 4950,
    "EH1-K-S-@@": 4951,
    "D-R-AO1-IH0-NG": 4952,
    "D-R-AH1-@@": 4953,
    "D-IH0-M-AE1-@@": 4954,
    "D-EH1-M-AH0-N-S-T-R@@": 4955,
    "AO2-R-G-AH0-N-IH0-Z-EY1-SH-AH0-N": 4956,
    "AH2-N-IH0-@@": 4957,
    "AH0-P-IY1-@@": 4958,
    "AH0-P-EH1-R-AH0-N-T-L-IY0": 4959,
    "AH0-L-AY1-V": 4960,
    "AA2-R-T-AH0-F-IH1-SH-AH0-L": 4961,
    "-AY2-R": 4962,
    "Y-UW0@@": 4963,
    "W-IH2-@@": 4964,
    "W-ER1-S": 4965,
    "TH-ER0-@@": 4966,
    "T-W-EH1-N-T-IY0": 4967,
    "T-IY1-N-AH0": 4968,
    "T-AO0-@@": 4969,
    "SH-EH1-L": 4970,
    "S-T-AH1-F": 4971,
    "S-P-IY1-K-ER0": 4972,
    "S-P-AH0-S-IH1-F-IH0-K-L-IY0": 4973,
    "S-IH1-K-S-T@@": 4974,
    "R-EH2-P-R-IH0-Z-EH1-@@": 4975,
    "R-AH1-F": 4976,
    "R-AH0-N@@": 4977,
    "P-EY1-N-T-IH0-D": 4978,
    "P-AE1-S-IH0-NG": 4979,
    "N-T-EY1-SH-AH0-N": 4980,
    "M-EY2-@@": 4981,
    "M-AE1-P": 4982,
    "L-AH0-Z": 4983,
    "K-IY0-Z": 4984,
    "K-IH2-@@": 4985,
    "K-CH-ER0": 4986,
    "K-AH0-M-B-AY1-N-D": 4987,
    "JH-IY0-@@": 4988,
    "G-R-AE1-JH-AH0-W-AH0-T": 4989,
    "G-OW1-L-D-@@": 4990,
    "G-AE1-L-ER0-IY0": 4991,
    "F-AE1-K-T-ER0-Z": 4992,
    "EY2-T-ER0": 4993,
    "EH1-D-AH0-N-B-ER0-OW0": 4994,
    "D-IH1-S-AH0-P-L@@": 4995,
    "D-IH0-P-EH1-N-D-IH0-NG": 4996,
    "D-IH0-K-L-EH1-R-D": 4997,
    "D-AE1-T-AH0": 4998,
    "D-AA1-N": 4999,
    "CH-OW1-Z": 5000,
    "AA2-B-@@": 5001,
    "-IH2-R@@": 5002,
    "V-IY0-AH0-N": 5003,
    "UH1-@@": 5004,
    "T-UW2-@@": 5005,
    "T-ER1-N-AH0-@@": 5006,
    "S-T-AE1-N-D-ER0-D-Z": 5007,
    "S-M-OW1-K-IH0-NG": 5008,
    "S-ER1-K-AH0-T": 5009,
    "S-EH1-P-SH-AH0-N": 5010,
    "S-AH0-P-AO1-R-T-IH0-D": 5011,
    "S-AE1-M": 5012,
    "R-IY1-S-AO0-R-S-IH0-Z": 5013,
    "R-EH1-S-T-ER0-AA2-N-T": 5014,
    "P-R-IH0-V-EH1-N-T": 5015,
    "OY2": 5016,
    "N-AO2-@@": 5017,
    "N-AE1-V-AH0-@@": 5018,
    "M-ER0-IY1-@@": 5019,
    "K-L-ER1-@@": 5020,
    "K-AH0-N-S-IH1-S-T-AH0-D": 5021,
    "K-AH0-M-P-AE1-@@": 5022,
    "K-AA1-M-AH0-@@": 5023,
    "G-AA2-R-@@": 5024,
    "F-OW2-N-Z": 5025,
    "D-IH0-S-P-Y-UW1-@@": 5026,
    "D-IH0-S-K-R-AY1-B": 5027,
    "D-AO1-R-Z": 5028,
    "B-IH0-K-AO1-Z": 5029,
    "AH2-N-IH0-N-K-AO2-R-P-ER0-EY2-T-IH0-D": 5030,
    "AH0-T-AE1-K-T": 5031,
    "AH0-L-UW1-@@": 5032,
    "AE1-S-AH0-@@": 5033,
    "AE1-K-T-IH0-@@": 5034,
    "-AO2-N": 5035,
    "Z-D-EY2": 5036,
    "Y-UW1-M-AH0-N": 5037,
    "W-IH0-K": 5038,
    "TH-IH1-N": 5039,
    "TH-AW1-Z-AH0-N-Z": 5040,
    "T-AH0-F-AY2-D": 5041,
    "SH-IH0-P": 5042,
    "S-T-AA1-R-T-S": 5043,
    "S-K-AH1-L-P-@@": 5044,
    "S-IY1-S-T": 5045,
    "S-AH0-B-AH0-L": 5046,
    "R-AA1-K-IY0": 5047,
    "P-R-AH0-F-EH1-@@": 5048,
    "N-AH2-T": 5049,
    "M-AH0-K-AE1-@@": 5050,
    "K-R-AH0-S-IY0": 5051,
    "K-L-UW1-@@": 5052,
    "K-AA2-N-S-T-AH0-T-UW1-SH-AH0-N": 5053,
    "K-AA1-N": 5054,
    "JH-AH1-M-P-S": 5055,
    "JH-AH0-L": 5056,
    "IH0-N-K-R-IY1-S-IH0-NG-L-IY0": 5057,
    "IH0-K-S-P-R-EH1-S": 5058,
    "G-AA1-R-D-IY0-AH0-N": 5059,
    "F-L-IY1-T": 5060,
    "EY1-P-R-AH0-L": 5061,
    "D-IH0-S-P-L-EY1-D": 5062,
    "D-AY0-R-EH1-K-T-ER0": 5063,
    "B-AE1-NG-@@": 5064,
    "B-AA1-D-IY0-Z": 5065,
    "AH0-S-IH1-S-T@@": 5066,
    "AE1-F-R-AH0-@@": 5067,
    "AA1-L-@@": 5068,
    "-UH2-R@@": 5069,
    "-AH0-L-IH2-Z-AH0-M": 5070,
    "-AE0-K-T": 5071,
    "Z-ER0-D": 5072,
    "Y-AA1-R-@@": 5073,
    "W-IY1-V": 5074,
    "W-AO1-N-IH0-D": 5075,
    "W-AH1-N-@@": 5076,
    "W-AH0-N": 5077,
    "T-R-OW0-@@": 5078,
    "T-OW2-@@": 5079,
    "SH-AA1-R-P": 5080,
    "S-T-R-EY1-SH-AH0-N": 5081,
    "S-IH1-M-AH0-L-ER0-L-IY0": 5082,
    "S-EH1-L-F": 5083,
    "S-AY1-N-Z": 5084,
    "R-IH1-NG-Z": 5085,
    "R-IH0-S-IY1-V": 5086,
    "R-EH2-P-R-IH0-Z-EH1-N-T": 5087,
    "R-EH1-Z-IH0-D-AH0-N-T": 5088,
    "P-OW1-Z": 5089,
    "P-OW1-L-IH0-SH": 5090,
    "P-L-EY1-S-AH0-Z": 5091,
    "P-AE1-R-IH0-SH": 5092,
    "N-IY1": 5093,
    "M-IH1-R-L-IY0": 5094,
    "M-B-AA1-@@": 5095,
    "M-AH0-L-EH1-@@": 5096,
    "M-AA1-T-OW0": 5097,
    "L-S-AH0-N": 5098,
    "L-AO1-T": 5099,
    "L-AH0-N-T": 5100,
    "K-IY1-P-S": 5101,
    "K-EY1-S-AH0-Z": 5102,
    "K-AH0-N-V-EH1-N-SH-AH0-N": 5103,
    "K-AH0-M-P-IY1-T-IH0-D": 5104,
    "IH0-K-S-P-R-EH1-S-T": 5105,
    "HH-AH0-M": 5106,
    "HH-AE1-N-D-AH0-L": 5107,
    "G-L-OW1-B-AH0-L": 5108,
    "G-EY1": 5109,
    "G-AH1-N-Z": 5110,
    "F-IY1-M-EY2-L-Z": 5111,
    "F-IH2-SH": 5112,
    "D-R-IY1-@@": 5113,
    "D-EH1-R": 5114,
    "B-OW1": 5115,
    "B-IY1-T": 5116,
    "B-AE1-TH": 5117,
    "AO1-TH-ER0-Z": 5118,
    "AH0-M-EH1-@@": 5119,
    "AH0-F-EH1-R-Z": 5120,
    "AA1-R-CH-@@": 5121,
    "W-EY1-K": 5122,
    "T-IH1-P-AH0-K-AH0-L": 5123,
    "SH-IH2-P-S": 5124,
    "S-T-IH1-K": 5125,
    "S-M-AY1-@@": 5126,
    "S-IH1-K": 5127,
    "S-EH1-T-AH0-L-M-AH0-N-T-S": 5128,
    "S-AH0-S-T-EY1-@@": 5129,
    "S-AH0-P@@": 5130,
    "R-IY0-L-IH1-@@": 5131,
    "R-IH0-Z-AY1-@@": 5132,
    "P-OY2-N-T": 5133,
    "N-S-ER0-@@": 5134,
    "M-EH1-M-B-ER0-SH-IH2-P": 5135,
    "M-AH0-N-EY2-T": 5136,
    "K-W-AA1-L-AH0-F-AY2-D": 5137,
    "K-R-IY0-EY1-T-AH0-D": 5138,
    "K-L-AE2-S-AH0-F-AH0-K-EY1-SH-AH0-N": 5139,
    "K-AH0-N-EH1-T-AH0-K-AH0-T": 5140,
    "K-AE1-N-S-AH0-L-D": 5141,
    "K-AA1-T-AH0-N": 5142,
    "JH-OW1-S-AH0-F": 5143,
    "IH0-S-K-EY1-P-T": 5144,
    "IH0-N-S-T-AO1-L-D": 5145,
    "HH-IH1-L-@@": 5146,
    "HH-AW1-ER0-D": 5147,
    "G-IH1-L-@@": 5148,
    "G-AA1-D-Z": 5149,
    "D-IH0-M-AE1-N-D": 5150,
    "D-EY1-N-JH-ER0-AH0-S": 5151,
    "D-AA2-K-Y-AH0-@@": 5152,
    "CH-EH1-R-IH0-T-IY0": 5153,
    "B-R-EY1-K-S": 5154,
    "B-R-AA1-N-Z": 5155,
    "B-OY2": 5156,
    "AY0-D-EH1-N-AH0-@@": 5157,
    "AA1-D-IY0-OW2": 5158,
    "-AA0": 5159,
    "Y-UW1-Z@@": 5160,
    "W-EH1-P-AH0-N-Z": 5161,
    "W-EH1-B-@@": 5162,
    "V-IH1-ZH-AH0-W-AH0-L": 5163,
    "T-IY1-N-TH": 5164,
    "T-AY0-@@": 5165,
    "SH-IY1-P": 5166,
    "S-T-R-EH1-S": 5167,
    "S-T-R-AY1-K": 5168,
    "S-T-AA2-R": 5169,
    "S-ER0-V-AY1-V-IH0-NG": 5170,
    "S-ER0-V-AY1-V": 5171,
    "S-EH1-R-AH0-@@": 5172,
    "S-AH1-B-W-EY2": 5173,
    "R-OW1-L-IH0-NG": 5174,
    "R-IY0-L-EY1-@@": 5175,
    "R-AH0-B-AH0-L": 5176,
    "P-R-IY0-Z-EH1-@@": 5177,
    "P-R-AA1-S-EH0-S-IH0-NG": 5178,
    "P-IY0-AE1-N-OW0": 5179,
    "P-AH1-L-@@": 5180,
    "OW1-L-@@": 5181,
    "M-IH1-L-ER0": 5182,
    "M-AH0-N-IH1-@@": 5183,
    "L-IH0-NG-Z": 5184,
    "L-AH0-T-IY0-Z": 5185,
    "K-OW1-D-IH0-NG": 5186,
    "K-EY2-S": 5187,
    "K-AH1-M-F-ER0-T-AH0-B-AH0-L": 5188,
    "K-AA2-M-B-AH0-N-EY1-SH-AH0-N": 5189,
    "K-AA1-R-L": 5190,
    "IH0-N-T-ER1-N-AH0-L": 5191,
    "IH0-L-AE1-@@": 5192,
    "IH0-K-S-P-IH1-R-IY0-AH0-N-S-T": 5193,
    "F-AE1-SH-AH0-N": 5194,
    "EH1-N-D-AH0-D": 5195,
    "EH0-N-D@@": 5196,
    "D-R-AA1-P": 5197,
    "D-EY1-T-S": 5198,
    "D-AY2-@@": 5199,
    "CH-AY1-@@": 5200,
    "B-R-AO1-D": 5201,
    "B-EH1-N": 5202,
    "AE1-N-D-ER0-S-AH0-N": 5203,
    "-AO2-R-Z": 5204,
    "-AO2": 5205,
    "W-UH1-D-Z": 5206,
    "W-EY1-V-Z": 5207,
    "T-IH0-JH": 5208,
    "T-ER1-N-IH0-NG": 5209,
    "SH-L-IY0": 5210,
    "S-ER1-K-AH0-M-S-T-AE2-@@": 5211,
    "S-AH0-K-S-EH1-S-F-AH0-L-IY0": 5212,
    "R-IH0-V-ER1-@@": 5213,
    "P-Y-UH1-R": 5214,
    "P-R-EH1-SH-AH0-N": 5215,
    "P-R-AH0-V-AY1-@@": 5216,
    "P-L-EY2-S": 5217,
    "P-IH1-R-@@": 5218,
    "P-EY1-T-R@@": 5219,
    "P-AH2-B-L-IH0-K-EY1-SH-AH0-N-Z": 5220,
    "OW1-N-ER0-Z": 5221,
    "N-UW1-T-R@@": 5222,
    "M-P-AH0-L-Z": 5223,
    "M-EY1-SH-AH0-N-Z": 5224,
    "M-ER1-JH-D": 5225,
    "M-EH1-ZH-ER0-@@": 5226,
    "M-AE1-G-AH0-Z-IY2-N-Z": 5227,
    "L-AO1-Y-ER0": 5228,
    "K-AH1-S-T-AH0-@@": 5229,
    "K-AH0-N-S-T-R-AH1-@@": 5230,
    "K-AH0-N-S-AH1-L-@@": 5231,
    "JH-AH0": 5232,
    "IH2-N-S-T-IH0-T-UW1-SH-AH0-N": 5233,
    "IH0-M-P-R-UW1-V": 5234,
    "IH0-F-EH1-K-T-S": 5235,
    "F-IH0-N": 5236,
    "EY1-JH-AH0-N-S-IY0": 5237,
    "ER0-EH1-S-T-AH0-D": 5238,
    "EH1-N-T-ER0": 5239,
    "D-IH0-L-IH1-V-ER0-D": 5240,
    "CH-AO1-K-L-AH0-T": 5241,
    "B-ER1-N-D": 5242,
    "AY0-D-EH1-N-T-AH0-F-AY2-D": 5243,
    "AH0-N-T": 5244,
    "AH0-L@@": 5245,
    "AA1-N-@@": 5246,
    "AA0-R-T-IH1-@@": 5247,
    "-AH0-N-IY0": 5248,
    "-AH0-N-IH0-NG": 5249,
    "ZH-AA1-N-R-AH0": 5250,
    "W-ER0-D-Z": 5251,
    "W-AY1-L-D-L-AY2-F": 5252,
    "V-Y-UW1-D": 5253,
    "V-OW0": 5254,
    "T-AH0-L-@@": 5255,
    "S-EH1-N-CH-ER0-IY0-Z": 5256,
    "S-AY1-AH0-@@": 5257,
    "S-AA1-L-@@": 5258,
    "R-IH0-T-AY1-ER0-M-AH0-N-T": 5259,
    "P-R-AE1-@@": 5260,
    "P-OW1-AH0-M-Z": 5261,
    "P-L-AE1-S-T-IH0-K": 5262,
    "P-ER1-S-AH0-N-Z": 5263,
    "N-UW1-K-L-IY0-ER0": 5264,
    "N-D-R-AH0": 5265,
    "M-IH1-S-T": 5266,
    "L-AH1-N-CH": 5267,
    "K-ER0-D": 5268,
    "K-AH1-L-ER0-F-AH0-L": 5269,
    "K-AH0-N-S-T-IH1-CH-UW0-AH0-N-S-IY0": 5270,
    "K-AA2-M-P@@": 5271,
    "JH-OY1": 5272,
    "IY0-V-EH1-N-T": 5273,
    "IH0-N-SH-UH1-R-AH0-N-S": 5274,
    "HH-EH1-L-M-AH0-T": 5275,
    "HH-AA1-R-T-@@": 5276,
    "HH-AA0-R-@@": 5277,
    "G-AH0-L@@": 5278,
    "F-R-EY1-M": 5279,
    "F-L-UW1": 5280,
    "F-IH2-L-AH0-D-EH1-L-F-IY0-AH0": 5281,
    "F-EY1-V@@": 5282,
    "EH1-F": 5283,
    "D-R-IH0-K": 5284,
    "D-IH0-F-IY1-@@": 5285,
    "B-OW2-@@": 5286,
    "B-L-UW1-Z": 5287,
    "AH0-K-AW1-N-T@@": 5288,
    "AE1-M-AH0-@@": 5289,
    "-AE@@": 5290,
    "Z-R@@": 5291,
    "Y-UW1-N-IH0-T": 5292,
    "T-S-IY0": 5293,
    "SH-AY2-R": 5294,
    "S-T-ER0-D": 5295,
    "S-K-IY1-M": 5296,
    "S-AH1-B-JH-IH0-K-T-S": 5297,
    "S-AH0-G-JH-EH1-S-T-S": 5298,
    "R-IH0-P-AO1-R-T-S": 5299,
    "R-IH0-N": 5300,
    "R-EH2-P-R-AH0-Z-EH1-@@": 5301,
    "R-AY1-D-Z": 5302,
    "P-UH1-L": 5303,
    "P-IY1-T-ER0-@@": 5304,
    "P-IH1-K": 5305,
    "P-AA2-P-Y-AH0-L-EH1-R-AH0-T-IY0": 5306,
    "N-CH-@@": 5307,
    "M-UW1-V-M-AH0-N-T-S": 5308,
    "M-AH0-K-AA1-R-@@": 5309,
    "M-AA2-R-K": 5310,
    "L-AH0-N-D-ER0": 5311,
    "K-L-AY1-M-IH0-T": 5312,
    "K-AH0-N-T-AH1-K-IY0": 5313,
    "K-AE2-T-AH0-@@": 5314,
    "IH0-K-S-P-EH1-K-T": 5315,
    "HH-UH1-@@": 5316,
    "G-UH1-D-@@": 5317,
    "G-AA2-N": 5318,
    "F-R-IY2": 5319,
    "F-IH1-L-AH0-P": 5320,
    "F-ER0-M-EY1-SH-AH0-N": 5321,
    "EY2-T-S": 5322,
    "D-IH0-P-EH1-N-D-AH0-N-T": 5323,
    "CH-AA1-R-AH0-L-Z": 5324,
    "B-OW2": 5325,
    "AW2-T-S-T-AE1-N-D-IH0-NG": 5326,
    "AO2-R-@@": 5327,
    "AH0-K-AH1-M-P-AH0-N-IY0-D": 5328,
    "AH0-F-IH1-SH-AH0-L-IY0": 5329,
    "AE1-D-V-ER0-T-AY2-Z-IH0-NG": 5330,
    "AA1-P-ER0-EY2-T": 5331,
    "-AO0-L": 5332,
    "Z-OW1-N": 5333,
    "V-AA1-L-@@": 5334,
    "T-IY1-CH-ER0-Z": 5335,
    "T-EH1-S-T-S": 5336,
    "T-AH0-V@@": 5337,
    "T-AA1-R-G-AH0-T": 5338,
    "S-T-AH0-M": 5339,
    "S-M-AA1-R-@@": 5340,
    "S-EH1-N-T-AH0-N-S": 5341,
    "S-AY2-T-S": 5342,
    "S-AO1-L-@@": 5343,
    "S-AH0-T": 5344,
    "S-AE1-T-ER0-@@": 5345,
    "S-AE1-NG": 5346,
    "S-AA1-L-AH0-D": 5347,
    "R-IH0-S-T": 5348,
    "P-R-EH0-@@": 5349,
    "P-OW1-AH0-M": 5350,
    "P-AH0-T-EY1-@@": 5351,
    "P-AE1-N-T-S": 5352,
    "NG-G-W-IH0-@@": 5353,
    "N-EY2-@@": 5354,
    "N-CH-IH0-Z": 5355,
    "M-Y-UW0-Z-IH1-SH-AH0-N": 5356,
    "M-IH1-L-Z": 5357,
    "M-AE1-S-IH0-V": 5358,
    "M-AA2-N-T": 5359,
    "M-AA1-D-AH0-@@": 5360,
    "L-EY1-D-IY0-Z": 5361,
    "K-AH0-M-IH1-T-AH0-D": 5362,
    "K-AH0-L-EH1-K-SH-AH0-N-Z": 5363,
    "K-AE1-R-IH0-K-T-ER0-Z": 5364,
    "K-AE1-N-AH0-N": 5365,
    "JH-AA1-B-Z": 5366,
    "IH0-N-K-R-IY1-S": 5367,
    "HH-AO1-R-AH0-@@": 5368,
    "G-R-EY1-V": 5369,
    "F-EY1-S-IH0-NG": 5370,
    "F-AH0-N@@": 5371,
    "EY1-T-IY1-N": 5372,
    "EH2-R@@": 5373,
    "EH1-T": 5374,
    "D-IH0-F-IY1-T": 5375,
    "B-OW1-T-S": 5376,
    "AO1-R-AH0-@@": 5377,
    "AO1-N-T": 5378,
    "AH0-S-T-R-AA1-@@": 5379,
    "AH0-D-AH1-L-T-S": 5380,
    "-IY2-OW0-@@": 5381,
    "-ER0-AH0-N": 5382,
    "-AH0-N-AA1-@@": 5383,
    "Z-L-IY0": 5384,
    "Y-UW2-N-AH0-V-ER1-S-AH0-L": 5385,
    "Y-ER0-@@": 5386,
    "W-ER1-K-ER0": 5387,
    "V-AY1-AH0-L-AH0-N-S": 5388,
    "V-AO1-@@": 5389,
    "TH-ER1-D-IY0": 5390,
    "T-IY1-CH": 5391,
    "SH-EH1-R-Z": 5392,
    "S-W-IY1-D-AH0-N": 5393,
    "S-T-EY1-T-M-AH0-N-T": 5394,
    "S-K-R-IH1-@@": 5395,
    "S-IH1-M-B-AH0-L": 5396,
    "S-IH0-JH-IH0-Z": 5397,
    "S-AH0-B-JH-EH1-@@": 5398,
    "S-AA0-R-@@": 5399,
    "R-IH0-JH-EH1-K-T-IH0-D": 5400,
    "R-IH0-D-UW1-S": 5401,
    "R-EY1-Z": 5402,
    "P-AY2-AH0-N-IH1-R": 5403,
    "N-S-AH0-L": 5404,
    "N-AH0-N-S": 5405,
    "M-AO1-R-AH0-@@": 5406,
    "M-AH0-L-EY1-@@": 5407,
    "L-UH1-@@": 5408,
    "K-IY1-N": 5409,
    "K-AO1-S-T": 5410,
    "K-AH0-N-V-ER1-@@": 5411,
    "IH1-L": 5412,
    "IH0-R-EH1-@@": 5413,
    "IH0-N-V-EH2-S-T-AH0-G-EY1-SH-AH0-N": 5414,
    "G-R-AW2-N-D": 5415,
    "G-OW1-L-Z": 5416,
    "F-T-IH0-NG": 5417,
    "F-AY1-ER0-D": 5418,
    "D-IH0-V-IH1-ZH-AH0-N-Z": 5419,
    "D-IH0-S-AO1-R-@@": 5420,
    "D-EY1-V@@": 5421,
    "D-ER0-IH0-NG": 5422,
    "CH-AE1-L-AH0-N-@@": 5423,
    "B-IH1-L-IY0": 5424,
    "B-AE1-L-AH0-N-S": 5425,
    "AH0-P-AA1-@@": 5426,
    "AE1-L-K-AH0-HH-AA2-L": 5427,
    "-UW2-T": 5428,
    "-L-IY0": 5429,
    "Y-AH1-NG-G-AH0-S-T": 5430,
    "W-IH1-N-@@": 5431,
    "V-AW1-@@": 5432,
    "TH-R-AY1-@@": 5433,
    "T-EH2-R-IY0-Z": 5434,
    "T-AH0-L-D": 5435,
    "SH-UH1-K": 5436,
    "S-IY0-AH0": 5437,
    "S-IH0-T": 5438,
    "S-EH2-M-IY0-@@": 5439,
    "S-EH1-N-AH0-T": 5440,
    "S-B-ER0-G": 5441,
    "S-AH0-L-EH1-@@": 5442,
    "R-IY0-AH0-N-Z": 5443,
    "R-IH0-T-AY1-R-D": 5444,
    "R-IH0-L-IY1-F": 5445,
    "R-IH0-L-IH1-JH-AH0-N": 5446,
    "R-AH0-K-AO1-R-D-Z": 5447,
    "P-R-IH0-V-EH1-@@": 5448,
    "P-L-AA1-@@": 5449,
    "P-ER0-EY2-T-IH0-NG": 5450,
    "P-EH0-@@": 5451,
    "M-OW1-T-ER0-S-AY2-K-AH0-L": 5452,
    "M-IH2-S-IH0-S-IH1-P-IY0": 5453,
    "M-AH0-T-AE1-@@": 5454,
    "M-AH0-L-IY0": 5455,
    "M-AE1-L-@@": 5456,
    "M-AA2-R-@@": 5457,
    "L-UW1-Z-IH0-NG": 5458,
    "L-IY1-N": 5459,
    "K-R-UW1-Z": 5460,
    "K-R-IH1-T-IH0-@@": 5461,
    "K-OY1-N-Z": 5462,
    "K-AH0-Z": 5463,
    "K-AH0-M-P-OW1-N-AH0-N-T": 5464,
    "K-AH0-L-OW1-N-IY0-AH0-L": 5465,
    "K-AA1-M": 5466,
    "IH1-N-T-R-IH0-@@": 5467,
    "IH0-N-V-EY1-@@": 5468,
    "IH0-M-IY1-D-IY0-AH0-T": 5469,
    "IH0-K-S-P-AE1-N-SH-AH0-N": 5470,
    "HH-AO1-R-S-AH0-Z": 5471,
    "F-EH2-D-ER0-EY1-SH-AH0-N": 5472,
    "EH2-JH-AH0-K-EY1-SH-AH0-N-AH0-L": 5473,
    "EH1-N-IY0-@@": 5474,
    "D-R-AH1-G": 5475,
    "D-IH2-S-AH0-P-IH1-@@": 5476,
    "D-EY2-Z": 5477,
    "D-EY1-V": 5478,
    "D-EH1-V-AH0-L": 5479,
    "CH-L@@": 5480,
    "B-R-IH2-JH": 5481,
    "B-L-AY1-N-D": 5482,
    "B-L-AH0-@@": 5483,
    "B-AH0-T-S": 5484,
    "AH2-N-D-IH0-@@": 5485,
    "AH0-K-S-EH1-P-T": 5486,
    "AH0-D-M-IH1-@@": 5487,
    "AA1-N-ER0-EH2-R-IY0": 5488,
    "-IY2-N-Z": 5489,
    "-IY2-D": 5490,
    "Y-UH0-@@": 5491,
    "TH-IH1-K": 5492,
    "T-R-AH1-K": 5493,
    "T-AY1-D": 5494,
    "S-W-IH1-T-S-ER0-L-AH0-N-D": 5495,
    "S-OW2-@@": 5496,
    "S-K-AO1-@@": 5497,
    "S-IY1-Z": 5498,
    "S-ER0@@": 5499,
    "S-AH0-G-JH-EH1-S-T-AH0-D": 5500,
    "R-OW1-P": 5501,
    "P-R-AH0-D-UW1-S-IH0-Z": 5502,
    "P-R-AH0-D-UW1-S-IH0-NG": 5503,
    "P-ER1-F-IH2-K-T": 5504,
    "OW2-K-L-AH0-HH-OW1-M-AH0": 5505,
    "M-IH1-S-T-ER0-IY0": 5506,
    "M-IH1-D-AH0-L-@@": 5507,
    "M-ER0-AH0-L": 5508,
    "L-AY1-K-T": 5509,
    "L-AY1-AH0-N": 5510,
    "L-AO1-N-CH": 5511,
    "K-UW1-L": 5512,
    "K-R-AA1-P-S": 5513,
    "K-L-IH0-@@": 5514,
    "K-ER0-AH1-@@": 5515,
    "K-AE0-M-P-EY1-@@": 5516,
    "IY1-K-W-AH0-L": 5517,
    "HH-AE2-M": 5518,
    "H@@": 5519,
    "F-Y-UW1-N-ER0-AH0-L": 5520,
    "EY1-N-CH-AH0-N-T": 5521,
    "EH0-K-S-T-R-IY1-M": 5522,
    "D-R-AH1-M-Z": 5523,
    "D-IH0-P-L-OY1-@@": 5524,
    "D-EH1-N-@@": 5525,
    "B-Y-AH0-@@": 5526,
    "B-R-UW0-@@": 5527,
    "AO1-R-TH-AH0-D-AA2-K-S": 5528,
    "AO1-N-@@": 5529,
    "AH0-T-R-IH1-B-Y-AH0-T-AH0-D": 5530,
    "AH0-S-T": 5531,
    "AH0-K-AW1-N-T-S": 5532,
    "AA1-R-M-D": 5533,
    "-IY2-T": 5534,
    "-IY2-AH0-@@": 5535,
    "-ER0-N": 5536,
    "-AH0-N-EY1-SH-AH0-N-Z": 5537,
    "-AA2-T": 5538,
    "V-EH1-S-AH0-L-Z": 5539,
    "TH-EH1-R-AH0-P-IY0": 5540,
    "TH-AW1-Z-AH0-N-D": 5541,
    "T-AH1-NG": 5542,
    "SH-IY0-EY2-T-IH0-D": 5543,
    "S-UW1-P-ER0": 5544,
    "S-IH1-M-@@": 5545,
    "S-AY1-L-AH0-N-T": 5546,
    "S-AO1-F-W-EH2-R": 5547,
    "R-IY0-Z-AA1-@@": 5548,
    "R-IH0-S-P-EH1-@@": 5549,
    "R-IH0-K-AO1-R-D-IH0-NG": 5550,
    "R-IH0-F-ER1-Z": 5551,
    "R-IH0-F-@@": 5552,
    "N-OW0-V-EH1-M-B-ER0": 5553,
    "L-OW1-G-OW0": 5554,
    "L-AY1-D": 5555,
    "K-OW2": 5556,
    "K-IY1-Z": 5557,
    "K-EH1-R-IY0-Z": 5558,
    "K-AA1-Z-AH0-Z": 5559,
    "K-AA1-N-T-EH0-K-S-T": 5560,
    "K-AA1-N-F-L-IH0-K-T": 5561,
    "K-AA1-M-P-L-AH0-@@": 5562,
    "JH-IY1-Z-AH0-S": 5563,
    "JH-AY1-AH0-N-T": 5564,
    "IH2-N-S-T-IH0-T-UW1-SH-AH0-N-Z": 5565,
    "HH-AO2-R-@@": 5566,
    "G-EY1-SH-AH0-N-Z": 5567,
    "F-EY2-S": 5568,
    "F-ER0-EH1-V-ER0": 5569,
    "F-EH1-N-S": 5570,
    "F-AE1-K-T-ER0": 5571,
    "F-AA1-R-M-ER0-Z": 5572,
    "EH2-K-S-P-L-AH0-N-EY1-SH-AH0-N": 5573,
    "D-IH0-S-K-AH1-SH-AH0-N": 5574,
    "D-IH0-K-L-AY1-N": 5575,
    "D-AY2-AH0-G-N-OW1-@@": 5576,
    "D-AH0-L-Z": 5577,
    "B-R-AO1-D-W-EY2": 5578,
    "B-IH1-Z-N-AH0-S-AH0-Z": 5579,
    "B-IH1-L-AH0-T-IY0-Z": 5580,
    "B-EY1-S-AH0-S": 5581,
    "AH0-D-AA1-@@": 5582,
    "0-AA1-@@": 5583,
    "-AO1-N": 5584,
    "Y-ER1-@@": 5585,
    "W-UH1-L-F": 5586,
    "W-AO1-K-T": 5587,
    "W-AH1-Z-AH0-N-T": 5588,
    "W-AA0-@@": 5589,
    "V-IH1-Z-IH0-T-ER0-Z": 5590,
    "V-IH0-S": 5591,
    "V-EH1-N-CH@@": 5592,
    "T-S-AH0-N": 5593,
    "S-W-EY1-@@": 5594,
    "S-T-R-EH1-NG-K-TH": 5595,
    "S-T-AH1-D-IY0-IH0-NG": 5596,
    "S-T-AH0-T-UW2-@@": 5597,
    "S-T-AH0-N-T-L-IY0": 5598,
    "S-OW1-L-ER0": 5599,
    "S-K-AO1-R-@@": 5600,
    "S-ER0-EH1-@@": 5601,
    "S-AH0-L-EH1-K-SH-AH0-N": 5602,
    "P-R-IH1-N-S-EH0-S": 5603,
    "P-L-IY0": 5604,
    "P-L-AE1-N-AH0-T": 5605,
    "P-ER0-Z-EH1-N-T-AH0-D": 5606,
    "P-EH1-N": 5607,
    "P-AH0-N-IH1-N-S-AH0-L-AH0": 5608,
    "P-AA1-L-AH0-@@": 5609,
    "M-IH1-N-IH0-S-T-ER0": 5610,
    "M-ER0-D": 5611,
    "M-AH2-@@": 5612,
    "M-AH0-N-AH0-N-T-L-IY0": 5613,
    "M-AE1-T-ER0-Z": 5614,
    "L-UW0": 5615,
    "L-EH1-JH-AH0-N-@@": 5616,
    "K-R-AE1-SH": 5617,
    "K-OW1-S-T-AH0-L": 5618,
    "K-L-AY1-M-AH0-T": 5619,
    "K-ER0-AA1-@@": 5620,
    "K-EH1-R-AH0-K-T-ER0-AY2-Z-D": 5621,
    "JH-AH0-N-EH1-@@": 5622,
    "IH1-N-JH-AH0-N": 5623,
    "IH0-K-S-P-R-EH1-SH-AH0-N": 5624,
    "IH0-F-EH1-K-S": 5625,
    "G-R-IY1-S": 5626,
    "G-R-EH1-G-S-AH0-N": 5627,
    "G-R-AE1-M-ER0": 5628,
    "G-OW1-L-@@": 5629,
    "F-ER0-AH0-N-S": 5630,
    "EH2-JH-Y-UW0-K-EY1-SH-AH0-N": 5631,
    "EH1-R-ER0": 5632,
    "EH1-N-T-ER0-IH0-NG": 5633,
    "D-IH0-V-EH1-L-AH0-P-IH0-NG": 5634,
    "D-IH0-S-AH0-@@": 5635,
    "D-EY1-T-AH0-@@": 5636,
    "D-EH1-Z-ER0-T": 5637,
    "CH-ER1-CH-IH0-Z": 5638,
    "B-UW0-@@": 5639,
    "B-L-AA1-K-S": 5640,
    "B-AO2-R-N": 5641,
    "B-AH1-S-IH0-Z": 5642,
    "AO1-R-K-AH0-S-T-R-AH0": 5643,
    "AH0-P-OY1-@@": 5644,
    "AH0-P-@@": 5645,
    "AH0-D-AH1-L-T": 5646,
    "AE1-N-Y-UW0-AH0-L-IY0": 5647,
    "AE1-F-R-IH0-K-AH0-N": 5648,
    "-AY2-T-S": 5649,
    "-AY2-K": 5650,
    "W-AH0-@@": 5651,
    "V-M-AH0-N-T-S": 5652,
    "UH0-@@": 5653,
    "T-R-AH0-S": 5654,
    "S-K-R-IH1-P-T": 5655,
    "S-AE1-M-Y-UW0-L": 5656,
    "R-IY2-AH0-@@": 5657,
    "R-IY1-T-EY2-L": 5658,
    "R-IH0-S-P-EH1-K-@@": 5659,
    "P-R-EH1-Z@@": 5660,
    "P-L-AA1-T": 5661,
    "P-ER0-F-AO1-R-M-Z": 5662,
    "P-AA0-R-@@": 5663,
    "NG-L@@": 5664,
    "N-S-AH0-S": 5665,
    "N-IH1-K-N-EY2-M-D": 5666,
    "N-IH1-K-AH0-@@": 5667,
    "M-P-R-AH0-@@": 5668,
    "M-IH0-D": 5669,
    "M-EY1-N-IY0-AH0": 5670,
    "M-EY1-N-@@": 5671,
    "M-EH1-K-AH0-N-IH2-Z-AH0-M": 5672,
    "L-AH0-JH-IY0-Z": 5673,
    "L-AE1-N-D-Z": 5674,
    "L-AA1-K": 5675,
    "K-AE1-N-Y-AH0-N": 5676,
    "JH-AH0-S-T": 5677,
    "IY0-D": 5678,
    "HH-EY1": 5679,
    "HH-EH1-R-AH0-L-D": 5680,
    "F-ER0@@": 5681,
    "F-AH0-N-IY0": 5682,
    "EH1-N-IY0-B-AH0-D-IY0": 5683,
    "EH1-L-S-W-EH2-R": 5684,
    "D-R-AY1-V-ER0-Z": 5685,
    "D-EH1-K-ER0-@@": 5686,
    "CH-EH1-R-AH0-@@": 5687,
    "AE0-TH-L-EH1-T-IH0-K": 5688,
    "AE0-K-S-EH1-S-AH0-B-AH0-L": 5689,
    "-AY2-T-ER0": 5690,
    "V-AH0-L-R-IY0": 5691,
    "TH-R-IH1-@@": 5692,
    "TH-IY0-@@": 5693,
    "T-R-AY1-B": 5694,
    "SH-UW1-T-IH0-NG": 5695,
    "S-P-EH1-K-T-IH0-V": 5696,
    "S-K-R-AY1-@@": 5697,
    "S-IY1-K-W-AH0-N-S": 5698,
    "S-AH0-P-R-IY1-M": 5699,
    "S-AH0-P-R-AY1-Z": 5700,
    "R-UW1-L-D": 5701,
    "R-OW0-M-AE1-N-T-IH0-K": 5702,
    "R-IH0-L-IY1-S-IH0-Z": 5703,
    "R-EH2-K-AH0-@@": 5704,
    "R-EH1-JH-IH0-S-T-ER0-D": 5705,
    "R-AH0-L-D": 5706,
    "P-L-EY2": 5707,
    "P-EY1-N-T": 5708,
    "P-ER0-T-EH1-K-SH-AH0-N": 5709,
    "NG-G-AA1-@@": 5710,
    "N-Z-IY0": 5711,
    "N-AY1-N-T@@": 5712,
    "M-AE1-CH-IH0-Z": 5713,
    "L-Y-ER0": 5714,
    "L-IH1-F-T": 5715,
    "K-ER0-EH1-K-@@": 5716,
    "K-AO1-R-T-@@": 5717,
    "K-AA2-N-T-R-AH0-B-Y-UW1-SH-AH0-N-Z": 5718,
    "JH-ER1-N-IY0": 5719,
    "IH0-N-S-P-EH1-@@": 5720,
    "IH0-N-JH-OY1": 5721,
    "IH0-L-IH1-Z-AH0-B-IH0-TH": 5722,
    "IH0-G-Z-IH1-B-IH0-T": 5723,
    "HH-ER1-T": 5724,
    "F-ER1-D": 5725,
    "F-EH2-R": 5726,
    "EH1-R-IH0-K": 5727,
    "EH1-G": 5728,
    "D-R-AH1-M-ER0": 5729,
    "D-OW0-M-EY1-N": 5730,
    "D-IH0-S-T-R-OY1-@@": 5731,
    "D-AY0-AE1-@@": 5732,
    "B-AH0-N-@@": 5733,
    "AW1-T-P-UH2-T": 5734,
    "AO1-D-IY0-AH0-N-S": 5735,
    "AH0-F-IH1-SH-AH0-L-Z": 5736,
    "AE1-B-IY0": 5737,
    "-UW1-SH-AH0-N": 5738,
    "-IY0-ER0": 5739,
    "-AW1-N": 5740,
    "Z-IH1-R-OW0": 5741,
    "W-ER1-K-@@": 5742,
    "V-EH1-JH-T-AH0-B-AH0-L-Z": 5743,
    "TH-IY2@@": 5744,
    "T-UH1-R-AH0-S-T-S": 5745,
    "T-L-AH0-S": 5746,
    "S-W-IH1-NG": 5747,
    "S-T-R-IH1-P": 5748,
    "S-P-EH1-S-AH0-@@": 5749,
    "S-IY1-D": 5750,
    "S-IH1-M-AH0-@@": 5751,
    "S-IH0-K": 5752,
    "S-EY1-V-D": 5753,
    "S-ER1-V-ER0": 5754,
    "R-UW0": 5755,
    "R-AH0-Z": 5756,
    "P-OW1-L-AH0-N-D": 5757,
    "P-IH1-K-T": 5758,
    "P-AE1-S-IH0-Z": 5759,
    "N-IY0-AH0-@@": 5760,
    "N-EH1-T-W-ER2-K-S": 5761,
    "N-AO1-R-W-EY2": 5762,
    "M-EY1-B-IY0": 5763,
    "M-AH0-T-IH1-@@": 5764,
    "L-IH1-S-T-S": 5765,
    "L-ER0@@": 5766,
    "L-EH1-G": 5767,
    "L-AA1-K-T": 5768,
    "K-L-OW1-ZH-ER0": 5769,
    "K-L-EH1-R": 5770,
    "K-AH0-N-S-ER1-@@": 5771,
    "K-AH0-N-D": 5772,
    "K-AH0-L-D": 5773,
    "K-AA1-S-T": 5774,
    "JH-OY1-N-T": 5775,
    "IH0-N-JH-OY1-D": 5776,
    "IH0-F-EH1-K-T": 5777,
    "G-ER0-AA1-ZH": 5778,
    "EH1-TH@@": 5779,
    "EH1-D-IH0-T-IH0-D": 5780,
    "D-IH0-S-T-IH1-NG-K-T-IH0-V": 5781,
    "CH-IY0-@@": 5782,
    "B-R-IY1-F": 5783,
    "AH0-M-AH1-NG-S-T": 5784,
    "AH0-L-AE1-@@": 5785,
    "AA1-R-T-AH0-@@": 5786,
    "AA0-R-S-EH1-L-V-Z": 5787,
    "-EH2-L": 5788,
    "Y-AA1-R-D": 5789,
    "W-AY1-D-S-P-R-EH1-D": 5790,
    "TH-R-OW1-@@": 5791,
    "T-AH1-N-AH0-L": 5792,
    "T-AE1-N": 5793,
    "SH-AH0-N-AH0-@@": 5794,
    "S-N-AH0-S": 5795,
    "S-IH2-Z-AH0-M": 5796,
    "S-IH1-N-TH-AH0-@@": 5797,
    "S-IH1-K-@@": 5798,
    "S-EH1-P-ER0-IH0-T": 5799,
    "S-EH1-P-ER0-EY2-T-IH0-D": 5800,
    "S-AY2-T": 5801,
    "S-AY0-K-AA1-L-AH0-JH-IY0": 5802,
    "R-IH0-Z-IH1-S-T-AH0-N-S": 5803,
    "R-IH0-V-IY1-L-D": 5804,
    "R-AH0-T-IY0": 5805,
    "R-AA1-N": 5806,
    "P-UH1-L-D": 5807,
    "P-S-T": 5808,
    "P-R-IH0-Z-ER1-V-D": 5809,
    "P-R-AH0-T": 5810,
    "P-L-EY1-T": 5811,
    "P-EH1-R-AH0-L-EH2-L": 5812,
    "P-AE1-T-ER0-N": 5813,
    "P-AE0-@@": 5814,
    "P-AA1-K-AH0-T": 5815,
    "NG-G-Y-AH0-L-ER0": 5816,
    "N-IY0@@": 5817,
    "M-EH1-ZH-ER0": 5818,
    "M-AO1-L": 5819,
    "L-OW1-D": 5820,
    "K-T-IH1-@@": 5821,
    "K-R-IY0-EY1-@@": 5822,
    "K-EY1-N": 5823,
    "K-AO2-R@@": 5824,
    "K-AH0-M-P-L-EY1-@@": 5825,
    "K-AH0-D": 5826,
    "IH1-N-S-T-AH0-N-S": 5827,
    "IH1-N-JH-ER0-IY0-Z": 5828,
    "IH0-M-OW1-@@": 5829,
    "IH0-L-EH1-K-T-ER0-AH0-L": 5830,
    "IH0-K-S-P-L@@": 5831,
    "IH0-K-S-P-L-EY1-N-D": 5832,
    "HH-AE1-M-P-@@": 5833,
    "G-R-IY2-N": 5834,
    "G-IH0-D": 5835,
    "G-EH1-T-S": 5836,
    "F-EH1-R-@@": 5837,
    "F-AY1-N-AH0-L-Z": 5838,
    "EH2-V-AH0-L-UW1-@@": 5839,
    "EH0-M-@@": 5840,
    "DH-IH0-NG": 5841,
    "D-IH0-M-AA1-@@": 5842,
    "D-ER0-EH1-K-T-AH0-D": 5843,
    "CH-AA1-R-T-ER0": 5844,
    "B-AO0-R-@@": 5845,
    "B-AA1-R-Z": 5846,
    "AO0-T-AA1-@@": 5847,
    "AH0-K-L-AA1-K": 5848,
    "-UH2-D-Z": 5849,
    "-AO0-R": 5850,
    "Y-UW0-K-R-EY1-@@": 5851,
    "Y-ER0": 5852,
    "T-IH2-Z-AH0-M": 5853,
    "SH-AH0-L-Z": 5854,
    "S-T-AH0-S": 5855,
    "S-IH1-T-IH0-Z-AH0-N-Z": 5856,
    "S-AH1-N-IY0": 5857,
    "R-OY1-@@": 5858,
    "R-OW1-L-D": 5859,
    "R-IY1-S-AH0-N-L-IY0": 5860,
    "R-AH1-F-L-IY0": 5861,
    "P-UH1-T-IH0-NG": 5862,
    "P-R-IH1-Z-AH0-N@@": 5863,
    "P-AH0-L-IY0": 5864,
    "OY1-Z": 5865,
    "N-AO2-R-W-IY1-JH-AH0-N": 5866,
    "N-AH0-L-D": 5867,
    "L-IH1-P-S": 5868,
    "K-R-IH1-T-IH0-S-IH2-Z-AH0-M": 5869,
    "K-EH1-N-T": 5870,
    "K-AA1-N-S-ER0-T-S": 5871,
    "K-AA1-M-EH0-@@": 5872,
    "JH-IH0-N": 5873,
    "JH-AH0-B-AH0-L": 5874,
    "IH0-K-S-P-EH1-K-T-IH0-D": 5875,
    "HH-AH1-N-D-R-AH0-D-Z": 5876,
    "HH-AA1-R-D-@@": 5877,
    "F-R-IY1-K-W-AH0-N-T": 5878,
    "F-IH2-L-AH0-@@": 5879,
    "F-AO1-L-S": 5880,
    "EY1-JH-AH0-N-T-S": 5881,
    "EH1-V-R-IY0-B-AA2-D-IY0": 5882,
    "D-L-AH0-N-D": 5883,
    "D-EH1-M-AH0-K-R-AE2-@@": 5884,
    "D-AY1-AH0-S-IY2-Z": 5885,
    "B-L-IY1-@@": 5886,
    "B-IH1-R-@@": 5887,
    "AH0-B-Z-AO1-R-@@": 5888,
    "AE2-N-T@@": 5889,
    "AE1-L-G-ER0-IH2-DH-AH0-M": 5890,
    "AA1-R-G-Y-AH0-M-AH0-N-T": 5891,
    "AA0-K-T-OW1-B-ER0": 5892,
    "-IH2-NG": 5893,
    "-AE2-K-T": 5894,
    "W-IH1-R": 5895,
    "W-AO1-L-T-ER0": 5896,
    "V-ER0-IH0-JH": 5897,
    "V-EH1-R-IY0-AH0-N-T": 5898,
    "T-R-IH1-K": 5899,
    "T-OY1-@@": 5900,
    "S-K-EH1-JH-UW0-L-D": 5901,
    "S-IH1-R-IY0-AH0-S-L-IY0": 5902,
    "R-IH0-Z-AH1-L-T-IH0-NG": 5903,
    "R-IH0-K-AH0-L": 5904,
    "P-R-EY1-Z-D": 5905,
    "P-R-AE1-K-T-AH0-@@": 5906,
    "P-OW1-Z-IH0-NG": 5907,
    "N-IY0-AH0-L": 5908,
    "M-R": 5909,
    "M-ER0-IY1-AH0": 5910,
    "M-AY1-K-R-AH0-F-OW2-N": 5911,
    "M-AH0-K-AE1-N-IH0-K-AH0-L": 5912,
    "M-AE2-N-Y-AH0-F-AE1-K-CH-ER0-IH0-NG": 5913,
    "M-AE1-N-Y-AH0-S-K-R-IH2-@@": 5914,
    "K-AO1-R-AH0-@@": 5915,
    "K-AH0-N-D-AH1-@@": 5916,
    "K-AA1-L-AH0-M": 5917,
    "JH-OW1-Z-AH0-F": 5918,
    "IH1-N-S-EH2-K-T-S": 5919,
    "IH0-SH": 5920,
    "IH0-K-S-P-IH1-R-IY0-AH0-N-S-IH0-Z": 5921,
    "HH-UH2-D": 5922,
    "HH-EH1-R-@@": 5923,
    "HH-AH0-L-IY1-N": 5924,
    "HH-AA1-R-D-L-IY0": 5925,
    "G-L-AY1-@@": 5926,
    "F-AO1-R-M-IH0-NG": 5927,
    "F-AH1-N-D-Z": 5928,
    "EH1-N-IY0-W-AH2-N": 5929,
    "EH1-G-@@": 5930,
    "EH1-D": 5931,
    "DH": 5932,
    "D-L-AY2-@@": 5933,
    "D-AE1-N-Y-AH0-L": 5934,
    "B-Y-UW1-T-IY0": 5935,
    "B-R-IY1-D": 5936,
    "B-AY1-B-AH0-L": 5937,
    "B-AH0-S": 5938,
    "AW1-T-ER0": 5939,
    "AH2-N-IH0-N-@@": 5940,
    "AH0-N-T-S": 5941,
    "AH0-G-R-EH1-@@": 5942,
    "AE1-T-AH0-T-UW2-D": 5943,
    "-ER0-AH0-T-L-IY0": 5944,
    "-AY2-M": 5945,
    "W-EH2-@@": 5946,
    "W-AA2-@@": 5947,
    "T-UW2-D": 5948,
    "T-R-AY1-L": 5949,
    "T-F-AH0-L": 5950,
    "T-AY2-P": 5951,
    "SH-ER0-Z": 5952,
    "S-P": 5953,
    "S-IH1-M-P-T-AH0-M-Z": 5954,
    "S-IH0-V-L-IY0": 5955,
    "S-AH2-@@": 5956,
    "S-AH1-N-D@@": 5957,
    "S-AH0-P-OW1-Z-D": 5958,
    "S-AE1-K-S-AH0-@@": 5959,
    "R-IH1-M": 5960,
    "R-EH2-P-R-IH0-Z-EH1-N-T-S": 5961,
    "R-EH2-G-@@": 5962,
    "R-EH1-JH-IH0-S-T-ER0": 5963,
    "P-L-EY1-AO2-@@": 5964,
    "OY0-D": 5965,
    "N-OW1-T-AH0-B-L-IY0": 5966,
    "N-EH1-F-Y-UW0": 5967,
    "M-IH1-K-S": 5968,
    "M-AH0-D": 5969,
    "L-AY2-Z": 5970,
    "L-AH1-V-L-IY0": 5971,
    "K-T-L-IY0": 5972,
    "K-IY1-P-IH0-NG": 5973,
    "K-AH0-L-IH1-@@": 5974,
    "K-AH0-L-AE1-B-ER0-@@": 5975,
    "K-AA1-N-T-R-AE0-S-T": 5976,
    "JH-EH1-N@@": 5977,
    "IY1-Z": 5978,
    "IH2-N-F-L-UW0-EH1-N-CH-AH0-L": 5979,
    "IH1-N-T-R-AH0-S-T-S": 5980,
    "IH0-S-EH1-N-SH-AH0-L-IY0": 5981,
    "HH-AO1-R-N": 5982,
    "HH-AO1-L-@@": 5983,
    "F-EY1-T": 5984,
    "F-AY1-R-@@": 5985,
    "EY1-N-JH-AH0-L": 5986,
    "D-IH0-S-EH1-M-B-ER0": 5987,
    "D-IH0-P-R-EH1-SH-AH0-N": 5988,
    "D-EH1-S-K": 5989,
    "CH-EY1-M-B-ER0": 5990,
    "B-R-UW1-S": 5991,
    "B-AA2-K-S": 5992,
    "AO1-R-AH0-JH-IH0-N-Z": 5993,
    "AO1-F-AH0-S-IH0-Z": 5994,
    "AH0-P-R-EH1-@@": 5995,
    "AA2-P-ER0-T-UW1-N-AH0-T-IY0": 5996,
    "-OW1-N": 5997,
    "-IY2-Z": 5998,
    "-ER0-L-IY0": 5999,
    "Y-EH1-S-T-ER0-D-EY2": 6000,
    "Y-AH1-@@": 6001,
    "W-IH1-S-P@@": 6002,
    "V-ER1-CH-UW0-AH0-L": 6003,
    "V-AA1-L-V-D": 6004,
    "T-L-ER0": 6005,
    "T-AY1-N-IY0": 6006,
    "S-P-IY1-K-S": 6007,
    "S-P-EH1-SH-AH0-L@@": 6008,
    "S-AY1-T-IH0-D": 6009,
    "S-AY1-L-AH0-N-S": 6010,
    "S-AH0-L-EH1-B-R-IH0-@@": 6011,
    "R-IY0-T-AY1-@@": 6012,
    "R-EY0-@@": 6013,
    "P-IY0-EH1-R": 6014,
    "P-ER0-F-AO1-R-M-AH0-N-S-AH0-Z": 6015,
    "OW1-V-ER0-L-UH2-@@": 6016,
    "N-UW1-L-IY0": 6017,
    "N-IH0-K-L-IY0": 6018,
    "N-AY1-DH-ER0": 6019,
    "M-IY1-T-IH0-NG-Z": 6020,
    "M-IH0-S-T-EY1-K": 6021,
    "M-AH2-L-T-IY0-@@": 6022,
    "M-AH0-N-EY1-SH-AH0-N-Z": 6023,
    "M-AH0-L-IH1-@@": 6024,
    "L-AO2-G": 6025,
    "L-AE0-@@": 6026,
    "K-R-IH2-S-CH-IY0-AE1-N-IH0-T-IY0": 6027,
    "K-R-AO1-S-IH0-Z": 6028,
    "K-ER1-N-T": 6029,
    "K-AO1-T": 6030,
    "K-AH0-N-T-IH1-N-Y-UW0-AH0-S": 6031,
    "K-AE1-P-IH0-T-AH0-L": 6032,
    "K-AE1-L-K-Y-AH0-L@@": 6033,
    "K-AA1-N-S-AH0-N-T-R@@": 6034,
    "K-AA1-F-IY0": 6035,
    "IH2-N-AH0-@@": 6036,
    "IH2-M-P-L-AH0-@@": 6037,
    "IH0-M-P-EH1-@@": 6038,
    "IH0-M-AE1-@@": 6039,
    "IH0-G-Z-EH1-@@": 6040,
    "HH-EH1-R-IH0-T-IH0-JH": 6041,
    "G-R-AE1-JH-AH0-W@@": 6042,
    "G-IH1-L-T-IY0": 6043,
    "F-T-@@": 6044,
    "F-IH1-F-@@": 6045,
    "F-AO2-L": 6046,
    "EH1-N-IY0-W-EH2-R": 6047,
    "D-AH1-K-SH-AH0-N-Z": 6048,
    "B-R-IH1-JH-IH0-Z": 6049,
    "B-R-EH1-K-F-AH0-S-T": 6050,
    "B-OW1-L": 6051,
    "AO1-N-T-UW0": 6052,
    "AH0-S-OW1-@@": 6053,
    "AE1-K-Y@@": 6054,
    "W-IH0-S-K-AA1-N-S-AH0-N": 6055,
    "W-AY1-Z": 6056,
    "V-EH1-R-IY0-AH0-B-AH0-L": 6057,
    "T-OW1": 6058,
    "T-ER0-AH0-L": 6059,
    "T-AO1-R-D": 6060,
    "T-AH0-JH": 6061,
    "S-T-UW1-ER0-T": 6062,
    "S-T-IH0-K-L-IY0": 6063,
    "S-P-R-IH1-NG-@@": 6064,
    "S-M-IH1-@@": 6065,
    "S-IH1-NG-AH0-P-AO2-R": 6066,
    "S-IH0-S-T": 6067,
    "S-ER1-N-EY2-M": 6068,
    "S-ER1-K-Y-AH0-L-ER0": 6069,
    "R-IH0-K-W-AY1-ER0": 6070,
    "R-IH0-G-AA1-R-D-IH0-D": 6071,
    "P-R-EH0-M-IH1-R": 6072,
    "P-R-AA1-B-L-IY0": 6073,
    "P-IH1-R-IY0-AH0-D-Z": 6074,
    "P-EH2-R@@": 6075,
    "P-AY2-AH0-N-IH1-@@": 6076,
    "P-AW1-ER0-D": 6077,
    "N-IH0-N": 6078,
    "M-UW0-@@": 6079,
    "M-ER1-CH@@": 6080,
    "M-B-AH0-L-Z": 6081,
    "M-AE2-S-T-ER0": 6082,
    "M-AE2-N-Y-AH0-F-AE1-K-CH-ER0-D": 6083,
    "M-AA1-R": 6084,
    "K-R-IY0-EY1-T-IH0-NG": 6085,
    "K-R-AY1": 6086,
    "K-R-AE2-F-T": 6087,
    "K-EY1-K": 6088,
    "K-AH0-N-T-IH1-N-@@": 6089,
    "K-AH0-N-S-T-R-AH1-K-T-AH0-D": 6090,
    "K-AE1-P-CH-ER0": 6091,
    "IH2-N-D-IY0-AE1-N-AH0": 6092,
    "IH1-N-S-AY2-D": 6093,
    "IH1-N-F-L-UW2-AH0-N-S-IH0-Z": 6094,
    "IH1-M-P-L-AH0-@@": 6095,
    "IH0-G-Z-IH1-S-T-AH0-D": 6096,
    "HH-Y-UW2-@@": 6097,
    "HH-AO2-@@": 6098,
    "G-R-AE2-M": 6099,
    "EY1-JH@@": 6100,
    "ER0-EH1-@@": 6101,
    "EH0-M-P-L-OY1-@@": 6102,
    "D-R-OW1-V": 6103,
    "D-IH0-S-K-R-IH1-P-SH-AH0-N": 6104,
    "D-F-ER0-D": 6105,
    "D-AH1-B-L-IH0-N": 6106,
    "D-AH0-N-Z": 6107,
    "B-R-AH0-Z-IH1-L": 6108,
    "B-OW1-N": 6109,
    "B-EY1-S-@@": 6110,
    "B-EH1-L-T": 6111,
    "AO2-L-@@": 6112,
    "AO1-G-AH0-S-T": 6113,
    "AH0-P-IH1-@@": 6114,
    "AH0-K-Y-UW1-@@": 6115,
    "AE1-NG-@@": 6116,
    "AE0-K-S-EH1-P-@@": 6117,
    "-EH0-K-T-AE1-@@": 6118,
    "-AO2-K": 6119,
    "-AE2-K-S": 6120,
    "W-AH2-T-EH1-V-ER0": 6121,
    "V-OW1-K-AH0-@@": 6122,
    "V-EH1-R-IY0-D": 6123,
    "V-AE1-L-@@": 6124,
    "TH-IH0-K": 6125,
    "TH-ER1-T-IY1-N": 6126,
    "T-AH0-K-AH0-L": 6127,
    "SH-AE1-L-OW0": 6128,
    "S-IY1-L": 6129,
    "S-AH1-N-G-L-AE2-S-IH0-Z": 6130,
    "S-AH1-M-W-EH2-R": 6131,
    "R-IH0-Z-AH1-L-T-IH0-D": 6132,
    "R-IH0-T-ER1-N-Z": 6133,
    "R-EH1-S-T-R-AA2-N-T-S": 6134,
    "R-AE0-@@": 6135,
    "P-S-IY0": 6136,
    "P-R-IH1-N-S-AH0-P-AH0-L-Z": 6137,
    "P-L-EY2-N": 6138,
    "P-ER1-P-AH0-@@": 6139,
    "P-AA1-N-D": 6140,
    "OY2-Z": 6141,
    "NG-K-OW0": 6142,
    "N-T-EY1-@@": 6143,
    "N-IY0-AH0-S-L-IY0": 6144,
    "N-AE0-@@": 6145,
    "M-EH1-S-IH0-JH": 6146,
    "M-EH0-N-T-EY1-SH-AH0-N": 6147,
    "M-EH0-N-T": 6148,
    "M-AH0-CH@@": 6149,
    "K-W-IY1-N-Z": 6150,
    "K-T-IH0-K": 6151,
    "K-R-IH1-T-AH0-S-AY2-Z-D": 6152,
    "IH0-S-T-AE1-B-L-IH0-@@": 6153,
    "IH0-N-S-T-R-AH1-@@": 6154,
    "IH0-N-HH-AE1-B-AH0-T-AH0-N-T-S": 6155,
    "HH-Y-UW1-S-T-AH0-N": 6156,
    "HH-EH1-R-IH0-S": 6157,
    "HH-AE1-T-S": 6158,
    "F-R-AE1-NG-K-L-IH0-N": 6159,
    "F-L-EY1-V-ER0": 6160,
    "F-EH1-D-R-AH0-L": 6161,
    "F-AH0-L@@": 6162,
    "EH2-D-AH0-@@": 6163,
    "D-SH@@": 6164,
    "D-AY0-N-AE1-M-IH0-K": 6165,
    "B-IH0-G-AH1-N": 6166,
    "B-ER1-N": 6167,
    "B-EH1-R-Z": 6168,
    "AY1-AH0-@@": 6169,
    "AH0-P-R-UW1-@@": 6170,
    "AE1-S-T-ER0-@@": 6171,
    "AE1-D-AH0-M-Z": 6172,
    "AA0-L-@@": 6173,
    "Z-ER0-V-EY1-SH-AH0-N": 6174,
    "W-UW1-N-D-IH0-D": 6175,
    "W-IY1-K@@": 6176,
    "T-UH1-R-AH0-S-T": 6177,
    "T-R-IH1-B-Y-AH0-@@": 6178,
    "T-AH1-CH": 6179,
    "SH-AE1-D-OW2": 6180,
    "S-W-IH1-M": 6181,
    "S-T-AA1-K-@@": 6182,
    "S-P-AH1-@@": 6183,
    "S-IY2-Z": 6184,
    "S-EH1-V-AH0-N-TH": 6185,
    "S-AH0-P-L-AY1-D": 6186,
    "S-AE1-N-D-IY0": 6187,
    "S-AE1-K-S-AH0-N": 6188,
    "R-IY0-Z-AH1-L-T": 6189,
    "R-IY0-L-EY1-SH-AH0-N-SH-IH2-P-S": 6190,
    "R-IY0-K-W-AY1-ER0-Z": 6191,
    "R-IH1-CH-ER0-@@": 6192,
    "R-IH0-T-IY0": 6193,
    "R-EY2-D-IY0-@@": 6194,
    "P-R-AH0-JH-EH1-K-T": 6195,
    "P-R-AA1-S-EH0-S-AH0-Z": 6196,
    "P-ER0-EY1-D": 6197,
    "P-AO1-R-T-S": 6198,
    "OW1-N-ER0-SH-IH2-P": 6199,
    "N-AE1-CH-ER0-AH0-L": 6200,
    "M-AH2-L-@@": 6201,
    "M-AH0-S-L-IY0": 6202,
    "M-AE1-T": 6203,
    "L-AO1-N": 6204,
    "K-L-AA1-K": 6205,
    "K-AO1-F-IY0": 6206,
    "K-AH2-M": 6207,
    "K-AH0-N-T-R-AE1-@@": 6208,
    "K-AH0-N-F-IH2-G-Y@@": 6209,
    "K-AH0-M-Y-UW2-N-AH0-K-EY1-SH-AH0-N-Z": 6210,
    "K-AH0-M-B-AY1-@@": 6211,
    "K-AE1-T-AH0-G-AO2-R-IY0": 6212,
    "K-AE1-N-@@": 6213,
    "K-AA1-P-IY0-Z": 6214,
    "HH-OW1-S-T-AH0-D": 6215,
    "HH-IH2-@@": 6216,
    "HH-AY1-T": 6217,
    "G-AE1-DH-ER0-D": 6218,
    "D-IH1-F-R-AH0-N-S-AH0-Z": 6219,
    "D-IH0-V-AO1-R-S-T": 6220,
    "D-IH0-S-K-AH1-V-ER0-IY0": 6221,
    "CH-AA1-R-T": 6222,
    "B-IY0-L-OW1": 6223,
    "B-AH0-L-UW1-@@": 6224,
    "B-AA1-K-S-IH0-NG": 6225,
    "AH0-S-OW2-SH-IY0-EY1-SH-AH0-N": 6226,
    "AH0-N-K-L-IH1-R": 6227,
    "AH0-JH-AH1-@@": 6228,
    "AH0-D-V-AE1-N-S": 6229,
    "AE1-L-F-AH0": 6230,
    "Y-UW1-ZH-AH0-W-AH0-L-IY0": 6231,
    "V-ER0-D": 6232,
    "UW@@": 6233,
    "TH-R-OW1": 6234,
    "T-R-IH1-B-Y-UW0-@@": 6235,
    "T-IH1-V-AH0-T-IY0": 6236,
    "T-EY1-B-AH0-L-Z": 6237,
    "T-AE1-L-AH0-N-T": 6238,
    "S-P-EH1-SH-AH0-L-AY2-Z-D": 6239,
    "S-IH2-G-ER0-EH1-T": 6240,
    "S-IH0-N-@@": 6241,
    "S-ER1-K-Y-AH0-L@@": 6242,
    "S-EH1-K-T-ER0": 6243,
    "S-AY1-M-AH0-N": 6244,
    "S-AH1-N-S-EH2-T": 6245,
    "S-AH0-F-AY2-D": 6246,
    "R-IY0-AE1-@@": 6247,
    "R-IH0-M-EH1-M-B-ER0-D": 6248,
    "R-EH2-K-R-IY0-EY1-SH-AH0-N": 6249,
    "R-EH1-K-AH0-G-N-AY1-@@": 6250,
    "P-Y-UH1-@@": 6251,
    "P-R-IH0-Z-ER1-@@": 6252,
    "P-IH1-CH": 6253,
    "P-AY1-N": 6254,
    "P-AA2-R-L-AH0-M-EH1-N-T-ER0-IY0": 6255,
    "P-AA2-L-IY2-@@": 6256,
    "P-AA1-R-T-L-IY0": 6257,
    "P-AA0-R-T-IH1-S-AH0-P@@": 6258,
    "N-IY1-Z": 6259,
    "M-IH0-T": 6260,
    "M-EY0-N-T-EY1-N-Z": 6261,
    "M-AH0-N-AA1-@@": 6262,
    "M-AE0-G-N-EH1-T-IH0-K": 6263,
    "M-AA1-N@@": 6264,
    "L-IH1-N-IY0-ER0": 6265,
    "K-AO1-Z-IH0-Z": 6266,
    "K-AH0-N-S-IH1-S-T": 6267,
    "K-AH0-M-P-EH1-T-IH0-@@": 6268,
    "K-AA1-R-T": 6269,
    "K-AA1-L-IH0-JH-IH0-Z": 6270,
    "JH-EH1-N-T-AH0-L-M-AH0-N": 6271,
    "IY@@": 6272,
    "IH0-L-EH1-K-@@": 6273,
    "HH-IY1-R-OW0": 6274,
    "F-R-EH1-SH-@@": 6275,
    "F-OW1-T-AH0-G-R-AE2-F-S": 6276,
    "F-EY1-S-IH0-Z": 6277,
    "ER0-IH1-@@": 6278,
    "EH1-V-ER0-IY0": 6279,
    "D-EH1-F-AH0-@@": 6280,
    "D-AY1-M-AH0-N-D": 6281,
    "D-AO1-N": 6282,
    "AO2-R@@": 6283,
    "AO1-T-AH0-@@": 6284,
    "AH1-P-D@@": 6285,
    "AH0-K-Y-UW1-Z-D": 6286,
    "AE1-N-JH-AH0-L-AH0": 6287,
    "AE1-N-D-IY0": 6288,
    "AE1-D-AH0-@@": 6289,
    "-IY0-EH1-@@": 6290,
    "-IY0-AE1-N-AH0": 6291,
    "-AY2-ER0": 6292,
    "V-OW1-L-@@": 6293,
    "T-OW1-K-IY0-OW2": 6294,
    "T-IY2-@@": 6295,
    "T-EH1-K": 6296,
    "S-T-AH0-N-S": 6297,
    "S-T-AH0-N-@@": 6298,
    "S-OW1-L-JH-ER0": 6299,
    "S-K-IY1": 6300,
    "S-F-AH0-L": 6301,
    "S-AY1-AH0-N-T-IH0-@@": 6302,
    "S-AO1-R-D": 6303,
    "S-AH0-L-UW1-SH-AH0-N-Z": 6304,
    "S-AH0-L-IY1-@@": 6305,
    "R-IY0-Z-AH1-L-@@": 6306,
    "R-EH2-K-R-IY0-EY1-SH-AH0-N-AH0-L": 6307,
    "R-EH1-S-AH0-@@": 6308,
    "R-EH1-L-AH0-V-AH0-N-T": 6309,
    "P-EY1-T-R-AH0-N": 6310,
    "P-EY1-N-T-ER0": 6311,
    "P-AH0-L-IH0-S": 6312,
    "P-AA1-V-ER0-T-IY0": 6313,
    "P-AA0-R-T-IH1-S-AH0-P-EY2-T-IH0-D": 6314,
    "OW1-N-Z": 6315,
    "N-CH-T": 6316,
    "N-AA1-L-AH0-JH": 6317,
    "M-AH0-T-S": 6318,
    "L-IH1-B-ER0-T-IY0": 6319,
    "L-AH0-B-AH0-L": 6320,
    "L-AE1-F-T": 6321,
    "K-R-IH1-S-T-AH0-F-ER0": 6322,
    "K-R-EH1-D-IH0-T": 6323,
    "K-IH1-L-IH0-NG": 6324,
    "K-IH1-L-@@": 6325,
    "K-EH2-R-AH0-K-T-ER0-IH1-S-T-IH0-K": 6326,
    "K-AO1-R-N": 6327,
    "K-AH0-N-T-EY1-@@": 6328,
    "K-AH0-M-P-IY1-T": 6329,
    "K-AH0-L-AE2-B-ER0-EY1-SH-AH0-N": 6330,
    "K-AE1-M-ER0@@": 6331,
    "K-AA2-M-P-AH0-T-IH1-SH-AH0-N-Z": 6332,
    "JH-EH1-N-@@": 6333,
    "IH2-N-S-T-R-AH0-M-EH1-N-T-AH0-L": 6334,
    "IH2-N-D-IH0-@@": 6335,
    "IH0-N-V-AA1-L-V-Z": 6336,
    "IH0-M-ER1-JH-AH0-N-S-IY0": 6337,
    "IH0-K-S-T-EH1-N-D-AH0-D": 6338,
    "IH0-K-S-K-L-UW1-S-IH0-V-L-IY0": 6339,
    "HH-IH1-D-AH0-N": 6340,
    "HH-EH2-R-D": 6341,
    "HH-AY1-D-R@@": 6342,
    "HH-AE1-N-D-IH0-D": 6343,
    "G-UH1-@@": 6344,
    "G-R-OW1-Z": 6345,
    "G-IH0-T-ER0-IH0-S-T": 6346,
    "F-IY1-D-IH0-NG": 6347,
    "F-AW1-N-T-AH0-N": 6348,
    "F-AH1-N-D": 6349,
    "D-IH2-S-AY1-D": 6350,
    "D-IH0-F-AY1-@@": 6351,
    "D-AY1-Z": 6352,
    "D-AE2-@@": 6353,
    "D-AE1-L-Y-AH0": 6354,
    "B-AA1-T": 6355,
    "AH0-S-IH1-S-T": 6356,
    "AH0-K-@@": 6357,
    "AH0-G-R-IY1": 6358,
    "AE2-L-AH0-B-AE1-M-AH0": 6359,
    "AE1-L": 6360,
    "AA1-P-SH-AH0-N": 6361,
    "AA0-R-T-IH1-S-T-IH0-K": 6362,
    "-AY0-AE1-@@": 6363,
    "-AH0-M-Z": 6364,
    "W-OW1-K": 6365,
    "V-EH1-S-AH0-L": 6366,
    "T-UW1-L": 6367,
    "T-R-AE2-@@": 6368,
    "T-ER0-AH0-@@": 6369,
    "T-EH1-N-IH0-S": 6370,
    "S-K-IH1-L": 6371,
    "S-IY1-V": 6372,
    "S-IH1-T-IH0-@@": 6373,
    "S-AH0-K-S-IY1-D-AH0-D": 6374,
    "S-AH0-JH": 6375,
    "R-IY0-B-IH1-L-T": 6376,
    "R-EH2-P-R-IH0-Z-EH1-N-T-AH0-@@": 6377,
    "R-AY1-D-ER0": 6378,
    "P-R-IH2-@@": 6379,
    "P-R-EH1-G-N@@": 6380,
    "P-R-AH0-M-OW1-T": 6381,
    "P-R-AA1-S-P@@": 6382,
    "P-EH1-R-Z": 6383,
    "P-AE1-L-AH0-@@": 6384,
    "OY0-@@": 6385,
    "NG-G-AH0-L-Z": 6386,
    "N-S-AA1-@@": 6387,
    "N-CH-AH0-N": 6388,
    "N-AA1-V-AH0-@@": 6389,
    "M-EH1-L-AH0-@@": 6390,
    "M-AY1-N-Z": 6391,
    "M-AH2-N-T-R-IY0-AO1-L": 6392,
    "K-Y-UW1": 6393,
    "K-L-EY1": 6394,
    "K-L-AW1-D": 6395,
    "K-EY1-D": 6396,
    "K-EH1-M-AH0-K-AH0-L": 6397,
    "K-AH1-L-ER0-@@": 6398,
    "K-AE1-T-AH0-G-AO2-R-IY0-Z": 6399,
    "K-AA1-M-Y-AH0-N-AH0-S-T": 6400,
    "IH0-L-IY1-G-AH0-L": 6401,
    "IH0-K-S-P-AE1-N-D-IH0-D": 6402,
    "HH-IH0-S-T-AO1-R-IH0-K-L-IY0": 6403,
    "HH-AY1-D": 6404,
    "HH-AH1-L": 6405,
    "F-R-AE1-N-S-IH0-S": 6406,
    "F-IH1-Z-IH0-@@": 6407,
    "F-IH1-F-T-IY1-N": 6408,
    "EH1-L-D-AH0-S-T": 6409,
    "EH0-N-JH@@": 6410,
    "D-IH0-S-T-R-AH1-@@": 6411,
    "D-AY1-N-AH0-S-T-IY0": 6412,
    "CH-EY1-S": 6413,
    "CH-EY1-N-JH-AH0-Z": 6414,
    "CH-AE1-P-@@": 6415,
    "CH-AE1-M-P-IY0-AH0-N-SH-IH2-P-S": 6416,
    "B-IH0-T": 6417,
    "B-AH0-T-AH0-D": 6418,
    "AW1-T-D-AO1-R-Z": 6419,
    "AO1-F-AH0-S-AH0-Z": 6420,
    "AH0-T-R-AE1-K-SH-AH0-N": 6421,
    "AH0-L-EH1-@@": 6422,
    "AH0-L-AY1-AH0-N-S": 6423,
    "AH0-F-EH1-K-T-IH0-D": 6424,
    "AE0-K-T-IH1-@@": 6425,
    "-L@@": 6426,
    "-AE1-N": 6427,
    "-AA2": 6428,
    "Y-UW0-T-IH1-@@": 6429,
    "Y-UW0-D": 6430,
    "V-OW1-T-IH0-NG": 6431,
    "V-AY0-AH0-L-IH1-N": 6432,
    "V-AE1-L-Y-UW0-@@": 6433,
    "TH-IY1-M-Z": 6434,
    "TH-AH0": 6435,
    "T-EH1-S-T-AH0-@@": 6436,
    "SH-M-AH0-N-T": 6437,
    "SH-AH0-S-L-IY0": 6438,
    "S-T-L@@": 6439,
    "S-P-EH1-SH-AH0-L-AH0-S-T": 6440,
    "S-K-OW2": 6441,
    "S-IH1-L-AH0-@@": 6442,
    "S-IH1-B-L-IH0-NG-Z": 6443,
    "S-AH0-P-AO1-R-T-ER0": 6444,
    "R-OW1-D-@@": 6445,
    "R-IY0-K-W-AY1-R-D": 6446,
    "R-IY0-EH2-@@": 6447,
    "R-IH0-F-ER1": 6448,
    "R-F@@": 6449,
    "R-AH0-N-Z": 6450,
    "P-R-IY1-F-EH2-@@": 6451,
    "P-R-AY1-Z-D": 6452,
    "P-R-AY1-V-AH0-T-L-IY0": 6453,
    "P-R-AA1-F-IH0-T": 6454,
    "P-IH1-K-@@": 6455,
    "P-AA2-L-AH0-T-IH1-SH-AH0-N": 6456,
    "N-S-T-ER0": 6457,
    "N-S-IY0-@@": 6458,
    "N-AW1-AH0-D-EY2-Z": 6459,
    "M-P-AH0-L": 6460,
    "M-EH1-R-IY0-Z": 6461,
    "M-B-L-IH0-NG": 6462,
    "M-AA1-R-T-IH0-N": 6463,
    "L-OW1-K-AH0-L-IY0": 6464,
    "L-AY2-T-S": 6465,
    "K-W-AY1-ER0": 6466,
    "K-IY1-B-AO2-R-D": 6467,
    "K-EH1-R-F-AH0-L": 6468,
    "K-AH1-S-T-AH0-M-ER0-Z": 6469,
    "K-AH0-N-D-EH1-@@": 6470,
    "K-AE1-M-P@@": 6471,
    "K-AA1-N-F-AH0-D-AH0-N-S": 6472,
    "JH-EH1-F-ER0-S-AH0-N": 6473,
    "JH-AH0-N-@@": 6474,
    "IY1-Z-IY0-ER0": 6475,
    "IH1-N-T-ER0-V-@@": 6476,
    "IH1-N-D-AH0-K-EY2-T": 6477,
    "IH0-S-T": 6478,
    "IH0-N-K-W-AY1-@@": 6479,
    "IH0-N-G-R-IY1-D-IY0@@": 6480,
    "IH0-K-S-T-ER1-N-AH0-L": 6481,
    "HH-AY1-ER0-D": 6482,
    "G-R-AE1-F-IH0-K-AH0-L": 6483,
    "F-OW1-T-AH0-G-R-AE2-F": 6484,
    "F-OW1-L-@@": 6485,
    "F-IH1-SH-AH0-L": 6486,
    "F-AA1-L-AH0-N": 6487,
    "ER0-EY1-N-JH@@": 6488,
    "EH1-D-IH0-@@": 6489,
    "D-IH2-S-AY1-@@": 6490,
    "D-IH2-S-AH0-P-OY1-@@": 6491,
    "D-IH1-SH-AH0-N": 6492,
    "D-AY0-V-ER1-@@": 6493,
    "D-AH0-Z": 6494,
    "CH-IH1-L-IY0": 6495,
    "B-AY0-AA1-L-AH0-JH-IY0": 6496,
    "B-AO1-R-D-IH0-NG": 6497,
    "B-AH0-L-IH1-@@": 6498,
    "AO1-S-T-R@@": 6499,
    "AH2-N-D-ER0-S-T-UH1-D": 6500,
    "AH0-T-L-AE1-N-T-IH0-K": 6501,
    "AE2-L-IH0-G-Z-AE1-N-D-ER0": 6502,
    "AE2-D-AH0-@@": 6503,
    "AE1-N-TH-AH0-N-IY0": 6504,
    "AE1-K-CH-L-IY0": 6505,
    "AE1-D-V-ER0-T-AY2-@@": 6506,
    "-OW1": 6507,
    "-IY0-AH0-T-S": 6508,
    "-AA2-R@@": 6509,
    "Y-UW0-AH0-@@": 6510,
    "V-EH1-S-T": 6511,
    "TH-IH1-R-AH0-M": 6512,
    "T-UH1-R-D": 6513,
    "T-R-IH0-@@": 6514,
    "T-IH0-D-L-IY0": 6515,
    "T-AH0-N-S": 6516,
    "SH-UW1-T": 6517,
    "S-T-AO1-R-D": 6518,
    "S-P-EY1-S-@@": 6519,
    "S-L-AH1-@@": 6520,
    "S-K-R-IH1-P-SH-AH0-N": 6521,
    "S-AH0-S-P-IH1-@@": 6522,
    "S-AH0-L-EH1-K-@@": 6523,
    "R-IH2-@@": 6524,
    "R-IH0-T-ER1-N-IH0-NG": 6525,
    "R-IH0-P-IY1-T-IH0-D": 6526,
    "R-EH2-K-AH0-G-N-IH1-SH-AH0-N": 6527,
    "R-AA1-JH-ER0-Z": 6528,
    "P-AH0-L-IH1-@@": 6529,
    "P-AH0-D-EH1-S-T-R@@": 6530,
    "P-AA1-R-T-@@": 6531,
    "N-Y-UW0-@@": 6532,
    "N-TH-R-AH0-@@": 6533,
    "N-T-AH0-N@@": 6534,
    "N-S-T-AH0-N": 6535,
    "N-IY0-AH0-N-Z": 6536,
    "N-IH0-JH": 6537,
    "N-EH1-R-OW0": 6538,
    "N-CH-IH0-NG": 6539,
    "M-IY1-D-IY0@@": 6540,
    "M-ER0-IY0": 6541,
    "M-AH1-DH-ER0-Z": 6542,
    "L-IH0-T-IY0-Z": 6543,
    "L-IH0-S-T-S": 6544,
    "K-EY2-P-AH0-@@": 6545,
    "K-AH0-N-F-Y-UW1-Z-D": 6546,
    "K-AH0-M-EH1-@@": 6547,
    "K-AA1-R-B-AH0-N": 6548,
    "K-AA1-M-IH0-K-S": 6549,
    "IH1-M-AH0-G-R-AH0-N-T-S": 6550,
    "IH0-Z-AH0-N-T": 6551,
    "IH0-N-V-EH1-N-SH-AH0-N": 6552,
    "IH0-K-S-P-L-EY1-N": 6553,
    "IH0-K-S-P-L-EY1-@@": 6554,
    "G-OW2-IH0-NG": 6555,
    "G-L-AE1-S-AH0-Z": 6556,
    "F-R-EY1-Z": 6557,
    "F-AY0-@@": 6558,
    "F-AA0-@@": 6559,
    "ER1-TH-@@": 6560,
    "EH1-K-S-ER0-S-AY2-Z": 6561,
    "D-UW1-AH0-L": 6562,
    "D-IH0-Z-AY1-N-ER0": 6563,
    "D-AH1-S-T": 6564,
    "B-R-EY1-K-@@": 6565,
    "B-R-AO1-D-K-AE2-@@": 6566,
    "B-EY1-S-IH0-S": 6567,
    "AY0-D-IY1-L": 6568,
    "AO1-R-D-AH0-N@@": 6569,
    "AH0-T-ER1-N-IY0": 6570,
    "AH0-S-AY1-D": 6571,
    "AH0-K-AO1-R-@@": 6572,
    "AH0-B-S-K-@@": 6573,
    "AE1-SH-@@": 6574,
    "-IH0-NG-Z": 6575,
    "-AH0-L-IH1-@@": 6576,
    "-AH0-L-AA1-@@": 6577,
    "Z-AH0-L@@": 6578,
    "Y-UW1-ZH-UW0-AH0-L": 6579,
    "Y-UW1-N-AH0-F-AO2-R-M-Z": 6580,
    "W-AY1-L-S-T": 6581,
    "T-R-AY1-Z": 6582,
    "T-R-AH0-D-IH1-SH-AH0-N-AH0-L-IY0": 6583,
    "T-M-AH0-N": 6584,
    "T-EY1-P": 6585,
    "T-ER0-EY1-@@": 6586,
    "T-EH1-K-T-IH0-V": 6587,
    "T-AH0-N-T-S": 6588,
    "T-AH0-M-AA1-@@": 6589,
    "S-T-AH0-M-Z": 6590,
    "S-T-AA2-K": 6591,
    "S-P-AO1-R-@@": 6592,
    "S-AH0-K-Y-UW1-SH-AH0-N": 6593,
    "S-AH0-K-S-EH1-S-ER0": 6594,
    "R-IH1-V-ER0-@@": 6595,
    "R-EY1-T-S": 6596,
    "R-AY1-Z-IH0-NG": 6597,
    "R-AA1": 6598,
    "P-R-AH0-P-OW1-Z-AH0-L": 6599,
    "P-R-AH0-G-R-EH1-S-IH0-V": 6600,
    "P-ER0-EH1-@@": 6601,
    "P-EH1-T": 6602,
    "P-AH0-T-EH1-N-SH-AH0-L": 6603,
    "N-UW1-Z": 6604,
    "N-OW0-Z": 6605,
    "N-AE1-SH-@@": 6606,
    "M-EH1-L": 6607,
    "M-AE1-K-S-AH0-M-AH0-M": 6608,
    "M-AE1-CH-AH0-Z": 6609,
    "M-AA1-N-@@": 6610,
    "M-AA1-D-AH0-F-AY2-D": 6611,
    "L-UW1-S": 6612,
    "L-IH1-N": 6613,
    "L-IH0-K-S": 6614,
    "L-AY1-AH0-B-AH0-L": 6615,
    "L-AA1-N": 6616,
    "K-R-IH1-P-@@": 6617,
    "K-OW0-AO1-R-D-AH0-N@@": 6618,
    "K-EY1-V": 6619,
    "K-EH1-R-AH0-L": 6620,
    "K-EH1-R-@@": 6621,
    "K-EH1-N-AH0-D-IY0": 6622,
    "K-AW1-N-S-AH0-@@": 6623,
    "K-AH0-B-AH0-L": 6624,
    "K-AA1-L-AH0-N-IY0": 6625,
    "JH-UH2-R-IH0-S-D-IH1-@@": 6626,
    "JH-EH0-@@": 6627,
    "IH1-N-D-IY0-AH0-N-Z": 6628,
    "IH0-N-T-ER1-@@": 6629,
    "IH0-M-P-AO1-R-@@": 6630,
    "IH0-K-S-T-EH1-N-D": 6631,
    "IH0-D-IH1-SH-AH0-N-Z": 6632,
    "HH-IH2-L": 6633,
    "HH-IH1-P": 6634,
    "HH-AW1-Z-D": 6635,
    "HH-AA1-R-V-AH0-@@": 6636,
    "G-R-AE1-F-IH0-K-S": 6637,
    "G-L-AE1-S-IH0-Z": 6638,
    "G-AH1-L-F": 6639,
    "F-IY2-@@": 6640,
    "F-EY1-V-ER0-IH0-T": 6641,
    "F-ER1-S-T-@@": 6642,
    "F-ER1-DH-ER0-M-AO2-R": 6643,
    "F-EH1-D@@": 6644,
    "F-AH0-S-IH1-L-IH0-T-IY0-Z": 6645,
    "ER0-AY1-V": 6646,
    "D-UW1-S": 6647,
    "D-R-IH1-V-AH0-N": 6648,
    "D-R-IH1-NG-K-S": 6649,
    "D-IH0-S-P-L-EY1-Z": 6650,
    "D-IH0-S-M-IH1-S-T": 6651,
    "D-IH0-P-AA1-R-T-M-AH0-N-T-S": 6652,
    "D-AE1-L-AH0-S": 6653,
    "CH-IH1-P-S": 6654,
    "CH-EH2-@@": 6655,
    "B-EH1-S-T-@@": 6656,
    "B-AY1-IH0-NG": 6657,
    "B-AY0-AA1-@@": 6658,
    "B-AO1-T": 6659,
    "AE1-D-AH0-M": 6660,
    "1": 6661,
    "-AW2-ER0": 6662,
    "Z-IH0-K": 6663,
    "Y-UW1-N-AH0-V-ER2-S": 6664,
    "Y-AH0-L-EY1-SH-AH0-N": 6665,
    "W-IY1-K-EH2-N-D": 6666,
    "TH-IH1-R-IY0-Z": 6667,
    "T-IH1-P-IH0-K-AH0-L": 6668,
    "T-IH1-M": 6669,
    "T-ER1-K-IY0": 6670,
    "SH-IY0-EY2-T": 6671,
    "S-K-R-AH1-@@": 6672,
    "S-K-IY1-IH0-NG": 6673,
    "S-K-EY1-T-B-AO2-R-@@": 6674,
    "S-IH1-G-N-AH0-@@": 6675,
    "S-AH0-L-EH1-K-T-AH0-D": 6676,
    "S-AE1-N-@@": 6677,
    "R-EH2-V-AH0-L-UW1-SH-AH0-N-EH2-R-IY0": 6678,
    "R-EH2-P-R-AH0-@@": 6679,
    "P-T-ER0": 6680,
    "P-R-AA1-F-AH0-@@": 6681,
    "P-EY1-SH-AH0-N-Z": 6682,
    "P-AO0-R-T-R-EY1-D": 6683,
    "P-AA0-R-T-IH1-S-AH0-P-AH0-N-T-S": 6684,
    "OY0": 6685,
    "N-T-IH0-K": 6686,
    "N-EY1-B-ER0-Z": 6687,
    "M-EH1-K-S-AH0-K-AH0-N": 6688,
    "M-B-ER0-G": 6689,
    "M-AA1-N-Y-UW0-@@": 6690,
    "M-AA1-L-AH0-K-Y-UW2-@@": 6691,
    "L-ER0-D": 6692,
    "L-AY1-F-T-AY2-M": 6693,
    "K-W-AA1-L-AH0-@@": 6694,
    "K-AO1-R-S-IH0-Z": 6695,
    "K-AH0-N-S-ER1-N": 6696,
    "K-AH0-M-Y-UW1-N-AH0-@@": 6697,
    "K-AH0-M-EH1-M-ER0-@@": 6698,
    "K-AA2-R-@@": 6699,
    "JH-UW0@@": 6700,
    "JH-AH0-N-IY1-V-AH0": 6701,
    "HH-IY1-L": 6702,
    "HH-IH1-N-D@@": 6703,
    "F-R-EH2-N-D": 6704,
    "F-IY1-CH-ER0-IH0-NG": 6705,
    "F-AH0-S": 6706,
    "D-EY1-V-IH0-S": 6707,
    "D-AH0-K-OW1-T-AH0": 6708,
    "D-AA1-K-Y-AH0-M-EH0-N-T": 6709,
    "B-OW1-L-@@": 6710,
    "B-ER1-TH-P-L-EY2-S": 6711,
    "B-ER0-IY0": 6712,
    "B-EH1-L-JH-AH0-M": 6713,
    "B-AA1-N-D": 6714,
    "AH1-N-D-ER0-T-EY2-@@": 6715,
    "AE1-M-AH0-CH-ER2": 6716,
    "AE1-D-AH0-L-T": 6717,
    "-AO0-R-T": 6718,
    "W-IH0-DH-@@": 6719,
    "V-EH1-N-Y-UW0": 6720,
    "T-R-AE1-N-Z-IH0-T": 6721,
    "T-IH0-S-@@": 6722,
    "S-UW1-T-AH0-B-AH0-L": 6723,
    "S-N-EY1-@@": 6724,
    "S-M-AO1-L-AH0-S-T": 6725,
    "S-IH1-S-T": 6726,
    "S-EH1-V-AH0-N-@@": 6727,
    "S-EH1-T-@@": 6728,
    "R-IY1-D-Z": 6729,
    "R-IY0-AE1-K-@@": 6730,
    "R-IH0-P-L-EY1-S-M-AH0-N-T": 6731,
    "R-EH1-S-K-@@": 6732,
    "R-AY1-T-IH0-NG-Z": 6733,
    "P-R-IH0-D-AA1-M-AH0-N-AH0-N-T-L-IY0": 6734,
    "P-R-AH0-N@@": 6735,
    "P-R-AE1-K-T-AH0-K-AH0-L": 6736,
    "P-IY1-T": 6737,
    "P-ER0-D": 6738,
    "P-AO1-R-SH-AH0-N-Z": 6739,
    "P-AE1-T-ER0-N-Z": 6740,
    "P-AA0-R-T-IH1-S-AH0-P-EY2-T": 6741,
    "NG-K-IY0-Z": 6742,
    "M-IY1-D-IY0-AH0-M": 6743,
    "M-ER1-CH-AH0-N-T": 6744,
    "M-AE2-N-AH0-@@": 6745,
    "L-UW1": 6746,
    "L-IY1-F": 6747,
    "L-AY1-S-AH0-N-S-T": 6748,
    "K-W-AH0-B-EH1-K": 6749,
    "K-AH1-M-F-ER0-@@": 6750,
    "K-AH0-P-AE1-S-AH0-T-IY0": 6751,
    "JH-EH1-T": 6752,
    "JH-AH0-L@@": 6753,
    "IH1-N-T-R@@": 6754,
    "IH0-N-K-ER1-AH0-JH-D": 6755,
    "HH-W-IH1-@@": 6756,
    "HH-AY1-T-S": 6757,
    "HH-AH1-N-T-ER0": 6758,
    "HH-AE1-N-D-AH0-L-D": 6759,
    "HH-AE1-N-@@": 6760,
    "HH-AE1-M-P-T-AH0-N": 6761,
    "G-UW0-@@": 6762,
    "F-R-AE1-N-S-AH0-S": 6763,
    "F-AE1-M-AH0-L-IY0-Z": 6764,
    "F-AE1-L-@@": 6765,
    "F-AE1-K-AH0-L-T-IY0": 6766,
    "EH1-R-L-AY2-N": 6767,
    "D-OW0-Z": 6768,
    "D-IH0-S-T-R-OY1": 6769,
    "D-IH0-F-EH1-N-S-IH0-V": 6770,
    "CH-IH1-K-AH0-N": 6771,
    "B-IH1-Z-N-IH0-S": 6772,
    "B-ER1-N-Z": 6773,
    "B-AY0-AA1-G-R-AH0-F-IY0": 6774,
    "AY0-D-EH1-N-T-AH0-@@": 6775,
    "AH0-S-UW1-M-D": 6776,
    "AH0-F-EH1-R": 6777,
    "AH0-D-M-IH1-T-AH0-D": 6778,
    "AE1-S-P-EH2-K-T-S": 6779,
    "AA1-R-K-AY2-@@": 6780,
    "2-@@": 6781,
    "-IY0-AH0-Z": 6782,
    "-IY0-AH0-N@@": 6783,
    "-IH0-S-T-S": 6784,
    "-EH1-V-ER0": 6785,
    "Y-UW1-Z-AH0-Z": 6786,
    "W-EY1-S-T": 6787,
    "W-ER0-TH": 6788,
    "W-EH1-L-K-AH0-M": 6789,
    "V-N-AH0-S": 6790,
    "V-IY0-EH2-T-@@": 6791,
    "V-IH1-Z-IH0-@@": 6792,
    "V-EY1-SH-AH0-N-Z": 6793,
    "T-W-IH1-N": 6794,
    "T-S-M-AH0-N": 6795,
    "T-R-IY1-T-IY0": 6796,
    "T-R-AE2-N-S-@@": 6797,
    "T-AA1-D-L-ER0": 6798,
    "SH-R-AY1-@@": 6799,
    "S-T-R-EY1-SH-AH0-N-Z": 6800,
    "S-T-R-AE1-T-AH0-JH-IY0": 6801,
    "S-P-AO1-R-T-IH0-NG": 6802,
    "S-AY1-S": 6803,
    "S-AH0-N@@": 6804,
    "S-AE1-NG-K-@@": 6805,
    "S-AE1-NG-K": 6806,
    "S-AE1-K-R-AH0-F-AY2-@@": 6807,
    "R-OW1-B-AA2-@@": 6808,
    "R-IY0-T-ER1-N": 6809,
    "R-IH0-Z-AY1-N-D": 6810,
    "R-IH0-D-UW1-@@": 6811,
    "R-EH1-L-AH0-T-IH0-V": 6812,
    "P-R-OW1-T@@": 6813,
    "P-R-IH0-D-IH1-@@": 6814,
    "P-R-AH0-F-ER1-D": 6815,
    "P-R-AA1-M-AH0-S": 6816,
    "P-AH1-NG-K": 6817,
    "P-AH1-B-L-IH0-SH-IH0-NG": 6818,
    "P-AA1-R-T-AH0-@@": 6819,
    "M-B-ER0": 6820,
    "M-AY1-G-R@@": 6821,
    "M-AE2-N-Y-AH0-F-AE1-K-CH-ER0-ER0-Z": 6822,
    "L-IY0-AH0-M": 6823,
    "L-IH1-V-ER0-P-UW2-L": 6824,
    "L-EY1-IH0-NG": 6825,
    "L-EH1-DH-ER0": 6826,
    "L-AY1-B-R-EH2-R-IY0-Z": 6827,
    "K-W-AA2-@@": 6828,
    "K-S-CH-ER0": 6829,
    "K-R-IH1-T-IH0-K": 6830,
    "K-R-IH1-S-CH@@": 6831,
    "K-R-IH1-S-CH-IH0-N": 6832,
    "K-IH1-D": 6833,
    "K-AO2-R": 6834,
    "K-AO1-L-IH0-NG": 6835,
    "K-AH0-S-IY1-@@": 6836,
    "K-AH0-N-V-IH1-K-T-AH0-D": 6837,
    "K-AH0-N-V-EH1-N-SH-AH0-N-AH0-L": 6838,
    "K-AH0-M-P-EH1-R-AH0-@@": 6839,
    "K-AA1-N-SH@@": 6840,
    "JH-UW1-Z": 6841,
    "JH-IH1-M-IY0": 6842,
    "IY2-K-AH0-N-AA1-M-IH0-K": 6843,
    "IY1-G-AH0-L": 6844,
    "IH1-N-K-R-IY2-S": 6845,
    "IH0-M-P-L-AY1-@@": 6846,
    "IH0-K-S-P-L-AO1-@@": 6847,
    "HH-ER1-AH0-K-EY2-@@": 6848,
    "G-UW1-G-AH0-L": 6849,
    "G-R-EY1-S": 6850,
    "G-IH1-F-T": 6851,
    "F-AY1-N-AE2-N-S": 6852,
    "F-AH1-NG-K-@@": 6853,
    "EY1-T-@@": 6854,
    "DH-ER0-N-M-OW2-S-T": 6855,
    "D-Z-@@": 6856,
    "D-IH0-V-OW1-@@": 6857,
    "D-AA1-K-T@@": 6858,
    "B-EH1-N-AH0-F-IH0-T": 6859,
    "B-EH1-D-R-UW2-M": 6860,
    "B-AE0-K-T-IH1-@@": 6861,
    "AO2-T-AH0-M-AE1-T-IH0-K": 6862,
    "AO0-R-G-AE1-N-IH0-K": 6863,
    "AH2-N-S-AH0-K-S-EH1-S-F-AH0-L": 6864,
    "AH0-L-AY1-@@": 6865,
    "AE1-F-R-IH0-K-AH0": 6866,
    "AA1-R-K-AH0-T-EH2-@@": 6867,
    "-ER0-AY1-@@": 6868,
    "T-OY1-Z": 6869,
    "S-W-IH1-CH": 6870,
    "S-T-AY2-N": 6871,
    "S-T-AA1-P-S": 6872,
    "S-P-IH1-R-IH0-T": 6873,
    "S-P-IH0-@@": 6874,
    "S-P-ER0-IH1-NG": 6875,
    "S-K-R-IY1-N-@@": 6876,
    "S-IY1-D-IH0-D": 6877,
    "S-EH1-SH-AH0-N-Z": 6878,
    "S-EH1-N-T-ER0-D": 6879,
    "S-EH1-N-AH0-@@": 6880,
    "S-AH0-G-JH-EH1-S-T": 6881,
    "R-IY1-CH-IH0-NG": 6882,
    "R-IY0-K-W-AY1-R-Z": 6883,
    "R-IH0-Z-UW1-M-D": 6884,
    "R-IH0-K-W-AY1-R-M-AH0-N-T-S": 6885,
    "R-IH0-G-AA1-R-@@": 6886,
    "P-AE1-S-AH0-Z": 6887,
    "P-AE1-R-IH0-S": 6888,
    "P-AA2-P-Y-AH0-L-EY1-SH-AH0-N-Z": 6889,
    "P-AA1-R-T-N-ER0-SH-IH2-P": 6890,
    "N-IH0-K-AH0": 6891,
    "M-EH1-T-R-OW2": 6892,
    "L-OY1-D": 6893,
    "L-EY1-T-AH0-S-T": 6894,
    "L-AE1-N-D-M-AA2-R-K": 6895,
    "K-S-AY2-D": 6896,
    "K-L-IY1-V-L-AH0-N-D": 6897,
    "K-L-IH1-F": 6898,
    "K-EY1-P-AH0-B-AH0-L": 6899,
    "K-EH2-R-AH0-K-T-ER0-IH1-S-T-IH0-K-S": 6900,
    "K-AH1-T-IH0-NG": 6901,
    "K-AH0-N-S-T-R-EY1-@@": 6902,
    "K-AH0-M-P-IY1-@@": 6903,
    "K-AE1-T-S": 6904,
    "K-AE1-M-R@@": 6905,
    "K-AA2-K": 6906,
    "IH1-N-D-IH0-@@": 6907,
    "IH0-M-P-L-OY1-IY0-Z": 6908,
    "IH0-K-S-T-EH1-N-D-Z": 6909,
    "HH-AE1-B-AH0-T-AE2-T": 6910,
    "G-R-OW1-V": 6911,
    "G-R-AE2-F": 6912,
    "G-AY1-D": 6913,
    "F-UH0-@@": 6914,
    "F-R-EH1-D": 6915,
    "F-L-AH1-D": 6916,
    "F-IH1-T-IH0-D": 6917,
    "F-AY2-Z": 6918,
    "F-AA2-DH-ER0": 6919,
    "EH1-L-D-ER0": 6920,
    "EH0-N-T-AY1-T-AH0-L-D": 6921,
    "DH-EY1-L": 6922,
    "D-R-AH0-M-AE1-T-IH0-K": 6923,
    "D-IH0-P-EH1-N-D-Z": 6924,
    "D-AY1-AH0-L-EH2-K-T": 6925,
    "D-AA1-M-AH0-N-EY2-T-AH0-D": 6926,
    "CH-AE1-N-AH0-L-Z": 6927,
    "B-Y-UW0-@@": 6928,
    "B-ER1-M-IH0-NG-HH-AE2-M": 6929,
    "B-AE1-L-@@": 6930,
    "AH0-T": 6931,
    "AH0-K-EY1-ZH-AH0-N": 6932,
    "AH0-D-R-EH1-S": 6933,
    "AE1-S-P-EH2-K-T": 6934,
    "AA2-R-K-IY0-AH0-L-AA1-JH-IH0-K-AH0-L": 6935,
    "AA1-R-G-Y-UW0-D": 6936,
    "-EY2-V": 6937,
    "W-AY2-@@": 6938,
    "V-W-AA2-R": 6939,
    "TH-R-EH1-T-AH0-N-D": 6940,
    "T-R-IH0-K": 6941,
    "SH-AH0-N-IH0-NG": 6942,
    "S-K-UW1-L-@@": 6943,
    "S-K-IY1-@@": 6944,
    "S-K-EY2-P": 6945,
    "S-EH2-S-ER0": 6946,
    "S-EH1-T-AH0-L-ER0-Z": 6947,
    "S-EH1-N-S-AH0-@@": 6948,
    "S-AY2-Z": 6949,
    "R-IY0-S-P-AA1-@@": 6950,
    "R-IH0-P-L-AY1": 6951,
    "R-EH2-N-AH0-@@": 6952,
    "R-EH1-K-AH0-G-N@@": 6953,
    "P-R-AA1-JH-EH0-K-S": 6954,
    "N-UW@@": 6955,
    "N-IY0-OW0": 6956,
    "N-EY1-B-AO2-R-HH-UH0-D": 6957,
    "N-D-EY2": 6958,
    "N-AY0-@@": 6959,
    "M-EH1-ZH-ER0-Z": 6960,
    "M-B-AA1-R-@@": 6961,
    "M-AO1-R-IH0-@@": 6962,
    "M-AH0-K-D-AA1-N-AH0-L-D": 6963,
    "L-AE1-B-R-AH0-T-AO2-R-IY0": 6964,
    "K-S-IY0": 6965,
    "K-R-AY1-S-AH0-S": 6966,
    "K-EH1-L-@@": 6967,
    "K-AH0-N-S-IH2-@@": 6968,
    "K-AH0-N-EH1-K-T-S": 6969,
    "K-AH0-N-EH1-K-T": 6970,
    "K-AH0-L-OW1-@@": 6971,
    "K-AE1-N-AH0-D-IH0-T": 6972,
    "K-AA1-N-T-R-AE2-@@": 6973,
    "K-AA1-N-D-AH0-@@": 6974,
    "JH-OY1-N-IH0-NG": 6975,
    "IH1-N-S-AH0-@@": 6976,
    "IH0-K-W-IH1-P-T": 6977,
    "IH0-K-S-P-AE1-N-D-AH0-D": 6978,
    "F-R-AE1-NG-@@": 6979,
    "F-AO0-R": 6980,
    "EH1-V-R-IY0-@@": 6981,
    "EH1-V-ER0-@@": 6982,
    "EH0-N-D-AO1-R-@@": 6983,
    "E@@": 6984,
    "D-IH0-S-T-IH1-NG-K-SH-AH0-N": 6985,
    "D-EH1-L": 6986,
    "D-AH1-G-L-AH0-S": 6987,
    "D-AH1-B-AH0-L-Y-UW0": 6988,
    "AY0-D-EH1-N-T-IH0-K-AH0-L": 6989,
    "AO0-L-T-ER1-N-AH0-@@": 6990,
    "AH0-S-UW1-@@": 6991,
    "AH0-M-EH1-R-AH0-K-AH0": 6992,
    "AH0-L-AA1-R-@@": 6993,
    "AE2-N-AH0-M-EY1-SH-AH0-N": 6994,
    "AE1-N-AH0": 6995,
    "AA1-T-AH0-@@": 6996,
    "AA1-R-K-AH0-N-S-AA2": 6997,
    "W-EH1-L-TH": 6998,
    "V-ER0-AY1-AH0-T-IY0-Z": 6999,
    "V-AY0@@": 7000,
    "V-AA1-R-@@": 7001,
    "TH-AY1-@@": 7002,
    "T-R-AE1-N-S-F-ER0": 7003,
    "T-AH1-CH-T": 7004,
    "T-AA1-R-G-AH0-T-S": 7005,
    "S-T-EY1-JH-IH0-Z": 7006,
    "S-IH1-N-D-R-OW2-M": 7007,
    "S-IH1-G-N-AH0-CH-ER0": 7008,
    "S-AY2-D-Z": 7009,
    "S-AA2-@@": 7010,
    "R-IY0-V-EH1-@@": 7011,
    "R-IY0-K-W-AY1-R": 7012,
    "R-IH0-S-P-EH1-K-T": 7013,
    "R-IH0-K-AH1-@@": 7014,
    "R-AH1-B-ER0": 7015,
    "P-R-AA1-M-AH0-S-T": 7016,
    "P-L-EH1-Z-AH0-N-T": 7017,
    "P-IH1-R": 7018,
    "P-ER1-CH-AH0-S": 7019,
    "P-ER0-S-UW1": 7020,
    "P-AH0-Z-EH1-SH-AH0-N": 7021,
    "P-AA1-R-SH-AH0-L": 7022,
    "NG-K-AH0-N": 7023,
    "N-AH0-S-EH1-@@": 7024,
    "M-AH0-S-@@": 7025,
    "M-AE2-N-IH0-@@": 7026,
    "M-AE1-P-S": 7027,
    "M-AE1-N-AH0-JH-M-AH0-N-T": 7028,
    "M-AA1-N-Y-AH0-@@": 7029,
    "L-UW0-IY2-Z-IY0-AE1-N-AH0": 7030,
    "L-IY0-AH0-N-Z": 7031,
    "L-IH1-M-AH0-@@": 7032,
    "L-AH0-JH-IH0-S-T-S": 7033,
    "L-AE1-NG-G-W-AH0-JH-AH0-Z": 7034,
    "K-T-ER0-IY0-Z": 7035,
    "K-R-IH2-@@": 7036,
    "K-AH1-L-T-AH0-@@": 7037,
    "K-AH0-N-S-ER1-V-AH0-@@": 7038,
    "K-AH0-N-S-ER1-N-Z": 7039,
    "K-AH0-M-P-OW1-@@": 7040,
    "K-AH0-M-P-L-EH1-@@": 7041,
    "K-AE1-N-D-AH0-D-EY0-T": 7042,
    "JH-OY1-N-Z": 7043,
    "JH-M-AH0-N-T": 7044,
    "JH-AE1-N-Y-UW0-EH2-R-IY0": 7045,
    "JH-AA1-N-Z": 7046,
    "IY1-V-AH0-L": 7047,
    "IH0-V-AE1-@@": 7048,
    "IH0-N-K-R-IY1-S-IH0-Z": 7049,
    "IH0-N-EY1-@@": 7050,
    "HH-EH1-L-IH0-K-AA2-@@": 7051,
    "G-Z-IH1-@@": 7052,
    "G-IH1-R": 7053,
    "G-EH1-S-T-S": 7054,
    "F-R-IY0": 7055,
    "F-EY1-L": 7056,
    "F-AO1-R-CH-AH0-N": 7057,
    "F-AH0-T-AA1-G-R-AH0-F-ER0": 7058,
    "EY1-JH-IH0-Z": 7059,
    "EH2-R-IH0-Z-OW1-N-AH0": 7060,
    "EH2-N-ER0-@@": 7061,
    "EH1-N-T-R-IY0": 7062,
    "D-R-IY1-M-Z": 7063,
    "D-IH1-F-ER0": 7064,
    "D-IH0-L-IH1-V-ER0-IY0": 7065,
    "D-AH0-L-@@": 7066,
    "CH-AO1-@@": 7067,
    "B-UH1-L-AH0-V-AA2-R-D": 7068,
    "B-IH1-SH-AH0-@@": 7069,
    "B-EH1-T": 7070,
    "B-AO2-R-@@": 7071,
    "B-AO2-@@": 7072,
    "B-AE1-T-ER0-IY0": 7073,
    "AH0-T-EH1-M-P-@@": 7074,
    "AH0-S-L-IY1-P": 7075,
    "AH0-P-R-UW1-V-D": 7076,
    "AH0-M-Y-UW1-Z@@": 7077,
    "AH0-M-EY1-@@": 7078,
    "AH0-K-EY1-ZH-AH0-N-L-IY0": 7079,
    "AH0-K-EY1-ZH-AH0-N-AH0-L-IY0": 7080,
    "AE1-L-G-ER0-IH2-DH-AH0-M-Z": 7081,
    "AA2-P-ER0-T-UW1-N-AH0-T-IY0-Z": 7082,
    "AA1-P-T-AH0-@@": 7083,
    "-EY2-T-IH0-V": 7084,
    "-AH0-M-@@": 7085,
    "Z-EH1-N-T-AH0-D": 7086,
    "V-IY0-EH1-N-AH0": 7087,
    "V-EH1-N-CH-ER0": 7088,
    "T-R-EY1-L-Z": 7089,
    "T-R-AW1-Z-ER0-Z": 7090,
    "T-EH1-R-IY0": 7091,
    "T-EH1-R-AH0-B-AH0-L": 7092,
    "T-AE1-K-S-IY0": 7093,
    "SH-IH1-P-@@": 7094,
    "S-T-R-AH1-G-AH0-L": 7095,
    "S-T-AH0-T-UW2-T": 7096,
    "S-N-OW1-IY0": 7097,
    "S-K-R-IH1-P-@@": 7098,
    "S-IY0-AE1-T-AH0-L": 7099,
    "S-EH1-V-AH0-N-T-IY1-N": 7100,
    "S-EH1-N-T-AH0-N-S-T": 7101,
    "S-AH0-P-AO1-R-T-ER0-Z": 7102,
    "R-IY0-S-P-AA2-N-S-AH0-B-IH1-L-AH0-T-IY0": 7103,
    "R-IH0-JH": 7104,
    "R-EH1-Z-AH0-@@": 7105,
    "R-EH1-S-K-Y-UW0": 7106,
    "P-R-OW1": 7107,
    "P-OW1-L-Z": 7108,
    "P-ER0-EY1-SH-AH0-N-Z": 7109,
    "P-AE1-T": 7110,
    "N-EY1-B-ER0": 7111,
    "M-UH0-@@": 7112,
    "M-EY2-T-S": 7113,
    "M-AA1-R-K-AH0-T-IH0-NG": 7114,
    "M-AA1-N-T": 7115,
    "L-EH1-JH-AH0-S-L-EY2-T-IH0-V": 7116,
    "L-AO1-NG-T-AY2-M": 7117,
    "K-L-AE1-N": 7118,
    "K-IH0-S": 7119,
    "K-AH0-N-T-EY1-N-IH0-NG": 7120,
    "K-AH0-M-IH1-SH-AH0-N-D": 7121,
    "K-AE1-ZH-AH0-@@": 7122,
    "K-AA1-R-G-OW2": 7123,
    "K-AA1-P-IY0": 7124,
    "K-AA1-M-@@": 7125,
    "JH-ER1-N-AH0-L-IH2-Z-AH0-M": 7126,
    "JH-AE1-K-@@": 7127,
    "IY1-JH-IH0-P-T": 7128,
    "IY1-AH0-N": 7129,
    "IH0-N-V-EY1-ZH-AH0-N": 7130,
    "IH0-K-S-P-OW1-Z-D": 7131,
    "HH-AY1-K-IH0-NG": 7132,
    "HH-AW1-S-HH-OW2-L-D": 7133,
    "HH-AH0-W-AY1-IY2": 7134,
    "HH-AA1-R-V-ER0-D": 7135,
    "F-IH1-N-@@": 7136,
    "F-EH1-S-T-IH0-@@": 7137,
    "F-AO1-R-T-IY0": 7138,
    "F-AA1-R-M-Z": 7139,
    "EY2-V-IY0-EY1-SH-AH0-N": 7140,
    "ER0-IH0-NG": 7141,
    "D-AA1-L-ER0-Z": 7142,
    "CH-ER1-CH-AH0-Z": 7143,
    "CH-ER0-AH0-L": 7144,
    "CH-AH0-L@@": 7145,
    "B-R-AE1-N-CH-IH0-Z": 7146,
    "B-ER1-S-T": 7147,
    "B-AH0-L-G-EH1-@@": 7148,
    "AH0-P-R-OW1-CH-T": 7149,
    "AE1-P-AH0-@@": 7150,
    "AE1-NG-G-L@@": 7151,
    "-OW2": 7152,
    "Z-OW0": 7153,
    "Z-ER0-IY0": 7154,
    "T-ER1-K-IH0-SH": 7155,
    "T-AE1-P": 7156,
    "T-AA1-P-IH0-K-S": 7157,
    "SH-IY0-EY1-SH-AH0-N": 7158,
    "SH-IH2-@@": 7159,
    "SH-ER1-T-S": 7160,
    "S-P-EH1-R": 7161,
    "S-K-EY1-T-B-AO2-R-D": 7162,
    "S-K-AW1-@@": 7163,
    "S-K-AA1-L-ER0-@@": 7164,
    "S-CH-ER0": 7165,
    "S-AH0-K-S-EH1-@@": 7166,
    "S-AH0-F-IH1-SH-AH0-N-T": 7167,
    "R-IY1-K-OW0": 7168,
    "R-IY0-L-OW1-K-EY0-T-IH0-D": 7169,
    "R-EH1-JH-AH0-M-AH0-N-T": 7170,
    "R-AH1-S-AH0-L": 7171,
    "R-AA1-JH-ER0": 7172,
    "P-R-OW0-HH-IH1-@@": 7173,
    "P-R-AE0-@@": 7174,
    "P-R-AA1-T-AH0-@@": 7175,
    "P-R-AA1-JH-EH0-K-T-S": 7176,
    "P-IH1-T-S-B-ER0-G": 7177,
    "P-EY1-SH-AH0-N-T-S": 7178,
    "P-ER1-F-AH0-@@": 7179,
    "P-AH1-B-L-IH0-SH-ER0": 7180,
    "P-AE1-T-R-IH0-K": 7181,
    "P-AA1-R-T-N-ER0-Z": 7182,
    "OW0-L-IH1-M-P-IH0-K-S": 7183,
    "N-T-AE1-N-AH0": 7184,
    "N-OW1-T-AH0-S-T": 7185,
    "N-IY1-D-AH0-D": 7186,
    "M-EH1-TH-AH0-@@": 7187,
    "M-B-ER0-Z": 7188,
    "M-AW1-N-T-S": 7189,
    "M-AO1-R-AH0-L": 7190,
    "M-AH0-N-EH2-R-IY0": 7191,
    "M-AE1-S-T-ER0-@@": 7192,
    "M-AE1-N-Y-UW0-AH0-L": 7193,
    "L-OW2-D": 7194,
    "L-EH1-JH-AH0-N-D": 7195,
    "L-AO1-R-@@": 7196,
    "L-AE1-N-S-K-EY2-P": 7197,
    "K-W-EH1-S-CH@@": 7198,
    "K-IY2-P-ER0": 7199,
    "K-AH0-M-P-Y-UW1-T-ER0-Z": 7200,
    "K-AE1-N-D-IY0": 7201,
    "K-AA2-M-P-L-AH0-@@": 7202,
    "K-AA1-M-P-AW0-N-D": 7203,
    "JH-AH0-L-AY1": 7204,
    "IH2-N-S-P-ER0-EY1-SH-AH0-N": 7205,
    "IH2-N-ER0-@@": 7206,
    "IH0-Z-L-AA1-M-IH0-K": 7207,
    "IH0-N-D-EH1-@@": 7208,
    "IH0-K-S-EH1-@@": 7209,
    "HH-IH0-S-T-AO1-R-IY0-AH0-N": 7210,
    "HH-AA1-R-D-W-EH2-R": 7211,
    "G-IH1-T-S": 7212,
    "G-AH1-V-ER0-M-AH0-N-T-S": 7213,
    "F-L-ER1-@@": 7214,
    "F-EY1": 7215,
    "F-ER0-G-AA1-T-AH0-N": 7216,
    "EY1-N-JH-AH0-L-Z": 7217,
    "ER0-EY1-N-JH-M-AH0-N-T": 7218,
    "EH1-N-D-IH0-NG": 7219,
    "D-IY1-T-EY0-L": 7220,
    "D-AA2-@@": 7221,
    "D-AA1-K-T-ER0-Z": 7222,
    "D-AA1-K": 7223,
    "B-EY1-S-AH0-N": 7224,
    "B-AO2-L": 7225,
    "AY1-S-AH0-L@@": 7226,
    "AO1-R-AH0-G-AH0-N": 7227,
    "AO0-R-EH1-D-IY0": 7228,
    "AH0-T-EH1-N-D-IH0-NG": 7229,
    "AH0-CH-IY1-V": 7230,
    "AE1-T-M-AH0-S-F-IH2-R": 7231,
    "AE1-T-@@": 7232,
    "AE0-L-B-ER1-@@": 7233,
    "AA1": 7234,
    "Y-UW1-N-IH0-T-S": 7235,
    "W-AO1-R-N-IH0-NG": 7236,
    "V-EH2-R-IY0-EY1-SH-AH0-N": 7237,
    "V-EH1-T-ER0@@": 7238,
    "V-AH0-B-AH0-L": 7239,
    "TH-R-OW1-IH0-NG": 7240,
    "T-IY1-Z": 7241,
    "T-IH1-M-B-ER0": 7242,
    "T-EY1-L-Z": 7243,
    "T-EH1-M-P-ER0-EH2-R-IY0": 7244,
    "SH-AH1-T": 7245,
    "S-W-IH1-S": 7246,
    "S-T-R-AY1-P-T": 7247,
    "S-T-OW1-N-Z": 7248,
    "S-T-IH0-S": 7249,
    "S-T-AH0-T-IH1-S-T-IH0-K-S": 7250,
    "S-P-EH1-SH-AH0-@@": 7251,
    "R-AY1-AH0-N": 7252,
    "R-AH1-SH": 7253,
    "R-AA1-B-ER0-@@": 7254,
    "P-L-IH0-@@": 7255,
    "P-IY1-T-S-AH0": 7256,
    "P-IY1-D-IY0-AH0": 7257,
    "P-EY1-SH-AH0-N-T": 7258,
    "P-ER2-S-AH0-N-AE1-L-IH0-T-IY0": 7259,
    "P-AH0-S": 7260,
    "N-T-IH0-S": 7261,
    "N-T-AA1-@@": 7262,
    "N-SH-AH0-L-IY0": 7263,
    "N-S-K-IY0": 7264,
    "N-JH-IY0": 7265,
    "N-IH1-K": 7266,
    "N-EH1-S-T": 7267,
    "N-AY1-F": 7268,
    "N-AH2-@@": 7269,
    "N-AA2-M-AH0-N-EY1-SH-AH0-N": 7270,
    "M-Y-UW2-N-IH0-S-AH0-P-AE1-L-IH0-T-IY0-Z": 7271,
    "M-IH1-T-AH0-D": 7272,
    "M-AY2-Z": 7273,
    "M-AH1-N-TH-L-IY0": 7274,
    "M-AH1-L-@@": 7275,
    "M-AE1-N-Z": 7276,
    "M-AA1-R-Z": 7277,
    "L-IH1-S-@@": 7278,
    "L-AW1-D": 7279,
    "K-R-IY1-CH-ER0": 7280,
    "K-L-AH0-N": 7281,
    "K-IY0-AH0": 7282,
    "K-IH1-L-Z": 7283,
    "K-ER0-IY0": 7284,
    "K-EH1-V-IH0-N": 7285,
    "K-AH2-M-IH0-NG": 7286,
    "K-AH0-N-T-R-OW1-@@": 7287,
    "K-AA2-N-S@@": 7288,
    "K-AA2-N-S-ER0-V-EY1-SH-AH0-N": 7289,
    "JH-EY1-S-AH0-N": 7290,
    "IH0-K-S-P-EH1-R-AH0-M-AH0-N-T-S": 7291,
    "HH-AE1-P-AH0-N-Z": 7292,
    "G-R-AY1-@@": 7293,
    "G-R-AE1-F": 7294,
    "G-L-EH1-N": 7295,
    "G-IH0-T-AA1-R-Z": 7296,
    "F-Y-UW1-L": 7297,
    "F-Y-UW1-AH0-L": 7298,
    "F-IY1-L-IH0-NG-Z": 7299,
    "F-IH1-L-IH0-@@": 7300,
    "F-ER0-T": 7301,
    "F-AO1-R-M-Y-AH0-L-AH0": 7302,
    "F-AO1-L-T": 7303,
    "F-AO0-@@": 7304,
    "ER0-AY1-V-AH0-L": 7305,
    "EH1-N-T-R@@": 7306,
    "D-IH0-S-IH1-ZH-AH0-N-Z": 7307,
    "D-IH0-S-EH1-N-D-AH0-N-T-S": 7308,
    "D-EY1-T-IH0-NG": 7309,
    "D-AY1-AH0-T": 7310,
    "D-AH0-B-EY1-@@": 7311,
    "D-AE1-M-IH0-JH-D": 7312,
    "D-AA2-R": 7313,
    "B-IH1-Z-N-AH0-@@": 7314,
    "B-EY2-S": 7315,
    "B-AW1-N-D": 7316,
    "B-AO1-R": 7317,
    "AO1-S-T-R-IY0-AH0": 7318,
    "AH2-N-D-ER0-G-R-AE1-JH-AH0-W-AH0-T": 7319,
    "AH0-T-AA1-@@": 7320,
    "AH0-P-R-IY1-@@": 7321,
    "AH0-P-AA1-L-AH0-@@": 7322,
    "AE1-TH-AH0-N-Z": 7323,
    "AA2-K-Y-AH0-P-EY1-SH-AH0-N": 7324,
    "AA1-P-ER0-EY2-T-ER0": 7325,
    "AA0-R-M-IY1-@@": 7326,
    "-AH0-T-S": 7327,
    "Y-UW2-N-AH0-@@": 7328,
    "W-EY1-T-IH0-D": 7329,
    "V-ER0-IH0-NG": 7330,
    "TH-AW1-Z-AH0-N": 7331,
    "T-R-AH0-D-IH1-SH-AH0-N-Z": 7332,
    "T-EY2-T-IH0-D": 7333,
    "T-EH1-R-AH0-B-L-IY0": 7334,
    "T-EH1-K-S-T-@@": 7335,
    "T-EH0-K-@@": 7336,
    "T-AH0-M-Z": 7337,
    "SH-IY1-L-D": 7338,
    "S-T-EH1-R-@@": 7339,
    "S-P-IY1-K-ER0-Z": 7340,
    "S-M-AE1-@@": 7341,
    "S-K-AH1-L-P-CH-ER0": 7342,
    "S-K-AH0-T": 7343,
    "S-IY0-AH0-M": 7344,
    "S-AH0-P-R-AY1-Z-D": 7345,
    "S-AE1-T-AH0-L-AY2-T": 7346,
    "R-UW2-@@": 7347,
    "R-IY0-M-UW1-V": 7348,
    "R-IH1-DH-AH0-M": 7349,
    "R-IH0-T-AY1-@@": 7350,
    "R-EY1-S-IH0-Z": 7351,
    "R-AY0-@@": 7352,
    "P-AE1-K-IH0-S-T-AE2-N": 7353,
    "N-IY1-S": 7354,
    "N-EH1-L-S-AH0-N": 7355,
    "N-AO1-R-M-AH0-N": 7356,
    "N-AH2-P": 7357,
    "M-P-T-AH0-N": 7358,
    "M-B-AH0": 7359,
    "M-AE1-N-IH0-JH": 7360,
    "M-AA1-JH-UW0-@@": 7361,
    "M-AA1-D@@": 7362,
    "L-EH2-JH-AH0-S-L-EY1-SH-AH0-N": 7363,
    "L-AY1-M-@@": 7364,
    "L-AH1-K": 7365,
    "L-AH0-S-T-S": 7366,
    "L-AH0-S-L-IY0": 7367,
    "L-AH0-K-@@": 7368,
    "K-L-IY1-N-IH0-NG": 7369,
    "K-L-AY1-M": 7370,
    "K-AO1-R-S-AH0-Z": 7371,
    "K-AH0-N-V-IY1-N-Y@@": 7372,
    "K-AH0-N-T-R-OW1-L-Z": 7373,
    "K-AA1-N-T-R-AE0-@@": 7374,
    "JH-UH1-R-IY0": 7375,
    "IH1-N-D-AO2-R": 7376,
    "IH1-M-P@@": 7377,
    "IH0-N-T-ER1-P-R-AH0-@@": 7378,
    "IH0-N-HH-AE1-B-AH0-T-AH0-D": 7379,
    "IH0-G-Z-IH1-B-AH0-T-S": 7380,
    "HH-EH1-L": 7381,
    "HH-AH1-B": 7382,
    "G-Z-AE1-@@": 7383,
    "F-Y-UW1-Z-D": 7384,
    "F-UH1-T-B-AO2-@@": 7385,
    "F-S-K-IY0": 7386,
    "F-R-AE1-K-@@": 7387,
    "F-AH0-N-AE1-@@": 7388,
    "F-AH0-M-IH1-@@": 7389,
    "EH1-R-L-AY2-N-Z": 7390,
    "EH1-N-AH0-M-IY0-Z": 7391,
    "EH1-M-P-T-IY0": 7392,
    "D-R-EH1-S-IH0-Z": 7393,
    "D-IH0-S-K-AH1-S-T": 7394,
    "D-EH1-P-Y-AH0-@@": 7395,
    "D-AE2-M": 7396,
    "D-AA1-M-AH0-N-AH0-N-T": 7397,
    "CH-AH0-W@@": 7398,
    "B-UH2-@@": 7399,
    "B-AE1-L-AH0-N-@@": 7400,
    "AH0-T-R-AE1-K-SH-AH0-N-Z": 7401,
    "AH0-M-IY1-@@": 7402,
    "AH0-M-@@": 7403,
    "AH0-D-AE1-P-T-AH0-D": 7404,
    "AE2-N-T-IY0-@@": 7405,
    "AE1-N-S-EH0-S-T-R-IY0": 7406,
    "AA1-R-T-W-ER2-K": 7407,
    "-ER0-AH0-L-IY0": 7408,
    "-AO1-R-AH0": 7409,
    "-AA2-R-T": 7410,
    "Y-AH0-L-AH0-S": 7411,
    "W-AO1-K-ER0": 7412,
    "T-IH1-SH@@": 7413,
    "T-EY1-N": 7414,
    "T-EH1-R-AH0-T-AO2-R-IY0-Z": 7415,
    "T-EH1-N-D-Z": 7416,
    "T-AH0-N-IY0": 7417,
    "T-AH0-B-AE1-K-OW2": 7418,
    "SH-AA1-R-K": 7419,
    "S-T-AW2-N": 7420,
    "S-P-AO2-R-T": 7421,
    "S-P-AH0-@@": 7422,
    "S-K-EH1-R-@@": 7423,
    "S-K-AW1-T": 7424,
    "S-AO1-F-@@": 7425,
    "R-IY0-IH0-NG": 7426,
    "R-IY0-AH0-S-L-IY0": 7427,
    "R-IH1-CH-M-AH0-N-D": 7428,
    "R-IH0-M-OW1-T": 7429,
    "P-R-AH0-N-AW1-N-S-T": 7430,
    "P-R-AA1-P-ER0-L-IY0": 7431,
    "P-IH1-R-AH0-@@": 7432,
    "P-EY1-L": 7433,
    "P-AH0-T-R-OW1-@@": 7434,
    "P-AE1-SH-AH0-N": 7435,
    "P-AA1-L-@@": 7436,
    "N-T-IY1-@@": 7437,
    "N-AA1-L-AH0-JH-IY0": 7438,
    "M-IH0-SH": 7439,
    "M-AE1-TH-Y-UW0": 7440,
    "M-AA2-D-AH0-@@": 7441,
    "M-AA1-R-K-AH0-T-S": 7442,
    "L-Y-AH0-Z": 7443,
    "L-T-AY2-M": 7444,
    "L-EH1-JH-AH0-S-L@@": 7445,
    "K-W-EY2": 7446,
    "K-R-IY0-EY1-T-S": 7447,
    "K-M-AH0-N": 7448,
    "K-L-IH1-K": 7449,
    "K-IH1-S": 7450,
    "K-EH1-R-IH0-@@": 7451,
    "K-AH1-S-T-AH0-M-ER0": 7452,
    "K-AH1-M-B@@": 7453,
    "K-AA1-R-N-AH0-@@": 7454,
    "JH-EY1-K-AH0-@@": 7455,
    "JH-EH1-N-ER0-EY2-T-IH0-D": 7456,
    "JH-EH1-F": 7457,
    "JH-AO1-R-D-AH0-N": 7458,
    "IH1-N-D-AH0-@@": 7459,
    "IH0-L-EH2-K-T-R-IH1-S-AH0-T-IY0": 7460,
    "HH-IH0-S-T-AO1-R-IY0-AH0-N-Z": 7461,
    "HH-AO2-L": 7462,
    "H1": 7463,
    "G-R-AE1-S-IY0": 7464,
    "F-T-ER0": 7465,
    "F-L-AE1-SH": 7466,
    "F-ER1-Z": 7467,
    "F-AY1-T-ER0": 7468,
    "F-AH0-L-Z": 7469,
    "F-AA1-L-IH0-NG": 7470,
    "ER0-AY1-V-Z": 7471,
    "EH1-S-T-ER0": 7472,
    "EH1-K-S-AY2-@@": 7473,
    "DH-EH0-M-S-EH1-L-V-Z": 7474,
    "D-OW1-N@@": 7475,
    "D-IH0-Z-AA1-@@": 7476,
    "D-IH0-T-EY1-L-D": 7477,
    "D-EH1-N-S": 7478,
    "CH-AA1-R-JH-IH0-Z": 7479,
    "B-IH0-K-AH0-Z": 7480,
    "B-ER0-IH1-@@": 7481,
    "B-ER0-D": 7482,
    "B-AH1-JH-IH0-T": 7483,
    "B-AE1-G-Z": 7484,
    "AW2-@@": 7485,
    "AH0-S-IH1-S-T-AH0-N-S": 7486,
    "AH0-N-S-ER1-T-AH0-N": 7487,
    "AH0-F-IH1-L-IY0-@@": 7488,
    "AA2-P-ER0-EY1-SH-AH0-N-AH0-L": 7489,
    "AA1-D-IY0-AH0-N-S": 7490,
    "-IY2-T-S": 7491,
    "-IY0-EH0-@@": 7492,
    "-IY0-AH0-T": 7493,
    "-AO1-L": 7494,
    "Z-AH0-N@@": 7495,
    "Y-UW1-T-AO2": 7496,
    "Y-UW1-T-AH0-@@": 7497,
    "W-IH1-N-ER0-Z": 7498,
    "W-IH1-L-Y@@": 7499,
    "W-EY1-T-S": 7500,
    "T-UW1-B": 7501,
    "T-R-AH2-S-T@@": 7502,
    "T-AY1-ER0-D": 7503,
    "S-T-IY1-P": 7504,
    "S-P-AO1-R-T-AH0-D": 7505,
    "S-K-ER0": 7506,
    "S-IH0-N": 7507,
    "S-ER0-IY0-Z": 7508,
    "S-AH1-M-ER0-Z": 7509,
    "S-AH0-S-AY1-AH0-T-IY0-Z": 7510,
    "S-AH0-P-L-AY1-Z": 7511,
    "S-AH0-N-D": 7512,
    "S-AE1-D": 7513,
    "R-IY0-AE1-K-SH-AH0-N-Z": 7514,
    "R-IH0-T": 7515,
    "R-IH0-K-AO1-R-D": 7516,
    "R-EH1-G-Y-AH0-L@@": 7517,
    "R-EH1-F-R-AH0-N-S-IH0-Z": 7518,
    "R-AH0-F-ER1-Z": 7519,
    "R-AA1-B-ER0-T-S": 7520,
    "P-R-AW1-D": 7521,
    "P-ER1-ZH-AH0-N": 7522,
    "M-AY1-L-D": 7523,
    "M-AY0-AE1-M-IY0": 7524,
    "M-AH2-DH-ER0": 7525,
    "L-OW0-K-AE1-@@": 7526,
    "L-EY1-ER0": 7527,
    "L-AY1-S-AH0-N-@@": 7528,
    "L-AH0-JH-IH1-@@": 7529,
    "K-T-IH0-V-Z": 7530,
    "K-R-AY1-IH0-NG": 7531,
    "K-AH0-N-F-Y-UW1-ZH-AH0-N": 7532,
    "K-AE1-L-AH0-@@": 7533,
    "K-AE1-B-AH0-N": 7534,
    "K-AA2-N-S-T-AH0-T-UW1-SH-AH0-N-AH0-L": 7535,
    "K-AA1-P-IY0-@@": 7536,
    "IH2-N-F-R-AH0-S-T-R-AH1-K-CH-ER0": 7537,
    "IH1-NG-G-L@@": 7538,
    "IH0-N-JH-EH1-@@": 7539,
    "HH-OW1-S-T-IH0-D": 7540,
    "HH-EH1-L-TH-IY0": 7541,
    "HH-EH1-D@@": 7542,
    "F-R-UW1-T-S": 7543,
    "F-AH0-T-AA1-G-R-AH0-F-IY0": 7544,
    "EH2-K-S-P-AH0-D-IH1-SH-AH0-N": 7545,
    "EH2-K-S-AH0-B-IH1-SH-AH0-N": 7546,
    "EH1-S-K-AH0-@@": 7547,
    "D-IH1-F-AH0-K-AH0-L-T-IY0": 7548,
    "D-EY1-N-JH-ER0": 7549,
    "D-EH1-N-T-AH0-L": 7550,
    "D-EH1-N-IH0-S": 7551,
    "D-EH1-L-@@": 7552,
    "D-AO1-R-AH0-TH-IY0": 7553,
    "D-AH0-B-AH0-L": 7554,
    "CH-EH1-R-IY0": 7555,
    "B-R-IH1-S-T-AH0-L": 7556,
    "B-R-AO1-D-K-AE2-S-T-IH0-NG": 7557,
    "B-IH1-Z-N-IH0-@@": 7558,
    "B-EH1-N-AH0-@@": 7559,
    "B-AH1-T-AH0-N": 7560,
    "AY1-S-@@": 7561,
    "AO1-L-T-ER0-N-AH0-T": 7562,
    "AE1-K-S": 7563,
    "AE1-K-CH-AH0-W-AH0-L": 7564,
    "-EY@@": 7565,
    "-AW2-N": 7566,
    "-AH0-N-D-Z": 7567,
    "Z-IY0-AE1-@@": 7568,
    "W-EY1-N": 7569,
    "W-AO1-SH-IH0-NG-T-AH0-N": 7570,
    "W-AO1-R-D-Z": 7571,
    "W-AA1-CH-T": 7572,
    "V-IH1-L-AH0-JH-AH0-Z": 7573,
    "V-ER1-CH-UW0": 7574,
    "V-EH1-N-CH-ER0-Z": 7575,
    "V-AA2-L-AH0-N-T-IH1-R": 7576,
    "T-R-EY1-D-IH0-NG": 7577,
    "T-OW1-L": 7578,
    "T-EY1-S-T": 7579,
    "T-AO1-K-T": 7580,
    "T-AH0-P-AA1-@@": 7581,
    "SH-AO1-R-T-ER0": 7582,
    "S-UW1-T-S": 7583,
    "S-UW1-P-ER0-V@@": 7584,
    "S-T-AO1-R-IY0-@@": 7585,
    "S-P-EH1-K-T-R-AH0-M": 7586,
    "S-K-EH1-L-AH0-@@": 7587,
    "S-IH0-K-Y-UH1-R": 7588,
    "S-AY2-M-AH0-L-T-EY1-@@": 7589,
    "S-AH1-D-AH0-N": 7590,
    "R-IH0-P-IY1-@@": 7591,
    "R-IH0-M-EY1-N-D-ER0": 7592,
    "R-IH0-G-R-EH1-@@": 7593,
    "R-EH2-P-R-AH0-Z-EH0-N-T-EY1-SH-AH0-N": 7594,
    "R-AH0-G-AA1-R-D-AH0-D": 7595,
    "P-R-IY1-S-T": 7596,
    "P-R-AH0-G-R-EH1-@@": 7597,
    "P-L-UW1-@@": 7598,
    "P-L-AY1-Z": 7599,
    "P-IY2-S": 7600,
    "P-ER0-IH1-@@": 7601,
    "P-AH1-B-L-IH0-K-L-IY0": 7602,
    "P-AH0-T-EH1-N-CH-AH0-L": 7603,
    "P-AA1-L-AH0-S-IY0-Z": 7604,
    "OW1-Z": 7605,
    "N-UW1-T-AH0-N": 7606,
    "N-UW1-K-L@@": 7607,
    "N-D-AH0-M": 7608,
    "N-AY1-N-T-IY1-@@": 7609,
    "M-Y-UW1-Z-IH0-@@": 7610,
    "M-OW1-M-AH0-N-T-S": 7611,
    "M-ER0-AA1-@@": 7612,
    "L-IH1-B@@": 7613,
    "L-EH1-K-T": 7614,
    "L-AH1-K-IY0": 7615,
    "L-AE1-M-P": 7616,
    "K-R-IY1-T": 7617,
    "K-ER1-AH0-@@": 7618,
    "K-AW1": 7619,
    "K-AA2-N": 7620,
    "K-AA1-N-T-EH0-@@": 7621,
    "K-AA1-M-P@@": 7622,
    "K-AA1-M-ER0-S": 7623,
    "JH-IH0-M-@@": 7624,
    "JH-EH2-N-ER0-EY1-SH-AH0-N-Z": 7625,
    "JH-EH1-R-IY0": 7626,
    "JH-AH0-N-AH0-L": 7627,
    "IH0-N-V-EH1-S-T-M-AH0-N-T": 7628,
    "IH0-N-D-IH1-JH-AH0-N-AH0-S": 7629,
    "IH0-K-S-K-L-EY1-M-D": 7630,
    "HH-EH1-R-IH0-S-AH0-N": 7631,
    "HH-AE1-V-AH0-N-T": 7632,
    "HH-AA1-L-IH0-@@": 7633,
    "G-AW1-@@": 7634,
    "F-ER0-G-AA1-T": 7635,
    "F-AA1-L": 7636,
    "EY1-B-R-AH0-@@": 7637,
    "ER0-AA2-R-@@": 7638,
    "EH1-K-S-ER0-@@": 7639,
    "EH1-JH-AH0-@@": 7640,
    "D-OW2-@@": 7641,
    "D-IH0-T-R-OY1-T": 7642,
    "D-IH0-SH": 7643,
    "D-IH0-S-P-Y-UW1-T": 7644,
    "D-EH1-K-EY0-D": 7645,
    "D-AY0-N-AE1-@@": 7646,
    "D-AA1-R-K-N-AH0-S": 7647,
    "CH-EH1-R-@@": 7648,
    "B-R-AO1-D-@@": 7649,
    "B-ER1-TH-D-EY2": 7650,
    "B-EH1-N-JH-AH0-M-AH0-N": 7651,
    "B-AE2-N-D": 7652,
    "AY1-T-AH0-M": 7653,
    "AO1-S-T-AH0-N": 7654,
    "AO1-L-T-ER0-@@": 7655,
    "AE2-L-AH0-G-Z-AE1-N-D-ER0": 7656,
    "AE1-NG-G-R-IY0": 7657,
    "AA1-L-IY0": 7658,
    "-EY2-M": 7659,
    "-ER2": 7660,
    "-EH1-T-IH0-K-S": 7661,
    "-AO2-R-AH0-@@": 7662,
    "Y-AO1-R-K-SH-ER0": 7663,
    "W-ER2-TH": 7664,
    "W-EH1-L-Z": 7665,
    "V-EY1-L": 7666,
    "T-R-AY0-@@": 7667,
    "T-AA1-M-P-@@": 7668,
    "S-T-R-EH1-NG-@@": 7669,
    "S-T-AH0-L@@": 7670,
    "S-OW1-L-@@": 7671,
    "S-M-OW1-K": 7672,
    "S-K-EY2-@@": 7673,
    "S-K-AA1-L-ER0": 7674,
    "S-AE1-M-AH0-N": 7675,
    "R-IY1-S-ER0-CH-ER0-Z": 7676,
    "R-IH0-S-IH1-P-IY0@@": 7677,
    "R-IH0-D-AH0": 7678,
    "R-ER0-@@": 7679,
    "R-AE1-M-P": 7680,
    "P-R-IY0-Z-EH1-N-T-AH0-D": 7681,
    "P-R-AY0@@": 7682,
    "P-IH1-K-N-IH2-@@": 7683,
    "P-EH1-R-IY0": 7684,
    "N-T-AH0-M": 7685,
    "N-S-M-AH0-N-T": 7686,
    "N-D-AH0-N-@@": 7687,
    "N-CH-AH0-N-Z": 7688,
    "N-AA2-N-@@": 7689,
    "M-EY0-@@": 7690,
    "M-EH1-T-R@@": 7691,
    "M-EH1-M-@@": 7692,
    "M-EH1-D-AH0-L-Z": 7693,
    "M-AH1-S-AH0-L": 7694,
    "M-AH0-SH-IY1-@@": 7695,
[...]
