{
    "<pad>": 0,
    "<unk>": 1,
    "<s>": 2,
    "</s>": 3,
    "the": 4,
    "a": 5,
    "of": 6,
    "in": 7,
    "and": 8,
    "is": 9,
    "to": 10,
    "was": 11,
    "'@@": 12,
    "he": 13,
    "it": 14,
    "s": 15,
    "for": 16,
    "on": 17,
    "are": 18,
    "i": 19,
    "as": 20,
    "with": 21,
    "his": 22,
    "by": 23,
    "this": 24,
    "at": 25,
    "an": 26,
    "also": 27,
    "that": 28,
    "from": 29,
    "be": 30,
    "has": 31,
    "were": 32,
    "you": 33,
    "she": 34,
    "have": 35,
    "not": 36,
    "they": 37,
    "one": 38,
    "t": 39,
    "two": 40,
    "her": 41,
    "there": 42,
    "or": 43,
    "had": 44,
    "its": 45,
    "re@@": 46,
    "all": 47,
    "can": 48,
    "man": 49,
    "i@@": 50,
    "d@@": 51,
    "been": 52,
    "in@@": 53,
    "but": 54,
    "their": 55,
    "after": 56,
    "my": 57,
    "first": 58,
    "e@@": 59,
    "k@@": 60,
    "some": 61,
    "n@@": 62,
    "these": 63,
    "other": 64,
    "o@@": 65,
    "many": 66,
    "time": 67,
    "es": 68,
    "new": 69,
    "no": 70,
    "me": 71,
    "t@@": 72,
    "him": 73,
    "we": 74,
    "y@@": 75,
    "ing": 76,
    "up": 77,
    "un@@": 78,
    "used": 79,
    "o": 80,
    "s@@": 81,
    "into": 82,
    "ed": 83,
    "what": 84,
    "school": 85,
    "er": 86,
    "most": 87,
    "more": 88,
    "out": 89,
    "do": 90,
    "en@@": 91,
    "however": 92,
    "it@@": 93,
    "three": 94,
    "only": 95,
    "later": 96,
    "al@@": 97,
    "p@@": 98,
    "an@@": 99,
    "then": 100,
    "ers": 101,
    "ation": 102,
    "g@@": 103,
    "will": 104,
    "people": 105,
    "y": 106,
    "now": 107,
    "m@@": 108,
    "m": 109,
    "when": 110,
    "on@@": 111,
    "would": 112,
    "a@@": 113,
    "city": 114,
    "known": 115,
    "very": 116,
    "er@@": 117,
    "th@@": 118,
    "said": 119,
    "e": 120,
    "during": 121,
    "ar@@": 122,
    "both": 123,
    "several": 124,
    "u@@": 125,
    "name": 126,
    "at@@": 127,
    "f@@": 128,
    "co@@": 129,
    "which": 130,
    "b@@": 131,
    "about": 132,
    "us": 133,
    "ate": 134,
    "born": 135,
    "town": 136,
    "over": 137,
    "di@@": 138,
    "c@@": 139,
    "al": 140,
    "w@@": 141,
    "like": 142,
    "ch@@": 143,
    "h@@": 144,
    "st@@": 145,
    "le@@": 146,
    "work": 147,
    "well": 148,
    "ro@@": 149,
    "dis@@": 150,
    "l@@": 151,
    "area": 152,
    "through": 153,
    "became": 154,
    "who": 155,
    "so": 156,
    "years": 157,
    "made": 158,
    "may": 159,
    "am@@": 160,
    "named": 161,
    "part": 162,
    "v@@": 163,
    "located": 164,
    "z@@": 165,
    "did": 166,
    "r@@": 167,
    "el@@": 168,
    "don@@": 169,
    "son": 170,
    "your": 171,
    "de@@": 172,
    "than": 173,
    "use": 174,
    "them": 175,
    "called": 176,
    "is@@": 177,
    "ated": 178,
    "year": 179,
    "or@@": 180,
    "ti@@": 181,
    "while": 182,
    "way": 183,
    "d": 184,
    "ts": 185,
    "em@@": 186,
    "ted": 187,
    "k": 188,
    "woman": 189,
    "if": 190,
    "ad@@": 191,
    "high": 192,
    "mar@@": 193,
    "four": 194,
    "each": 195,
    "county": 196,
    "mo@@": 197,
    "as@@": 198,
    "lo@@": 199,
    "con@@": 200,
    "such": 201,
    "able": 202,
    "often": 203,
    "before": 204,
    "es@@": 205,
    "p": 206,
    "down": 207,
    "group": 208,
    "ac@@": 209,
    "house": 210,
    "ha@@": 211,
    "music": 212,
    "water": 213,
    "young": 214,
    "age": 215,
    "day": 216,
    "se@@": 217,
    "en": 218,
    "ab@@": 219,
    "how": 220,
    "see": 221,
    "li@@": 222,
    "ine": 223,
    "white": 224,
    "never": 225,
    "any": 226,
    "could": 227,
    "ri@@": 228,
    "he@@": 229,
    "another": 230,
    "ve": 231,
    "be@@": 232,
    "university": 233,
    "ations": 234,
    "u": 235,
    "still": 236,
    "g": 237,
    "children": 238,
    "back": 239,
    "ton": 240,
    "sh@@": 241,
    "po@@": 242,
    "j@@": 243,
    "river": 244,
    "little": 245,
    "sp@@": 246,
    "car@@": 247,
    "can@@": 248,
    "under": 249,
    "old": 250,
    "between": 251,
    "just": 252,
    "go": 253,
    "pe@@": 254,
    "book": 255,
    "much": 256,
    "park": 257,
    "ds": 258,
    "ag@@": 259,
    "play": 260,
    "men": 261,
    "king": 262,
    "black": 263,
    "small": 264,
    "where": 265,
    "man@@": 266,
    "world": 267,
    "album": 268,
    "im@@": 269,
    "am": 270,
    "ar": 271,
    "family": 272,
    "second": 273,
    "our": 274,
    "found": 275,
    "bo@@": 276,
    "to@@": 277,
    "red": 278,
    "ting": 279,
    "off": 280,
    "home": 281,
    "ra@@": 282,
    "south": 283,
    "par@@": 284,
    "same": 285,
    "include": 286,
    "ne@@": 287,
    "bar@@": 288,
    "state": 289,
    "ly": 290,
    "large": 291,
    "played": 292,
    "life": 293,
    "north": 294,
    "station": 295,
    "no@@": 296,
    "film": 297,
    "war": 298,
    "per@@": 299,
    "good": 300,
    "ic": 301,
    "ating": 302,
    "l": 303,
    "pre@@": 304,
    "get": 305,
    "public": 306,
    "here": 307,
    "game": 308,
    "being": 309,
    "long": 310,
    "ic@@": 311,
    "ia": 312,
    "ous": 313,
    "national": 314,
    "playing": 315,
    "company": 316,
    "line": 317,
    "different": 318,
    "mon@@": 319,
    "pro@@": 320,
    "land": 321,
    "ent": 322,
    "field": 323,
    "b": 324,
    "ol@@": 325,
    "le": 326,
    "college": 327,
    "ap@@": 328,
    "si@@": 329,
    "ist": 330,
    "re": 331,
    "within": 332,
    "around": 333,
    "n": 334,
    "district": 335,
    "local": 336,
    "five": 337,
    "number": 338,
    "ates": 339,
    "il@@": 340,
    "om@@": 341,
    "inter@@": 342,
    "place": 343,
    "served": 344,
    "ul@@": 345,
    "we@@": 346,
    "again": 347,
    "ur@@": 348,
    "sub@@": 349,
    "following": 350,
    "west": 351,
    "ter": 352,
    "next": 353,
    "own": 354,
    "ed@@": 355,
    "street": 356,
    "als": 357,
    "me@@": 358,
    "last": 359,
    "ma@@": 360,
    "har@@": 361,
    "led": 362,
    "take": 363,
    "ter@@": 364,
    "main": 365,
    "system": 366,
    "left": 367,
    "ding": 368,
    "ks": 369,
    "know": 370,
    "bl@@": 371,
    "boy": 372,
    "building": 373,
    "took": 374,
    "make": 375,
    "show": 376,
    "want": 377,
    "te@@": 378,
    "el": 379,
    "blue": 380,
    "end": 381,
    "married": 382,
    "based": 383,
    "de": 384,
    "qu@@": 385,
    "ies": 386,
    "series": 387,
    "near": 388,
    "ver@@": 389,
    "side": 390,
    "united": 391,
    "must": 392,
    "ir@@": 393,
    "ll": 394,
    "ec@@": 395,
    "currently": 396,
    "x": 397,
    "ans": 398,
    "times": 399,
    "der": 400,
    "village": 401,
    "need": 402,
    "team": 403,
    "set": 404,
    "du@@": 405,
    "began": 406,
    "early": 407,
    "song": 408,
    "ex@@": 409,
    "father": 410,
    "does": 411,
    "band": 412,
    "please": 413,
    "wearing": 414,
    "do@@": 415,
    "ge@@": 416,
    "br@@": 417,
    "should": 418,
    "states": 419,
    "against": 420,
    "included": 421,
    "think": 422,
    "community": 423,
    "too": 424,
    "best": 425,
    "american": 426,
    "ity": 427,
    "great": 428,
    "ons": 429,
    "since": 430,
    "ho@@": 431,
    "road": 432,
    "x@@": 433,
    "tion": 434,
    "major": 435,
    "girl": 436,
    "air": 437,
    "went": 438,
    "find": 439,
    "la@@": 440,
    "john": 441,
    "gu@@": 442,
    "um": 443,
    "form": 444,
    "ke": 445,
    "ch": 446,
    "head": 447,
    "come": 448,
    "ber@@": 449,
    "dog": 450,
    "today": 451,
    "few": 452,
    "op@@": 453,
    "ded": 454,
    "party": 455,
    "gi@@": 456,
    "ing@@": 457,
    "saint": 458,
    "right": 459,
    "ings": 460,
    "popular": 461,
    "su@@": 462,
    "over@@": 463,
    "se": 464,
    "along": 465,
    "received": 466,
    "ley": 467,
    "common": 468,
    "even": 469,
    "died": 470,
    "ph@@": 471,
    "you@@": 472,
    "us@@": 473,
    "te": 474,
    "hi@@": 475,
    "got": 476,
    "member": 477,
    "um@@": 478,
    "church": 479,
    "east": 480,
    "tu@@": 481,
    "car": 482,
    "war@@": 483,
    "cor@@": 484,
    "going": 485,
    "pl@@": 486,
    "cl@@": 487,
    "original": 488,
    "green": 489,
    "tions": 490,
    "service": 491,
    "tri@@": 492,
    "ant": 493,
    "using": 494,
    "vi@@": 495,
    "members": 496,
    "ta@@": 497,
    "bu@@": 498,
    "english": 499,
    "without": 500,
    "island": 501,
    "usually": 502,
    "always": 503,
    "ke@@": 504,
    "ni@@": 505,
    "est": 506,
    "club": 507,
    "government": 508,
    "considered": 509,
    "all@@": 510,
    "bi@@": 511,
    "ally": 512,
    "ian": 513,
    "general": 514,
    "fl@@": 515,
    "every": 516,
    "came": 517,
    "point": 518,
    "fi@@": 519,
    "ou@@": 520,
    "gr@@": 521,
    "go@@": 522,
    "ps": 523,
    "room": 524,
    "works": 525,
    "pa@@": 526,
    "available": 527,
    "for@@": 528,
    "ent@@": 529,
    "so@@": 530,
    "child": 531,
    "former": 532,
    "ance": 533,
    "lake": 534,
    "les": 535,
    "pi@@": 536,
    "built": 537,
    "written": 538,
    "h": 539,
    "z": 540,
    "held": 541,
    "au@@": 542,
    "ty@@": 543,
    "important": 544,
    "the@@": 545,
    "together": 546,
    "shirt": 547,
    "ment": 548,
    "front": 549,
    "death": 550,
    "non@@": 551,
    "released": 552,
    "york": 553,
    "her@@": 554,
    "say": 555,
    "open": 556,
    "something": 557,
    "let": 558,
    "tic": 559,
    "won": 560,
    "those": 561,
    "species": 562,
    "law": 563,
    "career": 564,
    "sometimes": 565,
    "less": 566,
    "away": 567,
    "history": 568,
    "sa@@": 569,
    "r": 570,
    "ins": 571,
    "ru@@": 572,
    "f": 573,
    "worked": 574,
    "fe@@": 575,
    "live": 576,
    "mor@@": 577,
    "become": 578,
    "soon": 579,
    "outside": 580,
    "light": 581,
    "wife": 582,
    "six": 583,
    "various": 584,
    "love": 585,
    "among": 586,
    "standing": 587,
    "ten@@": 588,
    "com@@": 589,
    "che@@": 590,
    "look": 591,
    "ford": 592,
    "produced": 593,
    "table": 594,
    "sha@@": 595,
    "business": 596,
    "min@@": 597,
    "women": 598,
    "once": 599,
    "including": 600,
    "days": 601,
    "top": 602,
    "term": 603,
    "add": 604,
    "mer@@": 605,
    "th": 606,
    "ite": 607,
    "id@@": 608,
    "himself": 609,
    "cur@@": 610,
    "der@@": 611,
    "mother": 612,
    "football": 613,
    "single": 614,
    "bur@@": 615,
    "ves": 616,
    "ever": 617,
    "continued": 618,
    "saw": 619,
    "looking": 620,
    "british": 621,
    "cr@@": 622,
    "schools": 623,
    "sc@@": 624,
    "ors": 625,
    "international": 626,
    "tr@@": 627,
    "ten": 628,
    "ak@@": 629,
    "ism": 630,
    "under@@": 631,
    "tw@@": 632,
    "walking": 633,
    "ste@@": 634,
    "person": 635,
    "president": 636,
    "art": 637,
    "and@@": 638,
    "ren@@": 639,
    "power": 640,
    "ked": 641,
    "gar@@": 642,
    "board": 643,
    "london": 644,
    "better": 645,
    "similar": 646,
    "case": 647,
    "because": 648,
    "ary": 649,
    "working": 650,
    "c": 651,
    "students": 652,
    "col@@": 653,
    "current": 654,
    "tra@@": 655,
    "av@@": 656,
    "sitting": 657,
    "due": 658,
    "res": 659,
    "pen@@": 660,
    "season": 661,
    "wood": 662,
    "night": 663,
    "sk@@": 664,
    "seen": 665,
    "et": 666,
    "rock": 667,
    "fire": 668,
    "country": 669,
    "why": 670,
    "center": 671,
    "lost": 672,
    "ang@@": 673,
    "brown": 674,
    "language": 675,
    "ster": 676,
    "player": 677,
    "ther@@": 678,
    "ry": 679,
    "word": 680,
    "give": 681,
    "published": 682,
    "story": 683,
    "ay@@": 684,
    "french": 685,
    "daughter": 686,
    "ob@@": 687,
    "largest": 688,
    "hand": 689,
    "throughout": 690,
    "ters": 691,
    "site": 692,
    "songs": 693,
    "third": 694,
    "fa@@": 695,
    "mc@@": 696,
    "w": 697,
    "seat": 698,
    "office": 699,
    "eventually": 700,
    "ble": 701,
    "ati@@": 702,
    "ical": 703,
    "gra@@": 704,
    "central": 705,
    "movie": 706,
    "ven@@": 707,
    "attended": 708,
    "moved": 709,
    "sts": 710,
    "ff@@": 711,
    "areas": 712,
    "ship": 713,
    "ty": 714,
    "court": 715,
    "run": 716,
    "ats": 717,
    "version": 718,
    "free": 719,
    "cal@@": 720,
    "mu@@": 721,
    "seven": 722,
    "upon": 723,
    "help": 724,
    "jo@@": 725,
    "ator": 726,
    "dec@@": 727,
    "hu@@": 728,
    "until": 729,
    "means": 730,
    "wrote": 731,
    "up@@": 732,
    "tor@@": 733,
    "short": 734,
    "ba@@": 735,
    "mi@@": 736,
    "england": 737,
    "gen@@": 738,
    "given": 739,
    "brother": 740,
    "ad": 741,
    "includes": 742,
    "na@@": 743,
    "others": 744,
    "ses": 745,
    "region": 746,
    "generally": 747,
    "ling": 748,
    "ve@@": 749,
    "thing": 750,
    "across": 751,
    "dy": 752,
    "list": 753,
    "playlist": 754,
    "council": 755,
    "cre@@": 756,
    "gl@@": 757,
    "ep@@": 758,
    "books": 759,
    "sch@@": 760,
    "lu@@": 761,
    "bre@@": 762,
    "appeared": 763,
    "period": 764,
    "out@@": 765,
    "face": 766,
    "ju@@": 767,
    "den@@": 768,
    "features": 769,
    "ca@@": 770,
    "oc@@": 771,
    "thought": 772,
    "ness": 773,
    "developed": 774,
    "ties": 775,
    "gh@@": 776,
    "games": 777,
    "ens": 778,
    "style": 779,
    "ence": 780,
    "put": 781,
    "ker": 782,
    "ents": 783,
    "development": 784,
    "ig@@": 785,
    "course": 786,
    "returned": 787,
    "further": 788,
    "ari@@": 789,
    "ster@@": 790,
    "fin@@": 791,
    "sur@@": 792,
    "ev@@": 793,
    "ard": 794,
    "body": 795,
    "ish": 796,
    "del@@": 797,
    "cu@@": 798,
    "example": 799,
    "voice": 800,
    "track": 801,
    "political": 802,
    "modern": 803,
    "western": 804,
    "ill@@": 805,
    "sol@@": 806,
    "tell": 807,
    "os": 808,
    "design": 809,
    "ville": 810,
    "tor": 811,
    "order": 812,
    "ative": 813,
    "started": 814,
    "california": 815,
    "bridge": 816,
    "str@@": 817,
    "ages": 818,
    "ice": 819,
    "german": 820,
    "end@@": 821,
    "role": 822,
    "quite": 823,
    "production": 824,
    "nothing": 825,
    "lies": 826,
    "ga@@": 827,
    "wi@@": 828,
    "type": 829,
    "plays": 830,
    "ell@@": 831,
    "ach@@": 832,
    "remains": 833,
    "lives": 834,
    "result": 835,
    "food": 836,
    "gave": 837,
    "hill": 838,
    "tive": 839,
    "sel@@": 840,
    "pr@@": 841,
    "services": 842,
    "bas@@": 843,
    "val@@": 844,
    "low": 845,
    "sal@@": 846,
    "originally": 847,
    "television": 848,
    "ery": 849,
    "township": 850,
    "sir": 851,
    "sw@@": 852,
    "buried": 853,
    "taken": 854,
    "northern": 855,
    "done": 856,
    "things": 857,
    "pri@@": 858,
    "ement": 859,
    "big": 860,
    "thus": 861,
    "full": 862,
    "famous": 863,
    "education": 864,
    "almost": 865,
    "nearby": 866,
    "position": 867,
    "hall": 868,
    "behind": 869,
    "stage": 870,
    "title": 871,
    "systems": 872,
    "sted": 873,
    "really": 874,
    "ge": 875,
    "fer@@": 876,
    "ball": 877,
    "final": 878,
    "ey": 879,
    "video": 880,
    "running": 881,
    "ko@@": 882,
    "designed": 883,
    "da": 884,
    "beach": 885,
    "ah": 886,
    "uses": 887,
    "ders": 888,
    "recorded": 889,
    "research": 890,
    "ler": 891,
    "char@@": 892,
    "super@@": 893,
    "ash@@": 894,
    "ser@@": 895,
    "ow@@": 896,
    "ful": 897,
    "sm@@": 898,
    "airport": 899,
    "dr@@": 900,
    "provided": 901,
    "level": 902,
    "holding": 903,
    "active": 904,
    "support": 905,
    "remained": 906,
    "oul@@": 907,
    "described": 908,
    "wh@@": 909,
    "ore": 910,
    "centre": 911,
    "ants": 912,
    "project": 913,
    "bra@@": 914,
    "stone": 915,
    "rather": 916,
    "ning": 917,
    "league": 918,
    "ess@@": 919,
    "ay": 920,
    "class": 921,
    "change": 922,
    "ess": 923,
    "key": 924,
    "port": 925,
    "id": 926,
    "son@@": 927,
    "act": 928,
    "yellow": 929,
    "hand@@": 930,
    "anti@@": 931,
    "sound": 932,
    "created": 933,
    "yes": 934,
    "ali@@": 935,
    "sure": 936,
    "pan@@": 937,
    "museum": 938,
    "military": 939,
    "high@@": 940,
    "control": 941,
    "cap@@": 942,
    "changed": 943,
    "wa@@": 944,
    "grew": 945,
    "cemetery": 946,
    "southern": 947,
    "sea": 948,
    "keep": 949,
    "formed": 950,
    "ston": 951,
    "tur@@": 952,
    "tes": 953,
    "sing": 954,
    "mal@@": 955,
    "ability": 956,
    "rec@@": 957,
    "tro@@": 958,
    "st": 959,
    "mid@@": 960,
    "lan@@": 961,
    "ise": 962,
    "capital": 963,
    "sil@@": 964,
    "months": 965,
    "money": 966,
    "eight": 967,
    "bor@@": 968,
    "information": 969,
    "action": 970,
    "makes": 971,
    "close": 972,
    "v": 973,
    "mis@@": 974,
    "forms": 975,
    "et@@": 976,
    "range": 977,
    "ments": 978,
    "mat@@": 979,
    "wal@@": 980,
    "half": 981,
    "fre@@": 982,
    "bs": 983,
    "studied": 984,
    "space": 985,
    "process": 986,
    "numerous": 987,
    "bul@@": 988,
    "sen@@": 989,
    "sed": 990,
    "parents": 991,
    "market": 992,
    "pat@@": 993,
    "parts": 994,
    "bal@@": 995,
    "construction": 996,
    "having": 997,
    "uc@@": 998,
    "eyes": 999,
    "police": 1000,
    "ina": 1001,
    "ie": 1002,
    "ground": 1003,
    "george": 1004,
    "program": 1005,
    "hol@@": 1006,
    "words": 1007,
    "ined": 1008,
    "ics": 1009,
    "sting": 1010,
    "ver": 1011,
    "joined": 1012,
    "followed": 1013,
    "character": 1014,
    "below": 1015,
    "army": 1016,
    "tre@@": 1017,
    "although": 1018,
    "owned": 1019,
    "bro@@": 1020,
    "addition": 1021,
    "william": 1022,
    "serves": 1023,
    "nor@@": 1024,
    "ka": 1025,
    "des": 1026,
    "bel@@": 1027,
    "ass@@": 1028,
    "ys": 1029,
    "pal@@": 1030,
    "ner": 1031,
    "ham": 1032,
    "ta": 1033,
    "ically": 1034,
    "yet": 1035,
    "hon@@": 1036,
    "featured": 1037,
    "events": 1038,
    "vo@@": 1039,
    "dra@@": 1040,
    "ned": 1041,
    "referred": 1042,
    "instead": 1043,
    "friend": 1044,
    "ely": 1045,
    "den": 1046,
    "contains": 1047,
    "via": 1048,
    "takes": 1049,
    "groups": 1050,
    "ward": 1051,
    "society": 1052,
    "railway": 1053,
    "ped": 1054,
    "ton@@": 1055,
    "mountain": 1056,
    "je@@": 1057,
    "ways": 1058,
    "ci@@": 1059,
    "radio": 1060,
    "cas@@": 1061,
    "making": 1062,
    "ine@@": 1063,
    "af@@": 1064,
    "round": 1065,
    "pu@@": 1066,
    "james": 1067,
    "turned": 1068,
    "ana": 1069,
    "sion": 1070,
    "performed": 1071,
    "low@@": 1072,
    "above": 1073,
    "race": 1074,
    "mag@@": 1075,
    "dance": 1076,
    "tly": 1077,
    "raised": 1078,
    "lived": 1079,
    "ce": 1080,
    "natural": 1081,
    "ill": 1082,
    "either": 1083,
    "bed": 1084,
    "new@@": 1085,
    "ended": 1086,
    "private": 1087,
    "mostly": 1088,
    "director": 1089,
    "bus": 1090,
    "runs": 1091,
    "ne": 1092,
    "ben@@": 1093,
    "air@@": 1094,
    "met": 1095,
    "doctor": 1096,
    "kes": 1097,
    "hor@@": 1098,
    "tar@@": 1099,
    "stri@@": 1100,
    "primary": 1101,
    "official": 1102,
    "ines": 1103,
    "cy@@": 1104,
    "sent": 1105,
    "valley": 1106,
    "shows": 1107,
    "industry": 1108,
    "gre@@": 1109,
    "back@@": 1110,
    "replaced": 1111,
    "players": 1112,
    "ology": 1113,
    "middle": 1114,
    "human": 1115,
    "ators": 1116,
    "sons": 1117,
    "ric@@": 1118,
    "fr@@": 1119,
    "ban@@": 1120,
    "est@@": 1121,
    "added": 1122,
    "train": 1123,
    "weather": 1124,
    "post@@": 1125,
    "event": 1126,
    "independent": 1127,
    "dic@@": 1128,
    "call": 1129,
    "asked": 1130,
    "force": 1131,
    "writing": 1132,
    "wall": 1133,
    "per": 1134,
    "men@@": 1135,
    "though": 1136,
    "social": 1137,
    "ial": 1138,
    "fish": 1139,
    "ches": 1140,
    "possible": 1141,
    "noted": 1142,
    "far": 1143,
    "da@@": 1144,
    "canada": 1145,
    "appears": 1146,
    "older": 1147,
    "science": 1148,
    "lin@@": 1149,
    "ade": 1150,
    "source": 1151,
    "records": 1152,
    "record": 1153,
    "kar@@": 1154,
    "fore@@": 1155,
    "australia": 1156,
    "related": 1157,
    "might": 1158,
    "special": 1159,
    "ker@@": 1160,
    "sold": 1161,
    "san": 1162,
    "pol@@": 1163,
    "covered": 1164,
    "population": 1165,
    "mean": 1166,
    "land@@": 1167,
    "involved": 1168,
    "data": 1169,
    "success": 1170,
    "stra@@": 1171,
    "san@@": 1172,
    "han@@": 1173,
    "ently": 1174,
    "hard": 1175,
    "door": 1176,
    "ann@@": 1177,
    "idea": 1178,
    "heard": 1179,
    "fully": 1180,
    "des@@": 1181,
    "present": 1182,
    "ger@@": 1183,
    "established": 1184,
    "traditional": 1185,
    "oo@@": 1186,
    "na": 1187,
    "mac@@": 1188,
    "by@@": 1189,
    "quickly": 1190,
    "girls": 1191,
    "enti@@": 1192,
    "don": 1193,
    "chief": 1194,
    "looked": 1195,
    "strong": 1196,
    "star": 1197,
    "killed": 1198,
    "despite": 1199,
    "cat@@": 1200,
    "shi@@": 1201,
    "release": 1202,
    "week": 1203,
    "typically": 1204,
    "mister": 1205,
    "therefore": 1206,
    "mainly": 1207,
    "decided": 1208,
    "shall": 1209,
    "ram@@": 1210,
    "ns": 1211,
    "real": 1212,
    "mil@@": 1213,
    "listed": 1214,
    "els": 1215,
    "successful": 1216,
    "pped": 1217,
    "kin@@": 1218,
    "stop": 1219,
    "wor@@": 1220,
    "she@@": 1221,
    "lower": 1222,
    "lines": 1223,
    "ma": 1224,
    "win@@": 1225,
    "win": 1226,
    "summer": 1227,
    "subsequently": 1228,
    "union": 1229,
    "stand": 1230,
    "pul@@": 1231,
    "ils": 1232,
    "ell": 1233,
    "dar@@": 1234,
    "according": 1235,
    "yo@@": 1236,
    "sti@@": 1237,
    "oh": 1238,
    "ring": 1239,
    "europe": 1240,
    "tors": 1241,
    "professional": 1242,
    "native": 1243,
    "battle": 1244,
    "couple": 1245,
    "start": 1246,
    "ple@@": 1247,
    "paper": 1248,
    "houses": 1249,
    "friends": 1250,
    "brought": 1251,
    "what@@": 1252,
    "water@@": 1253,
    "ori@@": 1254,
    "ish@@": 1255,
    "il": 1256,
    "return": 1257,
    "past": 1258,
    "hy@@": 1259,
    "boys": 1260,
    "hands": 1261,
    "royal": 1262,
    "itself": 1263,
    "cover": 1264,
    "por@@": 1265,
    "bri@@": 1266,
    "trans@@": 1267,
    "mad@@": 1268,
    "hel@@": 1269,
    "base": 1270,
    "doing": 1271,
    "az@@": 1272,
    "told": 1273,
    "restaurant": 1274,
    "heart": 1275,
    "eastern": 1276,
    "one@@": 1277,
    "morning": 1278,
    "late": 1279,
    "comes": 1280,
    "already": 1281,
    "ran": 1282,
    "performance": 1283,
    "mind": 1284,
    "location": 1285,
    "fied": 1286,
    "cam@@": 1287,
    "tic@@": 1288,
    "ly@@": 1289,
    "dark": 1290,
    "news": 1291,
    "ham@@": 1292,
    "forest": 1293,
    "films": 1294,
    "bay": 1295,
    "orange": 1296,
    "nine": 1297,
    "limited": 1298,
    "elected": 1299,
    "bit": 1300,
    "wide": 1301,
    "practice": 1302,
    "hair": 1303,
    "tracks": 1304,
    "ms": 1305,
    "gold": 1306,
    "buildings": 1307,
    "tan@@": 1308,
    "uni@@": 1309,
    "star@@": 1310,
    "ear@@": 1311,
    "countries": 1312,
    "commonly": 1313,
    "test": 1314,
    "teams": 1315,
    "sister": 1316,
    "names": 1317,
    "ised": 1318,
    "division": 1319,
    "sun@@": 1320,
    "media": 1321,
    "lead": 1322,
    "ger": 1323,
    "flo@@": 1324,
    "library": 1325,
    "ized": 1326,
    "read": 1327,
    "que": 1328,
    "france": 1329,
    "ching": 1330,
    "anything": 1331,
    "access": 1332,
    "theory": 1333,
    "ran@@": 1334,
    "japanese": 1335,
    "european": 1336,
    "artist": 1337,
    "whole": 1338,
    "tics": 1339,
    "passed": 1340,
    "companies": 1341,
    "award": 1342,
    "tree": 1343,
    "stands": 1344,
    "lot": 1345,
    "guitar": 1346,
    "sports": 1347,
    "movement": 1348,
    "musical": 1349,
    "model": 1350,
    "dun@@": 1351,
    "aircraft": 1352,
    "types": 1353,
    "ra": 1354,
    "provides": 1355,
    "primarily": 1356,
    "ented": 1357,
    "ale": 1358,
    "technology": 1359,
    "wil@@": 1360,
    "plant": 1361,
    "eng@@": 1362,
    "consists": 1363,
    "ash": 1364,
    "training": 1365,
    "spent": 1366,
    "sions": 1367,
    "bon@@": 1368,
    "walk": 1369,
    "closed": 1370,
    "ships": 1371,
    "off@@": 1372,
    "ington": 1373,
    "ged": 1374,
    "head@@": 1375,
    "cross": 1376,
    "placed": 1377,
    "paul": 1378,
    "living": 1379,
    "ka@@": 1380,
    "parish": 1381,
    "ki@@": 1382,
    "ths": 1383,
    "significant": 1384,
    "section": 1385,
    "mus@@": 1386,
    "feature": 1387,
    "ched": 1388,
    "female": 1389,
    "atic": 1390,
    "acc@@": 1391,
    "tt": 1392,
    "speci@@": 1393,
    "ously": 1394,
    "longer": 1395,
    "view": 1396,
    "ular": 1397,
    "operated": 1398,
    "kind": 1399,
    "try": 1400,
    "taking": 1401,
    "stars": 1402,
    "sl@@": 1403,
    "os@@": 1404,
    "novel": 1405,
    "highly": 1406,
    "civil": 1407,
    "cases": 1408,
    "bun@@": 1409,
    "ily": 1410,
    "coun@@": 1411,
    "boo@@": 1412,
    "ality": 1413,
    "study": 1414,
    "rac@@": 1415,
    "fo@@": 1416,
    "dly": 1417,
    "believe": 1418,
    "bar": 1419,
    "alice": 1420,
    "dogs": 1421,
    "well@@": 1422,
    "store": 1423,
    "riding": 1424,
    "fall": 1425,
    "commercial": 1426,
    "indian": 1427,
    "felt": 1428,
    "true": 1429,
    "enough": 1430,
    "structure": 1431,
    "ast": 1432,
    "ls": 1433,
    "leave": 1434,
    "hot": 1435,
    "clo@@": 1436,
    "arm@@": 1437,
    "ws": 1438,
    "especially": 1439,
    "educated": 1440,
    "ce@@": 1441,
    "bill": 1442,
    "acy": 1443,
    "post": 1444,
    "minister": 1445,
    "castle": 1446,
    "att@@": 1447,
    "master": 1448,
    "los": 1449,
    "germany": 1450,
    "dor@@": 1451,
    "date": 1452,
    "stu@@": 1453,
    "shortly": 1454,
    "robert": 1455,
    "regular": 1456,
    "ze@@": 1457,
    "standard": 1458,
    "dem@@": 1459,
    "tically": 1460,
    "sive": 1461,
    "holds": 1462,
    "floor": 1463,
    "complete": 1464,
    "there@@": 1465,
    "snow": 1466,
    "mel@@": 1467,
    "divided": 1468,
    "hat": 1469,
    "eu@@": 1470,
    "baby": 1471,
    "association": 1472,
    "widely": 1473,
    "tim@@": 1474,
    "sam@@": 1475,
    "mer": 1476,
    "languages": 1477,
    "hal@@": 1478,
    "ze": 1479,
    "turn": 1480,
    "hundred": 1481,
    "fication": 1482,
    "towards": 1483,
    "tion@@": 1484,
    "points": 1485,
    "effect": 1486,
    "certain": 1487,
    "tt@@": 1488,
    "j": 1489,
    "everything": 1490,
    "david": 1491,
    "tional": 1492,
    "richard": 1493,
    "hum@@": 1494,
    "associated": 1495,
    "america": 1496,
    "won@@": 1497,
    "lady": 1498,
    "charles": 1499,
    "chair": 1500,
    "problems": 1501,
    "mark": 1502,
    "inside": 1503,
    "changes": 1504,
    "boat": 1505,
    "aw@@": 1506,
    "wanted": 1507,
    "situated": 1508,
    "coast": 1509,
    "bat@@": 1510,
    "products": 1511,
    "particularly": 1512,
    "network": 1513,
    "fil@@": 1514,
    "entire": 1515,
    "sky": 1516,
    "ological": 1517,
    "ory": 1518,
    "ick@@": 1519,
    "health": 1520,
    "cha@@": 1521,
    "zed": 1522,
    "ile": 1523,
    "cold": 1524,
    "code": 1525,
    "ancient": 1526,
    "press": 1527,
    "play@@": 1528,
    "ack": 1529,
    "sta@@": 1530,
    "rest": 1531,
    "let@@": 1532,
    "lam@@": 1533,
    "ken@@": 1534,
    "gri@@": 1535,
    "getting": 1536,
    "bank": 1537,
    "band@@": 1538,
    "texas": 1539,
    "shot": 1540,
    "province": 1541,
    "pe": 1542,
    "machine": 1543,
    "least": 1544,
    "leader": 1545,
    "earth": 1546,
    "computer": 1547,
    "aff@@": 1548,
    "ry@@": 1549,
    "michael": 1550,
    "hear": 1551,
    "gener@@": 1552,
    "ered": 1553,
    "arch@@": 1554,
    "rel@@": 1555,
    "recent": 1556,
    "cannot": 1557,
    "problem": 1558,
    "department": 1559,
    "care": 1560,
    "tom@@": 1561,
    "fort": 1562,
    "ure": 1563,
    "thomas": 1564,
    "inten@@": 1565,
    "characters": 1566,
    "talk": 1567,
    "frequently": 1568,
    "dri@@": 1569,
    "ping": 1570,
    "pic@@": 1571,
    "cho@@": 1572,
    "ving": 1573,
    "pur@@": 1574,
    "horse": 1575,
    "ances": 1576,
    "tical": 1577,
    "interest": 1578,
    "gone": 1579,
    "festival": 1580,
    "coming": 1581,
    "box": 1582,
    "ying": 1583,
    "picture": 1584,
    "magazine": 1585,
    "grass": 1586,
    "forces": 1587,
    "chinese": 1588,
    "previously": 1589,
    "immediately": 1590,
    "down@@": 1591,
    "creek": 1592,
    "complex": 1593,
    "sto@@": 1594,
    "pres@@": 1595,
    "looks": 1596,
    "ber": 1597,
    "variety": 1598,
    "mouth": 1599,
    "ets": 1600,
    "directed": 1601,
    "sun": 1602,
    "route": 1603,
    "lar@@": 1604,
    "appear": 1605,
    "initially": 1606,
    "carried": 1607,
    "asian": 1608,
    "theatre": 1609,
    "meaning": 1610,
    "dressed": 1611,
    "comm@@": 1612,
    "sign": 1613,
    "ku@@": 1614,
    "future": 1615,
    "ff": 1616,
    "borough": 1617,
    "arms": 1618,
    "sem@@": 1619,
    "pink": 1620,
    "moment": 1621,
    "god": 1622,
    "was@@": 1623,
    "terms": 1624,
    "speak": 1625,
    "poor": 1626,
    "opened": 1627,
    "heavy": 1628,
    "election": 1629,
    "vis@@": 1630,
    "subject": 1631,
    "mission": 1632,
    "ir": 1633,
    "feel": 1634,
    "trac@@": 1635,
    "ong": 1636,
    "tal@@": 1637,
    "pit@@": 1638,
    "hold": 1639,
    "ath@@": 1640,
    "academy": 1641,
    "roman": 1642,
    "provide": 1643,
    "mixed": 1644,
    "chi@@": 1645,
    "serve": 1646,
    "knew": 1647,
    "continues": 1648,
    "younger": 1649,
    "results": 1650,
    "pin@@": 1651,
    "numbers": 1652,
    "nature": 1653,
    "match": 1654,
    "ky": 1655,
    "ends": 1656,
    "ago": 1657,
    "swe@@": 1658,
    "king@@": 1659,
    "far@@": 1660,
    "dy@@": 1661,
    "clu@@": 1662,
    "brothers": 1663,
    "attack": 1664,
    "smith": 1665,
    "recently": 1666,
    "matter": 1667,
    "inf@@": 1668,
    "india": 1669,
    "dead": 1670,
    "cli@@": 1671,
    "additional": 1672,
    "van": 1673,
    "ture": 1674,
    "trees": 1675,
    "themselves": 1676,
    "sters": 1677,
    "separate": 1678,
    "sand@@": 1679,
    "arts": 1680,
    "probably": 1681,
    "failed": 1682,
    "cause": 1683,
    "multiple": 1684,
    "managed": 1685,
    "hospital": 1686,
    "hope": 1687,
    "cut": 1688,
    "mur@@": 1689,
    "lim@@": 1690,
    "historic": 1691,
    "governor": 1692,
    "tam@@": 1693,
    "notable": 1694,
    "metal": 1695,
    "higher": 1696,
    "ved": 1697,
    "required": 1698,
    "exc@@": 1699,
    "bow@@": 1700,
    "winter": 1701,
    "regional": 1702,
    "reading": 1703,
    "method": 1704,
    "introduced": 1705,
    "fu@@": 1706,
    "fishing": 1707,
    "larger": 1708,
    "hour": 1709,
    "fellow": 1710,
    "experience": 1711,
    "canadian": 1712,
    "vel@@": 1713,
    "simple": 1714,
    "material": 1715,
    "lie": 1716,
    "cour@@": 1717,
    "catholic": 1718,
    "are@@": 1719,
    "wing": 1720,
    "offers": 1721,
    "needed": 1722,
    "kept": 1723,
    "garden": 1724,
    "author": 1725,
    "smaller": 1726,
    "degree": 1727,
    "bol@@": 1728,
    "appointed": 1729,
    "allowed": 1730,
    "studies": 1731,
    "move": 1732,
    "japan": 1733,
    "fol@@": 1734,
    "caused": 1735,
    "shop": 1736,
    "online": 1737,
    "multi@@": 1738,
    "ished": 1739,
    "historical": 1740,
    "exist": 1741,
    "berg": 1742,
    "va": 1743,
    "suit": 1744,
    "spanish": 1745,
    "search": 1746,
    "founded": 1747,
    "economy": 1748,
    "border": 1749,
    "activities": 1750,
    "writer": 1751,
    "talking": 1752,
    "student": 1753,
    "hit": 1754,
    "composed": 1755,
    "christian": 1756,
    "ably": 1757,
    "ya": 1758,
    "seems": 1759,
    "latin": 1760,
    "kers": 1761,
    "dev@@": 1762,
    "baseball": 1763,
    "zz@@": 1764,
    "happy": 1765,
    "fro@@": 1766,
    "din@@": 1767,
    "background": 1768,
    "ak": 1769,
    "survived": 1770,
    "nearly": 1771,
    "culture": 1772,
    "spo@@": 1773,
    "pos@@": 1774,
    "og@@": 1775,
    "cities": 1776,
    "china": 1777,
    "specific": 1778,
    "leaves": 1779,
    "issue": 1780,
    "ga": 1781,
    "fight": 1782,
    "episode": 1783,
    "collection": 1784,
    "blo@@": 1785,
    "ace": 1786,
    "property": 1787,
    "product": 1788,
    "poly@@": 1789,
    "places": 1790,
    "mary": 1791,
    "ity@@": 1792,
    "gal@@": 1793,
    "fourth": 1794,
    "engine": 1795,
    "atory": 1796,
    "sim@@": 1797,
    "previous": 1798,
    "origin": 1799,
    "medical": 1800,
    "leading": 1801,
    "fri@@": 1802,
    "finally": 1803,
    "clear": 1804,
    "supported": 1805,
    "sec@@": 1806,
    "particular": 1807,
    "offered": 1808,
    "finished": 1809,
    "succeeded": 1810,
    "lands": 1811,
    "italian": 1812,
    "gg@@": 1813,
    "competition": 1814,
    "campus": 1815,
    "reviews": 1816,
    "programs": 1817,
    "pes": 1818,
    "operation": 1819,
    "movies": 1820,
    "jewish": 1821,
    "headquarters": 1822,
    "fle@@": 1823,
    "eg@@": 1824,
    "ach": 1825,
    "our@@": 1826,
    "majority": 1827,
    "deep": 1828,
    "speed": 1829,
    "row": 1830,
    "manager": 1831,
    "falls": 1832,
    "committee": 1833,
    "tation": 1834,
    "pun@@": 1835,
    "job": 1836,
    "ering": 1837,
    "cro@@": 1838,
    "cle@@": 1839,
    "plan": 1840,
    "peter": 1841,
    "islands": 1842,
    "ire": 1843,
    "bird": 1844,
    "sin@@": 1845,
    "residents": 1846,
    "py@@": 1847,
    "my@@": 1848,
    "istic": 1849,
    "phone": 1850,
    "ili@@": 1851,
    "ici@@": 1852,
    "fel@@": 1853,
    "coach": 1854,
    "mayor": 1855,
    "les@@": 1856,
    "iled": 1857,
    "greek": 1858,
    "dear": 1859,
    "cars": 1860,
    "bil@@": 1861,
    "tour": 1862,
    "spar@@": 1863,
    "fur@@": 1864,
    "die": 1865,
    "sor@@": 1866,
    "size": 1867,
    "oil": 1868,
    "municipality": 1869,
    "marriage": 1870,
    "flu@@": 1871,
    "except": 1872,
    "energy": 1873,
    "ements": 1874,
    "dry": 1875,
    "di": 1876,
    "trade": 1877,
    "mem@@": 1878,
    "largely": 1879,
    "eat": 1880,
    "difficult": 1881,
    "burg": 1882,
    "bike": 1883,
    "bad": 1884,
    "rich": 1885,
    "male": 1886,
    "hours": 1887,
    "sar@@": 1888,
    "positive": 1889,
    "long@@": 1890,
    "lat@@": 1891,
    "gs": 1892,
    "ft": 1893,
    "enc@@": 1894,
    "completely": 1895,
    "blood": 1896,
    "ane": 1897,
    "shown": 1898,
    "scar@@": 1899,
    "represented": 1900,
    "drive": 1901,
    "approach": 1902,
    "annual": 1903,
    "weeks": 1904,
    "produce": 1905,
    "kingdom": 1906,
    "ireland": 1907,
    "individual": 1908,
    "fell": 1909,
    "operations": 1910,
    "ong@@": 1911,
    "tried": 1912,
    "sits": 1913,
    "fact": 1914,
    "rate": 1915,
    "marked": 1916,
    "gas": 1917,
    "elements": 1918,
    "crowd": 1919,
    "charge": 1920,
    "self@@": 1921,
    "letter": 1922,
    "black@@": 1923,
    "appearance": 1924,
    "towns": 1925,
    "scre@@": 1926,
    "roads": 1927,
    "reported": 1928,
    "legal": 1929,
    "helped": 1930,
    "glass": 1931,
    "fire@@": 1932,
    "era": 1933,
    "bit@@": 1934,
    "worth": 1935,
    "sing@@": 1936,
    "personal": 1937,
    "oun@@": 1938,
    "loc@@": 1939,
    "issues": 1940,
    "internet": 1941,
    "fy": 1942,
    "text": 1943,
    "organization": 1944,
    "operates": 1945,
    "daughters": 1946,
    "tered": 1947,
    "stadium": 1948,
    "ron": 1949,
    "rights": 1950,
    "inc@@": 1951,
    "gam@@": 1952,
    "form@@": 1953,
    "awards": 1954,
    "ately": 1955,
    "ah@@": 1956,
    "van@@": 1957,
    "soccer": 1958,
    "retired": 1959,
    "reg@@": 1960,
    "nu@@": 1961,
    "learning": 1962,
    "hom@@": 1963,
    "hen@@": 1964,
    "economic": 1965,
    "bright": 1966,
    "virginia": 1967,
    "stations": 1968,
    "mountains": 1969,
    "gh": 1970,
    "cul@@": 1971,
    "critics": 1972,
    "cra@@": 1973,
    "sco@@": 1974,
    "remain": 1975,
    "note": 1976,
    "lord": 1977,
    "grand@@": 1978,
    "dress": 1979,
    "continue": 1980,
    "actually": 1981,
    "actor": 1982,
    "mount": 1983,
    "fine": 1984,
    "entirely": 1985,
    "wat@@": 1986,
    "top@@": 1987,
    "tin@@": 1988,
    "sho@@": 1989,
    "shire": 1990,
    "newspaper": 1991,
    "ion": 1992,
    "youth": 1993,
    "unit": 1994,
    "tures": 1995,
    "surface": 1996,
    "stre@@": 1997,
    "software": 1998,
    "scene": 1999,
    "meet": 2000,
    "influence": 2001,
    "growing": 2002,
    "easy": 2003,
    "dol@@": 2004,
    "def@@": 2005,
    "command": 2006,
    "coll@@": 2007,
    "unknown": 2008,
    "syn@@": 2009,
    "signed": 2010,
    "hotel": 2011,
    "ars": 2012,
    "wish": 2013,
    "pool": 2014,
    "plants": 2015,
    "nam@@": 2016,
    "ki": 2017,
    "eds": 2018,
    "cent@@": 2019,
    "ye@@": 2020,
    "watch": 2021,
    "upper": 2022,
    "trains": 2023,
    "thor@@": 2024,
    "shu@@": 2025,
    "politics": 2026,
    "platform": 2027,
    "herself": 2028,
    "does@@": 2029,
    "det@@": 2030,
    "sen": 2031,
    "russian": 2032,
    "prominent": 2033,
    "ining": 2034,
    "estate": 2035,
    "doc@@": 2036,
    "co": 2037,
    "century": 2038,
    "captain": 2039,
    "bles": 2040,
    "birds": 2041,
    "au": 2042,
    "tin": 2043,
    "staff": 2044,
    "seemed": 2045,
    "plan@@": 2046,
    "gate": 2047,
    "stories": 2048,
    "slo@@": 2049,
    "says": 2050,
    "remember": 2051,
    "nic@@": 2052,
    "myself": 2053,
    "month": 2054,
    "hop@@": 2055,
    "henry": 2056,
    "wel@@": 2057,
    "washington": 2058,
    "roman@@": 2059,
    "gor@@": 2060,
    "goes": 2061,
    "four@@": 2062,
    "florida": 2063,
    "ects": 2064,
    "communities": 2065,
    "color": 2066,
    "claimed": 2067,
    "wood@@": 2068,
    "q@@": 2069,
    "pon@@": 2070,
    "jumping": 2071,
    "ese": 2072,
    "equ@@": 2073,
    "camera": 2074,
    "thr@@": 2075,
    "sy@@": 2076,
    "spring": 2077,
    "earlier": 2078,
    "answer": 2079,
    "wards": 2080,
    "tru@@": 2081,
    "nation": 2082,
    "likely": 2083,
    "greater": 2084,
    "financial": 2085,
    "duc@@": 2086,
    "distance": 2087,
    "coat": 2088,
    "chicago": 2089,
    "awarded": 2090,
    "artists": 2091,
    "sit": 2092,
    "simply": 2093,
    "occur": 2094,
    "inv@@": 2095,
    "ination": 2096,
    "ica": 2097,
    "evidence": 2098,
    "cru@@": 2099,
    "ams": 2100,
    "alism": 2101,
    "ust": 2102,
    "town@@": 2103,
    "piece": 2104,
    "of@@": 2105,
    "mol@@": 2106,
    "minor": 2107,
    "management": 2108,
    "basketball": 2109,
    "ational": 2110,
    "ase": 2111,
    "speech": 2112,
    "religious": 2113,
    "professor": 2114,
    "paris": 2115,
    "ney": 2116,
    "hun@@": 2117,
    "gives": 2118,
    "foreign": 2119,
    "alist": 2120,
    "wit@@": 2121,
    "two@@": 2122,
    "studio": 2123,
    "singer": 2124,
    "schedule": 2125,
    "red@@": 2126,
    "rare": 2127,
    "pass": 2128,
    "animals": 2129,
    "versions": 2130,
    "soci@@": 2131,
    "roo@@": 2132,
    "port@@": 2133,
    "policy": 2134,
    "increased": 2135,
    "grand": 2136,
    "christmas": 2137,
    "tower": 2138,
    "sul@@": 2139,
    "shar@@": 2140,
    "railroad": 2141,
    "med": 2142,
    "highway": 2143,
    "executive": 2144,
    "aries": 2145,
    "ang": 2146,
    "workers": 2147,
    "twice": 2148,
    "stood": 2149,
    "sa": 2150,
    "reached": 2151,
    "pp@@": 2152,
    "od@@": 2153,
    "jacket": 2154,
    "happened": 2155,
    "gro@@": 2156,
    "foundation": 2157,
    "tran@@": 2158,
    "sli@@": 2159,
    "queen": 2160,
    "ontario": 2161,
    "micro@@": 2162,
    "iz@@": 2163,
    "foot": 2164,
    "electric": 2165,
    "directly": 2166,
    "windows": 2167,
    "trail": 2168,
    "teacher": 2169,
    "taught": 2170,
    "quar@@": 2171,
    "performing": 2172,
    "onic": 2173,
    "offer": 2174,
    "honor": 2175,
    "fast": 2176,
    "clothes": 2177,
    "miss": 2178,
    "husband": 2179,
    "facilities": 2180,
    "examples": 2181,
    "cri@@": 2182,
    "believed": 2183,
    "arm": 2184,
    "africa": 2185,
    "trying": 2186,
    "traffic": 2187,
    "ack@@": 2188,
    "whether": 2189,
    "shopping": 2190,
    "ron@@": 2191,
    "real@@": 2192,
    "quality": 2193,
    "ious": 2194,
    "flows": 2195,
    "critical": 2196,
    "conditions": 2197,
    "beautiful": 2198,
    "afterwards": 2199,
    "acting": 2200,
    "painting": 2201,
    "mit@@": 2202,
    "length": 2203,
    "green@@": 2204,
    "eli@@": 2205,
    "concept": 2206,
    "ame": 2207,
    "alone": 2208,
    "suffered": 2209,
    "north@@": 2210,
    "forward": 2211,
    "forced": 2212,
    "daily": 2213,
    "camp": 2214,
    "follow": 2215,
    "completed": 2216,
    "ck": 2217,
    "ble@@": 2218,
    "yn@@": 2219,
    "window": 2220,
    "sh": 2221,
    "settlement": 2222,
    "nom@@": 2223,
    "may@@": 2224,
    "literature": 2225,
    "irish": 2226,
    "hur@@": 2227,
    "harry": 2228,
    "eth@@": 2229,
    "cup": 2230,
    "child@@": 2231,
    "southeast": 2232,
    "principal": 2233,
    "pra@@": 2234,
    "ocean": 2235,
    "leaving": 2236,
    "fifth": 2237,
    "ei@@": 2238,
    "clar@@": 2239,
    "angeles": 2240,
    "square": 2241,
    "singing": 2242,
    "reason": 2243,
    "lon@@": 2244,
    "jersey": 2245,
    "emer@@": 2246,
    "bury": 2247,
    "african": 2248,
    "sets": 2249,
    "len@@": 2250,
    "institute": 2251,
    "direct": 2252,
    "cont@@": 2253,
    "asia": 2254,
    "ai": 2255,
    "stock": 2256,
    "secondary": 2257,
    "rail": 2258,
    "phil@@": 2259,
    "perhaps": 2260,
    "ony": 2261,
    "metropolitan": 2262,
    "knowledge": 2263,
    "ison": 2264,
    "discovered": 2265,
    "australian": 2266,
    "tun@@": 2267,
    "memorial": 2268,
    "junior": 2269,
    "equipment": 2270,
    "deal": 2271,
    "connected": 2272,
    "yourself": 2273,
    "value": 2274,
    "settled": 2275,
    "levels": 2276,
    "ists": 2277,
    "explo@@": 2278,
    "decision": 2279,
    "cast": 2280,
    "campaign": 2281,
    "broken": 2282,
    "branch": 2283,
    "wom@@": 2284,
    "sla@@": 2285,
    "serving": 2286,
    "security": 2287,
    "prot@@": 2288,
    "ough@@": 2289,
    "law@@": 2290,
    "hin@@": 2291,
    "function": 2292,
    "comp@@": 2293,
    "ath": 2294,
    "aged": 2295,
    "ys@@": 2296,
    "work@@": 2297,
    "sig@@": 2298,
    "replied": 2299,
    "latter": 2300,
    "lab@@": 2301,
    "families": 2302,
    "ena": 2303,
    "easily": 2304,
    "build": 2305,
    "beginning": 2306,
    "vers@@": 2307,
    "units": 2308,
    "til@@": 2309,
    "recording": 2310,
    "net": 2311,
    "models": 2312,
    "flowers": 2313,
    "relatively": 2314,
    "mentioned": 2315,
    "mas@@": 2316,
    "ancy": 2317,
    "run@@": 2318,
    "relationship": 2319,
    "regularly": 2320,
    "ny": 2321,
    "northwest": 2322,
    "methods": 2323,
    "lay": 2324,
    "lad@@": 2325,
    "highest": 2326,
    "graphic": 2327,
    "dic": 2328,
    "website": 2329,
    "sort": 2330,
    "sites": 2331,
    "officer": 2332,
    "kno@@": 2333,
    "ges": 2334,
    "cow@@": 2335,
    "activity": 2336,
    "transport": 2337,
    "reservation": 2338,
    "ours": 2339,
    "oli@@": 2340,
    "ja@@": 2341,
    "ingly": 2342,
    "ids": 2343,
    "cher": 2344,
    "carrying": 2345,
    "ata": 2346,
    "wo@@": 2347,
    "whit@@": 2348,
    "ski": 2349,
    "silver": 2350,
    "path": 2351,
    "oldest": 2352,
    "ites": 2353,
    "federal": 2354,
    "vol@@": 2355,
    "understand": 2356,
    "tle": 2357,
    "sty": 2358,
    "someone": 2359,
    "rose": 2360,
    "pop": 2361,
    "ones": 2362,
    "oned": 2363,
    "ko": 2364,
    "ited": 2365,
    "drink": 2366,
    "dle": 2367,
    "cel@@": 2368,
    "agriculture": 2369,
    "solution": 2370,
    "prime": 2371,
    "navy": 2372,
    "moving": 2373,
    "formation": 2374,
    "eye": 2375,
    "engineering": 2376,
    "conc@@": 2377,
    "break": 2378,
    "ada": 2379,
    "twenty@@": 2380,
    "qui@@": 2381,
    "neither": 2382,
    "image": 2383,
    "iling": 2384,
    "hear@@": 2385,
    "squ@@": 2386,
    "ored": 2387,
    "needs": 2388,
    "justice": 2389,
    "industrial": 2390,
    "hard@@": 2391,
    "effects": 2392,
    "attempt": 2393,
    "west@@": 2394,
    "surrounding": 2395,
    "sport": 2396,
    "spe@@": 2397,
    "rit@@": 2398,
    "plat@@": 2399,
    "ises": 2400,
    "gained": 2401,
    "fruit": 2402,
    "dou@@": 2403,
    "dam@@": 2404,
    "covers": 2405,
    "chairman": 2406,
    "ades": 2407,
    "ym@@": 2408,
    "vary": 2409,
    "treatment": 2410,
    "sources": 2411,
    "fun@@": 2412,
    "filled": 2413,
    "fields": 2414,
    "crater": 2415,
    "beyond": 2416,
    "vision": 2417,
    "tab@@": 2418,
    "sum@@": 2419,
    "ohio": 2420,
    "ner@@": 2421,
    "jones": 2422,
    "ize": 2423,
    "ick": 2424,
    "graduated": 2425,
    "focus": 2426,
    "dur@@": 2427,
    "bin@@": 2428,
    "ast@@": 2429,
    "albums": 2430,
    "yard": 2431,
    "write": 2432,
    "ur": 2433,
    "swimming": 2434,
    "sunday": 2435,
    "pel@@": 2436,
    "pay": 2437,
    "nar@@": 2438,
    "mod@@": 2439,
    "lee": 2440,
    "guy": 2441,
    "destroyed": 2442,
    "unique": 2443,
    "spec@@": 2444,
    "opening": 2445,
    "onto": 2446,
    "normal": 2447,
    "meeting": 2448,
    "jer@@": 2449,
    "grade": 2450,
    "dropped": 2451,
    "digital": 2452,
    "cost": 2453,
    "ball@@": 2454,
    "tis": 2455,
    "tea": 2456,
    "school@@": 2457,
    "rural": 2458,
    "ph": 2459,
    "gil@@": 2460,
    "fly": 2461,
    "fac@@": 2462,
    "ate@@": 2463,
    "stan@@": 2464,
    "spoke": 2465,
    "snow@@": 2466,
    "passes": 2467,
    "ot": 2468,
    "nation@@": 2469,
    "luc@@": 2470,
    "lets": 2471,
    "ie@@": 2472,
    "figure": 2473,
    "farm": 2474,
    "dedicated": 2475,
    "cou@@": 2476,
    "tal": 2477,
    "slightly": 2478,
    "shape": 2479,
    "pt": 2480,
    "philip": 2481,
    "perform": 2482,
    "page": 2483,
    "mir@@": 2484,
    "kets": 2485,
    "jac@@": 2486,
    "ich": 2487,
    "heavily": 2488,
    "hat@@": 2489,
    "fir@@": 2490,
    "ere": 2491,
    "ene": 2492,
    "ences": 2493,
    "defeated": 2494,
    "constructed": 2495,
    "classical": 2496,
    "becomes": 2497,
    "ba": 2498,
    "acked": 2499,
    "tournament": 2500,
    "stated": 2501,
    "sex": 2502,
    "mun@@": 2503,
    "lor@@": 2504,
    "ishes": 2505,
    "ini@@": 2506,
    "extremely": 2507,
    "ect": 2508,
    "content": 2509,
    "ple": 2510,
    "pas@@": 2511,
    "mul@@": 2512,
    "gun": 2513,
    "geo@@": 2514,
    "gan": 2515,
    "formerly": 2516,
    "crew": 2517,
    "corner": 2518,
    "cat": 2519,
    "burn": 2520,
    "bench": 2521,
    "yu@@": 2522,
    "tan": 2523,
    "sidewalk": 2524,
    "show@@": 2525,
    "sense": 2526,
    "mine": 2527,
    "hills": 2528,
    "allow": 2529,
    "tennis": 2530,
    "martin": 2531,
    "ino": 2532,
    "hockey": 2533,
    "ected": 2534,
    "ant@@": 2535,
    "zo@@": 2536,
    "va@@": 2537,
    "translated": 2538,
    "south@@": 2539,
    "removed": 2540,
    "racing": 2541,
    "pping": 2542,
    "pennsylvania": 2543,
    "driving": 2544,
    "conference": 2545,
    "chain": 2546,
    "amount": 2547,
    "actions": 2548,
    "val": 2549,
    "unlike": 2550,
    "surrounded": 2551,
    "question": 2552,
    "proved": 2553,
    "peace": 2554,
    "editor": 2555,
    "contributed": 2556,
    "acts": 2557,
    "wear": 2558,
    "trust": 2559,
    "scottish": 2560,
    "rule": 2561,
    "plane": 2562,
    "paid": 2563,
    "label": 2564,
    "ium": 2565,
    "int@@": 2566,
    "growth": 2567,
    "gets": 2568,
    "fighting": 2569,
    "ette": 2570,
    "dro@@": 2571,
    "derived": 2572,
    "contract": 2573,
    "tom": 2574,
    "split": 2575,
    "sle@@": 2576,
    "plans": 2577,
    "owner": 2578,
    "ole": 2579,
    "mexico": 2580,
    "lun@@": 2581,
    "ging": 2582,
    "emp@@": 2583,
    "direction": 2584,
    "dan@@": 2585,
    "cross@@": 2586,
    "bling": 2587,
    "wn": 2588,
    "steel": 2589,
    "ol": 2590,
    "northeast": 2591,
    "motor@@": 2592,
    "kids": 2593,
    "jack": 2594,
    "iting": 2595,
    "influenced": 2596,
    "goal": 2597,
    "flight": 2598,
    "ective": 2599,
    "details": 2600,
    "dam": 2601,
    "counter@@": 2602,
    "contain": 2603,
    "prior": 2604,
    "physical": 2605,
    "parliament": 2606,
    "miles": 2607,
    "hoo@@": 2608,
    "dered": 2609,
    "climate": 2610,
    "britain": 2611,
    "begins": 2612,
    "ays": 2613,
    "vit@@": 2614,
    "urban": 2615,
    "ris@@": 2616,
    "ride": 2617,
    "refused": 2618,
    "pil@@": 2619,
    "occurs": 2620,
    "nor": 2621,
    "italy": 2622,
    "inst@@": 2623,
    "follows": 2624,
    "feet": 2625,
    "earned": 2626,
    "day@@": 2627,
    "broke": 2628,
    "amed": 2629,
    "allows": 2630,
    "theme": 2631,
    "stopped": 2632,
    "extended": 2633,
    "condition": 2634,
    "birth": 2635,
    "attention": 2636,
    "ases": 2637,
    "sta": 2638,
    "screen": 2639,
    "presented": 2640,
    "ization": 2641,
    "gan@@": 2642,
    "foot@@": 2643,
    "fiction": 2644,
    "essed": 2645,
    "else": 2646,
    "article": 2647,
    "ama": 2648,
    "thro@@": 2649,
    "response": 2650,
    "prince": 2651,
    "jazz": 2652,
    "gran@@": 2653,
    "factory": 2654,
    "damage": 2655,
    "authority": 2656,
    "agricultural": 2657,
    "advis@@": 2658,
    "adopted": 2659,
    "wind": 2660,
    "uncle": 2661,
    "total": 2662,
    "titles": 2663,
    "selected": 2664,
    "ries": 2665,
    "responsible": 2666,
    "ray": 2667,
    "rain": 2668,
    "ples": 2669,
    "lyrics": 2670,
    "gy": 2671,
    "yer": 2672,
    "walks": 2673,
    "viol@@": 2674,
    "temple": 2675,
    "seem": 2676,
    "pieces": 2677,
    "occasionally": 2678,
    "nie": 2679,
    "mic@@": 2680,
    "iron": 2681,
    "hosts": 2682,
    "entered": 2683,
    "create": 2684,
    "ads": 2685,
    "aded": 2686,
    "accepted": 2687,
    "tter": 2688,
    "pap@@": 2689,
    "ired": 2690,
    "hit@@": 2691,
    "gray": 2692,
    "display": 2693,
    "dale": 2694,
    "bell": 2695,
    "animal": 2696,
    "wol@@": 2697,
    "weight": 2698,
    "twelve": 2699,
    "suppose": 2700,
    "stream": 2701,
    "roun@@": 2702,
    "recognized": 2703,
    "proposed": 2704,
    "producer": 2705,
    "memory": 2706,
    "kin": 2707,
    "itation": 2708,
    "functions": 2709,
    "faces": 2710,
    "entation": 2711,
    "elled": 2712,
    "cricket": 2713,
    "bab@@": 2714,
    "za": 2715,
    "walls": 2716,
    "republic": 2717,
    "prefer": 2718,
    "officers": 2719,
    "ment@@": 2720,
    "ken": 2721,
    "kel@@": 2722,
    "investig@@": 2723,
    "host": 2724,
    "half@@": 2725,
    "gun@@": 2726,
    "fans": 2727,
    "dest@@": 2728,
    "anna": 2729,
    "alized": 2730,
    "aging": 2731,
    "waiting": 2732,
    "thy": 2733,
    "pay@@": 2734,
    "dies": 2735,
    "choice": 2736,
    "carolina": 2737,
    "boston": 2738,
    "situation": 2739,
    "renamed": 2740,
    "prison": 2741,
    "portion": 2742,
    "massachusetts": 2743,
    "marks": 2744,
    "ele@@": 2745,
    "edge": 2746,
    "account": 2747,
    "whom": 2748,
    "tac@@": 2749,
    "sis": 2750,
    "scotland": 2751,
    "resi@@": 2752,
    "rain@@": 2753,
    "occurred": 2754,
    "lau@@": 2755,
    "joseph": 2756,
    "hil@@": 2757,
    "ful@@": 2758,
    "classes": 2759,
    "cancer": 2760,
    "bio@@": 2761,
    "avoid": 2762,
    "ano": 2763,
    "ures": 2764,
    "teen@@": 2765,
    "stay": 2766,
    "prize": 2767,
    "pretty": 2768,
    "parties": 2769,
    "johnson": 2770,
    "hi": 2771,
    "exam@@": 2772,
    "everyone": 2773,
    "bom@@": 2774,
    "bel": 2775,
    "ac": 2776,
    "status": 2777,
    "showing": 2778,
    "score": 2779,
    "report": 2780,
    "prof@@": 2781,
    "pa": 2782,
    "nine@@": 2783,
    "ners": 2784,
    "la": 2785,
    "god@@": 2786,
    "double": 2787,
    "defined": 2788,
    "credited": 2789,
    "closely": 2790,
    "claims": 2791,
    "bility": 2792,
    "basic": 2793,
    "watching": 2794,
    "wait": 2795,
    "sides": 2796,
    "louis": 2797,
    "intended": 2798,
    "integr@@": 2799,
    "ella": 2800,
    "drinking": 2801,
    "aqu@@": 2802,
    "applied": 2803,
    "zealand": 2804,
    "useful": 2805,
    "ulation": 2806,
    "typical": 2807,
    "founder": 2808,
    "enter": 2809,
    "edward": 2810,
    "cer@@": 2811,
    "caught": 2812,
    "bear": 2813,
    "treated": 2814,
    "thre@@": 2815,
    "stam@@": 2816,
    "ready": 2817,
    "pacific": 2818,
    "ome": 2819,
    "int": 2820,
    "hem@@": 2821,
    "frank": 2822,
    "escape": 2823,
    "ears": 2824,
    "core": 2825,
    "conservative": 2826,
    "compu@@": 2827,
    "causes": 2828,
    "bran@@": 2829,
    "stor@@": 2830,
    "senior": 2831,
    "sand": 2832,
    "projects": 2833,
    "organized": 2834,
    "initial": 2835,
    "fifty": 2836,
    "ened": 2837,
    "downtown": 2838,
    "cultural": 2839,
    "cried": 2840,
    "cen@@": 2841,
    "bert": 2842,
    "storm": 2843,
    "smiling": 2844,
    "scale": 2845,
    "remaining": 2846,
    "que@@": 2847,
    "pose": 2848,
    "poetry": 2849,
    "none": 2850,
    "nice": 2851,
    "moon": 2852,
    "lit@@": 2853,
    "jump": 2854,
    "fts": 2855,
    "eating": 2856,
    "dre@@": 2857,
    "columbia": 2858,
    "wine": 2859,
    "villages": 2860,
    "stat@@": 2861,
    "sor": 2862,
    "six@@": 2863,
    "secretary": 2864,
    "med@@": 2865,
    "gol@@": 2866,
    "genus": 2867,
    "extensive": 2868,
    "evening": 2869,
    "ek": 2870,
    "anc@@": 2871,
    "amm@@": 2872,
    "agu@@": 2873,
    "advanced": 2874,
    "administration": 2875,
    "wan@@": 2876,
    "vers": 2877,
    "subsequent": 2878,
    "speaking": 2879,
    "sn@@": 2880,
    "ishing": 2881,
    "instruments": 2882,
    "increase": 2883,
    "identified": 2884,
    "golden": 2885,
    "expected": 2886,
    "clock": 2887,
    "channel": 2888,
    "celebr@@": 2889,
    "bicycle": 2890,
    "avenue": 2891,
    "afternoon": 2892,
    "visited": 2893,
    "toronto": 2894,
    "suburb": 2895,
    "scientific": 2896,
    "neighborhood": 2897,
    "nearest": 2898,
    "inations": 2899,
    "graduate": 2900,
    "ero@@": 2901,
    "dge": 2902,
    "bis@@": 2903,
    "announced": 2904,
    "adult": 2905,
    "administrative": 2906,
    "adjacent": 2907,
    "sus@@": 2908,
    "soviet": 2909,
    "scrip@@": 2910,
    "rome": 2911,
    "regi@@": 2912,
    "ona": 2913,
    "igh@@": 2914,
    "haw@@": 2915,
    "grow": 2916,
    "dinner": 2917,
    "contained": 2918,
    "basis": 2919,
    "actress": 2920,
    "wave": 2921,
    "tone": 2922,
    "territory": 2923,
    "tations": 2924,
    "proc@@": 2925,
    "object": 2926,
    "mill": 2927,
    "loss": 2928,
    "liberal": 2929,
    "lec@@": 2930,
    "ier": 2931,
    "forget": 2932,
    "contemporary": 2933,
    "bec@@": 2934,
    "with@@": 2935,
    "views": 2936,
    "tte": 2937,
    "travel": 2938,
    "susp@@": 2939,
    "shore": 2940,
    "planned": 2941,
    "parks": 2942,
    "ough": 2943,
    "normally": 2944,
    "materials": 2945,
    "matches": 2946,
    "kil@@": 2947,
    "jam@@": 2948,
    "huge": 2949,
    "flat": 2950,
    "fal@@": 2951,
    "empire": 2952,
    "dings": 2953,
    "corporation": 2954,
    "card": 2955,
    "tradition": 2956,
    "maintained": 2957,
    "flow": 2958,
    "dancing": 2959,
    "crown": 2960,
    "buil@@": 2961,
    "acking": 2962,
    "aci@@": 2963,
    "sleep": 2964,
    "rob@@": 2965,
    "require": 2966,
    "powerful": 2967,
    "pot@@": 2968,
    "operating": 2969,
    "offices": 2970,
    "minutes": 2971,
    "ming": 2972,
    "medal": 2973,
    "listen": 2974,
    "kan@@": 2975,
    "join": 2976,
    "indi@@": 2977,
    "drawn": 2978,
    "consul@@": 2979,
    "compan@@": 2980,
    "commission": 2981,
    "colour": 2982,
    "championship": 2983,
    "cards": 2984,
    "bb@@": 2985,
    "bands": 2986,
    "vehicle": 2987,
    "southwest": 2988,
    "shel@@": 2989,
    "selling": 2990,
    "presence": 2991,
    "pair": 2992,
    "ordered": 2993,
    "necessary": 2994,
    "mike": 2995,
    "lying": 2996,
    "glasses": 2997,
    "ext@@": 2998,
    "entertainment": 2999,
    "dig@@": 3000,
    "compl@@": 3001,
    "bow": 3002,
    "applications": 3003,
    "acted": 3004,
    "academic": 3005,
    "yed": 3006,
    "twenty": 3007,
    "teenth": 3008,
    "lin": 3009,
    "interior": 3010,
    "illinois": 3011,
    "fair@@": 3012,
    "facility": 3013,
    "environment": 3014,
    "agreed": 3015,
    "xes": 3016,
    "ush": 3017,
    "trained": 3018,
    "somewhat": 3019,
    "reli@@": 3020,
    "prev@@": 3021,
    "otherwise": 3022,
    "mann": 3023,
    "incorporated": 3024,
    "driver": 3025,
    "dom@@": 3026,
    "tel@@": 3027,
    "stati@@": 3028,
    "sou@@": 3029,
    "sat": 3030,
    "purpose": 3031,
    "painted": 3032,
    "nobody": 3033,
    "met@@": 3034,
    "hosted": 3035,
    "descent": 3036,
    "coffee": 3037,
    "chance": 3038,
    "bad@@": 3039,
    "anda": 3040,
    "analysis": 3041,
    "yl@@": 3042,
    "ts@@": 3043,
    "thousand": 3044,
    "ried": 3045,
    "onal": 3046,
    "novels": 3047,
    "notes": 3048,
    "missing": 3049,
    "lack": 3050,
    "illa": 3051,
    "generation": 3052,
    "ening": 3053,
    "disease": 3054,
    "brand": 3055,
    "atten@@": 3056,
    "wrong": 3057,
    "rules": 3058,
    "rivers": 3059,
    "negative": 3060,
    "meant": 3061,
    "liber@@": 3062,
    "knows": 3063,
    "kit@@": 3064,
    "judge": 3065,
    "giving": 3066,
    "differ@@": 3067,
    "demonstr@@": 3068,
    "consider": 3069,
    "buy": 3070,
    "verse": 3071,
    "roles": 3072,
    "regions": 3073,
    "refers": 3074,
    "reasons": 3075,
    "pressure": 3076,
    "pack": 3077,
    "ought": 3078,
    "items": 3079,
    "elementary": 3080,
    "colors": 3081,
    "class@@": 3082,
    "bob": 3083,
    "arrived": 3084,
    "ye": 3085,
    "tomorrow": 3086,
    "tol@@": 3087,
    "tax": 3088,
    "sy": 3089,
    "springs": 3090,
    "sales": 3091,
    "refl@@": 3092,
    "nal": 3093,
    "meanwhile": 3094,
    "jen@@": 3095,
    "inner": 3096,
    "hole": 3097,
    "feeling": 3098,
    "determined": 3099,
    "chan@@": 3100,
    "bir@@": 3101,
    "application": 3102,
    "animated": 3103,
    "aling": 3104,
    "wooden": 3105,
    "visible": 3106,
    "plain": 3107,
    "om": 3108,
    "literary": 3109,
    "greatest": 3110,
    "dutch": 3111,
    "claim": 3112,
    "carry": 3113,
    "borders": 3114,
    "bass": 3115,
    "audience": 3116,
    "affected": 3117,
    "adap@@": 3118,
    "unincorporated": 3119,
    "ue": 3120,
    "tall": 3121,
    "sequ@@": 3122,
    "rocks": 3123,
    "rise": 3124,
    "locations": 3125,
    "letters": 3126,
    "kill": 3127,
    "jeeves": 3128,
    "indeed": 3129,
    "humans": 3130,
    "flag": 3131,
    "coo@@": 3132,
    "champion": 3133,
    "ca": 3134,
    "ashed": 3135,
    "arrested": 3136,
    "alternative": 3137,
    "adults": 3138,
    "world@@": 3139,
    "victory": 3140,
    "truth": 3141,
    "stable": 3142,
    "spot": 3143,
    "requires": 3144,
    "price": 3145,
    "pad@@": 3146,
    "organizations": 3147,
    "michigan": 3148,
    "loo@@": 3149,
    "lock": 3150,
    "improved": 3151,
    "heads": 3152,
    "fresh": 3153,
    "ending": 3154,
    "contrac@@": 3155,
    "chess": 3156,
    "bought": 3157,
    "bell@@": 3158,
    "assembly": 3159,
    "articles": 3160,
    "appearances": 3161,
    "thereafter": 3162,
    "stein": 3163,
    "sey": 3164,
    "safety": 3165,
    "ridge": 3166,
    "rel": 3167,
    "reach": 3168,
    "questions": 3169,
    "ption": 3170,
    "ola": 3171,
    "mill@@": 3172,
    "load": 3173,
    "lights": 3174,
    "kir@@": 3175,
    "good@@": 3176,
    "gene@@": 3177,
    "finish": 3178,
    "fair": 3179,
    "designs": 3180,
    "trip": 3181,
    "tis@@": 3182,
    "technical": 3183,
    "struck": 3184,
    "statistical": 3185,
    "serv@@": 3186,
    "sections": 3187,
    "russia": 3188,
    "rank": 3189,
    "purposes": 3190,
    "minute": 3191,
    "milk": 3192,
    "lo": 3193,
    "kins": 3194,
    "guest": 3195,
    "georgia": 3196,
    "format": 3197,
    "formal": 3198,
    "engaged": 3199,
    "decades": 3200,
    "courses": 3201,
    "consisted": 3202,
    "ased": 3203,
    "winning": 3204,
    "williams": 3205,
    "wales": 3206,
    "ung": 3207,
    "tax@@": 3208,
    "sty@@": 3209,
    "straight": 3210,
    "rooms": 3211,
    "platforms": 3212,
    "philosophy": 3213,
    "pet": 3214,
    "ox@@": 3215,
    "marine": 3216,
    "lakes": 3217,
    "holiday": 3218,
    "flav@@": 3219,
    "ey@@": 3220,
    "efforts": 3221,
    "dal@@": 3222,
    "captured": 3223,
    "bus@@": 3224,
    "ann": 3225,
    "acks": 3226,
    "web@@": 3227,
    "vir@@": 3228,
    "tho@@": 3229,
    "teaching": 3230,
    "slow": 3231,
    "risk": 3232,
    "rice": 3233,
    "res@@": 3234,
    "radi@@": 3235,
    "papers": 3236,
    "medicine": 3237,
    "lane": 3238,
    "kal@@": 3239,
    "io": 3240,
    "inspired": 3241,
    "inger": 3242,
    "expanded": 3243,
    "distribution": 3244,
    "direc@@": 3245,
    "democratic": 3246,
    "debut": 3247,
    "deb@@": 3248,
    "seasons": 3249,
    "mental": 3250,
    "mass": 3251,
    "lion": 3252,
    "kong": 3253,
    "industries": 3254,
    "illing": 3255,
    "faced": 3256,
    "wings": 3257,
    "waters": 3258,
    "victoria": 3259,
    "tren@@": 3260,
    "tives": 3261,
    "tail": 3262,
    "step": 3263,
    "secret": 3264,
    "regarded": 3265,
    "rarely": 3266,
    "poss@@": 3267,
    "opposed": 3268,
    "ond@@": 3269,
    "jan@@": 3270,
    "ideas": 3271,
    "has@@": 3272,
    "happen": 3273,
    "geor@@": 3274,
    "fox": 3275,
    "folk": 3276,
    "classic": 3277,
    "churches": 3278,
    "bo": 3279,
    "attempts": 3280,
    "writers": 3281,
    "uk@@": 3282,
    "toward": 3283,
    "techniques": 3284,
    "studios": 3285,
    "stores": 3286,
    "resides": 3287,
    "print": 3288,
    "oxford": 3289,
    "individuals": 3290,
    "heat": 3291,
    "fran@@": 3292,
    "fit@@": 3293,
    "farming": 3294,
    "ef@@": 3295,
    "cy": 3296,
    "cles": 3297,
    "calls": 3298,
    "bring": 3299,
    "bishop": 3300,
    "bes": 3301,
    "ax@@": 3302,
    "ask": 3303,
    "additionally": 3304,
    "ut@@": 3305,
    "ual": 3306,
    "showed": 3307,
    "saying": 3308,
    "mobile": 3309,
    "march": 3310,
    "jack@@": 3311,
    "em": 3312,
    "break@@": 3313,
    "bound": 3314,
    "activ@@": 3315,
    "sorry": 3316,
    "share": 3317,
    "sburg": 3318,
    "onia": 3319,
    "murder": 3320,
    "lyn@@": 3321,
    "gin": 3322,
    "concert": 3323,
    "block": 3324,
    "becoming": 3325,
    "banks": 3326,
    "architecture": 3327,
    "anne": 3328,
    "wild": 3329,
    "ultimately": 3330,
    "spl@@": 3331,
    "som@@": 3332,
    "reduced": 3333,
    "ot@@": 3334,
    "ome@@": 3335,
    "observ@@": 3336,
    "meat": 3337,
    "jec@@": 3338,
    "imag@@": 3339,
    "designated": 3340,
    "clean": 3341,
    "assistant": 3342,
    "americans": 3343,
    "achieved": 3344,
    "winner": 3345,
    "ums": 3346,
    "tively": 3347,
    "termin@@": 3348,
    "strange": 3349,
    "slowly": 3350,
    "reaction": 3351,
    "prote@@": 3352,
    "pack@@": 3353,
    "labour": 3354,
    "ius": 3355,
    "hong": 3356,
    "guard": 3357,
    "greatly": 3358,
    "fon@@": 3359,
    "fer": 3360,
    "esh": 3361,
    "emperor": 3362,
    "drew": 3363,
    "domin@@": 3364,
    "chin@@": 3365,
    "broad@@": 3366,
    "bra": 3367,
    "begin": 3368,
    "troops": 3369,
    "stro@@": 3370,
    "ss": 3371,
    "ske@@": 3372,
    "singles": 3373,
    "semi@@": 3374,
    "promo@@": 3375,
    "pper": 3376,
    "joe": 3377,
    "ink": 3378,
    "inging": 3379,
    "incident": 3380,
    "figures": 3381,
    "connection": 3382,
    "chec@@": 3383,
    "cell": 3384,
    "busy": 3385,
    "brick": 3386,
    "beat@@": 3387,
    "august": 3388,
    "astic": 3389,
    "spoken": 3390,
    "shorts": 3391,
    "save": 3392,
    "roof": 3393,
    "revolution": 3394,
    "review": 3395,
    "resem@@": 3396,
    "relations": 3397,
    "receive": 3398,
    "proto@@": 3399,
    "piano": 3400,
    "phys@@": 3401,
    "leaders": 3402,
    "ign@@": 3403,
    "greg@@": 3404,
    "golf": 3405,
    "exp@@": 3406,
    "existence": 3407,
    "employed": 3408,
    "christ@@": 3409,
    "candidate": 3410,
    "broadcast": 3411,
    "avi@@": 3412,
    "alexander": 3413,
    "year@@": 3414,
    "wy@@": 3415,
    "visit": 3416,
    "ute": 3417,
    "serious": 3418,
    "occupied": 3419,
    "mining": 3420,
    "mari@@": 3421,
    "learned": 3422,
    "kid@@": 3423,
    "ising": 3424,
    "homes": 3425,
    "grandfather": 3426,
    "failure": 3427,
    "exists": 3428,
    "crossing": 3429,
    "cast@@": 3430,
    "trial": 3431,
    "technique": 3432,
    "suff@@": 3433,
    "streets": 3434,
    "separ@@": 3435,
    "send": 3436,
    "roc@@": 3437,
    "republican": 3438,
    "programming": 3439,
    "potential": 3440,
    "passenger": 3441,
    "outdoor": 3442,
    "operate": 3443,
    "kh@@": 3444,
    "jackson": 3445,
    "instrument": 3446,
    "ght": 3447,
    "elling": 3448,
    "cycl@@": 3449,
    "approximately": 3450,
    "andy": 3451,
    "worn": 3452,
    "turns": 3453,
    "tony": 3454,
    "theatres": 3455,
    "temperature": 3456,
    "santa": 3457,
    "pla@@": 3458,
    "observed": 3459,
    "nit@@": 3460,
    "medi@@": 3461,
    "lou@@": 3462,
    "lips": 3463,
    "independence": 3464,
    "focused": 3465,
    "eve": 3466,
    "ass": 3467,
    "agent": 3468,
    "tune": 3469,
    "supply": 3470,
    "refer": 3471,
    "peak": 3472,
    "oured": 3473,
    "ound": 3474,
    "nickname": 3475,
    "mode": 3476,
    "mini@@": 3477,
    "mani@@": 3478,
    "ith": 3479,
    "how@@": 3480,
    "housing": 3481,
    "horses": 3482,
    "historically": 3483,
    "flying": 3484,
    "favorite": 3485,
    "expensive": 3486,
    "ency": 3487,
    "congress": 3488,
    "closest": 3489,
    "cells": 3490,
    "catch": 3491,
    "bled": 3492,
    "ara": 3493,
    "alum@@": 3494,
    "alongside": 3495,
    "alists": 3496,
    "abandoned": 3497,
    "tus": 3498,
    "thank": 3499,
    "suggested": 3500,
    "soft": 3501,
    "sher@@": 3502,
    "salt": 3503,
    "rey": 3504,
    "opposition": 3505,
    "ood": 3506,
    "lawyer": 3507,
    "intelligence": 3508,
    "ide@@": 3509,
    "founding": 3510,
    "episodes": 3511,
    "ee": 3512,
    "controversial": 3513,
    "collec@@": 3514,
    "businesses": 3515,
    "boy@@": 3516,
    "analy@@": 3517,
    "ain": 3518,
    "weekly": 3519,
    "warm": 3520,
    "vel": 3521,
    "transl@@": 3522,
    "tap@@": 3523,
    "soil": 3524,
    "senate": 3525,
    "ric": 3526,
    "performances": 3527,
    "overall": 3528,
    "lewis": 3529,
    "fixed": 3530,
    "file": 3531,
    "eigh@@": 3532,
    "draw": 3533,
    "districts": 3534,
    "difference": 3535,
    "dates": 3536,
    "circle": 3537,
    "cambridge": 3538,
    "brow@@": 3539,
    "tourism": 3540,
    "structures": 3541,
    "spon@@": 3542,
    "sight": 3543,
    "shops": 3544,
    "nations": 3545,
    "ills": 3546,
    "happ@@": 3547,
    "grounds": 3548,
    "grou@@": 3549,
    "gging": 3550,
    "forecast": 3551,
    "dia": 3552,
    "brain": 3553,
    "brad@@": 3554,
    "ames": 3555,
    "users": 3556,
    "three@@": 3557,
    "sus": 3558,
    "spir@@": 3559,
    "spi@@": 3560,
    "sexual": 3561,
    "quick": 3562,
    "purple": 3563,
    "pictures": 3564,
    "pho@@": 3565,
    "musicians": 3566,
    "misses": 3567,
    "jeans": 3568,
    "issued": 3569,
    "entrance": 3570,
    "educational": 3571,
    "cousin": 3572,
    "cla@@": 3573,
    "chester": 3574,
    "bag": 3575,
    "ato": 3576,
    "unusual": 3577,
    "thirty": 3578,
    "theater": 3579,
    "solo": 3580,
    "setting": 3581,
    "regul@@": 3582,
    "properties": 3583,
    "ogue": 3584,
    "municipal": 3585,
    "link": 3586,
    "laid": 3587,
    "ky@@": 3588,
    "injured": 3589,
    "grey": 3590,
    "gen": 3591,
    "fron@@": 3592,
    "engines": 3593,
    "elections": 3594,
    "distinct": 3595,
    "berlin": 3596,
    "ading": 3597,
    "actors": 3598,
    "thers": 3599,
    "tag@@": 3600,
    "suddenly": 3601,
    "stairs": 3602,
    "spain": 3603,
    "safe": 3604,
    "rou@@": 3605,
    "read@@": 3606,
    "polish": 3607,
    "opinion": 3608,
    "nevertheless": 3609,
    "mascot": 3610,
    "keys": 3611,
    "kat@@": 3612,
    "dial@@": 3613,
    "aching": 3614,
    "ven": 3615,
    "transportation": 3616,
    "thousands": 3617,
    "spread": 3618,
    "sof@@": 3619,
    "resulted": 3620,
    "quali@@": 3621,
    "pain": 3622,
    "ories": 3623,
    "ligh@@": 3624,
    "irs": 3625,
    "interred": 3626,
    "im": 3627,
    "hus@@": 3628,
    "flower": 3629,
    "doubt": 3630,
    "describes": 3631,
    "dents": 3632,
    "cream": 3633,
    "conf@@": 3634,
    "coal": 3635,
    "abilities": 3636,
    "tourist": 3637,
    "protection": 3638,
    "opposite": 3639,
    "nominated": 3640,
    "night@@": 3641,
    "migr@@": 3642,
    "key@@": 3643,
    "ji@@": 3644,
    "importance": 3645,
    "iles": 3646,
    "fs": 3647,
    "eman": 3648,
    "denied": 3649,
    "dal": 3650,
    "zi@@": 3651,
    "universities": 3652,
    "roll": 3653,
    "ro": 3654,
    "positions": 3655,
    "lic": 3656,
    "fuel": 3657,
    "faster": 3658,
    "effective": 3659,
    "earliest": 3660,
    "comb@@": 3661,
    "clim@@": 3662,
    "chosen": 3663,
    "cell@@": 3664,
    "bet": 3665,
    "anced": 3666,
    "wounded": 3667,
    "vote": 3668,
    "tropical": 3669,
    "starred": 3670,
    "retirement": 3671,
    "reputation": 3672,
    "lers": 3673,
    "injury": 3674,
    "human@@": 3675,
    "heritage": 3676,
    "ha": 3677,
    "fying": 3678,
    "finds": 3679,
    "ever@@": 3680,
    "enemy": 3681,
    "distinguished": 3682,
    "dent": 3683,
    "defense": 3684,
    "davis": 3685,
    "clubs": 3686,
    "boats": 3687,
    "bia": 3688,
    "attrac@@": 3689,
    "arranged": 3690,
    "armed": 3691,
    "announ@@": 3692,
    "alls": 3693,
    "wall@@": 3694,
    "ues": 3695,
    "transm@@": 3696,
    "thir@@": 3697,
    "ther": 3698,
    "sell": 3699,
    "reserve": 3700,
    "reference": 3701,
    "phones": 3702,
    "master@@": 3703,
    "legs": 3704,
    "laws": 3705,
    "images": 3706,
    "ental": 3707,
    "develop": 3708,
    "conducted": 3709,
    "bay@@": 3710,
    "assi@@": 3711,
    "asing": 3712,
    "aled": 3713,
    "agreement": 3714,
    "vil@@": 3715,
    "umb@@": 3716,
    "tta": 3717,
    "tes@@": 3718,
    "scott": 3719,
    "rol@@": 3720,
    "poet": 3721,
    "planning": 3722,
    "leads": 3723,
    "ja": 3724,
    "hence": 3725,
    "fan": 3726,
    "environmental": 3727,
    "drop": 3728,
    "contact": 3729,
    "comedy": 3730,
    "chris": 3731,
    "choose": 3732,
    "bru@@": 3733,
    "attend": 3734,
    "ala": 3735,
    "web": 3736,
    "tz": 3737,
    "traditionally": 3738,
    "sydney": 3739,
    "sixth": 3740,
    "reports": 3741,
    "rated": 3742,
    "quo@@": 3743,
    "prepared": 3744,
    "pilot": 3745,
    "orders": 3746,
    "dot": 3747,
    "controversy": 3748,
    "calcul@@": 3749,
    "boards": 3750,
    "blan@@": 3751,
    "wind@@": 3752,
    "vehicles": 3753,
    "tennessee": 3754,
    "successfully": 3755,
    "sav@@": 3756,
    "ppy": 3757,
    "possibly": 3758,
    "jun@@": 3759,
    "indic@@": 3760,
    "hundreds": 3761,
    "free@@": 3762,
    "exchange": 3763,
    "exactly": 3764,
    "encies": 3765,
    "east@@": 3766,
    "earth@@": 3767,
    "device": 3768,
    "count": 3769,
    "but@@": 3770,
    "bertie": 3771,
    "bby": 3772,
    "aunt": 3773,
    "asi@@": 3774,
    "visitors": 3775,
    "sweet": 3776,
    "strongly": 3777,
    "steps": 3778,
    "starting": 3779,
    "stand@@": 3780,
    "soldiers": 3781,
    "skin": 3782,
    "presi@@": 3783,
    "permanent": 3784,
    "ov@@": 3785,
    "open@@": 3786,
    "non": 3787,
    "ket": 3788,
    "june": 3789,
    "frequent": 3790,
    "fear": 3791,
    "domestic": 3792,
    "cool@@": 3793,
    "comic": 3794,
    "colored": 3795,
    "climbing": 3796,
    "check": 3797,
    "aud@@": 3798,
    "attempted": 3799,
    "attached": 3800,
    "archi@@": 3801,
    "tting": 3802,
    "residential": 3803,
    "represent": 3804,
    "predic@@": 3805,
    "peter@@": 3806,
    "mathematics": 3807,
    "journal": 3808,
    "interesting": 3809,
    "ini": 3810,
    "impossible": 3811,
    "hydro@@": 3812,
    "graphy": 3813,
    "goods": 3814,
    "fought": 3815,
    "dering": 3816,
    "clothing": 3817,
    "bed@@": 3818,
    "adapted": 3819,
    "viewed": 3820,
    "unless": 3821,
    "tory": 3822,
    "tonight": 3823,
    "styles": 3824,
    "sisters": 3825,
    "settlers": 3826,
    "sac@@": 3827,
    "rid@@": 3828,
    "rich@@": 3829,
    "ref@@": 3830,
    "promoted": 3831,
    "pir@@": 3832,
    "objects": 3833,
    "nur@@": 3834,
    "hall@@": 3835,
    "firm": 3836,
    "elderly": 3837,
    "diplom@@": 3838,
    "connec@@": 3839,
    "bush": 3840,
    "ager": 3841,
    "zer": 3842,
    "wheel": 3843,
    "taylor": 3844,
    "statue": 3845,
    "si": 3846,
    "rejected": 3847,
    "recordings": 3848,
    "produces": 3849,
    "paintings": 3850,
    "mont@@": 3851,
    "missouri": 3852,
    "lip@@": 3853,
    "ille": 3854,
    "cheese": 3855,
    "changing": 3856,
    "ceremony": 3857,
    "cav@@": 3858,
    "book@@": 3859,
    "architect": 3860,
    "wedding": 3861,
    "toy": 3862,
    "than@@": 3863,
    "subjects": 3864,
    "string": 3865,
    "sel": 3866,
    "seeing": 3867,
    "scored": 3868,
    "ros@@": 3869,
    "rock@@": 3870,
    "righ@@": 3871,
    "productions": 3872,
    "pants": 3873,
    "maryland": 3874,
    "jo": 3875,
    "impro@@": 3876,
    "illustr@@": 3877,
    "ho": 3878,
    "harmon@@": 3879,
    "excellent": 3880,
    "emo@@": 3881,
    "eless": 3882,
    "drama": 3883,
    "diagno@@": 3884,
    "dd@@": 3885,
    "criminal": 3886,
    "crime": 3887,
    "continu@@": 3888,
    "combat": 3889,
    "cathedral": 3890,
    "bang@@": 3891,
    "arthur": 3892,
    "answered": 3893,
    "anal@@": 3894,
    "actual": 3895,
    "zes": 3896,
    "ush@@": 3897,
    "stress": 3898,
    "steve": 3899,
    "spac@@": 3900,
    "sev@@": 3901,
    "rad@@": 3902,
    "powers": 3903,
    "ops": 3904,
    "motion": 3905,
    "jud@@": 3906,
    "identi@@": 3907,
    "francisco": 3908,
    "extensively": 3909,
    "eighteen": 3910,
    "del": 3911,
    "cus@@": 3912,
    "coordin@@": 3913,
    "concrete": 3914,
    "colon@@": 3915,
    "charges": 3916,
    "canal": 3917,
    "bottom": 3918,
    "bone": 3919,
    "boarding": 3920,
    "beer": 3921,
    "bag@@": 3922,
    "ature": 3923,
    "ague": 3924,
    "worldwide": 3925,
    "wise": 3926,
    "wants": 3927,
    "vin@@": 3928,
    "venue": 3929,
    "translation": 3930,
    "thi@@": 3931,
    "terminal": 3932,
    "succ@@": 3933,
    "spirit": 3934,
    "signal": 3935,
    "shared": 3936,
    "ser": 3937,
    "seats": 3938,
    "retained": 3939,
    "rer": 3940,
    "refer@@": 3941,
    "pressed": 3942,
    "partner": 3943,
    "oning": 3944,
    "olympic": 3945,
    "mouse": 3946,
    "minnesota": 3947,
    "legi@@": 3948,
    "landscape": 3949,
    "ith@@": 3950,
    "honour": 3951,
    "ghts": 3952,
    "fairly": 3953,
    "exclu@@": 3954,
    "empty": 3955,
    "elizabeth": 3956,
    "edition": 3957,
    "distributed": 3958,
    "considerable": 3959,
    "charged": 3960,
    "beat": 3961,
    "ano@@": 3962,
    "andrew": 3963,
    "wa": 3964,
    "underground": 3965,
    "titled": 3966,
    "significantly": 3967,
    "ri": 3968,
    "revealed": 3969,
    "rat@@": 3970,
    "provincial": 3971,
    "pig@@": 3972,
    "occup@@": 3973,
    "manner": 3974,
    "life@@": 3975,
    "kee": 3976,
    "itted": 3977,
    "fun": 3978,
    "frame": 3979,
    "expres@@": 3980,
    "eous": 3981,
    "cop@@": 3982,
    "com": 3983,
    "citizens": 3984,
    "cad@@": 3985,
    "ake": 3986,
    "aid": 3987,
    "accident": 3988,
    "wealth": 3989,
    "vice": 3990,
    "var@@": 3991,
    "values": 3992,
    "tow@@": 3993,
    "tig@@": 3994,
    "tells": 3995,
    "tank": 3996,
    "sman": 3997,
    "sam": 3998,
    "rup@@": 3999,
    "row@@": 4000,
    "routes": 4001,
    "rings": 4002,
    "ricardo": 4003,
    "repe@@": 4004,
    "rapidly": 4005,
    "pine": 4006,
    "passing": 4007,
    "oph@@": 4008,
    "naval": 4009,
    "lots": 4010,
    "ler@@": 4011,
    "lac@@": 4012,
    "ians": 4013,
    "gue": 4014,
    "glad": 4015,
    "fled": 4016,
    "filmed": 4017,
    "ection": 4018,
    "dence": 4019,
    "ben": 4020,
    "assigned": 4021,
    "ared": 4022,
    "apple": 4023,
    "andre@@": 4024,
    "aming": 4025,
    "absolutely": 4026,
    "wilson": 4027,
    "vic@@": 4028,
    "user": 4029,
    "tas@@": 4030,
    "strength": 4031,
    "shoes": 4032,
    "scen@@": 4033,
    "rolling": 4034,
    "purchased": 4035,
    "proper": 4036,
    "noise": 4037,
    "nes": 4038,
    "mond": 4039,
    "males": 4040,
    "log@@": 4041,
    "imperial": 4042,
    "home@@": 4043,
    "headquartered": 4044,
    "frag@@": 4045,
    "ferry": 4046,
    "eleven": 4047,
    "effort": 4048,
    "dul@@": 4049,
    "donald": 4050,
    "dian": 4051,
    "correct": 4052,
    "controlled": 4053,
    "carri@@": 4054,
    "astronom@@": 4055,
    "apart": 4056,
    "ali": 4057,
    "ahead": 4058,
    "wich": 4059,
    "wer": 4060,
    "weekend": 4061,
    "vely": 4062,
    "vari@@": 4063,
    "ula": 4064,
    "ually": 4065,
    "tourists": 4066,
    "tant": 4067,
    "surgery": 4068,
    "supreme": 4069,
    "plac@@": 4070,
    "perc@@": 4071,
    "minim@@": 4072,
    "kes@@": 4073,
    "ior": 4074,
    "interested": 4075,
    "income": 4076,
    "han": 4077,
    "grown": 4078,
    "gall@@": 4079,
    "edited": 4080,
    "dum@@": 4081,
    "dirt": 4082,
    "dent@@": 4083,
    "chor@@": 4084,
    "camer@@": 4085,
    "cab@@": 4086,
    "woods": 4087,
    "varies": 4088,
    "variations": 4089,
    "tured": 4090,
    "tia": 4091,
    "thinking": 4092,
    "tele@@": 4093,
    "task": 4094,
    "sugar": 4095,
    "sounds": 4096,
    "sought": 4097,
    "skills": 4098,
    "rows": 4099,
    "rang@@": 4100,
    "prepar@@": 4101,
    "plo@@": 4102,
    "manchester": 4103,
    "interests": 4104,
    "iness": 4105,
    "increasingly": 4106,
    "illed": 4107,
    "hou@@": 4108,
    "hip": 4109,
    "ffs": 4110,
    "esses": 4111,
    "duke": 4112,
    "differences": 4113,
    "dan": 4114,
    "consequently": 4115,
    "composition": 4116,
    "cham@@": 4117,
    "certainly": 4118,
    "celia": 4119,
    "camp@@": 4120,
    "bers": 4121,
    "allen": 4122,
    "ables": 4123,
    "zone": 4124,
    "unfortunately": 4125,
    "sville": 4126,
    "stal@@": 4127,
    "religion": 4128,
    "quiet": 4129,
    "parking": 4130,
    "neck": 4131,
    "medieval": 4132,
    "john@@": 4133,
    "grave": 4134,
    "freedom": 4135,
    "francis": 4136,
    "element": 4137,
    "eed": 4138,
    "dish": 4139,
    "defen@@": 4140,
    "cycle": 4141,
    "credit": 4142,
    "compared": 4143,
    "alle@@": 4144,
    "address": 4145,
    "accept": 4146,
    "tless": 4147,
    "saf@@": 4148,
    "rum@@": 4149,
    "respec@@": 4150,
    "requ@@": 4151,
    "pum@@": 4152,
    "posing": 4153,
    "optim@@": 4154,
    "nec@@": 4155,
    "nap@@": 4156,
    "machines": 4157,
    "lay@@": 4158,
    "launched": 4159,
    "lap@@": 4160,
    "ix": 4161,
    "israel": 4162,
    "interpre@@": 4163,
    "hypo@@": 4164,
    "hero": 4165,
    "gardens": 4166,
    "gain": 4167,
    "elev@@": 4168,
    "custom@@": 4169,
    "crossed": 4170,
    "ck@@": 4171,
    "acid": 4172,
    "testing": 4173,
    "teeth": 4174,
    "tains": 4175,
    "stick": 4176,
    "sia": 4177,
    "severe": 4178,
    "sax@@": 4179,
    "races": 4180,
    "preserved": 4181,
    "pref@@": 4182,
    "ok@@": 4183,
    "negoti@@": 4184,
    "leadership": 4185,
    "hill@@": 4186,
    "hes@@": 4187,
    "elec@@": 4188,
    "eggs": 4189,
    "duties": 4190,
    "doors": 4191,
    "country@@": 4192,
    "composer": 4193,
    "compar@@": 4194,
    "brigh@@": 4195,
    "briefly": 4196,
    "breeding": 4197,
    "biggest": 4198,
    "berry": 4199,
    "auto@@": 4200,
    "author@@": 4201,
    "attracted": 4202,
    "attacks": 4203,
    "asts": 4204,
    "alization": 4205,
    "accep@@": 4206,
    "zing": 4207,
    "zero": 4208,
    "yn": 4209,
    "tou@@": 4210,
    "tools": 4211,
    "tering": 4212,
    "soul": 4213,
    "shoulder": 4214,
    "rus@@": 4215,
    "rho@@": 4216,
    "reduce": 4217,
    "publication": 4218,
    "passengers": 4219,
    "obtained": 4220,
    "ink@@": 4221,
    "ingham": 4222,
    "hamilton": 4223,
    "gon@@": 4224,
    "gation": 4225,
    "forests": 4226,
    "faith": 4227,
    "entary": 4228,
    "engineer": 4229,
    "electronic": 4230,
    "earl": 4231,
    "credits": 4232,
    "creation": 4233,
    "constant": 4234,
    "conduc@@": 4235,
    "colle@@": 4236,
    "clearly": 4237,
    "brun@@": 4238,
    "bath": 4239,
    "ards": 4240,
    "arc@@": 4241,
    "apply": 4242,
    "accommod@@": 4243,
    "yan@@": 4244,
    "vity": 4245,
    "uck": 4246,
    "skir@@": 4247,
    "separated": 4248,
    "senator": 4249,
    "rear": 4250,
    "newspapers": 4251,
    "maintain": 4252,
    "magic": 4253,
    "kitchen": 4254,
    "ita": 4255,
    "hollywood": 4256,
    "hits": 4257,
    "fted": 4258,
    "dium": 4259,
    "corn@@": 4260,
    "cooper@@": 4261,
    "contribu@@": 4262,
    "communication": 4263,
    "arena": 4264,
    "ai@@": 4265,
    "unable": 4266,
    "surve@@": 4267,
    "shaped": 4268,
    "scenes": 4269,
    "progress": 4270,
    "prevent": 4271,
    "mills": 4272,
    "mes@@": 4273,
    "ley@@": 4274,
    "leg@@": 4275,
    "ides": 4276,
    "graph": 4277,
    "fresh@@": 4278,
    "extension": 4279,
    "expansion": 4280,
    "exact": 4281,
    "equivalent": 4282,
    "enjoy": 4283,
    "emplo@@": 4284,
    "ea@@": 4285,
    "degrees": 4286,
    "correc@@": 4287,
    "cau@@": 4288,
    "catal@@": 4289,
    "cap": 4290,
    "brac@@": 4291,
    "average": 4292,
    "anyone": 4293,
    "surprise": 4294,
    "supports": 4295,
    "supporting": 4296,
    "roots": 4297,
    "represents": 4298,
    "repeated": 4299,
    "relief": 4300,
    "organisation": 4301,
    "opera": 4302,
    "occasions": 4303,
    "nin@@": 4304,
    "netherlands": 4305,
    "million": 4306,
    "junction": 4307,
    "hunting": 4308,
    "horn": 4309,
    "haz@@": 4310,
    "gold@@": 4311,
    "fit": 4312,
    "facing": 4313,
    "extra": 4314,
    "eries": 4315,
    "diverse": 4316,
    "discovery": 4317,
    "decre@@": 4318,
    "creative": 4319,
    "cotton": 4320,
    "construc@@": 4321,
    "confirmed": 4322,
    "commander": 4323,
    "childhood": 4324,
    "cape": 4325,
    "big@@": 4326,
    "alty": 4327,
    "albert": 4328,
    "volume": 4329,
    "tioned": 4330,
    "tar": 4331,
    "swedish": 4332,
    "sleeping": 4333,
    "restored": 4334,
    "reality": 4335,
    "pub": 4336,
    "ports": 4337,
    "plate": 4338,
    "photo": 4339,
    "perfect": 4340,
    "pati@@": 4341,
    "ourselves": 4342,
    "mix": 4343,
    "message": 4344,
    "map": 4345,
    "less@@": 4346,
    "kansas": 4347,
    "holy": 4348,
    "granted": 4349,
    "fleet": 4350,
    "fic@@": 4351,
    "existing": 4352,
    "ethnic": 4353,
    "ecture": 4354,
    "eag@@": 4355,
    "declared": 4356,
    "damaged": 4357,
    "cinema": 4358,
    "challenge": 4359,
    "auc@@": 4360,
    "wonder": 4361,
    "wet": 4362,
    "vocals": 4363,
    "vill@@": 4364,
    "vest": 4365,
    "uniform": 4366,
    "ticket": 4367,
    "thin": 4368,
    "thetic": 4369,
    "tain": 4370,
    "sym@@": 4371,
    "sup@@": 4372,
    "september": 4373,
    "returns": 4374,
    "oak": 4375,
    "markets": 4376,
    "lincoln": 4377,
    "learn": 4378,
    "jim": 4379,
    "ji": 4380,
    "guns": 4381,
    "funding": 4382,
    "frequency": 4383,
    "dream": 4384,
    "divi@@": 4385,
    "cooking": 4386,
    "conversation": 4387,
    "collabor@@": 4388,
    "classified": 4389,
    "carefully": 4390,
    "anch@@": 4391,
    "amaz@@": 4392,
    "afraid": 4393,
    "aer@@": 4394,
    "un": 4395,
    "trou@@": 4396,
    "tie": 4397,
    "tex@@": 4398,
    "signs": 4399,
    "shoul@@": 4400,
    "server": 4401,
    "secre@@": 4402,
    "scholars": 4403,
    "rugby": 4404,
    "resulting": 4405,
    "residence": 4406,
    "printed": 4407,
    "pole": 4408,
    "pav@@": 4409,
    "option": 4410,
    "narrow": 4411,
    "mono@@": 4412,
    "mail": 4413,
    "loved": 4414,
    "locked": 4415,
    "lieutenant": 4416,
    "labor": 4417,
    "headed": 4418,
    "gers": 4419,
    "fications": 4420,
    "fare": 4421,
    "factors": 4422,
    "excep@@": 4423,
    "essential": 4424,
    "dow@@": 4425,
    "divisions": 4426,
    "correspon@@": 4427,
    "constitu@@": 4428,
    "consol@@": 4429,
    "bal": 4430,
    "attacked": 4431,
    "ull": 4432,
    "syl@@": 4433,
    "soundtrack": 4434,
    "short@@": 4435,
    "rail@@": 4436,
    "queen@@": 4437,
    "psych@@": 4438,
    "orn": 4439,
    "ora": 4440,
    "ool": 4441,
    "motor": 4442,
    "linked": 4443,
    "lef@@": 4444,
    "landing": 4445,
    "increasing": 4446,
    "impact": 4447,
    "grant": 4448,
    "govern@@": 4449,
    "ght@@": 4450,
    "fiel@@": 4451,
    "feed": 4452,
    "fat@@": 4453,
    "consum@@": 4454,
    "consider@@": 4455,
    "commands": 4456,
    "colours": 4457,
    "chemical": 4458,
    "carto@@": 4459,
    "authorities": 4460,
    "april": 4461,
    "appeal": 4462,
    "amateur": 4463,
    "alities": 4464,
    "aker": 4465,
    "acquired": 4466,
    "accoun@@": 4467,
    "visi@@": 4468,
    "tual": 4469,
    "trum@@": 4470,
    "tivity": 4471,
    "tiny": 4472,
    "spend": 4473,
    "river@@": 4474,
    "protected": 4475,
    "posi@@": 4476,
    "popul@@": 4477,
    "park@@": 4478,
    "palace": 4479,
    "oms": 4480,
    "nia": 4481,
    "medic@@": 4482,
    "lum@@": 4483,
    "links": 4484,
    "lig@@": 4485,
    "helps": 4486,
    "func@@": 4487,
    "fingers": 4488,
    "fif@@": 4489,
    "econom@@": 4490,
    "ech": 4491,
    "debate": 4492,
    "conqu@@": 4493,
    "cake": 4494,
    "blond": 4495,
    "bloc@@": 4496,
    "beg@@": 4497,
    "augh@@": 4498,
    "writes": 4499,
    "wra@@": 4500,
    "whose": 4501,
    "wellknown": 4502,
    "ug@@": 4503,
    "strike": 4504,
    "some@@": 4505,
    "smooth": 4506,
    "scri@@": 4507,
    "portuguese": 4508,
    "patri@@": 4509,
    "owners": 4510,
    "organiz@@": 4511,
    "monument": 4512,
    "loves": 4513,
    "joh@@": 4514,
    "investment": 4515,
    "hood": 4516,
    "gussie": 4517,
    "fav@@": 4518,
    "experienced": 4519,
    "ecu@@": 4520,
    "eco@@": 4521,
    "desert": 4522,
    "definition": 4523,
    "declined": 4524,
    "danc@@": 4525,
    "courts": 4526,
    "converted": 4527,
    "collected": 4528,
    "cattle": 4529,
    "besides": 4530,
    "audio": 4531,
    "aks": 4532,
    "wore": 4533,
    "will@@": 4534,
    "wag@@": 4535,
    "ud": 4536,
    "trouble": 4537,
    "telephone": 4538,
    "tch": 4539,
    "speaker": 4540,
    "smile": 4541,
    "sau@@": 4542,
    "rever@@": 4543,
    "restaurants": 4544,
    "resigned": 4545,
    "qualified": 4546,
    "petro@@": 4547,
    "onally": 4548,
    "mont": 4549,
    "lists": 4550,
    "las": 4551,
    "keeping": 4552,
    "ions": 4553,
    "installed": 4554,
    "governed": 4555,
    "glo@@": 4556,
    "gas@@": 4557,
    "flights": 4558,
    "first@@": 4559,
    "favourite": 4560,
    "fame": 4561,
    "ef": 4562,
    "ecting": 4563,
    "ech@@": 4564,
    "drawing": 4565,
    "deser@@": 4566,
    "demand": 4567,
    "concerned": 4568,
    "components": 4569,
    "cabinet": 4570,
    "artificial": 4571,
    "appl@@": 4572,
    "apparently": 4573,
    "ani": 4574,
    "alive": 4575,
    "adv@@": 4576,
    "worse": 4577,
    "waves": 4578,
    "ural": 4579,
    "stuff": 4580,
    "stayed": 4581,
    "specifically": 4582,
    "sit@@": 4583,
    "sculp@@": 4584,
    "sad@@": 4585,
    "reduc@@": 4586,
    "recru@@": 4587,
    "phase": 4588,
    "ots": 4589,
    "lea@@": 4590,
    "kur@@": 4591,
    "knight": 4592,
    "gary": 4593,
    "express": 4594,
    "edinburgh": 4595,
    "devil": 4596,
    "depending": 4597,
    "costs": 4598,
    "consci@@": 4599,
    "combined": 4600,
    "colorado": 4601,
    "chose": 4602,
    "cash": 4603,
    "branches": 4604,
    "bodies": 4605,
    "bars": 4606,
    "atlantic": 4607,
    "yers": 4608,
    "watches": 4609,
    "tionary": 4610,
    "suicide": 4611,
    "standards": 4612,
    "stages": 4613,
    "sses": 4614,
    "resources": 4615,
    "reas@@": 4616,
    "lic@@": 4617,
    "ints": 4618,
    "grove": 4619,
    "factor": 4620,
    "drag@@": 4621,
    "distribu@@": 4622,
    "describe": 4623,
    "constitution": 4624,
    "circuit": 4625,
    "cher@@": 4626,
    "chapel": 4627,
    "bern@@": 4628,
    "aside": 4629,
    "agree": 4630,
    "age@@": 4631,
    "ached": 4632,
    "wick": 4633,
    "white@@": 4634,
    "wars": 4635,
    "tti": 4636,
    "trav@@": 4637,
    "tours": 4638,
    "stock@@": 4639,
    "script": 4640,
    "ren": 4641,
    "ram": 4642,
    "quarter": 4643,
    "q": 4644,
    "patients": 4645,
    "ounded": 4646,
    "nes@@": 4647,
    "leg": 4648,
    "jumps": 4649,
    "guardian": 4650,
    "gallery": 4651,
    "fe": 4652,
    "fast@@": 4653,
    "dres@@": 4654,
    "displayed": 4655,
    "competed": 4656,
    "colonel": 4657,
    "chil@@": 4658,
    "boundary": 4659,
    "aya": 4660,
    "autom@@": 4661,
    "arabic": 4662,
    "affairs": 4663,
    "absor@@": 4664,
    "whi@@": 4665,
    "visual": 4666,
    "variant": 4667,
    "urs": 4668,
    "toler@@": 4669,
    "starts": 4670,
    "smoking": 4671,
    "similarly": 4672,
    "search@@": 4673,
    "resistance": 4674,
    "resident": 4675,
    "progres@@": 4676,
    "processing": 4677,
    "prec@@": 4678,
    "physics": 4679,
    "moo@@": 4680,
    "merely": 4681,
    "mention": 4682,
    "kni@@": 4683,
    "keeps": 4684,
    "global": 4685,
    "gene": 4686,
    "expressed": 4687,
    "enjoyed": 4688,
    "encour@@": 4689,
    "deal@@": 4690,
    "cros@@": 4691,
    "convention": 4692,
    "compos@@": 4693,
    "capit@@": 4694,
    "zar@@": 4695,
    "wake": 4696,
    "vac@@": 4697,
    "truck": 4698,
    "tem@@": 4699,
    "tat@@": 4700,
    "ski@@": 4701,
    "settlements": 4702,
    "revol@@": 4703,
    "reve@@": 4704,
    "pot": 4705,
    "participated": 4706,
    "outh": 4707,
    "orthodox": 4708,
    "officially": 4709,
    "ni": 4710,
    "mix@@": 4711,
    "membership": 4712,
    "lose": 4713,
    "leon@@": 4714,
    "july": 4715,
    "inn@@": 4716,
    "inn": 4717,
    "heal@@": 4718,
    "handle": 4719,
    "facts": 4720,
    "escaped": 4721,
    "equal": 4722,
    "electro@@": 4723,
    "du": 4724,
    "directors": 4725,
    "democr@@": 4726,
    "dangerous": 4727,
    "connecticut": 4728,
    "come@@": 4729,
    "classification": 4730,
    "chi": 4731,
    "charity": 4732,
    "buses": 4733,
    "burned": 4734,
    "bronze": 4735,
    "best@@": 4736,
    "ban": 4737,
    "atives": 4738,
    "aki": 4739,
    "ae": 4740,
    "accessible": 4741,
    "worker": 4742,
    "wic@@": 4743,
    "vent@@": 4744,
    "tile": 4745,
    "symbol@@": 4746,
    "surviving": 4747,
    "survive": 4748,
    "subway": 4749,
    "stoc@@": 4750,
    "sheep": 4751,
    "satis@@": 4752,
    "sab@@": 4753,
    "rough": 4754,
    "renov@@": 4755,
    "rand@@": 4756,
    "premier": 4757,
    "plas@@": 4758,
    "partially": 4759,
    "ov": 4760,
    "ordinary": 4761,
    "neighb@@": 4762,
    "marke@@": 4763,
    "losing": 4764,
    "lev@@": 4765,
    "joy": 4766,
    "internal": 4767,
    "impl@@": 4768,
    "ician": 4769,
    "howard": 4770,
    "great@@": 4771,
    "gentleman": 4772,
    "flow@@": 4773,
    "fired": 4774,
    "females": 4775,
    "fashion": 4776,
    "devices": 4777,
    "desc@@": 4778,
    "delivered": 4779,
    "decor@@": 4780,
    "dated": 4781,
    "conflict": 4782,
    "comfortable": 4783,
    "combination": 4784,
    "chemistry": 4785,
    "bud@@": 4786,
    "brook": 4787,
    "broad": 4788,
    "bian": 4789,
    "bee": 4790,
    "barri@@": 4791,
    "aire": 4792,
    "agency": 4793,
    "voc@@": 4794,
    "ura": 4795,
    "tted": 4796,
    "trick": 4797,
    "tism": 4798,
    "target": 4799,
    "tang@@": 4800,
    "swi@@": 4801,
    "sick": 4802,
    "rope": 4803,
    "rides": 4804,
    "remembered": 4805,
    "pure": 4806,
    "publications": 4807,
    "powered": 4808,
    "popularity": 4809,
    "pag@@": 4810,
    "neu@@": 4811,
    "miller": 4812,
    "itor": 4813,
    "institution": 4814,
    "improve": 4815,
    "essi@@": 4816,
    "eria": 4817,
    "enni@@": 4818,
    "dependent": 4819,
    "chocolate": 4820,
    "cent": 4821,
    "bing": 4822,
    "bank@@": 4823,
    "aug@@": 4824,
    "appointment": 4825,
    "woo@@": 4826,
    "wildlife": 4827,
    "where@@": 4828,
    "weapons": 4829,
    "tum@@": 4830,
    "treas@@": 4831,
    "ti": 4832,
    "tests": 4833,
    "sharp": 4834,
    "rein@@": 4835,
    "pull": 4836,
    "preferred": 4837,
    "practical": 4838,
    "plastic": 4839,
    "philadelphia": 4840,
    "oring": 4841,
    "merged": 4842,
    "meets": 4843,
    "lunch": 4844,
    "light@@": 4845,
    "lia": 4846,
    "kam@@": 4847,
    "itable": 4848,
    "insurance": 4849,
    "inhabitants": 4850,
    "icious": 4851,
    "genre": 4852,
    "gab@@": 4853,
    "even@@": 4854,
    "docum@@": 4855,
    "dean": 4856,
    "conver@@": 4857,
    "constituency": 4858,
    "bridges": 4859,
    "bits": 4860,
    "bass@@": 4861,
    "aster@@": 4862,
    "archy": 4863,
    "any@@": 4864,
    "advantage": 4865,
    "ado": 4866,
    "acci@@": 4867,
    "xing": 4868,
    "wire": 4869,
    "thri@@": 4870,
    "thes@@": 4871,
    "suggests": 4872,
    "struc@@": 4873,
    "spor@@": 4874,
    "selection": 4875,
    "scheme": 4876,
    "sang": 4877,
    "roy@@": 4878,
    "poems": 4879,
    "pli@@": 4880,
    "outstanding": 4881,
    "oes": 4882,
    "lawn": 4883,
    "kie": 4884,
    "kentucky": 4885,
    "juli@@": 4886,
    "incorpor@@": 4887,
    "gram@@": 4888,
    "fifteen": 4889,
    "expect": 4890,
    "err@@": 4891,
    "document": 4892,
    "committed": 4893,
    "chy": 4894,
    "centuries": 4895,
    "capacity": 4896,
    "buc@@": 4897,
    "boxes": 4898,
    "blues": 4899,
    "bloo@@": 4900,
    "blocks": 4901,
    "attributed": 4902,
    "aps": 4903,
    "alled": 4904,
    "advertising": 4905,
    "accompanied": 4906,
    "transfer": 4907,
    "theories": 4908,
    "teach": 4909,
    "suppl@@": 4910,
    "solid": 4911,
    "sentence": 4912,
    "see@@": 4913,
    "rolled": 4914,
    "request": 4915,
    "poem": 4916,
    "onist": 4917,
    "narr@@": 4918,
    "musician": 4919,
    "massive": 4920,
    "lift": 4921,
    "iv@@": 4922,
    "inate": 4923,
    "identity": 4924,
    "ide": 4925,
    "fru@@": 4926,
    "drug": 4927,
    "defeat": 4928,
    "boxing": 4929,
    "balance": 4930,
    "authors": 4931,
    "yl": 4932,
    "wright": 4933,
    "wr@@": 4934,
    "violence": 4935,
    "usual": 4936,
    "universal": 4937,
    "trag@@": 4938,
    "sweden": 4939,
    "statement": 4940,
    "sequence": 4941,
    "revi@@": 4942,
    "quarter@@": 4943,
    "quanti@@": 4944,
    "pseu@@": 4945,
    "pioneer": 4946,
    "pic": 4947,
    "phy": 4948,
    "modi@@": 4949,
    "melbourne": 4950,
    "max": 4951,
    "las@@": 4952,
    "kings": 4953,
    "jobs": 4954,
    "investigation": 4955,
    "immediate": 4956,
    "hire": 4957,
    "forming": 4958,
    "encoun@@": 4959,
    "eled": 4960,
    "duty": 4961,
    "dozen": 4962,
    "cry": 4963,
    "cing": 4964,
    "blind": 4965,
    "beside": 4966,
    "belt": 4967,
    "bak@@": 4968,
    "alpha@@": 4969,
    "alleg@@": 4970,
    "alcohol": 4971,
    "ador": 4972,
    "adju@@": 4973,
    "aches": 4974,
    "abo@@": 4975,
    "youngest": 4976,
    "whis@@": 4977,
    "thick": 4978,
    "tel": 4979,
    "teachers": 4980,
    "taining": 4981,
    "tables": 4982,
    "symbol": 4983,
    "shook": 4984,
    "road@@": 4985,
    "rely": 4986,
    "planet": 4987,
    "pier@@": 4988,
    "phrase": 4989,
    "organ@@": 4990,
    "oklahoma": 4991,
    "num@@": 4992,
    "movements": 4993,
    "motorcycle": 4994,
    "mississippi": 4995,
    "mechan@@": 4996,
    "lip": 4997,
    "inary": 4998,
    "honorary": 4999,
    "gru@@": 5000,
    "goals": 5001,
    "giant": 5002,
    "federation": 5003,
    "expression": 5004,
    "executed": 5005,
    "eo": 5006,
    "encouraged": 5007,
    "emi@@": 5008,
    "eland": 5009,
    "devoted": 5010,
    "covering": 5011,
    "contrast": 5012,
    "concerts": 5013,
    "component": 5014,
    "commit@@": 5015,
    "colonial": 5016,
    "coins": 5017,
    "brian": 5018,
    "bou@@": 5019,
    "ashes": 5020,
    "arti@@": 5021,
    "argument": 5022,
    "arch": 5023,
    "annually": 5024,
    "akes": 5025,
    "walked": 5026,
    "valuable": 5027,
    "tend": 5028,
    "super": 5029,
    "representative": 5030,
    "publ@@": 5031,
    "producing": 5032,
    "plot": 5033,
    "pain@@": 5034,
    "organic": 5035,
    "oll@@": 5036,
    "offen@@": 5037,
    "mystery": 5038,
    "liked": 5039,
    "funeral": 5040,
    "full@@": 5041,
    "explained": 5042,
    "eption": 5043,
    "eks": 5044,
    "drums": 5045,
    "crops": 5046,
    "coding": 5047,
    "chie@@": 5048,
    "characterized": 5049,
    "carries": 5050,
    "broadway": 5051,
    "bac@@": 5052,
    "ani@@": 5053,
    "alan": 5054,
    "accounts": 5055,
    "ab": 5056,
    "vessels": 5057,
    "switzerland": 5058,
    "strong@@": 5059,
    "stephen": 5060,
    "silent": 5061,
    "sign@@": 5062,
    "scra@@": 5063,
    "scope": 5064,
    "scientists": 5065,
    "rocky": 5066,
    "recovered": 5067,
    "recognition": 5068,
    "princess": 5069,
    "plic@@": 5070,
    "ous@@": 5071,
    "olly": 5072,
    "objec@@": 5073,
    "november": 5074,
    "logo": 5075,
    "listening": 5076,
    "ling@@": 5077,
    "lawrence": 5078,
    "launch": 5079,
    "johnny": 5080,
    "jesus": 5081,
    "jes@@": 5082,
    "institutions": 5083,
    "increases": 5084,
    "helmet": 5085,
    "forever": 5086,
    "explanation": 5087,
    "entering": 5088,
    "discussion": 5089,
    "diocese": 5090,
    "developing": 5091,
    "decline": 5092,
    "cook": 5093,
    "context": 5094,
    "concer@@": 5095,
    "collections": 5096,
    "coastal": 5097,
    "awa": 5098,
    "appe@@": 5099,
    "apolo@@": 5100,
    "ym": 5101,
    "wolf": 5102,
    "weak@@": 5103,
    "ules": 5104,
    "tier": 5105,
    "temp@@": 5106,
    "swim@@": 5107,
    "studying": 5108,
    "ship@@": 5109,
    "session": 5110,
    "seek": 5111,
    "sale": 5112,
    "rim": 5113,
    "ray@@": 5114,
    "putting": 5115,
    "programme": 5116,
    "peninsula": 5117,
    "ore@@": 5118,
    "orchestra": 5119,
    "ologist": 5120,
    "ogy": 5121,
    "motto": 5122,
    "matters": 5123,
    "mass@@": 5124,
    "lows": 5125,
    "kis@@": 5126,
    "ist@@": 5127,
    "idi@@": 5128,
    "identical": 5129,
    "gregson": 5130,
    "forgotten": 5131,
    "fence": 5132,
    "extreme": 5133,
    "enced": 5134,
    "emergency": 5135,
    "ells": 5136,
    "dorothy": 5137,
    "defin@@": 5138,
    "dave": 5139,
    "crash": 5140,
    "commemor@@": 5141,
    "bour@@": 5142,
    "behavior": 5143,
    "batt@@": 5144,
    "anthro@@": 5145,
    "yesterday": 5146,
    "tious": 5147,
    "throw": 5148,
    "thesis": 5149,
    "swing": 5150,
    "stors": 5151,
    "scription": 5152,
    "saturday": 5153,
    "samuel": 5154,
    "retail": 5155,
    "reportedly": 5156,
    "pup@@": 5157,
    "promise": 5158,
    "premi@@": 5159,
    "plu@@": 5160,
    "picked": 5161,
    "pick": 5162,
    "performs": 5163,
    "oon": 5164,
    "nuclear": 5165,
    "nicknamed": 5166,
    "mechanism": 5167,
    "loy@@": 5168,
    "keeper": 5169,
    "itary": 5170,
    "iring": 5171,
    "instrumental": 5172,
    "hyper@@": 5173,
    "gged": 5174,
    "fting": 5175,
    "fitted": 5176,
    "fill": 5177,
    "expen@@": 5178,
    "error": 5179,
    "elsewhere": 5180,
    "egg": 5181,
    "eding": 5182,
    "cum@@": 5183,
    "clark": 5184,
    "athletic": 5185,
    "ap": 5186,
    "anybody": 5187,
    "angle": 5188,
    "advoc@@": 5189,
    "adm@@": 5190,
    "wan": 5191,
    "vin": 5192,
    "usage": 5193,
    "tribe": 5194,
    "tened": 5195,
    "techn@@": 5196,
    "steam": 5197,
    "shooting": 5198,
    "shoc@@": 5199,
    "shir@@": 5200,
    "sens@@": 5201,
    "scheduled": 5202,
    "ruled": 5203,
    "returning": 5204,
    "rement": 5205,
    "rem@@": 5206,
    "relati@@": 5207,
    "regarding": 5208,
    "rag@@": 5209,
    "prob@@": 5210,
    "output": 5211,
    "october": 5212,
    "nick@@": 5213,
    "mounted": 5214,
    "moder@@": 5215,
    "mit": 5216,
    "journey": 5217,
    "joint": 5218,
    "jane": 5219,
    "inspec@@": 5220,
    "ice@@": 5221,
    "hurt": 5222,
    "hang@@": 5223,
    "gay": 5224,
    "exhibit": 5225,
    "economics": 5226,
    "drummer": 5227,
    "domain": 5228,
    "div@@": 5229,
    "contributions": 5230,
    "buff@@": 5231,
    "bry@@": 5232,
    "broo@@": 5233,
    "brit@@": 5234,
    "awar@@": 5235,
    "ater": 5236,
    "alised": 5237,
    "zi": 5238,
    "vegetables": 5239,
    "turning": 5240,
    "tunnel": 5241,
    "stry": 5242,
    "strip": 5243,
    "stly": 5244,
    "side@@": 5245,
    "shares": 5246,
    "sely": 5247,
    "saved": 5248,
    "romantic": 5249,
    "poland": 5250,
    "pocket": 5251,
    "pattern": 5252,
    "parallel": 5253,
    "painter": 5254,
    "paint": 5255,
    "oregon": 5256,
    "officials": 5257,
    "norway": 5258,
    "networks": 5259,
    "nett": 5260,
    "moves": 5261,
    "missions": 5262,
    "maybe": 5263,
    "lock@@": 5264,
    "kent": 5265,
    "itated": 5266,
    "inqu@@": 5267,
    "identify": 5268,
    "gradually": 5269,
    "garage": 5270,
    "fate": 5271,
    "essentially": 5272,
    "distinctive": 5273,
    "dim@@": 5274,
    "cool": 5275,
    "chem@@": 5276,
    "campaig@@": 5277,
    "brief": 5278,
    "bly": 5279,
    "atom@@": 5280,
    "anger": 5281,
    "amongst": 5282,
    "aka": 5283,
    "widespread": 5284,
    "walter": 5285,
    "univers@@": 5286,
    "transferred": 5287,
    "suspended": 5288,
    "solar": 5289,
    "sky@@": 5290,
    "resort": 5291,
    "remote": 5292,
    "releases": 5293,
    "rap@@": 5294,
    "rang": 5295,
    "pulled": 5296,
    "prohi@@": 5297,
    "outer": 5298,
    "measure": 5299,
    "limits": 5300,
    "jum@@": 5301,
    "instance": 5302,
    "injuries": 5303,
    "gul@@": 5304,
    "grammar": 5305,
    "fund": 5306,
    "extrac@@": 5307,
    "eton": 5308,
    "ensu@@": 5309,
    "enh@@": 5310,
    "electoral": 5311,
    "disc": 5312,
    "decade": 5313,
    "counties": 5314,
    "cited": 5315,
    "circumstances": 5316,
    "charter": 5317,
    "canyon": 5318,
    "boundaries": 5319,
    "begun": 5320,
    "ao": 5321,
    "algorithm": 5322,
    "zo": 5323,
    "utili@@": 5324,
    "understood": 5325,
    "tries": 5326,
    "thum@@": 5327,
    "tha": 5328,
    "sum": 5329,
    "stance": 5330,
    "shr@@": 5331,
    "sanc@@": 5332,
    "roughly": 5333,
    "registered": 5334,
    "ques@@": 5335,
    "pounds": 5336,
    "ols": 5337,
    "oid": 5338,
    "ny@@": 5339,
    "norwegian": 5340,
    "mr": 5341,
    "mater@@": 5342,
    "main@@": 5343,
    "kol@@": 5344,
    "icks": 5345,
    "hau@@": 5346,
    "harve@@": 5347,
    "gar": 5348,
    "follow@@": 5349,
    "finals": 5350,
    "false": 5351,
    "everybody": 5352,
    "eral": 5353,
    "enter@@": 5354,
    "eller": 5355,
    "dram@@": 5356,
    "dock": 5357,
    "detail": 5358,
    "criticism": 5359,
    "ceremon@@": 5360,
    "blu@@": 5361,
    "bited": 5362,
    "argu@@": 5363,
    "appreci@@": 5364,
    "agents": 5365,
    "adver@@": 5366,
    "acqu@@": 5367,
    "ut": 5368,
    "tongue": 5369,
    "thu@@": 5370,
    "stown": 5371,
    "storage": 5372,
    "state@@": 5373,
    "stab@@": 5374,
    "spring@@": 5375,
    "solutions": 5376,
    "sley": 5377,
    "skill": 5378,
    "seriously": 5379,
    "seeds": 5380,
    "robo@@": 5381,
    "rid": 5382,
    "ria": 5383,
    "psychology": 5384,
    "pression": 5385,
    "praised": 5386,
    "pond": 5387,
    "pierre": 5388,
    "phic": 5389,
    "person@@": 5390,
    "parliamentary": 5391,
    "ose": 5392,
    "nephew": 5393,
    "missed": 5394,
    "microphone": 5395,
    "melo@@": 5396,
    "meal": 5397,
    "maria": 5398,
    "manuscri@@": 5399,
    "list@@": 5400,
    "lined": 5401,
    "laun@@": 5402,
    "korean": 5403,
    "ities": 5404,
    "insects": 5405,
    "infl@@": 5406,
    "helene": 5407,
    "hardly": 5408,
    "greece": 5409,
    "funds": 5410,
    "friendly": 5411,
    "fred": 5412,
    "found@@": 5413,
    "fortune": 5414,
    "experiences": 5415,
    "ential": 5416,
    "endor@@": 5417,
    "employees": 5418,
    "dom": 5419,
    "develop@@": 5420,
    "depen@@": 5421,
    "daniel": 5422,
    "conserv@@": 5423,
    "compla@@": 5424,
    "colorful": 5425,
    "cin@@": 5426,
    "bible": 5427,
    "beauty": 5428,
    "audi@@": 5429,
    "attitude": 5430,
    "ari": 5431,
    "angel": 5432,
    "wash@@": 5433,
    "tshirt": 5434,
    "symptoms": 5435,
    "supposed": 5436,
    "shirts": 5437,
    "sati@@": 5438,
    "reply": 5439,
    "register": 5440,
    "psy@@": 5441,
    "pris@@": 5442,
    "part@@": 5443,
    "outs": 5444,
    "otic": 5445,
    "origins": 5446,
    "originated": 5447,
    "opportunity": 5448,
    "oma": 5449,
    "nov@@": 5450,
    "notably": 5451,
    "marry": 5452,
    "lovely": 5453,
    "linear": 5454,
    "lasted": 5455,
    "inhabited": 5456,
    "influential": 5457,
    "gradu@@": 5458,
    "flor@@": 5459,
    "fighter": 5460,
    "existed": 5461,
    "elim@@": 5462,
    "dir@@": 5463,
    "destination": 5464,
    "desk": 5465,
    "deputy": 5466,
    "depression": 5467,
    "december": 5468,
    "corps": 5469,
    "chamber": 5470,
    "category": 5471,
    "candidates": 5472,
    "biology": 5473,
    "anywhere": 5474,
    "anim@@": 5475,
    "ache": 5476,
    "weak": 5477,
    "wav@@": 5478,
    "virtual": 5479,
    "transi@@": 5480,
    "tian": 5481,
    "tees": 5482,
    "smallest": 5483,
    "silence": 5484,
    "second@@": 5485,
    "screen@@": 5486,
    "saxon": 5487,
    "rhy@@": 5488,
    "promised": 5489,
    "path@@": 5490,
    "pass@@": 5491,
    "oral": 5492,
    "oper@@": 5493,
    "nut": 5494,
    "nig@@": 5495,
    "mistake": 5496,
    "marsh@@": 5497,
    "manufacturing": 5498,
    "manufactured": 5499,
    "mall": 5500,
    "lingu@@": 5501,
    "hull": 5502,
    "haired": 5503,
    "gur@@": 5504,
    "guilty": 5505,
    "ek@@": 5506,
    "dust": 5507,
    "dublin": 5508,
    "dual": 5509,
    "drum": 5510,
    "dollars": 5511,
    "dead@@": 5512,
    "crowded": 5513,
    "crosses": 5514,
    "copies": 5515,
    "congres@@": 5516,
    "cliff": 5517,
    "christianity": 5518,
    "chart": 5519,
    "bruce": 5520,
    "breed": 5521,
    "breakfast": 5522,
    "brand@@": 5523,
    "bears": 5524,
    "atically": 5525,
    "arities": 5526,
    "alize": 5527,
    "wisconsin": 5528,
    "wis@@": 5529,
    "variable": 5530,
    "ude": 5531,
    "tape": 5532,
    "surname": 5533,
    "spin@@": 5534,
    "smo@@": 5535,
    "singapore": 5536,
    "shed": 5537,
    "seventh": 5538,
    "seg@@": 5539,
    "seas@@": 5540,
    "sciences": 5541,
    "rot@@": 5542,
    "respon@@": 5543,
    "reign": 5544,
    "ral@@": 5545,
    "puzz@@": 5546,
    "protect": 5547,
    "poses": 5548,
    "ported": 5549,
    "pitch": 5550,
    "pione@@": 5551,
    "pin": 5552,
    "persons": 5553,
    "pers": 5554,
    "periods": 5555,
    "pear@@": 5556,
    "ow": 5557,
    "mines": 5558,
    "mechanical": 5559,
    "martial": 5560,
    "lis@@": 5561,
    "li": 5562,
    "innov@@": 5563,
    "influences": 5564,
    "indiana": 5565,
    "inct": 5566,
    "harris": 5567,
    "gie": 5568,
    "generated": 5569,
    "flew": 5570,
    "ference": 5571,
    "expl@@": 5572,
    "entry": 5573,
    "drove": 5574,
    "dil@@": 5575,
    "description": 5576,
    "descri@@": 5577,
    "dea@@": 5578,
    "corn": 5579,
    "conduct": 5580,
    "colum@@": 5581,
    "clay": 5582,
    "citiz@@": 5583,
    "circul@@": 5584,
    "chro@@": 5585,
    "brazil": 5586,
    "bowl": 5587,
    "alge@@": 5588,
    "abstr@@": 5589,
    "whatever": 5590,
    "wer@@": 5591,
    "virtu@@": 5592,
    "view@@": 5593,
    "varied": 5594,
    "ulated": 5595,
    "tube": 5596,
    "thirteen": 5597,
    "surprised": 5598,
    "sunglasses": 5599,
    "sume": 5600,
    "speaks": 5601,
    "somewhere": 5602,
    "shallow": 5603,
    "shadow": 5604,
    "rupted": 5605,
    "root": 5606,
    "resumed": 5607,
    "rebel@@": 5608,
    "provi@@": 5609,
    "proof": 5610,
    "processes": 5611,
    "principle": 5612,
    "noticed": 5613,
    "naturally": 5614,
    "moz@@": 5615,
    "moore": 5616,
    "mess@@": 5617,
    "mes": 5618,
    "korea": 5619,
    "inve@@": 5620,
    "instruc@@": 5621,
    "immigr@@": 5622,
    "hats": 5623,
    "hair@@": 5624,
    "gy@@": 5625,
    "guys": 5626,
    "grandchildren": 5627,
    "gin@@": 5628,
    "franklin": 5629,
    "extra@@": 5630,
    "expan@@": 5631,
    "etr@@": 5632,
    "elle": 5633,
    "educ@@": 5634,
    "dor": 5635,
    "difficulty": 5636,
    "criticized": 5637,
    "creating": 5638,
    "craw@@": 5639,
    "continuous": 5640,
    "cock": 5641,
    "chron@@": 5642,
    "chase": 5643,
    "certi@@": 5644,
    "cand@@": 5645,
    "bread": 5646,
    "bos@@": 5647,
    "ballo@@": 5648,
    "anderson": 5649,
    "alternate": 5650,
    "agers": 5651,
    "william@@": 5652,
    "vis": 5653,
    "unclear": 5654,
    "tude": 5655,
    "tram@@": 5656,
    "talent": 5657,
    "supplied": 5658,
    "stones": 5659,
    "relationships": 5660,
    "raine": 5661,
    "prosp@@": 5662,
    "priv@@": 5663,
    "parade": 5664,
    "oy@@": 5665,
    "owns": 5666,
    "ownership": 5667,
    "origin@@": 5668,
    "notice": 5669,
    "nings": 5670,
    "nest": 5671,
    "motiv@@": 5672,
    "ministry": 5673,
    "middle@@": 5674,
    "mere": 5675,
    "laugh@@": 5676,
    "ices": 5677,
    "houston": 5678,
    "height": 5679,
    "guitarist": 5680,
    "graphical": 5681,
    "gathered": 5682,
    "frank@@": 5683,
    "forgot": 5684,
    "farmers": 5685,
    "ex": 5686,
    "estion": 5687,
    "ela": 5688,
    "dresses": 5689,
    "divorced": 5690,
    "determin@@": 5691,
    "cutting": 5692,
    "crow@@": 5693,
    "craft": 5694,
    "contr@@": 5695,
    "commun@@": 5696,
    "clear@@": 5697,
    "cave": 5698,
    "bren@@": 5699,
    "billy": 5700,
    "bes@@": 5701,
    "arn@@": 5702,
    "advice": 5703,
    "advance": 5704,
    "worship": 5705,
    "waited": 5706,
    "vow@@": 5707,
    "tra": 5708,
    "tox@@": 5709,
    "touch": 5710,
    "ting@@": 5711,
    "swim": 5712,
    "sunset": 5713,
    "specialized": 5714,
    "span@@": 5715,
    "skate@@": 5716,
    "simon": 5717,
    "sian": 5718,
    "ross": 5719,
    "rie": 5720,
    "reform": 5721,
    "recreation": 5722,
    "recommended": 5723,
    "photographs": 5724,
    "partly": 5725,
    "osc@@": 5726,
    "olog@@": 5727,
    "maintains": 5728,
    "locks": 5729,
    "leaf": 5730,
    "ladies": 5731,
    "insul@@": 5732,
    "indu@@": 5733,
    "imp@@": 5734,
    "hospit@@": 5735,
    "exclusively": 5736,
    "dd": 5737,
    "consist": 5738,
    "conclu@@": 5739,
    "colleges": 5740,
    "collaboration": 5741,
    "cigarette": 5742,
    "cheer@@": 5743,
    "categories": 5744,
    "cart": 5745,
    "brid@@": 5746,
    "bever@@": 5747,
    "bee@@": 5748,
    "bau@@": 5749,
    "associ@@": 5750,
    "assist": 5751,
    "artistic": 5752,
    "antly": 5753,
    "angela": 5754,
    "alabama": 5755,
    "adam": 5756,
    "accused": 5757,
    "wrest@@": 5758,
    "ult": 5759,
    "tty": 5760,
    "tokyo": 5761,
    "soldier": 5762,
    "servation": 5763,
    "sector": 5764,
    "respect": 5765,
    "relevant": 5766,
    "recreational": 5767,
    "presents": 5768,
    "poverty": 5769,
    "phy@@": 5770,
    "peri@@": 5771,
    "patron": 5772,
    "orial": 5773,
    "mon": 5774,
    "metric": 5775,
    "mars": 5776,
    "margaret": 5777,
    "manage": 5778,
    "liberty": 5779,
    "kap@@": 5780,
    "journalist": 5781,
    "jan": 5782,
    "involves": 5783,
    "iner": 5784,
    "indicate": 5785,
    "implic@@": 5786,
    "hunter": 5787,
    "horse@@": 5788,
    "hired": 5789,
    "hidden": 5790,
    "game@@": 5791,
    "funded": 5792,
    "fountain": 5793,
    "flag@@": 5794,
    "feeding": 5795,
    "event@@": 5796,
    "enthusi@@": 5797,
    "enjoys": 5798,
    "emphas@@": 5799,
    "eli": 5800,
    "egypt": 5801,
    "efficient": 5802,
    "diamond": 5803,
    "depicted": 5804,
    "deep@@": 5805,
    "decide": 5806,
    "dahlia": 5807,
    "costume": 5808,
    "corporate": 5809,
    "competitions": 5810,
    "compete": 5811,
    "communications": 5812,
    "comman@@": 5813,
    "column": 5814,
    "christopher": 5815,
    "characteristic": 5816,
    "centers": 5817,
    "carbon": 5818,
    "automatic": 5819,
    "ambi@@": 5820,
    "ales": 5821,
    "advertis@@": 5822,
    "zu@@": 5823,
    "yp@@": 5824,
    "ware": 5825,
    "vessel": 5826,
    "una": 5827,
    "swit@@": 5828,
    "suffering": 5829,
    "stic": 5830,
    "song@@": 5831,
    "sex@@": 5832,
    "scand@@": 5833,
    "sandy": 5834,
    "recogni@@": 5835,
    "rebuilt": 5836,
    "py": 5837,
    "promotion": 5838,
    "promote": 5839,
    "preparing": 5840,
    "photo@@": 5841,
    "outdoors": 5842,
    "onian": 5843,
    "nick": 5844,
    "nat@@": 5845,
    "montreal": 5846,
    "moderate": 5847,
    "measu@@": 5848,
    "lux@@": 5849,
    "laughed": 5850,
    "kl@@": 5851,
    "killing": 5852,
    "jur@@": 5853,
    "jection": 5854,
    "illegal": 5855,
    "ig": 5856,
    "ideal": 5857,
    "gies": 5858,
    "fos@@": 5859,
    "fes@@": 5860,
    "fallen": 5861,
    "erals": 5862,
    "embar@@": 5863,
    "eldest": 5864,
    "elder": 5865,
    "eer": 5866,
    "edit@@": 5867,
    "dynasty": 5868,
    "dynam@@": 5869,
    "drivers": 5870,
    "driven": 5871,
    "communist": 5872,
    "che": 5873,
    "championships": 5874,
    "bin": 5875,
    "attraction": 5876,
    "anx@@": 5877,
    "anian": 5878,
    "alliance": 5879,
    "adop@@": 5880,
    "acle": 5881,
    "whist@@": 5882,
    "welsh": 5883,
    "watched": 5884,
    "visiting": 5885,
    "violin": 5886,
    "unic@@": 5887,
    "twin": 5888,
    "toured": 5889,
    "tiles": 5890,
    "themes": 5891,
    "tall@@": 5892,
    "surren@@": 5893,
    "supporter": 5894,
    "stored": 5895,
    "solve": 5896,
    "simil@@": 5897,
    "siblings": 5898,
    "shaw": 5899,
    "satur@@": 5900,
    "reads": 5901,
    "privately": 5902,
    "politician": 5903,
    "photograph": 5904,
    "offs": 5905,
    "nowadays": 5906,
    "merch@@": 5907,
    "mean@@": 5908,
    "maj@@": 5909,
    "locally": 5910,
    "lington": 5911,
    "kon@@": 5912,
    "kne@@": 5913,
    "keyboard": 5914,
    "judg@@": 5915,
    "jefferson": 5916,
    "interview": 5917,
    "ingredi@@": 5918,
    "inci@@": 5919,
    "iler": 5920,
    "heroes": 5921,
    "grows": 5922,
    "grandson": 5923,
    "fortun@@": 5924,
    "finance": 5925,
    "external": 5926,
    "enz@@": 5927,
    "eived": 5928,
    "easier": 5929,
    "disappeared": 5930,
    "diff@@": 5931,
    "detroit": 5932,
    "customers": 5933,
    "confidence": 5934,
    "concep@@": 5935,
    "commis@@": 5936,
    "clin@@": 5937,
    "chips": 5938,
    "careful": 5939,
    "behavi@@": 5940,
    "bbed": 5941,
    "arian": 5942,
    "anthony": 5943,
    "abbey": 5944,
    "universe": 5945,
    "ud@@": 5946,
    "tim": 5947,
    "theorem": 5948,
    "tender": 5949,
    "tee": 5950,
    "ste": 5951,
    "sent@@": 5952,
    "rot": 5953,
    "rising": 5954,
    "rence": 5955,
    "remainder": 5956,
    "rati@@": 5957,
    "proce@@": 5958,
    "pro": 5959,
    "poli@@": 5960,
    "pen": 5961,
    "pedestri@@": 5962,
    "ott@@": 5963,
    "obsc@@": 5964,
    "near@@": 5965,
    "matic": 5966,
    "mate": 5967,
    "lei@@": 5968,
    "itors": 5969,
    "invention": 5970,
    "invented": 5971,
    "invent@@": 5972,
    "inum": 5973,
    "indicated": 5974,
    "immigrants": 5975,
    "ila": 5976,
    "graph@@": 5977,
    "german@@": 5978,
    "fra@@": 5979,
    "floo@@": 5980,
    "files": 5981,
    "explain": 5982,
    "exercise": 5983,
    "ece": 5984,
    "designer": 5985,
    "conn@@": 5986,
    "confused": 5987,
    "chanc@@": 5988,
    "cement": 5989,
    "cats": 5990,
    "capture": 5991,
    "cafe": 5992,
    "bicy@@": 5993,
    "bags": 5994,
    "attorney": 5995,
    "assass@@": 5996,
    "arab@@": 5997,
    "approved": 5998,
    "ancing": 5999,
    "ails": 6000,
    "wrestling": 6001,
    "wing@@": 6002,
    "whilst": 6003,
    "wheel@@": 6004,
    "voting": 6005,
    "videos": 6006,
    "uniforms": 6007,
    "ttle": 6008,
    "then@@": 6009,
    "successor": 6010,
    "stops": 6011,
    "spr@@": 6012,
    "shor@@": 6013,
    "shoot": 6014,
    "representatives": 6015,
    "references": 6016,
    "ras@@": 6017,
    "proposal": 6018,
    "progressive": 6019,
    "partial": 6020,
    "palm": 6021,
    "onable": 6022,
    "newly": 6023,
    "neighbor@@": 6024,
    "nan@@": 6025,
    "modified": 6026,
    "meetings": 6027,
    "maximum": 6028,
    "lifetime": 6029,
    "knife": 6030,
    "justi@@": 6031,
    "jury": 6032,
    "implem@@": 6033,
    "housed": 6034,
    "hampshire": 6035,
    "gulf": 6036,
    "grad@@": 6037,
    "furthermore": 6038,
    "franc@@": 6039,
    "farm@@": 6040,
    "exter@@": 6041,
    "extend": 6042,
    "editions": 6043,
    "drinks": 6044,
    "dominated": 6045,
    "documentary": 6046,
    "displays": 6047,
    "dismissed": 6048,
    "dimen@@": 6049,
    "contin@@": 6050,
    "compound": 6051,
    "colony": 6052,
    "cler@@": 6053,
    "chen@@": 6054,
    "care@@": 6055,
    "buying": 6056,
    "atur@@": 6057,
    "astro@@": 6058,
    "arrive": 6059,
    "alpha": 6060,
    "zen": 6061,
    "victor@@": 6062,
    "trin@@": 6063,
    "touched": 6064,
    "stroke": 6065,
    "skiing": 6066,
    "sible": 6067,
    "shell": 6068,
    "sail@@": 6069,
    "reverse": 6070,
    "reaching": 6071,
    "rapid": 6072,
    "principles": 6073,
    "posed": 6074,
    "portrayed": 6075,
    "pit": 6076,
    "participants": 6077,
    "municipalities": 6078,
    "moun@@": 6079,
    "mexican": 6080,
    "medium": 6081,
    "magnetic": 6082,
    "magazines": 6083,
    "mad": 6084,
    "kennedy": 6085,
    "kay@@": 6086,
    "indians": 6087,
    "hay@@": 6088,
    "harbor": 6089,
    "guil@@": 6090,
    "graphics": 6091,
    "gift": 6092,
    "geneva": 6093,
    "fur": 6094,
    "friday": 6095,
    "fies": 6096,
    "featuring": 6097,
    "eur": 6098,
    "essive": 6099,
    "escap@@": 6100,
    "encing": 6101,
    "eliminated": 6102,
    "electr@@": 6103,
    "defensive": 6104,
    "defence": 6105,
    "dallas": 6106,
    "dakota": 6107,
    "cover@@": 6108,
    "congreg@@": 6109,
    "concern": 6110,
    "comics": 6111,
    "chim@@": 6112,
    "chicken": 6113,
    "burst": 6114,
    "brooklyn": 6115,
    "brew@@": 6116,
    "bond": 6117,
    "birthplace": 6118,
    "benefit": 6119,
    "belgium": 6120,
    "accor@@": 6121,
    "warri@@": 6122,
    "vibr@@": 6123,
    "ua": 6124,
    "turkey": 6125,
    "trinity": 6126,
    "tric@@": 6127,
    "transit": 6128,
    "tool": 6129,
    "tible": 6130,
    "telling": 6131,
    "tail@@": 6132,
    "symph@@": 6133,
    "suitable": 6134,
    "stret@@": 6135,
    "stered": 6136,
    "rubber": 6137,
    "replacement": 6138,
    "rele@@": 6139,
    "relative": 6140,
    "recei@@": 6141,
    "quebec": 6142,
    "princ@@": 6143,
    "predominantly": 6144,
    "practices": 6145,
    "portions": 6146,
    "patterns": 6147,
    "participate": 6148,
    "ook": 6149,
    "ologists": 6150,
    "merchant": 6151,
    "longest": 6152,
    "kim@@": 6153,
    "journ@@": 6154,
    "jews": 6155,
    "islamic": 6156,
    "internationally": 6157,
    "illustrated": 6158,
    "horri@@": 6159,
    "heights": 6160,
    "hate": 6161,
    "hann@@": 6162,
    "governor@@": 6163,
    "forth": 6164,
    "faculty": 6165,
    "evolved": 6166,
    "eric": 6167,
    "eagle": 6168,
    "disputed": 6169,
    "destroy": 6170,
    "davi@@": 6171,
    "circular": 6172,
    "ced@@": 6173,
    "cc@@": 6174,
    "bull": 6175,
    "biography": 6176,
    "assumed": 6177,
    "aspects": 6178,
    "ank": 6179,
    "ald": 6180,
    "alcohol@@": 6181,
    "airline": 6182,
    "affair": 6183,
    "admitted": 6184,
    "acher": 6185,
    "writings": 6186,
    "welcome": 6187,
    "week@@": 6188,
    "vor@@": 6189,
    "unsuccessful": 6190,
    "toddler": 6191,
    "thic": 6192,
    "thernmost": 6193,
    "teries": 6194,
    "sunny": 6195,
    "substitu@@": 6196,
    "substantial": 6197,
    "stric@@": 6198,
    "strategy": 6199,
    "shield": 6200,
    "sever@@": 6201,
    "sarah": 6202,
    "sank": 6203,
    "rider": 6204,
    "rela@@": 6205,
    "punk": 6206,
    "publishing": 6207,
    "prisoners": 6208,
    "portra@@": 6209,
    "pec@@": 6210,
    "patient": 6211,
    "oman": 6212,
    "og": 6213,
    "novel@@": 6214,
    "navi@@": 6215,
    "mou@@": 6216,
    "mccar@@": 6217,
    "mary@@": 6218,
    "maintenance": 6219,
    "maine": 6220,
    "liverpool": 6221,
    "lineup": 6222,
    "licensed": 6223,
    "leather": 6224,
    "lap": 6225,
    "iously": 6226,
    "introduction": 6227,
    "integrated": 6228,
    "inno@@": 6229,
    "ind@@": 6230,
    "ind": 6231,
    "ight": 6232,
    "homo@@": 6233,
    "handled": 6234,
    "google": 6235,
    "gear": 6236,
    "fed": 6237,
    "evolution": 6238,
    "employment": 6239,
    "dynamic": 6240,
    "dialect": 6241,
    "cylin@@": 6242,
    "convicted": 6243,
    "conventional": 6244,
    "comprises": 6245,
    "clean@@": 6246,
    "chel@@": 6247,
    "cardi@@": 6248,
    "bron@@": 6249,
    "bie": 6250,
    "bedroom": 6251,
    "atic@@": 6252,
    "ather": 6253,
    "assum@@": 6254,
    "appropriate": 6255,
    "allow@@": 6256,
    "ail@@": 6257,
    "aders": 6258,
    "wid@@": 6259,
    "ves@@": 6260,
    "tul@@": 6261,
    "treaty": 6262,
    "toys": 6263,
    "though@@": 6264,
    "thompson": 6265,
    "terri@@": 6266,
    "switch": 6267,
    "suggest": 6268,
    "spaces": 6269,
    "sne@@": 6270,
    "slide": 6271,
    "scru@@": 6272,
    "rick": 6273,
    "revolutionary": 6274,
    "requirements": 6275,
    "rep@@": 6276,
    "remark@@": 6277,
    "practi@@": 6278,
    "populations": 6279,
    "pes@@": 6280,
    "partnership": 6281,
    "occasion": 6282,
    "neighbourhood": 6283,
    "metro": 6284,
    "max@@": 6285,
    "mature": 6286,
    "latest": 6287,
    "landmark": 6288,
    "kiss": 6289,
    "jean": 6290,
    "habitat": 6291,
    "grace": 6292,
    "gest@@": 6293,
    "foo@@": 6294,
    "flood": 6295,
    "fam@@": 6296,
    "extends": 6297,
    "experimental": 6298,
    "ests": 6299,
    "equipped": 6300,
    "entitled": 6301,
    "enters": 6302,
    "edy": 6303,
    "edly": 6304,
    "dramatic": 6305,
    "depends": 6306,
    "cuts": 6307,
    "contain@@": 6308,
    "constra@@": 6309,
    "consi@@": 6310,
    "cleveland": 6311,
    "characteristics": 6312,
    "capable": 6313,
    "burns": 6314,
    "bull@@": 6315,
    "boro": 6316,
    "birmingham": 6317,
    "bill@@": 6318,
    "aspect": 6319,
    "argued": 6320,
    "animation": 6321,
    "adams": 6322,
    "trem@@": 6323,
    "threatened": 6324,
    "sword": 6325,
    "striped": 6326,
    "stic@@": 6327,
    "signature": 6328,
    "reservoir": 6329,
    "ranges": 6330,
    "power@@": 6331,
    "perio@@": 6332,
    "perfectly": 6333,
    "pan": 6334,
    "nas@@": 6335,
    "nag@@": 6336,
    "measures": 6337,
    "malay@@": 6338,
    "laboratory": 6339,
    "joining": 6340,
    "jet": 6341,
    "itarian": 6342,
    "isi@@": 6343,
    "ishment": 6344,
    "invasion": 6345,
    "inity": 6346,
    "icon": 6347,
    "hier@@": 6348,
    "flexi@@": 6349,
    "flash": 6350,
    "estim@@": 6351,
    "emma": 6352,
    "eling": 6353,
    "distinction": 6354,
    "dimensional": 6355,
    "determine": 6356,
    "dency": 6357,
    "deck": 6358,
    "dating": 6359,
    "cut@@": 6360,
    "crisis": 6361,
    "copy": 6362,
    "convic@@": 6363,
    "connects": 6364,
    "connect": 6365,
    "confi@@": 6366,
    "cone": 6367,
    "common@@": 6368,
    "closer": 6369,
    "charlie": 6370,
    "character@@": 6371,
    "cargo": 6372,
    "calling": 6373,
    "budget": 6374,
    "borne": 6375,
    "bish@@": 6376,
    "benef@@": 6377,
    "beaches": 6378,
    "assign@@": 6379,
    "arkansas": 6380,
    "voices": 6381,
    "varieties": 6382,
    "ushed": 6383,
    "tery": 6384,
    "syndrome": 6385,
    "stru@@": 6386,
    "ston@@": 6387,
    "sings": 6388,
    "sentenced": 6389,
    "robin": 6390,
    "rates": 6391,
    "pursue": 6392,
    "purchase": 6393,
    "promp@@": 6394,
    "pow@@": 6395,
    "possession": 6396,
    "pling": 6397,
    "pleasant": 6398,
    "pick@@": 6399,
    "photographer": 6400,
    "patrick": 6401,
    "pat": 6402,
    "opportunities": 6403,
    "masters": 6404,
    "maid": 6405,
    "mack@@": 6406,
    "louisiana": 6407,
    "loose": 6408,
    "loaded": 6409,
    "lit": 6410,
    "linux": 6411,
    "laying": 6412,
    "knowled@@": 6413,
    "kills": 6414,
    "journalism": 6415,
    "joins": 6416,
    "january": 6417,
    "iran": 6418,
    "iowa": 6419,
    "hunt": 6420,
    "his@@": 6421,
    "hide": 6422,
    "focuses": 6423,
    "fic": 6424,
    "fen@@": 6425,
    "fea@@": 6426,
    "exposed": 6427,
    "eter@@": 6428,
    "eaten": 6429,
    "dreams": 6430,
    "discus@@": 6431,
    "differ": 6432,
    "dible": 6433,
    "delivery": 6434,
    "dat@@": 6435,
    "contem@@": 6436,
    "containing": 6437,
    "concerns": 6438,
    "ced": 6439,
    "boulevard": 6440,
    "battery": 6441,
    "basin": 6442,
    "bacter@@": 6443,
    "aviation": 6444,
    "asleep": 6445,
    "armen@@": 6446,
    "arizona": 6447,
    "angels": 6448,
    "ami": 6449,
    "algorithms": 6450,
    "adventure": 6451,
    "yards": 6452,
    "vienna": 6453,
    "vals": 6454,
    "trousers": 6455,
    "transmission": 6456,
    "tionally": 6457,
    "tide": 6458,
    "threw": 6459,
    "terrible": 6460,
    "tends": 6461,
    "taxi": 6462,
    "tap": 6463,
    "tack@@": 6464,
    "supporters": 6465,
    "struggle": 6466,
    "spectac@@": 6467,
    "somebody": 6468,
    "snowy": 6469,
    "seventeen": 6470,
    "seattle": 6471,
    "sat@@": 6472,
    "roy": 6473,
    "roger": 6474,
    "responsibility": 6475,
    "rescue": 6476,
    "remin@@": 6477,
    "rage": 6478,
    "pus": 6479,
    "permitted": 6480,
    "peo@@": 6481,
    "pam@@": 6482,
    "ouse": 6483,
    "organis@@": 6484,
    "olympics": 6485,
    "occupation": 6486,
    "murray": 6487,
    "mineral": 6488,
    "manufacturers": 6489,
    "maker": 6490,
    "luck": 6491,
    "longtime": 6492,
    "legislative": 6493,
    "lan": 6494,
    "insi@@": 6495,
    "initi@@": 6496,
    "household": 6497,
    "hiking": 6498,
    "hawaii": 6499,
    "harvard": 6500,
    "hart": 6501,
    "graham": 6502,
    "formally": 6503,
    "fail": 6504,
    "execu@@": 6505,
    "every@@": 6506,
    "ero": 6507,
    "endur@@": 6508,
    "eld": 6509,
    "eas@@": 6510,
    "destruc@@": 6511,
    "dense": 6512,
    "dawn": 6513,
    "crimin@@": 6514,
    "counc@@": 6515,
    "contest": 6516,
    "cloud": 6517,
    "bum@@": 6518,
    "atmosphere": 6519,
    "assisted": 6520,
    "approached": 6521,
    "americ@@": 6522,
    "alternati@@": 6523,
    "accompl@@": 6524,
    "wes@@": 6525,
    "walker": 6526,
    "turkish": 6527,
    "traveled": 6528,
    "topics": 6529,
    "text@@": 6530,
    "tent": 6531,
    "teen": 6532,
    "targets": 6533,
    "summit": 6534,
    "stead": 6535,
    "skateboard": 6536,
    "sixteen": 6537,
    "shut": 6538,
    "sheet": 6539,
    "sevent@@": 6540,
    "sessions": 6541,
    "relocated": 6542,
    "regiment": 6543,
    "publisher": 6544,
    "pressive": 6545,
    "phil": 6546,
    "pher@@": 6547,
    "partners": 6548,
    "neighbouring": 6549,
    "nati@@": 6550,
    "morris": 6551,
    "microsoft": 6552,
    "maps": 6553,
    "libraries": 6554,
    "legend": 6555,
    "kic@@": 6556,
    "kas@@": 6557,
    "inspiration": 6558,
    "icial": 6559,
    "hydr@@": 6560,
    "historian": 6561,
    "hel": 6562,
    "hardware": 6563,
    "guide": 6564,
    "guests": 6565,
    "gates": 6566,
    "fault": 6567,
    "farms": 6568,
    "enjoying": 6569,
    "derives": 6570,
    "deriv@@": 6571,
    "depic@@": 6572,
    "decorated": 6573,
    "dark@@": 6574,
    "cus": 6575,
    "cup@@": 6576,
    "cultiv@@": 6577,
    "cos@@": 6578,
    "cleaning": 6579,
    "chic@@": 6580,
    "chat@@": 6581,
    "chairs": 6582,
    "chair@@": 6583,
    "carol@@": 6584,
    "burning": 6585,
    "bure@@": 6586,
    "bot@@": 6587,
    "boar@@": 6588,
    "attending": 6589,
    "arrival": 6590,
    "arrangement": 6591,
    "achieve": 6592,
    "aber@@": 6593,
    "warning": 6594,
    "variation": 6595,
    "usa": 6596,
    "understanding": 6597,
    "undergraduate": 6598,
    "turn@@": 6599,
    "trails": 6600,
    "thrown": 6601,
    "throwing": 6602,
    "them@@": 6603,
    "temporary": 6604,
    "swiss": 6605,
    "sufficient": 6606,
    "statistics": 6607,
    "speakers": 6608,
    "socialist": 6609,
    "scoo@@": 6610,
    "restricted": 6611,
    "relation": 6612,
    "reci@@": 6613,
    "raft": 6614,
    "puerto": 6615,
    "plum@@": 6616,
    "plenty": 6617,
    "pizza": 6618,
    "pittsburgh": 6619,
    "personality": 6620,
    "ordin@@": 6621,
    "operator": 6622,
    "oke": 6623,
    "monthly": 6624,
    "miss@@": 6625,
    "marketing": 6626,
    "loud": 6627,
    "literally": 6628,
    "kevin": 6629,
    "ito": 6630,
    "iss@@": 6631,
    "iso@@": 6632,
    "implemented": 6633,
    "hell": 6634,
    "helicop@@": 6635,
    "happens": 6636,
    "guitars": 6637,
    "governments": 6638,
    "geon": 6639,
    "formula": 6640,
    "feelings": 6641,
    "esc@@": 6642,
    "enclo@@": 6643,
    "eighth": 6644,
    "eded": 6645,
    "eau": 6646,
    "dist@@": 6647,
    "diet": 6648,
    "detailed": 6649,
    "dee": 6650,
    "decisions": 6651,
    "cun@@": 6652,
    "creature": 6653,
    "conservation": 6654,
    "colom@@": 6655,
    "clou@@": 6656,
    "breaks": 6657,
    "austria": 6658,
    "austr@@": 6659,
    "athens": 6660,
    "asses": 6661,
    "asp@@": 6662,
    "acker": 6663,
    "acceler@@": 6664,
    "whe@@": 6665,
    "way@@": 6666,
    "washing": 6667,
    "truste@@": 6668,
    "trium@@": 6669,
    "traditions": 6670,
    "terribly": 6671,
    "tech": 6672,
    "stan": 6673,
    "sculpture": 6674,
    "ruins": 6675,
    "rod": 6676,
    "rhythm": 6677,
    "rer@@": 6678,
    "replace": 6679,
    "remove": 6680,
    "pakistan": 6681,
    "operational": 6682,
    "oner": 6683,
    "nomination": 6684,
    "muslim": 6685,
    "model@@": 6686,
    "legislation": 6687,
    "layer": 6688,
    "ks@@": 6689,
    "kland": 6690,
    "jurisdiction": 6691,
    "jordan": 6692,
    "jav@@": 6693,
    "isher": 6694,
    "indoor": 6695,
    "iced": 6696,
    "hub": 6697,
    "hart@@": 6698,
    "hamlet": 6699,
    "gom@@": 6700,
    "fundamental": 6701,
    "fla@@": 6702,
    "falling": 6703,
    "experiments": 6704,
    "exhibits": 6705,
    "evil": 6706,
    "ession": 6707,
    "essing": 6708,
    "ern@@": 6709,
    "electricity": 6710,
    "dominant": 6711,
    "disgu@@": 6712,
    "discussed": 6713,
    "desper@@": 6714,
    "departments": 6715,
    "ddy": 6716,
    "conveni@@": 6717,
    "controls": 6718,
    "control@@": 6719,
    "climb": 6720,
    "click": 6721,
    "christ": 6722,
    "choir": 6723,
    "ces": 6724,
    "button": 6725,
    "bub@@": 6726,
    "bite": 6727,
    "attractions": 6728,
    "artwork": 6729,
    "aria": 6730,
    "ancestry": 6731,
    "airlines": 6732,
    "youtube": 6733,
    "xi@@": 6734,
    "wrec@@": 6735,
    "whisper@@": 6736,
    "uncertain": 6737,
    "tobacco": 6738,
    "tired": 6739,
    "time@@": 6740,
    "tied": 6741,
    "territories": 6742,
    "streng@@": 6743,
    "story@@": 6744,
    "spiritual": 6745,
    "scout": 6746,
    "rush": 6747,
    "rout@@": 6748,
    "rico": 6749,
    "richmond": 6750,
    "reless": 6751,
    "reception": 6752,
    "quet": 6753,
    "ques": 6754,
    "properly": 6755,
    "pronounced": 6756,
    "priest": 6757,
    "plates": 6758,
    "paro@@": 6759,
    "ounds": 6760,
    "ock": 6761,
    "norman": 6762,
    "news@@": 6763,
    "mark@@": 6764,
    "manor": 6765,
    "line@@": 6766,
    "historians": 6767,
    "harbour": 6768,
    "guards": 6769,
    "grassy": 6770,
    "gods": 6771,
    "gent@@": 6772,
    "fruits": 6773,
    "fourteen": 6774,
    "football@@": 6775,
    "foc@@": 6776,
    "ffed": 6777,
    "fashi@@": 6778,
    "factor@@": 6779,
    "expert": 6780,
    "eville": 6781,
    "engag@@": 6782,
    "effectively": 6783,
    "drum@@": 6784,
    "documents": 6785,
    "discre@@": 6786,
    "diag@@": 6787,
    "devo@@": 6788,
    "dare": 6789,
    "customer": 6790,
    "computers": 6791,
    "compil@@": 6792,
    "cinem@@": 6793,
    "candy": 6794,
    "cali@@": 6795,
    "brown@@": 6796,
    "boss": 6797,
    "associate": 6798,
    "assistance": 6799,
    "arrives": 6800,
    "amy": 6801,
    "allo@@": 6802,
    "alia": 6803,
    "afric@@": 6804,
    "worthy": 6805,
    "weigh@@": 6806,
    "utah": 6807,
    "ulu": 6808,
    "trading": 6809,
    "timate": 6810,
    "thorpe": 6811,
    "therapy": 6812,
    "supplies": 6813,
    "subsi@@": 6814,
    "steep": 6815,
    "spectrum": 6816,
    "shark": 6817,
    "secure": 6818,
    "satellite": 6819,
    "sad": 6820,
    "responded": 6821,
    "reliable": 6822,
    "reactions": 6823,
    "proud": 6824,
    "plus": 6825,
    "passion": 6826,
    "obe@@": 6827,
    "nelson": 6828,
    "morph@@": 6829,
    "mild": 6830,
    "miami": 6831,
    "license": 6832,
    "lamp": 6833,
    "lag@@": 6834,
    "kor@@": 6835,
    "keen": 6836,
    "jimmy": 6837,
    "jected": 6838,
    "iny": 6839,
    "inver@@": 6840,
    "innovation": 6841,
    "infrastructure": 6842,
    "indigenous": 6843,
    "inated": 6844,
    "hes": 6845,
    "healthy": 6846,
    "habit@@": 6847,
    "gly@@": 6848,
    "glasgow": 6849,
    "gible": 6850,
    "folded": 6851,
    "fan@@": 6852,
    "explor@@": 6853,
    "expedition": 6854,
    "exhibition": 6855,
    "evalu@@": 6856,
    "eline": 6857,
    "elevation": 6858,
    "detected": 6859,
    "dest": 6860,
    "descendants": 6861,
    "crying": 6862,
    "continental": 6863,
    "constitutional": 6864,
    "confusion": 6865,
    "comment@@": 6866,
    "color@@": 6867,
    "cer": 6868,
    "calm": 6869,
    "broadcasting": 6870,
    "bristol": 6871,
    "automatically": 6872,
    "apo@@": 6873,
    "abl@@": 6874,
    "vul@@": 6875,
    "volunteer": 6876,
    "virtue": 6877,
    "vic": 6878,
    "variants": 6879,
    "treat": 6880,
    "travelled": 6881,
    "tickets": 6882,
    "taste": 6883,
    "talked": 6884,
    "tale": 6885,
    "sudden": 6886,
    "stun@@": 6887,
    "spher@@": 6888,
    "sively": 6889,
    "shorter": 6890,
    "settler": 6891,
    "salv@@": 6892,
    "rowing": 6893,
    "rogers": 6894,
    "rober@@": 6895,
    "rison": 6896,
    "revers@@": 6897,
    "representation": 6898,
    "reco@@": 6899,
    "ramp": 6900,
    "publicly": 6901,
    "planes": 6902,
    "photography": 6903,
    "persian": 6904,
    "osa@@": 6905,
    "oliver": 6906,
    "northwestern": 6907,
    "mom@@": 6908,
    "mist@@": 6909,
    "mead@@": 6910,
    "kid": 6911,
    "kel": 6912,
    "kaz@@": 6913,
    "jason": 6914,
    "item": 6915,
    "ision": 6916,
    "iro": 6917,
    "inte@@": 6918,
    "house@@": 6919,
    "hero@@": 6920,
    "hebrew": 6921,
    "harrison": 6922,
    "glen@@": 6923,
    "gang": 6924,
    "fulltime": 6925,
    "forti@@": 6926,
    "flash@@": 6927,
    "exclaimed": 6928,
    "excav@@": 6929,
    "eri@@": 6930,
    "equally": 6931,
    "elt": 6932,
    "electron@@": 6933,
    "elabor@@": 6934,
    "ear": 6935,
    "dley": 6936,
    "dispute": 6937,
    "dick": 6938,
    "darkness": 6939,
    "critic": 6940,
    "creates": 6941,
    "contra@@": 6942,
    "confeder@@": 6943,
    "concentrated": 6944,
    "complex@@": 6945,
    "clan": 6946,
    "channels": 6947,
    "call@@": 6948,
    "cabin": 6949,
    "boun@@": 6950,
    "birthday": 6951,
    "benjamin": 6952,
    "backs": 6953,
    "avo@@": 6954,
    "austin": 6955,
    "august@@": 6956,
    "atlanta": 6957,
    "athlete": 6958,
    "anno@@": 6959,
    "angry": 6960,
    "angered": 6961,
    "allied": 6962,
    "alexand@@": 6963,
    "ail": 6964,
    "affiliated": 6965,
    "ymous": 6966,
    "winners": 6967,
    "wells": 6968,
    "voted": 6969,
    "vid": 6970,
    "tained": 6971,
    "surroun@@": 6972,
    "sugg@@": 6973,
    "steph@@": 6974,
    "snake": 6975,
    "smoke": 6976,
    "slov@@": 6977,
    "sity": 6978,
    "sion@@": 6979,
    "single@@": 6980,
    "sci@@": 6981,
    "scholar": 6982,
    "russell": 6983,
    "ring@@": 6984,
    "researchers": 6985,
    "prices": 6986,
    "policies": 6987,
    "poles": 6988,
    "pled": 6989,
    "playground": 6990,
    "philippines": 6991,
    "nicholas": 6992,
    "nic": 6993,
    "newton": 6994,
    "nerv@@": 6995,
    "nad@@": 6996,
    "mountain@@": 6997,
    "mly": 6998,
    "medals": 6999,
    "liter@@": 7000,
    "liquid": 7001,
    "kle@@": 7002,
    "joy@@": 7003,
    "isra@@": 7004,
    "install@@": 7005,
    "hitting": 7006,
    "heav@@": 7007,
    "hanging": 7008,
    "hang": 7009,
    "gus": 7010,
    "grapher": 7011,
    "gli@@": 7012,
    "glaci@@": 7013,
    "gi": 7014,
    "generations": 7015,
    "gather": 7016,
    "fris@@": 7017,
    "fires": 7018,
    "fab@@": 7019,
    "exper@@": 7020,
    "everywhere": 7021,
    "emerged": 7022,
    "ections": 7023,
    "developments": 7024,
    "dental": 7025,
    "defe@@": 7026,
    "danger": 7027,
    "dances": 7028,
    "cran@@": 7029,
    "continuing": 7030,
    "consistent": 7031,
    "considerably": 7032,
    "confron@@": 7033,
    "competi@@": 7034,
    "communic@@": 7035,
    "commercially": 7036,
    "codes": 7037,
    "closure": 7038,
    "chronic@@": 7039,
    "chip": 7040,
    "challenged": 7041,
    "centr@@": 7042,
    "cable": 7043,
    "box@@": 7044,
    "bones": 7045,
    "baptist": 7046,
    "bald": 7047,
    "arity": 7048,
    "anny": 7049,
    "amp@@": 7050,
    "aired": 7051,
    "agues": 7052,
    "after@@": 7053,
    "ace@@": 7054,
    "academ@@": 7055,
    "yorkshire": 7056,
    "yam@@": 7057,
    "wonderful": 7058,
    "ury": 7059,
    "travels": 7060,
    "tful": 7061,
    "texts": 7062,
    "superior": 7063,
    "suburbs": 7064,
    "squir@@": 7065,
    "sic@@": 7066,
    "repair": 7067,
    "raise": 7068,
    "propag@@": 7069,
    "profession": 7070,
    "presentation": 7071,
    "portugal": 7072,
    "pedia": 7073,
    "past@@": 7074,
    "overseas": 7075,
    "orph@@": 7076,
    "occasional": 7077,
    "norfolk": 7078,
    "nights": 7079,
    "necess@@": 7080,
    "moreover": 7081,
    "mons": 7082,
    "mission@@": 7083,
    "minority": 7084,
    "mathematical": 7085,
    "manufac@@": 7086,
    "loop": 7087,
    "log": 7088,
    "limit": 7089,
    "lighting": 7090,
    "lifted": 7091,
    "lessons": 7092,
    "legisl@@": 7093,
    "laughing": 7094,
    "izing": 7095,
    "imprisoned": 7096,
    "icals": 7097,
    "helen": 7098,
    "heim": 7099,
    "guid@@": 7100,
    "graduation": 7101,
    "goo@@": 7102,
    "gent": 7103,
    "funny": 7104,
    "fren@@": 7105,
    "franchise": 7106,
    "fish@@": 7107,
    "finite": 7108,
    "february": 7109,
    "fascin@@": 7110,
    "facil@@": 7111,
    "evid@@": 7112,
    "ethics": 7113,
    "esther": 7114,
    "establishment": 7115,
    "entr@@": 7116,
    "ello": 7117,
    "douglas": 7118,
    "doub@@": 7119,
    "disaster": 7120,
    "defini@@": 7121,
    "deeply": 7122,
    "declar@@": 7123,
    "currency": 7124,
    "curren@@": 7125,
    "cult": 7126,
    "cott@@": 7127,
    "cord": 7128,
    "convers@@": 7129,
    "compe@@": 7130,
    "companion": 7131,
    "champions": 7132,
    "butler": 7133,
    "brien": 7134,
    "believes": 7135,
    "bear@@": 7136,
    "bath@@": 7137,
    "asser@@": 7138,
    "appoin@@": 7139,
    "apolis": 7140,
    "anner": 7141,
    "anism": 7142,
    "ae@@": 7143,
    "advent@@": 7144,
    "administered": 7145,
    "worst": 7146,
    "withdrew": 7147,
    "wins": 7148,
    "wheels": 7149,
    "violent": 7150,
    "victorian": 7151,
    "umbrella": 7152,
    "tle@@": 7153,
    "tip": 7154,
    "tility": 7155,
    "tially": 7156,
    "threat@@": 7157,
    "thom@@": 7158,
    "tast@@": 7159,
    "take@@": 7160,
    "tage": 7161,
    "steady": 7162,
    "stants": 7163,
    "sixty": 7164,
    "shock": 7165,
    "ruption": 7166,
    "robot": 7167,
    "rent": 7168,
    "renew@@": 7169,
    "recep@@": 7170,
    "rainfall": 7171,
    "quad@@": 7172,
    "practicing": 7173,
    "practiced": 7174,
    "posts": 7175,
    "populated": 7176,
    "peti@@": 7177,
    "personnel": 7178,
    "passage": 7179,
    "ority": 7180,
    "onom@@": 7181,
    "old@@": 7182,
    "ok": 7183,
    "odd": 7184,
    "nel": 7185,
    "nav@@": 7186,
    "moments": 7187,
    "mo": 7188,
    "map@@": 7189,
    "lucky": 7190,
    "locomotives": 7191,
    "layers": 7192,
    "isle": 7193,
    "institu@@": 7194,
    "instantly": 7195,
    "inning": 7196,
    "horror": 7197,
    "holder": 7198,
    "hara": 7199,
    "gn@@": 7200,
    "gger": 7201,
    "fictional": 7202,
    "fax": 7203,
    "fat": 7204,
    "fantasy": 7205,
    "ez": 7206,
    "evangel@@": 7207,
    "euro@@": 7208,
    "ep": 7209,
    "enemies": 7210,
    "egyptian": 7211,
    "distant": 7212,
    "diego": 7213,
    "deter@@": 7214,
    "destroy@@": 7215,
    "critic@@": 7216,
    "consumer": 7217,
    "consist@@": 7218,
    "comprehensive": 7219,
    "commerce": 7220,
    "cock@@": 7221,
    "clinical": 7222,
    "chr@@": 7223,
    "chapter": 7224,
    "chap@@": 7225,
    "butter@@": 7226,
    "bug": 7227,
    "boarder": 7228,
    "bla@@": 7229,
    "bid": 7230,
    "beng@@": 7231,
    "aw": 7232,
    "autumn": 7233,
    "atively": 7234,
    "appro@@": 7235,
    "aking": 7236,
    "aim": 7237,
    "accordingly": 7238,
    "abroad": 7239,
    "zation": 7240,
    "yar@@": 7241,
    "weapon": 7242,
    "viewers": 7243,
    "vie@@": 7244,
    "turing": 7245,
    "tit@@": 7246,
    "tissue": 7247,
    "third@@": 7248,
    "thanded": 7249,
    "tary": 7250,
    "taiwan": 7251,
    "sweater": 7252,
    "suits": 7253,
    "stell@@": 7254,
    "stair@@": 7255,
    "skating": 7256,
    "segments": 7257,
    "rul@@": 7258,
    "recovery": 7259,
    "reaches": 7260,
    "pur": 7261,
    "provinces": 7262,
    "proph@@": 7263,
    "profile": 7264,
    "portrait": 7265,
    "portland": 7266,
    "phosp@@": 7267,
    "phenomenon": 7268,
    "payment": 7269,
    "outfit": 7270,
    "orleans": 7271,
    "organ": 7272,
    "options": 7273,
    "nucle@@": 7274,
    "noble": 7275,
    "moral": 7276,
    "messages": 7277,
    "measured": 7278,
    "matthew": 7279,
    "mare": 7280,
    "mah@@": 7281,
    "leaning": 7282,
    "knee": 7283,
    "kick": 7284,
    "khan": 7285,
    "jerusalem": 7286,
    "jay": 7287,
    "ira": 7288,
    "intense": 7289,
    "intellectual": 7290,
    "insec@@": 7291,
    "index": 7292,
    "idity": 7293,
    "idated": 7294,
    "flour@@": 7295,
    "fix": 7296,
    "fem@@": 7297,
    "exposure": 7298,
    "etary": 7299,
    "estimated": 7300,
    "enting": 7301,
    "enterprise": 7302,
    "electrical": 7303,
    "ele": 7304,
    "efficiency": 7305,
    "edges": 7306,
    "drugs": 7307,
    "diver@@": 7308,
    "directions": 7309,
    "deman@@": 7310,
    "delta": 7311,
    "deer": 7312,
    "conve@@": 7313,
    "confir@@": 7314,
    "condem@@": 7315,
    "commons": 7316,
    "commissioned": 7317,
    "collap@@": 7318,
    "coin": 7319,
    "clam@@": 7320,
    "cherry": 7321,
    "chal@@": 7322,
    "carpet": 7323,
    "butt@@": 7324,
    "baron": 7325,
    "balls": 7326,
    "aware": 7327,
    "aur@@": 7328,
    "architectural": 7329,
    "archaeological": 7330,
    "approaches": 7331,
    "ania": 7332,
    "angel@@": 7333,
    "acoustic": 7334,
    "accompan@@": 7335,
    "wick@@": 7336,
    "volcan@@": 7337,
    "vian": 7338,
    "vegetation": 7339,
    "vas@@": 7340,
    "uph@@": 7341,
    "tz@@": 7342,
    "toil@@": 7343,
    "timber": 7344,
    "theore@@": 7345,
    "shru@@": 7346,
    "serge@@": 7347,
    "sees": 7348,
    "ris": 7349,
    "random": 7350,
    "pushed": 7351,
    "prolific": 7352,
    "presentday": 7353,
    "prepare": 7354,
    "pred@@": 7355,
    "ppers": 7356,
    "possibility": 7357,
    "pleasure": 7358,
    "phd": 7359,
    "percent": 7360,
    "pent@@": 7361,
    "particip@@": 7362,
    "package": 7363,
    "overwhel@@": 7364,
    "nose": 7365,
    "mirror": 7366,
    "manhattan": 7367,
    "lion@@": 7368,
    "lear@@": 7369,
    "killer": 7370,
    "izes": 7371,
    "itting": 7372,
    "issance": 7373,
    "invited": 7374,
    "hurst": 7375,
    "hello": 7376,
    "gib@@": 7377,
    "formations": 7378,
    "flat@@": 7379,
    "finnish": 7380,
    "finding": 7381,
    "experiment": 7382,
    "erie": 7383,
    "drunk": 7384,
    "dit@@": 7385,
    "dishes": 7386,
    "dict@@": 7387,
    "denmark": 7388,
    "delic@@": 7389,
    "coverage": 7390,
    "contested": 7391,
    "coc@@": 7392,
    "celebration": 7393,
    "causing": 7394,
    "cauc@@": 7395,
    "carl": 7396,
    "byz@@": 7397,
    "breath": 7398,
    "blue@@": 7399,
    "badly": 7400,
    "ax": 7401,
    "arly": 7402,
    "arg@@": 7403,
    "acclaim": 7404,
    "underneath": 7405,
    "trailer": 7406,
    "topolo@@": 7407,
    "toll": 7408,
    "talks": 7409,
    "system@@": 7410,
    "surely": 7411,
    "sung": 7412,
    "summer@@": 7413,
    "substan@@": 7414,
    "subsidiary": 7415,
    "stol@@": 7416,
    "stewart": 7417,
    "stanley": 7418,
    "spots": 7419,
    "sponsored": 7420,
    "sie": 7421,
    "scienti@@": 7422,
    "scattered": 7423,
    "salmon": 7424,
    "renowned": 7425,
    "raw": 7426,
    "promin@@": 7427,
    "phi@@": 7428,
    "penny": 7429,
    "paved": 7430,
    "pale": 7431,
    "ottawa": 7432,
    "ornam@@": 7433,
    "orm@@": 7434,
    "ori": 7435,
    "ophy@@": 7436,
    "mythology": 7437,
    "muslims": 7438,
    "muscle": 7439,
    "moscow": 7440,
    "mic": 7441,
    "mates": 7442,
    "marshall": 7443,
    "longterm": 7444,
    "lodge": 7445,
    "likewise": 7446,
    "laugh": 7447,
    "kenne@@": 7448,
    "juice": 7449,
    "isolated": 7450,
    "interviews": 7451,
    "intelligent": 7452,
    "ino@@": 7453,
    "ich@@": 7454,
    "hydrogen": 7455,
    "hungry": 7456,
    "heim@@": 7457,
    "gical": 7458,
    "flags": 7459,
    "fi": 7460,
    "favor": 7461,
    "explic@@": 7462,
    "email": 7463,
    "drawings": 7464,
    "dragon": 7465,
    "draft": 7466,
    "divorce": 7467,
    "distingu@@": 7468,
    "depth": 7469,
    "definitely": 7470,
    "darling": 7471,
    "councill@@": 7472,
    "consequence": 7473,
    "con": 7474,
    "commu@@": 7475,
    "clinton": 7476,
    "church@@": 7477,
    "charlo@@": 7478,
    "chand@@": 7479,
    "cancelled": 7480,
    "caes@@": 7481,
    "bowling": 7482,
    "avoided": 7483,
    "attribu@@": 7484,
    "approxim@@": 7485,
    "alling": 7486,
    "aimed": 7487,
    "aga@@": 7488,
    "afterward": 7489,
    "aes@@": 7490,
    "advocate": 7491,
    "adequ@@": 7492,
    "achiev@@": 7493,
    "zy": 7494,
    "wild@@": 7495,
    "voiced": 7496,
    "vital": 7497,
    "ulate": 7498,
    "tv": 7499,
    "tup": 7500,
    "tigh@@": 7501,
    "thirty@@": 7502,
    "tham": 7503,
    "teaches": 7504,
    "tari@@": 7505,
    "sworth": 7506,
    "susan": 7507,
    "strugg@@": 7508,
    "strings": 7509,
    "sri": 7510,
    "sole": 7511,
    "sized": 7512,
    "seated": 7513,
    "saw@@": 7514,
    "roller": 7515,
    "respected": 7516,
    "replic@@": 7517,
    "protein": 7518,
    "programmes": 7519,
    "profit": 7520,
    "prin@@": 7521,
    "pride": 7522,
    "polic@@": 7523,
    "ply": 7524,
    "pep@@": 7525,
    "patrol": 7526,
    "parad@@": 7527,
    "ousness": 7528,
    "operators": 7529,
    "ongoing": 7530,
    "oce@@": 7531,
    "necessarily": 7532,
    "murdered": 7533,
    "mort@@": 7534,
    "meo": 7535,
    "mansion": 7536,
    "makers": 7537,
    "mainstream": 7538,
    "lining": 7539,
    "lind@@": 7540,
    "itations": 7541,
    "ital@@": 7542,
    "interpretation": 7543,
    "instructions": 7544,
    "instruction": 7545,
    "inherited": 7546,
    "illu@@": 7547,
    "iding": 7548,
    "icing": 7549,
    "guar@@": 7550,
    "gae": 7551,
    "furniture": 7552,
    "exten@@": 7553,
    "expec@@": 7554,
    "enth": 7555,
    "ems": 7556,
    "eff@@": 7557,
    "distur@@": 7558,
    "discuss": 7559,
    "depos@@": 7560,
    "denom@@": 7561,
    "deleg@@": 7562,
    "daylight": 7563,
    "dant": 7564,
    "corrid@@": 7565,
    "contribute": 7566,
    "conte@@": 7567,
    "compounds": 7568,
    "complicated": 7569,
    "cog@@": 7570,
    "coff@@": 7571,
    "christians": 7572,
    "buffalo": 7573,
    "boots": 7574,
    "bent": 7575,
    "benefits": 7576,
    "beneath": 7577,
    "belonged": 7578,
    "baltimore": 7579,
    "aver@@": 7580,
    "auth@@": 7581,
    "athe@@": 7582,
    "appren@@": 7583,
    "ance@@": 7584,
    "alike": 7585,
    "advant@@": 7586,
    "admiral": 7587,
    "add@@": 7588,
    "winters": 7589,
    "waste": 7590,
    "volleyball": 7591,
    "vocal": 7592,
    "vice@@": 7593,
    "varying": 7594,
    "valu@@": 7595,
    "tu": 7596,
    "till": 7597,
    "thanks": 7598,
    "tested": 7599,
    "tenure": 7600,
    "synon@@": 7601,
    "syndic@@": 7602,
    "sympa@@": 7603,
    "som": 7604,
    "sigh@@": 7605,
    "sensitive": 7606,
    "scales": 7607,
    "scal@@": 7608,
    "respond": 7609,
    "repeatedly": 7610,
    "rena@@": 7611,
    "refuge": 7612,
    "ree": 7613,
    "ranks": 7614,
    "public@@": 7615,
    "polis": 7616,
    "phal@@": 7617,
    "particles": 7618,
    "parker": 7619,
    "ound@@": 7620,
    "obviously": 7621,
    "obtain": 7622,
    "neg@@": 7623,
    "natur@@": 7624,
    "monastery": 7625,
    "mile": 7626,
    "mete@@": 7627,
    "matrix": 7628,
    "manufacturer": 7629,
    "loo": 7630,
    "logic": 7631,
    "jeanne": 7632,
    "irrit@@": 7633,
    "infer@@": 7634,
    "inde@@": 7635,
    "hung": 7636,
    "holland": 7637,
    "graphs": 7638,
    "goal@@": 7639,
    "ghost": 7640,
    "gender": 7641,
    "foods": 7642,
    "flies": 7643,
    "festivals": 7644,
    "fee": 7645,
    "esis": 7646,
    "epi@@": 7647,
    "emen": 7648,
    "ector": 7649,
    "dolph@@": 7650,
    "disney": 7651,
    "departure": 7652,
    "demolished": 7653,
    "darker": 7654,
    "copper": 7655,
    "cere@@": 7656,
    "ceased": 7657,
    "catherine": 7658,
    "cataly@@": 7659,
    "businessman": 7660,
    "brilliant": 7661,
    "breaking": 7662,
    "bre": 7663,
    "beta": 7664,
    "belongs": 7665,
    "aters": 7666,
    "astr@@": 7667,
    "assem@@": 7668,
    "asks": 7669,
    "arri@@": 7670,
    "amphi@@": 7671,
    "alizing": 7672,
    "adele": 7673,
    "accomplished": 7674,
    "woodland": 7675,
    "wears": 7676,
    "visions": 7677,
    "victims": 7678,
    "venture": 7679,
    "vege@@": 7680,
    "vancouver": 7681,
    "ttes": 7682,
    "tric": 7683,
    "tributary": 7684,
    "tribes": 7685,
    "traveling": 7686,
    "touring": 7687,
    "tiv@@": 7688,
    "summers": 7689,
    "streams": 7690,
    "sporting": 7691,
    "spare": 7692,
    "sleep@@": 7693,
    "secured": 7694,
    "schemes": 7695,
    "scarecrow": 7696,
    "sail": 7697,
    "rupt": 7698,
    "rub@@": 7699,
    "reti@@": 7700,
    "proposals": 7701,
    "professionals": 7702,
    "preserve": 7703,
    "preced@@": 7704,
    "pray": 7705,
    "planted": 7706,
    "plains": 7707,
    "pillar": 7708,
    "pile": 7709,
    "personally": 7710,
    "panel": 7711,
    "oriented": 7712,
    "objective": 7713,
    "nurse": 7714,
    "nonetheless": 7715,
    "need@@": 7716,
    "midd@@": 7717,
    "mar": 7718,
    "licen@@": 7719,
    "larg@@": 7720,
    "ku": 7721,
    "kit": 7722,
    "isation": 7723,
    "isa@@": 7724,
    "involvement": 7725,
    "involve": 7726,
    "imagine": 7727,
    "ided": 7728,
    "hybri@@": 7729,
    "hurricane": 7730,
    "hugh@@": 7731,
    "honors": 7732,
    "hn": 7733,
    "griff@@": 7734,
    "gordon": 7735,
    "gloves": 7736,
    "gentlemen": 7737,
    "gage": 7738,
    "functional": 7739,
    "fried@@": 7740,
    "fool@@": 7741,
    "finland": 7742,
    "filter": 7743,
    "favour": 7744,
    "eye@@": 7745,
    "ete": 7746,
    "dying": 7747,
    "dwar@@": 7748,
    "diameter": 7749,
    "deno@@": 7750,
    "delaware": 7751,
    "cz@@": 7752,
    "cultivated": 7753,
    "corpor@@": 7754,
    "coinci@@": 7755,
    "circles": 7756,
    "cia": 7757,
    "campbell": 7758,
    "burn@@": 7759,
    "bic@@": 7760,
    "bbing": 7761,
    "battles": 7762,
    "basket": 7763,
    "banned": 7764,
    "approval": 7765,
    "apor@@": 7766,
    "anni@@": 7767,
    "ange": 7768,
    "ands": 7769,
    "anamerican": 7770,
    "amus@@": 7771,
    "amounts": 7772,
    "altered": 7773,
    "alli@@": 7774,
    "absence": 7775,
    "yor@@": 7776,
    "ya@@": 7777,
    "volunteers": 7778,
    "villa": 7779,
    "valid": 7780,
    "unk": 7781,
    "trun@@": 7782,
    "truc@@": 7783,
    "trol@@": 7784,
    "tricks": 7785,
    "tioning": 7786,
    "terry": 7787,
    "taxes": 7788,
    "succession": 7789,
    "stared": 7790,
    "spelling": 7791,
    "spell": 7792,
    "sour@@": 7793,
    "somer@@": 7794,
    "slaves": 7795,
    "shipping": 7796,
    "roll@@": 7797,
    "roberts": 7798,
    "rival": 7799,
    "rises": 7800,
    "rhe@@": 7801,
    "regardless": 7802,
    "reflect": 7803,
    "receiving": 7804,
    "quietly": 7805,
    "pursu@@": 7806,
    "prove": 7807,
    "proceeded": 7808,
    "prey": 7809,
    "pipe": 7810,
    "oxygen": 7811,
    "owed": 7812,
    "orchestr@@": 7813,
    "ogi@@": 7814,
    "nutri@@": 7815,
    "narrow@@": 7816,
    "more@@": 7817,
    "modern@@": 7818,
    "loan": 7819,
    "liv@@": 7820,
    "lions": 7821,
    "lex@@": 7822,
    "leng@@": 7823,
    "leban@@": 7824,
    "lar": 7825,
    "jor@@": 7826,
    "involving": 7827,
    "introduc@@": 7828,
    "intermediate": 7829,
    "inlaw": 7830,
    "infr@@": 7831,
    "indonesia": 7832,
    "individu@@": 7833,
    "illness": 7834,
    "horizon@@": 7835,
    "holes": 7836,
    "helping": 7837,
    "hay": 7838,
    "gym": 7839,
    "grim@@": 7840,
    "gathering": 7841,
    "freight": 7842,
    "forcement": 7843,
    "fold": 7844,
    "flooding": 7845,
    "farmer": 7846,
    "experim@@": 7847,
    "exile": 7848,
    "exception": 7849,
    "eum": 7850,
    "establ@@": 7851,
    "engineers": 7852,
    "ellor": 7853,
    "edu@@": 7854,
    "donated": 7855,
    "diversity": 7856,
    "define": 7857,
    "crystal": 7858,
    "corresponding": 7859,
    "copyright": 7860,
    "cooper": 7861,
    "conven@@": 7862,
    "contribution": 7863,
    "compositions": 7864,
    "competitive": 7865,
    "commune": 7866,
    "commissioner": 7867,
    "commanded": 7868,
    "chlor@@": 7869,
    "chen": 7870,
    "celebrated": 7871,
    "carol": 7872,
    "bucket": 7873,
    "boul@@": 7874,
    "bordered": 7875,
    "blame": 7876,
    "bition": 7877,
    "bat": 7878,
    "barbara": 7879,
    "bam@@": 7880,
    "baker": 7881,
    "bach": 7882,
    "athle@@": 7883,
    "arise": 7884,
    "archae@@": 7885,
    "antine": 7886,
    "amer@@": 7887,
    "alizes": 7888,
    "agrees": 7889,
    "aero@@": 7890,
    "wound": 7891,
    "worry": 7892,
    "witn@@": 7893,
    "wednesday": 7894,
    "warren": 7895,
    "vulner@@": 7896,
    "victim": 7897,
    "uma": 7898,
    "ults": 7899,
    "ultimate": 7900,
    "totally": 7901,
    "tled": 7902,
    "tiveness": 7903,
    "temperate": 7904,
    "swam@@": 7905,
    "step@@": 7906,
    "sson": 7907,
    "squad@@": 7908,
    "simultaneously": 7909,
    "rif@@": 7910,
    "respectively": 7911,
    "reside": 7912,
    "remov@@": 7913,
    "regard": 7914,
    "refin@@": 7915,
    "rating": 7916,
    "railways": 7917,
    "quantum": 7918,
    "pts": 7919,
    "proteins": 7920,
    "prop@@": 7921,
    "printing": 7922,
    "pope": 7923,
    "pointed": 7924,
    "phoen@@": 7925,
    "persu@@": 7926,
    "persi@@": 7927,
    "patent": 7928,
    "pairs": 7929,
    "oming": 7930,
    "nuts": 7931,
    "numbered": 7932,
    "nevada": 7933,
    "modu@@": 7934,
    "mechanisms": 7935,
    "kinds": 7936,
    "kab@@": 7937,
    "jar@@": 7938,
    "islam": 7939,
    "instant": 7940,
    "inal": 7941,
    "iders": 7942,
    "ida": 7943,
    "humanity": 7944,
    "guided": 7945,
    "grey@@": 7946,
    "graded": 7947,
    "gover@@": 7948,
    "ggy": 7949,
    "gel@@": 7950,
    "gang@@": 7951,
    "frederick": 7952,
    "fis@@": 7953,
    "excited": 7954,
    "essions": 7955,
    "eo@@": 7956,
    "dream@@": 7957,
    "disorder": 7958,
    "desig@@": 7959,
    "density": 7960,
    "democracy": 7961,
    "dav@@": 7962,
    "dad": 7963,
    "crazy": 7964,
    "collins": 7965,
    "client": 7966,
    "civic": 7967,
    "chambers": 7968,
    "cardinal": 7969,
    "buck@@": 7970,
    "blow@@": 7971,
    "binary": 7972,
    "believ@@": 7973,
    "banking": 7974,
    "arsen@@": 7975,
    "argentina": 7976,
    "anticip@@": 7977,
    "answ@@": 7978,
    "alberta": 7979,
    "alaska": 7980,
    "admir@@": 7981,
    "wisdom": 7982,
    "winnipeg": 7983,
    "westminster": 7984,
    "wester@@": 7985,
    "wash": 7986,
    "wai@@": 7987,
    "voyage": 7988,
    "uous": 7989,
    "towers": 7990,
    "topic": 7991,
    "too@@": 7992,
    "tine": 7993,
    "ticul@@": 7994,
    "tica": 7995,
    "throne": 7996,
    "terrain": 7997,
    "tension": 7998,
    "tended": 7999,
    "temperatures": 8000,
    "telescope": 8001,
    "supervis@@": 8002,
    "suffer": 8003,
    "structural": 8004,
    "stration": 8005,
    "stom@@": 8006,
    "stead@@": 8007,
    "sper@@": 8008,
    "southeastern": 8009,
    "smar@@": 8010,
    "signals": 8011,
    "shri@@": 8012,
    "shortlived": 8013,
    "shoo@@": 8014,
    "shift": 8015,
    "sham@@": 8016,
    "semic@@": 8017,
    "seal": 8018,
    "scor@@": 8019,
    "saints": 8020,
    "roe": 8021,
    "rifl@@": 8022,
    "revenge": 8023,
    "rev@@": 8024,
    "restoration": 8025,
    "rescu@@": 8026,
    "remo@@": 8027,
    "radar": 8028,
    "rabb@@": 8029,
    "producers": 8030,
    "prisoner": 8031,
    "pike": 8032,
    "pets": 8033,
    "other@@": 8034,
    "opponent": 8035,
    "oo": 8036,
    "onau@@": 8037,
    "offering": 8038,
    "northeastern": 8039,
    "mund": 8040,
    "modes": 8041,
    "millions": 8042,
    "maur@@": 8043,
    "manu@@": 8044,
    "lied": 8045,
    "lain": 8046,
    "lab": 8047,
    "kom@@": 8048,
    "jus@@": 8049,
    "jag@@": 8050,
    "ission": 8051,
    "induc@@": 8052,
    "idation": 8053,
    "gram": 8054,
    "forty": 8055,
    "fisher@@": 8056,
    "finger": 8057,
    "fighters": 8058,
    "fas@@": 8059,
    "eves": 8060,
    "escal@@": 8061,
    "encer": 8062,
    "domes@@": 8063,
    "discipl@@": 8064,
    "difficulties": 8065,
    "dies@@": 8066,
    "delayed": 8067,
    "daugh@@": 8068,
    "datab@@": 8069,
    "dag@@": 8070,
    "custom": 8071,
    "cultures": 8072,
    "cryp@@": 8073,
    "costumes": 8074,
    "civil@@": 8075,
    "cincinnati": 8076,
    "cho": 8077,
    "centres": 8078,
    "centered": 8079,
    "celtic": 8080,
    "carter": 8081,
    "bush@@": 8082,
    "bourg": 8083,
    "bonus": 8084,
    "bitter": 8085,
    "belong": 8086,
    "bearded": 8087,
    "ati": 8088,
    "assembled": 8089,
    "alex": 8090,
    "agre@@": 8091,
    "affect": 8092,
    "accurate": 8093,
    "abled": 8094,
    "yi@@": 8095,
    "vietnam": 8096,
    "victor": 8097,
    "vector": 8098,
    "underwent": 8099,
    "tough": 8100,
    "torate": 8101,
    "theology": 8102,
    "tarian": 8103,
    "tanks": 8104,
    "symbols": 8105,
    "susta@@": 8106,
    "statements": 8107,
    "staring": 8108,
    "spin": 8109,
    "specim@@": 8110,
    "smell": 8111,
    "shoots": 8112,
    "sells": 8113,
    "scrat@@": 8114,
    "scoring": 8115,
    "sbury": 8116,
    "sacrifice": 8117,
    "ryan": 8118,
    "robinson": 8119,
    "revised": 8120,
    "repor@@": 8121,
    "repa@@": 8122,
    "pursued": 8123,
    "princip@@": 8124,
    "predecessor": 8125,
    "prayer": 8126,
    "pois@@": 8127,
    "perspective": 8128,
    "permanently": 8129,
    "parked": 8130,
    "panic": 8131,
    "pages": 8132,
    "oxide": 8133,
    "opo@@": 8134,
    "opens": 8135,
    "notor@@": 8136,
    "nerve": 8137,
    "neighboring": 8138,
    "montana": 8139,
    "minimum": 8140,
    "metro@@": 8141,
    "mediterranean": 8142,
    "limestone": 8143,
    "lighted": 8144,
    "kr@@": 8145,
    "knocked": 8146,
    "kim": 8147,
    "jail": 8148,
    "itory": 8149,
    "iser": 8150,
    "impressed": 8151,
    "iety": 8152,
    "gymnas@@": 8153,
    "grain": 8154,
    "goose": 8155,
    "gameplay": 8156,
    "fordshire": 8157,
    "ford@@": 8158,
    "five@@": 8159,
    "faith@@": 8160,
    "explosion": 8161,
    "explains": 8162,
    "evacu@@": 8163,
    "ener@@": 8164,
    "ende@@": 8165,
    "dissolved": 8166,
    "danish": 8167,
    "crit@@": 8168,
    "cric@@": 8169,
    "creatures": 8170,
    "conspir@@": 8171,
    "compact": 8172,
    "collapsed": 8173,
    "caval@@": 8174,
    "bye": 8175,
    "buddhist": 8176,
    "bias": 8177,
    "bei@@": 8178,
    "banded": 8179,
    "autonomous": 8180,
    "aus": 8181,
    "athletes": 8182,
    "architects": 8183,
    "ampton": 8184,
    "ambass@@": 8185,
    "altogether": 8186,
    "aim@@": 8187,
    "admit": 8188,
    "actively": 8189,
    "abundant": 8190,
    "yiel@@": 8191,
    "yellow@@": 8192,
    "xed": 8193,
    "ware@@": 8194,
    "vocalist": 8195,
    "twel@@": 8196,
    "tton": 8197,
    "tribute": 8198,
    "torpe@@": 8199,
    "threat": 8200,
    "surfing": 8201,
    "strategic": 8202,
    "storms": 8203,
    "static": 8204,
    "spelled": 8205,
    "specified": 8206,
    "sophi@@": 8207,
    "slave": 8208,
    "sland": 8209,
    "shou@@": 8210,
    "shots": 8211,
    "sett": 8212,
    "select": 8213,
    "schu@@": 8214,
    "saving": 8215,
    "sample": 8216,
    "salad": 8217,
    "sake": 8218,
    "runners": 8219,
    "rob": 8220,
    "ret@@": 8221,
    "rest@@": 8222,
    "reluc@@": 8223,
    "recomm@@": 8224,
    "receives": 8225,
    "readily": 8226,
    "rar@@": 8227,
    "punc@@": 8228,
    "programm@@": 8229,
    "precise": 8230,
    "politan": 8231,
    "pleased": 8232,
    "physi@@": 8233,
    "pet@@": 8234,
    "performers": 8235,
    "penalty": 8236,
    "panels": 8237,
    "pac@@": 8238,
    "oul": 8239,
    "oa": 8240,
    "neutr@@": 8241,
    "net@@": 8242,
    "nan": 8243,
    "mitchell": 8244,
    "metal@@": 8245,
    "manual": 8246,
    "mainland": 8247,
    "live@@": 8248,
    "listened": 8249,
    "lisa": 8250,
    "lifel@@": 8251,
    "judges": 8252,
    "jonathan": 8253,
    "jeff": 8254,
    "jas@@": 8255,
    "iss": 8256,
    "isms": 8257,
    "intention": 8258,
    "indicates": 8259,
    "incre@@": 8260,
    "immun@@": 8261,
    "ignored": 8262,
    "hungarian": 8263,
    "hoods": 8264,
    "hollow": 8265,
    "holidays": 8266,
    "holders": 8267,
    "hell@@": 8268,
    "heaven": 8269,
    "handed": 8270,
    "hampton": 8271,
    "grocer@@": 8272,
    "grades": 8273,
    "gir@@": 8274,
    "ggling": 8275,
    "gerald": 8276,
    "freezing": 8277,
    "frac@@": 8278,
    "founders": 8279,
    "encom@@": 8280,
    "employers": 8281,
    "drow@@": 8282,
    "dread@@": 8283,
    "double@@": 8284,
    "doctors": 8285,
    "dians": 8286,
    "designation": 8287,
    "deplo@@": 8288,
    "dennis": 8289,
    "convinced": 8290,
    "consecutive": 8291,
    "configuration": 8292,
    "compati@@": 8293,
    "collecting": 8294,
    "coalition": 8295,
    "chu@@": 8296,
    "chers": 8297,
    "cathol@@": 8298,
    "carved": 8299,
    "bottle": 8300,
    "bold": 8301,
    "bli@@": 8302,
    "berg@@": 8303,
    "beck": 8304,
    "bart": 8305,
    "ballet": 8306,
    "balcon@@": 8307,
    "atus": 8308,
    "ater@@": 8309,
    "assault": 8310,
    "anten@@": 8311,
    "ampli@@": 8312,
    "alfred": 8313,
    "zer@@": 8314,
    "wider": 8315,
    "votes": 8316,
    "volumes": 8317,
    "vincent": 8318,
    "vial": 8319,
    "vast": 8320,
    "transformed": 8321,
    "suspension": 8322,
    "sumed": 8323,
    "suburban": 8324,
    "stir@@": 8325,
    "stern": 8326,
    "steam@@": 8327,
    "stant": 8328,
    "sni@@": 8329,
    "situations": 8330,
    "shoe": 8331,
    "shelter": 8332,
    "settle": 8333,
    "servant": 8334,
    "satisfied": 8335,
    "ricul@@": 8336,
    "representing": 8337,
    "repaired": 8338,
    "refuses": 8339,
    "refugees": 8340,
    "recognised": 8341,
    "rabbit": 8342,
    "pson": 8343,
    "procedure": 8344,
    "present@@": 8345,
    "plain@@": 8346,
    "pharmac@@": 8347,
    "perry": 8348,
    "peoples": 8349,
    "partic@@": 8350,
    "parame@@": 8351,
    "overnight": 8352,
    "oppon@@": 8353,
    "ope": 8354,
    "nol@@": 8355,
    "nex@@": 8356,
    "nem@@": 8357,
    "neil": 8358,
    "navig@@": 8359,
    "naked": 8360,
    "morgan": 8361,
    "marie": 8362,
    "marath@@": 8363,
    "managing": 8364,
    "make@@": 8365,
    "louis@@": 8366,
    "len": 8367,
    "leis@@": 8368,
    "legacy": 8369,
    "ital": 8370,
    "interface": 8371,
    "iner@@": 8372,
    "improvements": 8373,
    "illi@@": 8374,
    "hotels": 8375,
    "him@@": 8376,
    "hen": 8377,
    "hammer": 8378,
    "germans": 8379,
    "gel": 8380,
    "gear@@": 8381,
    "frame@@": 8382,
    "feed@@": 8383,
    "fear@@": 8384,
    "fant@@": 8385,
    "familiar": 8386,
    "faction": 8387,
    "etry": 8388,
    "eth": 8389,
    "ento": 8390,
    "dus@@": 8391,
    "draws": 8392,
    "draw@@": 8393,
    "deposits": 8394,
    "conversion": 8395,
    "conv@@": 8396,
    "conflicts": 8397,
    "completion": 8398,
    "clists": 8399,
    "civilian": 8400,
    "churchill": 8401,
    "cely": 8402,
    "canoe": 8403,
    "camping": 8404,
    "burial": 8405,
    "brigade": 8406,
    "brazilian": 8407,
    "bore": 8408,
    "bious": 8409,
    "biological": 8410,
    "bid@@": 8411,
    "authored": 8412,
    "anth@@": 8413,
    "aga": 8414,
    "admission": 8415,
    "ade@@": 8416,
    "xon": 8417,
    "widow": 8418,
    "wheat": 8419,
    "unt": 8420,
    "trace": 8421,
    "toral": 8422,
    "tomb": 8423,
    "thunder@@": 8424,
    "thered": 8425,
    "teamm@@": 8426,
    "survey": 8427,
    "sound@@": 8428,
    "sors": 8429,
    "soph@@": 8430,
    "slu@@": 8431,
    "siege": 8432,
    "settings": 8433,
    "seed": 8434,
    "saskat@@": 8435,
    "riders": 8436,
    "replac@@": 8437,
    "radical": 8438,
    "puts": 8439,
    "publishes": 8440,
    "prosecu@@": 8441,
    "prison@@": 8442,
    "prints": 8443,
    "precipit@@": 8444,
    "polo": 8445,
    "photos": 8446,
    "photograph@@": 8447,
    "philosoph@@": 8448,
    "pers@@": 8449,
    "oria": 8450,
    "obvious": 8451,
    "nodded": 8452,
    "nets": 8453,
    "must@@": 8454,
    "murder@@": 8455,
    "monster": 8456,
    "mercur@@": 8457,
    "mamm@@": 8458,
    "mam@@": 8459,
    "locomotive": 8460,
    "locals": 8461,
    "ll@@": 8462,
    "kha@@": 8463,
    "jon@@": 8464,
    "jon": 8465,
    "jing": 8466,
    "itter": 8467,
    "iraq": 8468,
    "initiated": 8469,
    "inher@@": 8470,
    "independently": 8471,
    "humid": 8472,
    "hop": 8473,
    "hob@@": 8474,
    "headache": 8475,
    "guaran@@": 8476,
    "globe": 8477,
    "gat@@": 8478,
    "forgive": 8479,
    "ested": 8480,
    "equation": 8481,
    "eness": 8482,
    "easter": 8483,
    "discipline": 8484,
    "developer": 8485,
    "devast@@": 8486,
    "desire": 8487,
    "deo": 8488,
    "denti@@": 8489,
    "cryst@@": 8490,
    "cruc@@": 8491,
    "conferences": 8492,
    "columns": 8493,
    "colli@@": 8494,
    "chin": 8495,
    "ches@@": 8496,
    "certific@@": 8497,
    "cellphone": 8498,
    "casualties": 8499,
    "carrier": 8500,
    "brings": 8501,
    "brea@@": 8502,
    "bot": 8503,
    "bon": 8504,
    "belong@@": 8505,
    "battali@@": 8506,
    "awak@@": 8507,
    "assur@@": 8508,
    "artillery": 8509,
    "aring": 8510,
    "anyway": 8511,
    "adol@@": 8512,
    "acqua@@": 8513,
    "achi@@": 8514,
    "'": 8515,
    "winds": 8516,
    "wet@@": 8517,
    "wayne": 8518,
    "volcanic": 8519,
    "virus": 8520,
    "vene@@": 8521,
    "unes": 8522,
    "turb@@": 8523,
    "tre": 8524,
    "transition": 8525,
    "timing": 8526,
    "thursday": 8527,
    "thinks": 8528,
    "territorial": 8529,
    "synthesis": 8530,
    "stopping": 8531,
    "stimul@@": 8532,
    "sticks": 8533,
    "smen": 8534,
    "sin": 8535,
    "simul@@": 8536,
    "shade": 8537,
    "severely": 8538,
    "seconds": 8539,
    "scholarship": 8540,
    "retiring": 8541,
    "regret": 8542,
    "reduction": 8543,
    "recommend": 8544,
    "radiation": 8545,
    "push": 8546,
    "protestant": 8547,
    "productive": 8548,
    "presum@@": 8549,
    "presidential": 8550,
    "presently": 8551,
    "presby@@": 8552,
    "predomin@@": 8553,
    "plex@@": 8554,
    "peas@@": 8555,
    "ouring": 8556,
    "olic": 8557,
    "oba": 8558,
    "oakland": 8559,
    "neutral": 8560,
    "nels": 8561,
    "monit@@": 8562,
    "mi": 8563,
    "metr@@": 8564,
    "methodist": 8565,
    "mers": 8566,
    "mel": 8567,
    "matt": 8568,
    "mania": 8569,
    "machin@@": 8570,
    "linda": 8571,
    "lighthouse": 8572,
    "licence": 8573,
    "legendary": 8574,
    "lang@@": 8575,
    "landscap@@": 8576,
    "kelly": 8577,
    "kate": 8578,
    "jumper": 8579,
    "inland": 8580,
    "infection": 8581,
    "ign": 8582,
    "hir@@": 8583,
    "hearing": 8584,
    "hawk": 8585,
    "gus@@": 8586,
    "gras@@": 8587,
    "gon": 8588,
    "gle": 8589,
    "gill": 8590,
    "geography": 8591,
    "geable": 8592,
    "galax@@": 8593,
    "foster": 8594,
    "fli@@": 8595,
    "feels": 8596,
    "favorable": 8597,
    "fabric@@": 8598,
    "fabric": 8599,
    "eze": 8600,
    "exhibitions": 8601,
    "eved": 8602,
    "establish": 8603,
    "escor@@": 8604,
    "errors": 8605,
    "english@@": 8606,
    "emphasis": 8607,
    "diving": 8608,
    "diabe@@": 8609,
    "curve": 8610,
    "crop": 8611,
    "concluded": 8612,
    "concentr@@": 8613,
    "comments": 8614,
    "clerk": 8615,
    "chapters": 8616,
    "challenges": 8617,
    "cep@@": 8618,
    "categor@@": 8619,
    "bred": 8620,
    "brands": 8621,
    "bottles": 8622,
    "botan@@": 8623,
    "bery": 8624,
    "bend": 8625,
    "belief": 8626,
    "aving": 8627,
    "austrian": 8628,
    "arrest": 8629,
    "arguments": 8630,
    "apped": 8631,
    "apparent": 8632,
    "apartment": 8633,
    "antry": 8634,
    "alb@@": 8635,
    "abraham": 8636,
    "aboard": 8637,
    "zam@@": 8638,
    "yours": 8639,
    "yan": 8640,
    "wires": 8641,
    "wau@@": 8642,
    "vo": 8643,
    "visits": 8644,
    "veterans": 8645,
    "vegetable": 8646,
    "uss": 8647,
    "tuc@@": 8648,
    "trout": 8649,
    "tress": 8650,
    "tons": 8651,
    "tice": 8652,
    "ticated": 8653,
    "theses": 8654,
    "strate": 8655,
    "strat@@": 8656,
    "sphere": 8657,
    "solu@@": 8658,
    "snakes": 8659,
    "smart": 8660,
    "sk": 8661,
    "sizes": 8662,
    "sfield": 8663,
    "sed@@": 8664,
    "scores": 8665,
    "sacred": 8666,
    "ribb@@": 8667,
    "rian": 8668,
    "reporter": 8669,
    "recycl@@": 8670,
    "reconc@@": 8671,
    "ranch": 8672,
    "promising": 8673,
    "pretend": 8674,
    "pots": 8675,
    "poorly": 8676,
    "pointing": 8677,
    "plantation": 8678,
    "pal": 8679,
    "orbit": 8680,
    "ooth": 8681,
    "nova": 8682,
    "notice@@": 8683,
    "nonprofit": 8684,
    "nev@@": 8685,
    "mud": 8686,
    "mrs": 8687,
    "molecular": 8688,
    "mint": 8689,
    "metap@@": 8690,
    "mask": 8691,
    "maced@@": 8692,
    "leys": 8693,
    "lang": 8694,
    "kov": 8695,
    "jose@@": 8696,
    "jap@@": 8697,
    "itly": 8698,
    "itate": 8699,
    "inium": 8700,
    "influ@@": 8701,
    "ima": 8702,
    "ials": 8703,
    "grandmother": 8704,
    "graffiti": 8705,
    "godd@@": 8706,
    "gic": 8707,
    "gian": 8708,
    "gauge": 8709,
    "gains": 8710,
    "fluid": 8711,
    "feder@@": 8712,
    "exerc@@": 8713,
    "eur@@": 8714,
    "eted": 8715,
    "endem@@": 8716,
    "elli@@": 8717,
    "eck": 8718,
    "dozens": 8719,
    "deployed": 8720,
    "depar@@": 8721,
    "demo@@": 8722,
    "deliber@@": 8723,
    "decides": 8724,
    "cuis@@": 8725,
    "crest": 8726,
    "cowboy": 8727,
    "consequences": 8728,
    "conclusion": 8729,
    "concentration": 8730,
    "complic@@": 8731,
    "commerci@@": 8732,
    "cloth": 8733,
    "circus": 8734,
    "circum@@": 8735,
    "cies": 8736,
    "chorus": 8737,
    "cheap": 8738,
    "caribbean": 8739,
    "brass": 8740,
    "bomb": 8741,
    "blow": 8742,
    "bigger": 8743,
    "belgian": 8744,
    "bearing": 8745,
    "beam": 8746,
    "barely": 8747,
    "backing": 8748,
    "aver": 8749,
    "aven@@": 8750,
    "automob@@": 8751,
    "archbishop": 8752,
    "apol@@": 8753,
    "aph@@": 8754,
    "anglic@@": 8755,
    "anci@@": 8756,
    "ailed": 8757,
    "afghanistan": 8758,
    "administrator": 8759,
    "adic@@": 8760,
    "acquisition": 8761,
    "achievement": 8762,
    "accur@@": 8763,
    "zard": 8764,
    "wealthy": 8765,
    "vermont": 8766,
    "venice": 8767,
    "vacu@@": 8768,
    "uri": 8769,
    "ulous": 8770,
    "twit@@": 8771,
    "tues@@": 8772,
    "tto": 8773,
    "trick@@": 8774,
    "trials": 8775,
    "tney": 8776,
    "thermal": 8777,
    "terror@@": 8778,
    "tears": 8779,
    "switched": 8780,
    "sweep@@": 8781,
    "sustained": 8782,
    "survives": 8783,
    "stem": 8784,
    "spect@@": 8785,
    "soup": 8786,
    "songwriter": 8787,
    "small@@": 8788,
    "scot@@": 8789,
    "sailed": 8790,
    "rum": 8791,
    "restrictions": 8792,
    "resolved": 8793,
    "realized": 8794,
    "readers": 8795,
    "rant": 8796,
    "rangers": 8797,
    "pulse": 8798,
    "pty": 8799,
    "providing": 8800,
    "prised": 8801,
    "pottery": 8802,
    "postal": 8803,
    "pollution": 8804,
    "po": 8805,
    "pill@@": 8806,
    "philipp@@": 8807,
    "peaceful": 8808,
    "participation": 8809,
    "parent": 8810,
    "organisations": 8811,
    "optical": 8812,
    "nel@@": 8813,
    "napole@@": 8814,
    "nak@@": 8815,
    "myster@@": 8816,
    "muhammad": 8817,
    "ministers": 8818,
    "mili@@": 8819,
    "mented": 8820,
    "maxim@@": 8821,
    "marines": 8822,
    "manag@@": 8823,
    "lover": 8824,
    "leicester": 8825,
    "laura": 8826,
    "labels": 8827,
    "kan": 8828,
    "ition": 8829,
    "initiative": 8830,
    "inhi@@": 8831,
    "immer@@": 8832,
    "igned": 8833,
    "hungary": 8834,
    "hudson": 8835,
    "hometown": 8836,
    "hip@@": 8837,
    "herbert": 8838,
    "herald": 8839,
    "haven": 8840,
    "hated": 8841,
    "gym@@": 8842,
    "girlfriend": 8843,
    "genera": 8844,
    "friendship": 8845,
    "frequ@@": 8846,
    "fraternity": 8847,
    "forbid@@": 8848,
    "filming": 8849,
    "fertile": 8850,
    "expand": 8851,
    "exhi@@": 8852,
    "execution": 8853,
    "excuse": 8854,
    "ernest": 8855,
    "drives": 8856,
    "disper@@": 8857,
    "diseases": 8858,
    "dining": 8859,
    "derby": 8860,
    "depicts": 8861,
    "deliver": 8862,
    "defend": 8863,
    "deals": 8864,
    "dani@@": 8865,
    "croati@@": 8866,
    "cornwall": 8867,
    "cooked": 8868,
    "contents": 8869,
    "constantly": 8870,
    "constan@@": 8871,
    "configur@@": 8872,
    "condition@@": 8873,
    "competing": 8874,
    "compens@@": 8875,
    "chau@@": 8876,
    "charle@@": 8877,
    "chances": 8878,
    "carni@@": 8879,
    "burnt": 8880,
    "broadcasts": 8881,
    "brisbane": 8882,
    "berries": 8883,
    "baked": 8884,
    "aying": 8885,
    "aux@@": 8886,
    "atop": 8887,
    "arrangements": 8888,
    "ario": 8889,
    "argue": 8890,
    "appeals": 8891,
    "antonio": 8892,
    "aggressive": 8893,
    "adelaide": 8894,
    "aar@@": 8895,
    "wilderness": 8896,
    "wen@@": 8897,
    "viewing": 8898,
    "twi@@": 8899,
    "tril@@": 8900,
    "transpor@@": 8901,
    "trademark": 8902,
    "tiz@@": 8903,
    "tight": 8904,
    "thouse": 8905,
    "theatrical": 8906,
    "thailand": 8907,
    "terminus": 8908,
    "temporarily": 8909,
    "temples": 8910,
    "tedly": 8911,
    "technologies": 8912,
    "tear": 8913,
    "survivors": 8914,
    "surprisingly": 8915,
    "strict": 8916,
    "stretch": 8917,
    "stranger": 8918,
    "spur": 8919,
    "socalled": 8920,
    "simpl@@": 8921,
    "shortened": 8922,
    "shine": 8923,
    "sheffield": 8924,
    "sexuality": 8925,
    "sea@@": 8926,
    "schedul@@": 8927,
    "saga": 8928,
    "rushed": 8929,
    "ruling": 8930,
    "rosen@@": 8931,
    "retreat": 8932,
    "research@@": 8933,
    "recurring": 8934,
    "quarters": 8935,
    "pushing": 8936,
    "proven": 8937,
    "pronunciation": 8938,
    "processor": 8939,
    "privil@@": 8940,
    "pregnant": 8941,
    "pipes": 8942,
    "pian@@": 8943,
    "patter@@": 8944,
    "passi@@": 8945,
    "parag@@": 8946,
    "ond": 8947,
    "monday": 8948,
    "mac": 8949,
    "jim@@": 8950,
    "iment": 8951,
    "ib@@": 8952,
    "homer": 8953,
    "herit@@": 8954,
    "hem": 8955,
    "grass@@": 8956,
    "gia": 8957,
    "garden@@": 8958,
    "een": 8959,
    "eased": 8960,
    "die@@": 8961,
    "cuba": 8962,
    "cris@@": 8963,
    "classi@@": 8964,
    "beard": 8965,
    "bapti@@": 8966,
    "akers": 8967,
    "shi": 8968,
    "riage": 8969,
    "rett": 8970,
    "push@@": 8971,
    "poin@@": 8972,
    "oppos@@": 8973,
    "kett": 8974,
    "invest@@": 8975,
    "holmes": 8976,
    "diary": 8977,
    "denver": 8978,
    "cred@@": 8979,
    "chick@@": 8980,
    "cana@@": 8981,
    "burgh": 8982,
    "bott@@": 8983,
    "atti@@": 8984,
    "arily": 8985,
    "appear@@": 8986,
    "worl@@": 8987,
    "unity": 8988,
    "turner": 8989,
    "thon": 8990,
    "theat@@": 8991,
    "thal": 8992,
    "tell@@": 8993,
    "scho@@": 8994,
    "recipient": 8995,
    "prov@@": 8996,
    "poc@@": 8997,
    "philos@@": 8998,
    "oud": 8999,
    "ob": 9000,
    "mathem@@": 9001,
    "mason": 9002,
    "kirk": 9003,
    "fortunately": 9004,
    "evans": 9005,
    "dru@@": 9006,
    "ditions": 9007,
    "distinc@@": 9008,
    "derson": 9009,
    "crete": 9010,
    "contex@@": 9011,
    "challeng@@": 9012,
    "cele@@": 9013,
    "berland": 9014,
    "bailey": 9015,
    "bachelor": 9016,
    "attemp@@": 9017,
    "ason": 9018,
    "aska": 9019,
    "affili@@": 9020,
    "visitor": 9021,
    "vised": 9022,
    "sud@@": 9023,
    "sop@@": 9024,
    "resc@@": 9025,
    "mal": 9026,
    "jerry": 9027,
    "ire@@": 9028,
    "ignor@@": 9029,
    "ggs": 9030,
    "fing@@": 9031,
    "equi@@": 9032,
    "duction": 9033,
    "budd@@": 9034,
    "arre@@": 9035,
    "applic@@": 9036,
    "ander": 9037,
    "volun@@": 9038,
    "vered": 9039,
    "tural": 9040,
    "thur@@": 9041,
    "sic": 9042,
    "schol@@": 9043,
    "ror": 9044,
    "recogn@@": 9045,
    "penn@@": 9046,
    "peac@@": 9047,
    "mach@@": 9048,
    "lloyd": 9049,
    "libr@@": 9050,
    "iller": 9051,
    "eties": 9052,
    "employe@@": 9053,
    "emed": 9054,
    "cir@@": 9055,
    "veteran": 9056,
    "vention": 9057,
    "travel@@": 9058,
    "tment": 9059,
    "tain@@": 9060,
    "rist@@": 9061,
    "prac@@": 9062,
    "monkey": 9063,
    "ights": 9064,
    "idly": 9065,
    "diam@@": 9066,
    "custo@@": 9067,
    "bey": 9068,
    "alter@@": 9069,
    "aband@@": 9070,
    "wonder@@": 9071,
    "uments": 9072,
    "sional": 9073,
    "sheriff": 9074,
    "religi@@": 9075,
    "liqu@@": 9076,
    "lik@@": 9077,
    "legen@@": 9078,
    "kinson": 9079,
    "intro@@": 9080,
    "girl@@": 9081,
    "famil@@": 9082,
    "fail@@": 9083,
    "evolu@@": 9084,
    "ease": 9085,
    "dson": 9086,
    "artic@@": 9087,
    "altern@@": 9088,
    "tribu@@": 9089,
    "slow@@": 9090,
    "secur@@": 9091,
    "rying": 9092,
    "quick@@": 9093,
    "pub@@": 9094,
    "parti@@": 9095,
    "mitted": 9096,
    "magne@@": 9097,
    "istics": 9098,
    "issu@@": 9099,
    "effec@@": 9100,
    "duce": 9101,
    "buddh@@": 9102,
    "aster": 9103,
    "xim@@": 9104,
    "valent": 9105,
    "thol@@": 9106,
    "republic@@": 9107,
    "preci@@": 9108,
    "oak@@": 9109,
    "metho@@": 9110,
    "meas@@": 9111,
    "iter@@": 9112,
    "improv@@": 9113,
    "histor@@": 9114,
    "gal": 9115,
    "erson": 9116,
    "erly": 9117,
    "else@@": 9118,
    "ean": 9119,
    "deri@@": 9120,
    "cal": 9121,
    "therap@@": 9122,
    "tally": 9123,
    "signific@@": 9124,
    "restric@@": 9125,
    "regar@@": 9126,
    "pha@@": 9127,
    "orities": 9128,
    "not@@": 9129,
    "lean@@": 9130,
    "inclu@@": 9131,
    "eat@@": 9132,
    "dition": 9133,
    "cost@@": 9134,
    "bourne": 9135,
    "atures": 9136,
    "adel@@": 9137,
    "acti@@": 9138,
    "absolu@@": 9139,
    "tournam@@": 9140,
    "tici@@": 9141,
    "tau@@": 9142,
    "tai@@": 9143,
    "surf@@": 9144,
    "self": 9145,
    "regre@@": 9146,
    "professi@@": 9147,
    "olym@@": 9148,
    "nationally": 9149,
    "molec@@": 9150,
    "jour@@": 9151,
    "europe@@": 9152,
    "commission@@": 9153,
    "cle": 9154,
    "belie@@": 9155,
    "assa@@": 9156,
    "argent@@": 9157,
    "youn@@": 9158,
    "rical": 9159,
    "pron@@": 9160,
    "phr@@": 9161,
    "micha@@": 9162,
    "matthe@@": 9163,
    "hot@@": 9164,
    "expe@@": 9165,
    "ety": 9166,
    "environ@@": 9167,
    "deli@@": 9168,
    "comple@@": 9169,
    "yment": 9170,
    "wed@@": 9171,
    "ured": 9172,
    "russi@@": 9173,
    "poten@@": 9174,
    "phen@@": 9175,
    "grow@@": 9176,
    "ere@@": 9177,
    "cous@@": 9178,
    "afterno@@": 9179,
    "abor@@": 9180,
    "versi@@": 9181,
    "sue": 9182,
    "prises": 9183,
    "instrum@@": 9184,
    "ingu@@": 9185,
    "industri@@": 9186,
    "fusion": 9187,
    "effici@@": 9188,
    "brig@@": 9189,
    "aggres@@": 9190,
    "veter@@": 9191,
    "tech@@": 9192,
    "sett@@": 9193,
    "requi@@": 9194,
    "rab@@": 9195,
    "promis@@": 9196,
    "prehen@@": 9197,
    "polo@@": 9198,
    "number@@": 9199,
    "norm@@": 9200,
    "jeff@@": 9201,
    "jective": 9202,
    "figur@@": 9203,
    "dney": 9204,
    "distric@@": 9205,
    "dedic@@": 9206,
    "convinc@@": 9207,
    "turk@@": 9208,
    "solved": 9209,
    "sep@@": 9210,
    "sensi@@": 9211,
    "produc@@": 9212,
    "predec@@": 9213,
    "plied": 9214,
    "own@@": 9215,
    "oughly": 9216,
    "op": 9217,
    "lead@@": 9218,
    "inking": 9219,
    "dows": 9220,
    "dispu@@": 9221,
    "cope": 9222,
    "comfor@@": 9223,
    "circu@@": 9224,
    "alties": 9225,
    "yel@@": 9226,
    "tball": 9227,
    "sna@@": 9228,
    "sels": 9229,
    "scap@@": 9230,
    "rements": 9231,
    "rema@@": 9232,
    "pregn@@": 9233,
    "ould": 9234,
    "ortho@@": 9235,
    "nichol@@": 9236,
    "labor@@": 9237,
    "know@@": 9238,
    "iti": 9239,
    "inha@@": 9240,
    "hawai@@": 9241,
    "gling": 9242,
    "choo@@": 9243,
    "beau@@": 9244,
    "success@@": 9245,
    "recur@@": 9246,
    "purch@@": 9247,
    "nific@@": 9248,
    "ince": 9249,
    "foun@@": 9250,
    "excell@@": 9251,
    "evol@@": 9252,
    "eva": 9253,
    "esia": 9254,
    "brook@@": 9255,
    "augu@@": 9256,
    "arrang@@": 9257,
    "tili@@": 9258,
    "survi@@": 9259,
    "rote": 9260,
    "rists": 9261,
    "politici@@": 9262,
    "occur@@": 9263,
    "now@@": 9264,
    "nis": 9265,
    "myth@@": 9266,
    "lati@@": 9267,
    "jurisdic@@": 9268,
    "isol@@": 9269,
    "insur@@": 9270,
    "forec@@": 9271,
    "explan@@": 9272,
    "desp@@": 9273,
    "bris@@": 9274,
    "bachel@@": 9275,
    "autonom@@": 9276,
    "arth@@": 9277,
    "apart@@": 9278,
    "ame@@": 9279,
    "yon": 9280,
    "staf@@": 9281,
    "sie@@": 9282,
    "raid": 9283,
    "proble@@": 9284,
    "pharm@@": 9285,
    "perf@@": 9286,
    "mas": 9287,
    "gho@@": 9288,
    "erous": 9289,
    "dioc@@": 9290,
    "cil": 9291,
    "appar@@": 9292,
    "alu@@": 9293,
    "alber@@": 9294,
    "abun@@": 9295,
    "wee@@": 9296,
    "volunte@@": 9297,
    "vinc@@": 9298,
    "treat@@": 9299,
    "tour@@": 9300,
    "temper@@": 9301,
    "reserv@@": 9302,
    "repu@@": 9303,
    "pied": 9304,
    "oxy@@": 9305,
    "ounced": 9306,
    "ilities": 9307,
    "icity": 9308,
    "glas@@": 9309,
    "engine@@": 9310,
    "duced": 9311,
    "dio": 9312,
    "descend@@": 9313,
    "dah@@": 9314,
    "copy@@": 9315,
    "caf@@": 9316,
    "alg@@": 9317,
    "adem@@": 9318,
    "stol": 9319,
    "stances": 9320,
    "stake": 9321,
    "shakespe@@": 9322,
    "sas@@": 9323,
    "peg": 9324,
    "onds": 9325,
    "mp@@": 9326,
    "junc@@": 9327,
    "gau@@": 9328,
    "franch@@": 9329,
    "ferred": 9330,
    "certain@@": 9331,
    "broadca@@": 9332,
    "avail@@": 9333,
    "aul": 9334,
    "ameter": 9335,
    "airs": 9336,
    "administr@@": 9337,
    "spirit@@": 9338,
    "shakespeare": 9339,
    "revolu@@": 9340,
    "pleas@@": 9341,
    "opher": 9342,
    "oe": 9343,
    "lightly": 9344,
    "ject": 9345,
    "imper@@": 9346,
    "iley": 9347,
    "freder@@": 9348,
    "formers": 9349,
    "financi@@": 9350,
    "eful": 9351,
    "depu@@": 9352,
    "conventi@@": 9353,
    "coast@@": 9354,
    "cardin@@": 9355,
    "beauti@@": 9356,
    "turer": 9357,
    "strate@@": 9358,
    "stop@@": 9359,
    "pher": 9360,
    "ologi@@": 9361,
    "nish": 9362,
    "muc@@": 9363,
    "kshire": 9364,
    "ied": 9365,
    "garian": 9366,
    "disci@@": 9367,
    "clas@@": 9368,
    "ceme@@": 9369,
    "ardo": 9370,
    "aliz@@": 9371,
    "alex@@": 9372,
    "tum": 9373,
    "specific@@": 9374,
    "rs": 9375,
    "recor@@": 9376,
    "prise": 9377,
    "phili@@": 9378,
    "occu@@": 9379,
    "nuc@@": 9380,
    "ira@@": 9381,
    "ility": 9382,
    "holid@@": 9383,
    "dow": 9384,
    "dition@@": 9385,
    "dak@@": 9386,
    "commod@@": 9387,
    "asy": 9388,
    "architec@@": 9389,
    "anton@@": 9390,
    "abe@@": 9391,
    "tial": 9392,
    "spective": 9393,
    "sioned": 9394,
    "scat@@": 9395,
    "repres@@": 9396,
    "refu@@": 9397,
    "phe@@": 9398,
    "juni@@": 9399,
    "eting": 9400,
    "claim@@": 9401,
    "cigare@@": 9402,
    "bean": 9403,
    "atis@@": 9404,
    "surviv@@": 9405,
    "sponsor@@": 9406,
    "secu@@": 9407,
    "satell@@": 9408,
    "nmost": 9409,
    "lincol@@": 9410,
    "lew@@": 9411,
    "lam": 9412,
    "kent@@": 9413,
    "hamp@@": 9414,
    "gency": 9415,
    "emper@@": 9416,
    "dist": 9417,
    "dang@@": 9418,
    "christi@@": 9419,
    "aus@@": 9420,
    "atlan@@": 9421,
    "anese": 9422,
    "ysis": 9423,
    "willi@@": 9424,
    "volu@@": 9425,
    "tish": 9426,
    "tana": 9427,
    "represent@@": 9428,
    "racy": 9429,
    "possi@@": 9430,
    "mexic@@": 9431,
    "magaz@@": 9432,
    "lyn": 9433,
    "ld": 9434,
    "inspir@@": 9435,
    "honor@@": 9436,
    "hed": 9437,
    "friend@@": 9438,
    "expla@@": 9439,
    "exist@@": 9440,
    "ership": 9441,
    "design@@": 9442,
    "bach@@": 9443,
    "afgh@@": 9444,
    "achers": 9445,
    "voy@@": 9446,
    "uel": 9447,
    "twent@@": 9448,
    "thms": 9449,
    "recipi@@": 9450,
    "notic@@": 9451,
    "kistan": 9452,
    "import@@": 9453,
    "famili@@": 9454,
    "earing": 9455,
    "dep@@": 9456,
    "critici@@": 9457,
    "braz@@": 9458,
    "bap@@": 9459,
    "albu@@": 9460,
    "teles@@": 9461,
    "surpris@@": 9462,
    "spectr@@": 9463,
    "ota": 9464,
    "networ@@": 9465,
    "lyric@@": 9466,
    "gare@@": 9467,
    "exac@@": 9468,
    "eme@@": 9469,
    "chur@@": 9470,
    "casu@@": 9471,
    "brief@@": 9472,
    "beh@@": 9473,
    "yst@@": 9474,
    "writ@@": 9475,
    "umes": 9476,
    "todd@@": 9477,
    "telev@@": 9478,
    "superi@@": 9479,
    "restor@@": 9480,
    "recre@@": 9481,
    "pollu@@": 9482,
    "polit@@": 9483,
    "pics": 9484,
    "parliam@@": 9485,
    "nasty": 9486,
    "lieu@@": 9487,
    "keep@@": 9488,
    "jects": 9489,
    "islam@@": 9490,
    "invol@@": 9491,
    "insp@@": 9492,
    "inks": 9493,
    "hosp@@": 9494,
    "gather@@": 9495,
    "cot": 9496,
    "candi@@": 9497,
    "bene@@": 9498,
    "atmo@@": 9499,
    "ultim@@": 9500,
    "through@@": 9501,
    "suspen@@": 9502,
    "stitu@@": 9503,
    "scholar@@": 9504,
    "patro@@": 9505,
    "lish": 9506,
    "lars": 9507,
    "knoc@@": 9508,
    "hic@@": 9509,
    "gres@@": 9510,
    "gramm@@": 9511,
    "forts": 9512,
    "forman@@": 9513,
    "experi@@": 9514,
    "dred": 9515,
    "busin@@": 9516,
    "beha@@": 9517,
    "attor@@": 9518,
    "appropri@@": 9519,
    "umbrel@@": 9520,
    "tn@@": 9521,
    "tempor@@": 9522,
    "suppor@@": 9523,
    "rix": 9524,
    "ril": 9525,
    "overse@@": 9526,
    "ork": 9527,
    "olished": 9528,
    "kev@@": 9529,
    "hurric@@": 9530,
    "ferences": 9531,
    "elizabe@@": 9532,
    "egyp@@": 9533,
    "dential": 9534,
    "comprehen@@": 9535,
    "califor@@": 9536,
    "alph@@": 9537,
    "vide@@": 9538,
    "tings": 9539,
    "thurs@@": 9540,
    "sug@@": 9541,
    "scul@@": 9542,
    "schem@@": 9543,
    "proli@@": 9544,
    "phenom@@": 9545,
    "oir": 9546,
    "neighbour@@": 9547,
    "minu@@": 9548,
    "indon@@": 9549,
    "hammad": 9550,
    "fundam@@": 9551,
    "exer@@": 9552,
    "eval": 9553,
    "entertain@@": 9554,
    "disco@@": 9555,
    "brilli@@": 9556,
    "austri@@": 9557,
    "admini@@": 9558,
    "activi@@": 9559,
    "ulty": 9560,
    "tob@@": 9561,
    "thly": 9562,
    "seat@@": 9563,
    "offici@@": 9564,
    "newspap@@": 9565,
    "mitch@@": 9566,
    "jaz@@": 9567,
    "ially": 9568,
    "gery": 9569,
    "extrem@@": 9570,
    "ept": 9571,
    "elem@@": 9572,
    "dden": 9573,
    "blin": 9574,
    "ayed": 9575,
    "uality": 9576,
    "therine": 9577,
    "terr@@": 9578,
    "relev@@": 9579,
    "intellec@@": 9580,
    "intel@@": 9581,
    "ilian": 9582,
    "horiz@@": 9583,
    "enjo@@": 9584,
    "deta@@": 9585,
    "depart@@": 9586,
    "conflic@@": 9587,
    "chann@@": 9588,
    "chang@@": 9589,
    "cathe@@": 9590,
    "ark": 9591,
    "amat@@": 9592,
    "unci@@": 9593,
    "techni@@": 9594,
    "taneously": 9595,
    "sugge@@": 9596,
    "reven@@": 9597,
    "resp@@": 9598,
    "paci@@": 9599,
    "nei@@": 9600,
    "mov@@": 9601,
    "menti@@": 9602,
    "lywood": 9603,
    "indepen@@": 9604,
    "flic@@": 9605,
    "emph@@": 9606,
    "champi@@": 9607,
    "capac@@": 9608,
    "cancell@@": 9609,
    "beli@@": 9610,
    "barbar@@": 9611,
    "alian": 9612,
    "abra@@": 9613,
    "weal@@": 9614,
    "tten": 9615,
    "tenant": 9616,
    "tah": 9617,
    "pment": 9618,
    "pens@@": 9619,
    "leav@@": 9620,
    "isl@@": 9621,
    "isco": 9622,
    "inet": 9623,
    "icient": 9624,
    "icide": 9625,
    "guit@@": 9626,
    "figu@@": 9627,
    "favor@@": 9628,
    "extre@@": 9629,
    "ayl@@": 9630,
    "alo": 9631,
    "weap@@": 9632,
    "traff@@": 9633,
    "pizz@@": 9634,
    "phenomen@@": 9635,
    "nod@@": 9636,
    "isition": 9637,
    "harb@@": 9638,
    "ficial": 9639,
    "enna": 9640,
    "dral": 9641,
    "acu@@": 9642,
    "tomor@@": 9643,
    "sylvania": 9644,
    "program@@": 9645,
    "pren@@": 9646,
    "partner@@": 9647,
    "member@@": 9648,
    "leans": 9649,
    "kore@@": 9650,
    "intermedi@@": 9651,
    "inhabit@@": 9652,
    "entially": 9653,
    "eliz@@": 9654,
    "eeded": 9655,
    "drome": 9656,
    "controversi@@": 9657,
    "cloth@@": 9658,
    "birth@@": 9659,
    "bey@@": 9660,
    "ause": 9661,
    "virgin@@": 9662,
    "unti@@": 9663,
    "ulties": 9664,
    "supre@@": 9665,
    "remember@@": 9666,
    "quie@@": 9667,
    "quan@@": 9668,
    "monaster@@": 9669,
    "meet@@": 9670,
    "iden@@": 9671,
    "fore": 9672,
    "dall@@": 9673,
    "asion": 9674,
    "artw@@": 9675,
    "actu@@": 9676,
    "ypt": 9677,
    "try@@": 9678,
    "tnam": 9679,
    "sylvan@@": 9680,
    "propos@@": 9681,
    "pole@@": 9682,
    "pitts@@": 9683,
    "pical": 9684,
    "nephe@@": 9685,
    "lime@@": 9686,
    "hundre@@": 9687,
    "hamil@@": 9688,
    "gentle@@": 9689,
    "espec@@": 9690,
    "ember": 9691,
    "ditional": 9692,
    "christian@@": 9693,
    "apos@@": 9694,
    "alab@@": 9695,
    "ux": 9696,
    "statis@@": 9697,
    "peninsul@@": 9698,
    "never@@": 9699,
    "minster": 9700,
    "liver@@": 9701,
    "hol": 9702,
    "hatt@@": 9703,
    "expos@@": 9704,
    "enem@@": 9705,
    "business@@": 9706,
    "wilder@@": 9707,
    "vard": 9708,
    "thous@@": 9709,
    "refuge@@": 9710,
    "profession@@": 9711,
    "perfec@@": 9712,
    "nether@@": 9713,
    "leice@@": 9714,
    "inder": 9715,
    "iff": 9716,
    "genous": 9717,
    "frat@@": 9718,
    "derly": 9719,
    "contri@@": 9720,
    "consequ@@": 9721,
    "cons@@": 9722,
    "brew": 9723,
    "bile": 9724,
    "ariz@@": 9725,
    "whel@@": 9726,
    "vehic@@": 9727,
    "uary": 9728,
    "tradem@@": 9729,
    "situ@@": 9730,
    "risti@@": 9731,
    "proced@@": 9732,
    "princi@@": 9733,
    "philadelphi@@": 9734,
    "partici@@": 9735,
    "owa": 9736,
    "orly": 9737,
    "ologies": 9738,
    "montre@@": 9739,
    "lloy@@": 9740,
    "itely": 9741,
    "isions": 9742,
    "gium": 9743,
    "dless": 9744,
    "centur@@": 9745,
    "bec": 9746,
    "aland": 9747,
    "wednes@@": 9748,
    "ularly": 9749,
    "thm": 9750,
    "tely": 9751,
    "studi@@": 9752,
    "sibility": 9753,
    "selves": 9754,
    "rug@@": 9755,
    "pover@@": 9756,
    "opport@@": 9757,
    "ontari@@": 9758,
    "ohi@@": 9759,
    "mathematic@@": 9760,
    "langu@@": 9761,
    "istan": 9762,
    "hoc@@": 9763,
    "gotten": 9764,
    "eases": 9765,
    "dox": 9766,
    "columb@@": 9767,
    "bane": 9768,
    "aylor": 9769,
    "alco@@": 9770,
    "aide": 9771,
    "your@@": 9772,
    "ycl@@": 9773,
    "wart": 9774,
    "strateg@@": 9775,
    "soldi@@": 9776,
    "sas": 9777,
    "resul@@": 9778,
    "restaur@@": 9779,
    "repeat@@": 9780,
    "ppi": 9781,
    "pion@@": 9782,
    "piec@@": 9783,
    "offic@@": 9784,
    "michi@@": 9785,
    "margar@@": 9786,
    "locomo@@": 9787,
    "injur@@": 9788,
    "gow": 9789,
    "essor": 9790,
    "emor@@": 9791,
    "dn": 9792,
    "chocol@@": 9793,
    "autum@@": 9794,
    "aut@@": 9795,
    "arist": 9796,
    "amoun@@": 9797,
    "abs@@": 9798,
    "tober": 9799,
    "tane@@": 9800,
    "symptom@@": 9801,
    "symp@@": 9802,
    "stantly": 9803,
    "ranean": 9804,
    "performan@@": 9805,
    "opping": 9806,
    "onship": 9807,
    "nowned": 9808,
    "issi@@": 9809,
    "helic@@": 9810,
    "gress": 9811,
    "fig@@": 9812,
    "favour@@": 9813,
    "exi@@": 9814,
    "esting": 9815,
    "episo@@": 9816,
    "envir@@": 9817,
    "dipl@@": 9818,
    "demon@@": 9819,
    "base@@": 9820,
    "yester@@": 9821,
    "ucky": 9822,
    "subur@@": 9823,
    "stren@@": 9824,
    "proper@@": 9825,
    "pically": 9826,
    "orig@@": 9827,
    "orche@@": 9828,
    "manhatt@@": 9829,
    "lish@@": 9830,
    "further@@": 9831,
    "eler@@": 9832,
    "democ@@": 9833,
    "como@@": 9834,
    "coali@@": 9835,
    "chall@@": 9836,
    "winni@@": 9837,
    "victim@@": 9838,
    "versity": 9839,
    "universi@@": 9840,
    "sudden@@": 9841,
    "strum@@": 9842,
    "seu@@": 9843,
    "norwe@@": 9844,
    "neath": 9845,
    "musici@@": 9846,
    "movi@@": 9847,
    "ingre@@": 9848,
    "homa": 9849,
    "doro@@": 9850,
    "dently": 9851,
    "bol": 9852,
    "balti@@": 9853,
    "asons": 9854,
    "algori@@": 9855,
    "achus@@": 9856,
    "acco": 9857,
    "viet": 9858,
    "vancou@@": 9859,
    "unciation": 9860,
    "trous@@": 9861,
    "tennes@@": 9862,
    "primar@@": 9863,
    "practic@@": 9864,
    "oreg@@": 9865,
    "newsp@@": 9866,
    "munici@@": 9867,
    "manufactur@@": 9868,
    "juris@@": 9869,
    "haps": 9870,
    "graff@@": 9871,
    "exic@@": 9872,
    "edin@@": 9873,
    "divor@@": 9874,
    "diffic@@": 9875,
    "dary": 9876,
    "betw@@": 9877,
    "agricul@@": 9878,
    "adjac@@": 9879,
    "territ@@": 9880,
    "tenance": 9881,
    "tawa": 9882,
    "socc@@": 9883,
    "sheffi@@": 9884,
    "puer@@": 9885,
    "provinci@@": 9886,
    "portugu@@": 9887,
    "portu@@": 9888,
    "perman@@": 9889,
    "opin@@": 9890,
    "mosco@@": 9891,
    "mississi@@": 9892,
    "maga@@": 9893,
    "like@@": 9894,
    "kyo": 9895,
    "inves@@": 9896,
    "illino@@": 9897,
    "headquar@@": 9898,
    "glas": 9899,
    "ernity": 9900,
    "enge": 9901,
    "effi@@": 9902,
    "dingly": 9903,
    "consecu@@": 9904,
    "connectic@@": 9905,
    "childre@@": 9906,
    "baske@@": 9907,
    "again@@": 9908,
    "adelphi@@": 9909,
    "acou@@": 9910,
    "zens": 9911,
    "vement": 9912,
    "veland": 9913,
    "unities": 9914,
    "tware": 9915,
    "toge@@": 9916,
    "thern": 9917,
    "symb@@": 9918,
    "supp@@": 9919,
    "subsequ@@": 9920,
    "septem@@": 9921,
    "scarec@@": 9922,
    "retur@@": 9923,
    "rainf@@": 9924,
    "passeng@@": 9925,
    "missour@@": 9926,
    "mingham": 9927,
    "massachuset@@": 9928,
    "louisi@@": 9929,
    "lahoma": 9930,
    "jerus@@": 9931,
    "intell@@": 9932,
    "infra@@": 9933,
    "immedi@@": 9934,
    "figh@@": 9935,
    "featur@@": 9936,
    "enty": 9937,
    "elings": 9938,
    "ditionally": 9939,
    "commer@@": 9940,
    "clos@@": 9941,
    "cincinn@@": 9942,
    "cinc@@": 9943,
    "campa@@": 9944,
    "bound@@": 9945,
    "boulev@@": 9946,
    "binson": 9947,
    "athan": 9948,
    "astern": 9949,
    "antici@@": 9950,
    "along@@": 9951,
    "alem": 9952,
    "zerland": 9953,
    "wides@@": 9954,
    "whil@@": 9955,
    "vidu@@": 9956,
    "thusi@@": 9957,
    "syst@@": 9958,
    "staur@@": 9959,
    "sacrif@@": 9960,
    "recog@@": 9961,
    "provinc@@": 9962,
    "prisoned": 9963,
    "previ@@": 9964,
    "pede@@": 9965,
    "paralle@@": 9966,
    "onships": 9967,
    "occasi@@": 9968,
    "occas@@": 9969,
    "nesota": 9970,
    "mediter@@": 9971,
    "manus@@": 9972,
    "leep": 9973,
    "intellig@@": 9974,
    "ineer": 9975,
    "increas@@": 9976,
    "goti@@": 9977,
    "febru@@": 9978,
    "estab@@": 9979,
    "devel@@": 9980,
    "detro@@": 9981,
    "degre@@": 9982,
    "daries": 9983,
    "costu@@": 9984,
    "contro@@": 9985,
    "compon@@": 9986,
    "charac@@": 9987,
    "cerem@@": 9988,
    "categ@@": 9989,
    "carib@@": 9990,
    "blings": 9991,
    "bitions": 9992,
    "becom@@": 9993,
    "archit@@": 9994,
    "among@@": 9995,
    "achuset@@": 9996,
    "<pad9997>": 9997,
    "<pad9998>": 9998,
    "<pad9999>": 9999
}