{
    "<pad>": 0,
    "<unk>": 1,
    "<s>": 2,
    "</s>": 3,
    "<||>": 4,
    ".": 5,
    ",": 6,
    "der": 7,
    "und": 8,
    "die": 9,
    "in": 10,
    "t@@": 11,
    "<bin0>": 12,
    "en@@": 13,
    "von": 14,
    "ist": 15,
    "<bin100>": 16,
    "-@@": 17,
    "Die": 18,
    "den": 19,
    "zu": 20,
    "„@@": 21,
    "eine": 22,
    "ein": 23,
    "mit": 24,
    "das": 25,
    "<bin1>": 26,
    "wurde": 27,
    "<bin101>": 28,
    "sich": 29,
    "Sie": 30,
    "auf": 31,
    "war": 32,
    "e@@": 33,
    "für": 34,
    "des": 35,
    "er": 36,
    "er@@": 37,
    "als": 38,
    "es": 39,
    "Er": 40,
    "ge@@": 41,
    "Es": 42,
    "Der": 43,
    "im": 44,
    "dem": 45,
    "s@@": 46,
    "Das": 47,
    "d@@": 48,
    "an": 49,
    "auch": 50,
    "an@@": 51,
    "“": 52,
    "einem": 53,
    "gen@@": 54,
    "be@@": 55,
    "sie": 56,
    "te@@": 57,
    "den@@": 58,
    "nicht": 59,
    "a@@": 60,
    "sind": 61,
    "einen": 62,
    "y@@": 63,
    "ben@@": 64,
    "ver@@": 65,
    "Ich": 66,
    "g@@": 67,
    "einer": 68,
    "wird": 69,
    "st@@": 70,
    "n@@": 71,
    "Ein": 72,
    "k@@": 73,
    "et@@": 74,
    "“@@": 75,
    "ein@@": 76,
    "hat": 77,
    "ten@@": 78,
    "?": 79,
    "aus": 80,
    "de@@": 81,
    "nach": 82,
    "um": 83,
    "dass": 84,
    "<bin2>": 85,
    "o@@": 86,
    "m@@": 87,
    "l@@": 88,
    "ier@@": 89,
    "in@@": 90,
    "b@@": 91,
    "<bin99>": 92,
    "auf@@": 93,
    "ch@@": 94,
    "ung@@": 95,
    "le@@": 96,
    "f@@": 97,
    "ich": 98,
    "In": 99,
    "un@@": 100,
    "ent@@": 101,
    "al@@": 102,
    "on@@": 103,
    "s": 104,
    "sch@@": 105,
    "wurden": 106,
    "z@@": 107,
    "<bin3>": 108,
    "i@@": 109,
    "aus@@": 110,
    "wer@@": 111,
    "werden": 112,
    "ab@@": 113,
    "te": 114,
    "Ver@@": 115,
    "K@@": 116,
    "bei": 117,
    "über": 118,
    "S@@": 119,
    "p@@": 120,
    "<bin98>": 121,
    "ar@@": 122,
    "ten": 123,
    "lich@@": 124,
    "h@@": 125,
    "c@@": 126,
    "w@@": 127,
    "oder": 128,
    "ann@@": 129,
    "is@@": 130,
    "seine": 131,
    "Be@@": 132,
    "Eine": 133,
    "t": 134,
    "e": 135,
    "um@@": 136,
    "A@@": 137,
    "u@@": 138,
    "wie": 139,
    "ischen": 140,
    "el@@": 141,
    "An@@": 142,
    "zu@@": 143,
    "es@@": 144,
    "ter@@": 145,
    "am": 146,
    "ck@@": 147,
    "or@@": 148,
    "<bin4>": 149,
    "ische": 150,
    "ur@@": 151,
    "durch": 152,
    "en": 153,
    "ist@@": 154,
    "zum": 155,
    "ger@@": 156,
    "zwei": 157,
    "der@@": 158,
    "N@@": 159,
    "gibt": 160,
    "T@@": 161,
    "re@@": 162,
    "at@@": 163,
    "<bin6>": 164,
    "haben": 165,
    "Sch@@": 166,
    "li@@": 167,
    "<bin5>": 168,
    "as@@": 169,
    "vor@@": 170,
    "H@@": 171,
    "war@@": 172,
    "B@@": 173,
    "r@@": 174,
    "a": 175,
    "<bin97>": 176,
    "\"@@": 177,
    "G@@": 178,
    "ha@@": 179,
    "y": 180,
    "seiner": 181,
    "L@@": 182,
    "zur": 183,
    "!": 184,
    "W@@": 185,
    "R@@": 186,
    "Diese": 187,
    "kann": 188,
    "v@@": 189,
    "o": 190,
    "über@@": 191,
    "F@@": 192,
    "ung": 193,
    "waren": 194,
    "<bin96>": 195,
    "s.": 196,
    "C@@": 197,
    "ie@@": 198,
    "Mann": 199,
    "dieser": 200,
    "E@@": 201,
    "hatte": 202,
    "P@@": 203,
    "ihre": 204,
    "vor": 205,
    "ot@@": 206,
    "noch": 207,
    "ol@@": 208,
    "ad@@": 209,
    "chen@@": 210,
    "det@@": 211,
    "it@@": 212,
    "nur": 213,
    "M@@": 214,
    "cht@@": 215,
    "O@@": 216,
    "ra@@": 217,
    "Re@@": 218,
    "<bin9>": 219,
    "<bin7>": 220,
    "i": 221,
    "ing@@": 222,
    "<bin8>": 223,
    "ter": 224,
    "on": 225,
    "jedoch": 226,
    "<bin95>": 227,
    "D@@": 228,
    "and@@": 229,
    "ig@@": 230,
    "aber": 231,
    "sehr": 232,
    "Stadt": 233,
    "am@@": 234,
    "St@@": 235,
    "Ab@@": 236,
    "isch@@": 237,
    "ern@@": 238,
    "se@@": 239,
    "di@@": 240,
    "-": 241,
    "Im": 242,
    "wur@@": 243,
    "ungen": 244,
    "stell@@": 245,
    "keine": 246,
    "du": 247,
    "ss@@": 248,
    "eines": 249,
    "d": 250,
    "unter@@": 251,
    "sein": 252,
    "können": 253,
    "seinen": 254,
    "ei@@": 255,
    "unter": 256,
    "mi@@": 257,
    "Vor@@": 258,
    "<bin93>": 259,
    "la@@": 260,
    "Aus@@": 261,
    "hat@@": 262,
    "Dies": 263,
    "gel@@": 264,
    "drei": 265,
    "<bin94>": 266,
    "gen": 267,
    "<bin13>": 268,
    "<bin11>": 269,
    "so": 270,
    "us@@": 271,
    "geb@@": 272,
    "Ein@@": 273,
    "<bin15>": 274,
    "<bin12>": 275,
    "ut@@": 276,
    "<bin10>": 277,
    "Er@@": 278,
    "ber@@": 279,
    "diese": 280,
    "befindet": 281,
    "lei@@": 282,
    "il@@": 283,
    "Frau": 284,
    "während": 285,
    "ir@@": 286,
    "ne@@": 287,
    "In@@": 288,
    "vom": 289,
    "al": 290,
    "au@@": 291,
    "ff@@": 292,
    "de": 293,
    "Zeit": 294,
    "da@@": 295,
    "ungs@@": 296,
    "habe": 297,
    "mir": 298,
    "ä@@": 299,
    "ag@@": 300,
    "ti@@": 301,
    "geh@@": 302,
    "her@@": 303,
    "liegt": 304,
    "Ge@@": 305,
    "Z@@": 306,
    "Mar@@": 307,
    "man": 308,
    "kt@@": 309,
    "ro@@": 310,
    "was": 311,
    "gesch@@": 312,
    "diesem": 313,
    "ihn": 314,
    "liche": 315,
    "<bin91>": 316,
    "wir": 317,
    "om@@": 318,
    ":": 319,
    "bekann@@": 320,
    "ts@@": 321,
    "seh@@": 322,
    "mich": 323,
    "Teil": 324,
    "l": 325,
    "ft@@": 326,
    "gew@@": 327,
    "<bin92>": 328,
    "später": 329,
    "sp@@": 330,
    "net@@": 331,
    "st": 332,
    "k": 333,
    "Wir": 334,
    "ach@@": 335,
    "ul@@": 336,
    "ich@@": 337,
    "os@@": 338,
    "Seine": 339,
    "immer": 340,
    "alle": 341,
    "Nach": 342,
    "ind@@": 343,
    "führ@@": 344,
    "ern": 345,
    "sagte": 346,
    "anderen": 347,
    "ass@@": 348,
    "nich@@": 349,
    "ge": 350,
    "<bin14>": 351,
    "em@@": 352,
    "V@@": 353,
    "zurück@@": 354,
    "lich": 355,
    "<bin18>": 356,
    "<bin17>": 357,
    "ing": 358,
    "ungen@@": 359,
    "<bin90>": 360,
    "<bin89>": 361,
    "ange@@": 362,
    "viele": 363,
    "<bin19>": 364,
    "<bin20>": 365,
    "of": 366,
    "dar@@": 367,
    "seinem": 368,
    "<bin16>": 369,
    "hin@@": 370,
    "le": 371,
    "sa@@": 372,
    "rie@@": 373,
    "ischer": 374,
    "ri@@": 375,
    "<bin21>": 376,
    "ihr": 377,
    "<bin22>": 378,
    "x@@": 379,
    "<bin25>": 380,
    "Al@@": 381,
    "<bin24>": 382,
    "j@@": 383,
    "Se@@": 384,
    "lo@@": 385,
    "<bin27>": 386,
    "<bin29>": 387,
    "ak@@": 388,
    "Ar@@": 389,
    "I@@": 390,
    "andere": 391,
    "bis": 392,
    "ihm": 393,
    "tig@@": 394,
    "ie": 395,
    "De@@": 396,
    "<bin84>": 397,
    "sten": 398,
    "nen@@": 399,
    "Sein": 400,
    "erste": 401,
    "zeich@@": 402,
    "ihrer": 403,
    "<bin32>": 404,
    "op@@": 405,
    "\"": 406,
    "isch": 407,
    "wir@@": 408,
    "<bin35>": 409,
    "<bin86>": 410,
    "Le@@": 411,
    "ell@@": 412,
    "sen@@": 413,
    "verwen@@": 414,
    "fen@@": 415,
    "lichen": 416,
    "<bin39>": 417,
    "Zwei": 418,
    "spiel@@": 419,
    "Sp@@": 420,
    "ation@@": 421,
    "The": 422,
    "<bin87>": 423,
    "gebor@@": 424,
    "<bin43>": 425,
    "ihren": 426,
    "all@@": 427,
    "mehr": 428,
    "<bin47>": 429,
    "teil@@": 430,
    "J@@": 431,
    "si@@": 432,
    "<bin88>": 433,
    "chen": 434,
    "ik@@": 435,
    "rei@@": 436,
    "Ch@@": 437,
    "Ro@@": 438,
    "<bin77>": 439,
    "gab": 440,
    "ersten": 441,
    "<bin51>": 442,
    "eh@@": 443,
    "em": 444,
    "wenn": 445,
    "Wie": 446,
    "Als": 447,
    "<bin79>": 448,
    "zwischen": 449,
    "Ma@@": 450,
    "<bin54>": 451,
    "Menschen": 452,
    "tra@@": 453,
    "qu@@": 454,
    "gegen": 455,
    "ausge@@": 456,
    "Zu": 457,
    "etwas": 458,
    "dann": 459,
    "setz@@": 460,
    "<bin81>": 461,
    "ens@@": 462,
    "g": 463,
    "lie@@": 464,
    "us": 465,
    "ation": 466,
    "ster@@": 467,
    "men@@": 468,
    "<bin59>": 469,
    "<bin82>": 470,
    "<bin57>": 471,
    "ste": 472,
    "<bin83>": 473,
    "Co@@": 474,
    "el": 475,
    "ck": 476,
    "n": 477,
    "kon@@": 478,
    "<bin61>": 479,
    "<bin85>": 480,
    "<bin63>": 481,
    "New": 482,
    "'@@": 483,
    "beiden": 484,
    "<bin66>": 485,
    "gef@@": 486,
    "Und": 487,
    "ü@@": 488,
    "Auf@@": 489,
    "he@@": 490,
    "Ihre": 491,
    "<bin65>": 492,
    "nie": 493,
    "wieder": 494,
    "<bin68>": 495,
    "Über@@": 496,
    "ale": 497,
    "bei@@": 498,
    "Unter@@": 499,
    "or": 500,
    "bar@@": 501,
    "<bin69>": 502,
    "m": 503,
    "ho@@": 504,
    "gi@@": 505,
    "<bin71>": 506,
    "vier": 507,
    "<bin26>": 508,
    "Was": 509,
    "<bin23>": 510,
    "end@@": 511,
    "Haupt@@": 512,
    "tr@@": 513,
    "halten@@": 514,
    "ant@@": 515,
    "einige": 516,
    "as": 517,
    "<bin30>": 518,
    "<bin31>": 519,
    "sich@@": 520,
    "<bin28>": 521,
    "<bin74>": 522,
    "<bin72>": 523,
    "U@@": 524,
    "Un@@": 525,
    "Jahr": 526,
    "<bin73>": 527,
    "aut@@": 528,
    "mehrere": 529,
    "ommen@@": 530,
    "ste@@": 531,
    "<bin34>": 532,
    "<bin33>": 533,
    "ö@@": 534,
    "durch@@": 535,
    "h": 536,
    "Jahre": 537,
    "<bin36>": 538,
    "<bin38>": 539,
    "meisten": 540,
    "Zu@@": 541,
    "<bin37>": 542,
    "<bin75>": 543,
    "<bin76>": 544,
    "da": 545,
    "se": 546,
    "dieses": 547,
    "<bin40>": 548,
    "man@@": 549,
    "Aber": 550,
    "<bin78>": 551,
    "ende": 552,
    "Bo@@": 553,
    "<bin42>": 554,
    "fin@@": 555,
    "einge@@": 556,
    "<bin41>": 557,
    "pp@@": 558,
    "är@@": 559,
    "tier@@": 560,
    "f": 561,
    "Stadt@@": 562,
    "ts": 563,
    "ph@@": 564,
    "mm@@": 565,
    "ers": 566,
    "ru@@": 567,
    "ler@@": 568,
    "mit@@": 569,
    "Während": 570,
    "<bin46>": 571,
    "na@@": 572,
    "<bin44>": 573,
    "lan@@": 574,
    "<bin45>": 575,
    "ap@@": 576,
    "<bin80>": 577,
    "bin": 578,
    "Gruppe": 579,
    "land@@": 580,
    "men": 581,
    "acht@@": 582,
    "Namen": 583,
    "Kon@@": 584,
    "and": 585,
    "<bin49>": 586,
    "ins": 587,
    "ebenfalls": 588,
    "u": 589,
    "<bin48>": 590,
    "und@@": 591,
    "diesen": 592,
    "br@@": 593,
    "än@@": 594,
    "Einige": 595,
    "<bin50>": 596,
    "Bei": 597,
    "<bin53>": 598,
    "oft": 599,
    "me@@": 600,
    "ne": 601,
    "jetzt": 602,
    "Auf": 603,
    "enden": 604,
    "<bin52>": 605,
    "ah@@": 606,
    "ar": 607,
    "kei@@": 608,
    "z": 609,
    "ster": 610,
    "Ihr": 611,
    "Di@@": 612,
    "Name": 613,
    "<bin55>": 614,
    "<bin56>": 615,
    "ch": 616,
    "wei@@": 617,
    "uns": 618,
    "Mon@@": 619,
    "Viele": 620,
    "ierte": 621,
    "hei@@": 622,
    "En@@": 623,
    "ß@@": 624,
    "Y@@": 625,
    "Spiel@@": 626,
    "ben": 627,
    "Nähe": 628,
    "selbst": 629,
    "Wenn": 630,
    "iert": 631,
    "Par@@": 632,
    "<bin58>": 633,
    "schaft@@": 634,
    "Mo@@": 635,
    "ma@@": 636,
    "<bin60>": 637,
    "kommen@@": 638,
    "ers@@": 639,
    "wor@@": 640,
    "heute": 641,
    "ler": 642,
    "tes": 643,
    "steht": 644,
    "ic@@": 645,
    "dig@@": 646,
    "Zeit@@": 647,
    "enz@@": 648,
    "Li@@": 649,
    "<bin62>": 650,
    "ger": 651,
    "ta@@": 652,
    "du@@": 653,
    "Gra@@": 654,
    "for@@": 655,
    "zei@@": 656,
    "bel@@": 657,
    "pf@@": 658,
    "sen": 659,
    "inn@@": 660,
    "<bin64>": 661,
    "ok@@": 662,
    "arbei@@": 663,
    "He@@": 664,
    "Bar@@": 665,
    "statt@@": 666,
    "Sa@@": 667,
    "sk@@": 668,
    "licher": 669,
    "Land@@": 670,
    "gem@@": 671,
    "hr@@": 672,
    "spielte": 673,
    "Car@@": 674,
    "<bin67>": 675,
    "lin@@": 676,
    "viel": 677,
    "bet@@": 678,
    "Alle": 679,
    "sag@@": 680,
    "Mädchen": 681,
    "cken": 682,
    "nach@@": 683,
    "str@@": 684,
    "ken": 685,
    "Wei@@": 686,
    "ken@@": 687,
    "b": 688,
    "zi@@": 689,
    "reich@@": 690,
    "würde": 691,
    "ke": 692,
    "Für": 693,
    "fe@@": 694,
    "<bin70>": 695,
    "os": 696,
    "lang": 697,
    "School": 698,
    "be": 699,
    "alen": 700,
    "zusammen@@": 701,
    "wa@@": 702,
    "Album": 703,
    "im@@": 704,
    "aufge@@": 705,
    "meine": 706,
    "sie@@": 707,
    "ien@@": 708,
    "beg@@": 709,
    "fer@@": 710,
    "che": 711,
    "muss": 712,
    "Dieser": 713,
    "unden@@": 714,
    "ihrem": 715,
    "tre@@": 716,
    "ohne": 717,
    "ow@@": 718,
    "bo@@": 719,
    "th@@": 720,
    "ill@@": 721,
    "ige": 722,
    "beim": 723,
    "steh@@": 724,
    "ierten": 725,
    "Ta@@": 726,
    "len": 727,
    "mal@@": 728,
    "end": 729,
    "ies@@": 730,
    "ton": 731,
    "fen": 732,
    "so@@": 733,
    "gut": 734,
    "cken@@": 735,
    "Um@@": 736,
    "Film": 737,
    "La@@": 738,
    "kt": 739,
    "Ne@@": 740,
    "Ha@@": 741,
    "große": 742,
    "So@@": 743,
    "est@@": 744,
    "Schul@@": 745,
    "neue": 746,
    "rich@@": 747,
    "wür@@": 748,
    "besch@@": 749,
    "ord@@": 750,
    "Gemeinde": 751,
    "Her@@": 752,
    "geht": 753,
    "fahr@@": 754,
    "ang@@": 755,
    "fünf": 756,
    "Mit": 757,
    "Ho@@": 758,
    "ere": 759,
    "enn@@": 760,
    "ine": 761,
    "John": 762,
    "hal@@": 763,
    "Wasser@@": 764,
    "co@@": 765,
    "erhielt": 766,
    "spielt": 767,
    "ging": 768,
    "Männer": 769,
    "ationen": 770,
    "Rei@@": 771,
    "Kinder@@": 772,
    "kön@@": 773,
    "kam": 774,
    "Geschichte": 775,
    "mo@@": 776,
    "len@@": 777,
    "Man@@": 778,
    "kein": 779,
    "gest@@": 780,
    "Familie": 781,
    "Po@@": 782,
    "tik@@": 783,
    "Auch": 784,
    "stand": 785,
    "hatten": 786,
    "wo": 787,
    "Qu@@": 788,
    "El@@": 789,
    "großen": 790,
    "Jahren": 791,
    "Unternehmen": 792,
    "Mc@@": 793,
    "tion@@": 794,
    "eu@@": 795,
    "igen": 796,
    "ys": 797,
    "Kinder": 798,
    "müssen": 799,
    "erte": 800,
    "Me@@": 801,
    "Ber@@": 802,
    "ran@@": 803,
    "gan@@": 804,
    "nen": 805,
    "Su@@": 806,
    "Sohn": 807,
    "verb@@": 808,
    "son@@": 809,
    "Nach@@": 810,
    "Kan@@": 811,
    "pro@@": 812,
    "weitere": 813,
    "begann": 814,
    "dies": 815,
    "Art": 816,
    "we@@": 817,
    "tige": 818,
    "og@@": 819,
    "fest@@": 820,
    "kl@@": 821,
    "ien": 822,
    "ce@@": 823,
    "me": 824,
    "Pro@@": 825,
    "Ju@@": 826,
    "p": 827,
    "führte": 828,
    "bi@@": 829,
    "at": 830,
    "lang@@": 831,
    "Sie@@": 832,
    "Arbeit": 833,
    "ent": 834,
    "ko@@": 835,
    "Or@@": 836,
    "Lo@@": 837,
    "elt@@": 838,
    "su@@": 839,
    "par@@": 840,
    "ieren": 841,
    "Leben": 842,
    "Bet@@": 843,
    "Ra@@": 844,
    "Kar@@": 845,
    "mach@@": 846,
    "Vater": 847,
    "Titel": 848,
    "stand@@": 849,
    "sten@@": 850,
    "bil@@": 851,
    "ner": 852,
    "Du": 853,
    "x": 854,
    "schaft": 855,
    "konnte": 856,
    "chten": 857,
    "gn@@": 858,
    "Con@@": 859,
    "Ri@@": 860,
    "Band": 861,
    "nahm": 862,
    "kommen": 863,
    "ün@@": 864,
    "spielen": 865,
    "mon@@": 866,
    "Spiel": 867,
    "Ja@@": 868,
    "get@@": 869,
    "Tra@@": 870,
    "Ende": 871,
    "vielen": 872,
    "Fl@@": 873,
    "sowohl": 874,
    "kte": 875,
    "Sh@@": 876,
    "Mor@@": 877,
    "eren": 878,
    "bl@@": 879,
    "Hand@@": 880,
    "ati@@": 881,
    "ob@@": 882,
    "hör@@": 883,
    "ens": 884,
    "mein": 885,
    "häufig": 886,
    "ve@@": 887,
    "ton@@": 888,
    "ley": 889,
    "ih@@": 890,
    "uss@@": 891,
    "meiner": 892,
    "enk@@": 893,
    "Har@@": 894,
    "zen@@": 895,
    "min@@": 896,
    "Dieses": 897,
    "Später": 898,
    "Lin@@": 899,
    "werde": 900,
    "Junge": 901,
    "icht@@": 902,
    "Gesch@@": 903,
    "is": 904,
    "äu@@": 905,
    "utz@@": 906,
    "ene": 907,
    "vier@@": 908,
    "Straße": 909,
    "cht": 910,
    "ve": 911,
    "dort": 912,
    "isches": 913,
    "erk@@": 914,
    ".@@": 915,
    "zwei@@": 916,
    "ft": 917,
    "Pe@@": 918,
    "hier": 919,
    "enen": 920,
    "ick@@": 921,
    "gehören": 922,
    "Dar@@": 923,
    "kleine": 924,
    "To@@": 925,
    "Mitglied": 926,
    "Ger@@": 927,
    "Pa@@": 928,
    "Lie@@": 929,
    "oll@@": 930,
    "gte": 931,
    "frei@@": 932,
    "del@@": 933,
    "Ko@@": 934,
    "seines": 935,
    "gh@@": 936,
    "Mann@@": 937,
    "sei@@": 938,
    "Gu@@": 939,
    "sollte": 940,
    "zog": 941,
    "lu@@": 942,
    "Th@@": 943,
    "äch@@": 944,
    "West@@": 945,
    "hi@@": 946,
    ";": 947,
    "ner@@": 948,
    "Park": 949,
    "tung": 950,
    "mus@@": 951,
    "elle": 952,
    "besteht": 953,
    "Ka@@": 954,
    "ges": 955,
    "Au@@": 956,
    "gra@@": 957,
    "rau@@": 958,
    "gehört": 959,
    "(@@": 960,
    "veröffent@@": 961,
    "ur": 962,
    "mar@@": 963,
    "Mit@@": 964,
    "son": 965,
    "ard@@": 966,
    "je@@": 967,
    "Universität": 968,
    "che@@": 969,
    "ierung": 970,
    "gl@@": 971,
    "eln": 972,
    "High": 973,
    "amm@@": 974,
    "Ad@@": 975,
    "ber": 976,
    "We@@": 977,
    "land": 978,
    "Gar@@": 979,
    "Fre@@": 980,
    "Am@@": 981,
    "Tag": 982,
    "Schule": 983,
    "ver": 984,
    "Da@@": 985,
    "zeit": 986,
    "ihnen": 987,
    "ell": 988,
    "hinzu@@": 989,
    "z.": 990,
    "ce": 991,
    "gehen": 992,
    "fol@@": 993,
    "fe": 994,
    "Ent@@": 995,
    "sicher@@": 996,
    "ze@@": 997,
    "heit@@": 998,
    "hauptsächlich": 999,
    "Bu@@": 1000,
    "erst@@": 1001,
    "Musik@@": 1002,
    "Hund": 1003,
    "iel@@": 1004,
    "Ober@@": 1005,
    "Sk@@": 1006,
    "zehn": 1007,
    "Gebäude": 1008,
    "verschiedene": 1009,
    "ges@@": 1010,
    "dien@@": 1011,
    "c": 1012,
    "bekannt": 1013,
    "Welt@@": 1014,
    "ker": 1015,
    "id@@": 1016,
    "War@@": 1017,
    "the": 1018,
    "‘@@": 1019,
    "macht": 1020,
    "versu@@": 1021,
    "ga@@": 1022,
    "Musik": 1023,
    "Dann": 1024,
    "Bur@@": 1025,
    "Neu@@": 1026,
    "Gebiet": 1027,
    "ori@@": 1028,
    "hält": 1029,
    "College": 1030,
    "wen@@": 1031,
    "Reihe": 1032,
    "schon": 1033,
    "ment@@": 1034,
    "zeit@@": 1035,
    "möchte": 1036,
    "anz@@": 1037,
    "Inter@@": 1038,
    "gt": 1039,
    "wegen": 1040,
    "verwendet": 1041,
    "fort@@": 1042,
    "arbeitete": 1043,
    "Frauen": 1044,
    "Kind": 1045,
    "Br@@": 1046,
    "kan@@": 1047,
    "größte": 1048,
    "Zei@@": 1049,
    "nun": 1050,
    "verschiedenen": 1051,
    "Engl@@": 1052,
    "For@@": 1053,
    "ast@@": 1054,
    "letzten": 1055,
    "zo@@": 1056,
    "ia": 1057,
    "Wa@@": 1058,
    "Bel@@": 1059,
    "soll@@": 1060,
    "befinden": 1061,
    "weiter@@": 1062,
    "Lei@@": 1063,
    "dern": 1064,
    "zer@@": 1065,
    "darauf": 1066,
    "gesetz@@": 1067,
    "angen@@": 1068,
    "änder@@": 1069,
    "weiter": 1070,
    "tä@@": 1071,
    "machte": 1072,
    "län@@": 1073,
    "lig@@": 1074,
    "einigen": 1075,
    "vi@@": 1076,
    "ari@@": 1077,
    "Nor@@": 1078,
    "Gen@@": 1079,
    "ze": 1080,
    "rat@@": 1081,
    "ort@@": 1082,
    "Sta@@": 1083,
    "Per@@": 1084,
    "Bitte": 1085,
    "zen": 1086,
    "denen": 1087,
    "tete": 1088,
    "Park@@": 1089,
    "Fa@@": 1090,
    "Tri@@": 1091,
    "Bi@@": 1092,
    "les@@": 1093,
    "einfach": 1094,
    "Ste@@": 1095,
    "Rück@@": 1096,
    "Haus@@": 1097,
    "kommt": 1098,
    "Je@@": 1099,
    "Min@@": 1100,
    "Ru@@": 1101,
    "mer@@": 1102,
    "sechs": 1103,
    "Fahr@@": 1104,
    "finden": 1105,
    "fast": 1106,
    "Kat@@": 1107,
    "trä@@": 1108,
    "stehen": 1109,
    "dich": 1110,
    "weg@@": 1111,
    "ds": 1112,
    "tigen": 1113,
    "gele@@": 1114,
    "rü@@": 1115,
    "nichts": 1116,
    "ellen": 1117,
    "do@@": 1118,
    "bevor": 1119,
    "ks@@": 1120,
    "glau@@": 1121,
    "fel@@": 1122,
    "Am": 1123,
    "trat": 1124,
    "besuchte": 1125,
    "Mutter": 1126,
    "star@@": 1127,
    "ig": 1128,
    "ke@@": 1129,
    "ganz": 1130,
    "bef@@": 1131,
    "rot@@": 1132,
    "bur@@": 1133,
    "alles": 1134,
    "verl@@": 1135,
    "Do@@": 1136,
    "rä@@": 1137,
    "neuen": 1138,
    "ert": 1139,
    "Du@@": 1140,
    "Coun@@": 1141,
    "per@@": 1142,
    "Grund@@": 1143,
    "heit": 1144,
    "tern": 1145,
    "gel": 1146,
    "ed@@": 1147,
    "heraus@@": 1148,
    "alten": 1149,
    "Lu@@": 1150,
    "sicht@@": 1151,
    "sel@@": 1152,
    "et": 1153,
    "Pf@@": 1154,
    "kleinen": 1155,
    "Flug@@": 1156,
    "starb": 1157,
    "folgenden": 1158,
    "iger": 1159,
    "schnell": 1160,
    "!@@": 1161,
    "sche": 1162,
    "to@@": 1163,
    "Dorf": 1164,
    "dung": 1165,
    "ett@@": 1166,
    "Saint": 1167,
    "stu@@": 1168,
    "ven": 1169,
    "ka@@": 1170,
    "Bau@@": 1171,
    "lit@@": 1172,
    "abge@@": 1173,
    "sitz@@": 1174,
    "gs@@": 1175,
    "ons": 1176,
    "dir": 1177,
    "yl@@": 1178,
    "ine@@": 1179,
    "Personen": 1180,
    "Buch": 1181,
    "ub@@": 1182,
    "schrieb": 1183,
    "Wal@@": 1184,
    "form@@": 1185,
    "innerhalb": 1186,
    "Mal@@": 1187,
    "keinen": 1188,
    "einzige": 1189,
    "Nord@@": 1190,
    "Hoch@@": 1191,
    "bedeut@@": 1192,
    "neben": 1193,
    "damit": 1194,
    "bar": 1195,
    "lange": 1196,
    "außerdem": 1197,
    "ür@@": 1198,
    "allen": 1199,
    "Sal@@": 1200,
    "Vereinigten": 1201,
    "Ba@@": 1202,
    "ör@@": 1203,
    "manchmal": 1204,
    "führt": 1205,
    "tz@@": 1206,
    "lebt": 1207,
    "ion@@": 1208,
    "handelt": 1209,
    "At@@": 1210,
    "ations@@": 1211,
    "tern@@": 1212,
    "iz@@": 1213,
    "davon": 1214,
    "letzte": 1215,
    "Luft@@": 1216,
    "tion": 1217,
    "sta@@": 1218,
    "sitzt": 1219,
    "schen": 1220,
    "ip@@": 1221,
    "Frei@@": 1222,
    "ven@@": 1223,
    "ard": 1224,
    "Film@@": 1225,
    "Pre@@": 1226,
    "Mat@@": 1227,
    "lau@@": 1228,
    "fre@@": 1229,
    "Region": 1230,
    "Ort": 1231,
    "Land": 1232,
    "Beide": 1233,
    "gewäh@@": 1234,
    "ismus": 1235,
    "tel@@": 1236,
    "könnte": 1237,
    "Kol@@": 1238,
    "Außerdem": 1239,
    "weiterhin": 1240,
    "erung": 1241,
    "dete": 1242,
    "derzeit": 1243,
    "beide": 1244,
    "voll@@": 1245,
    "Von": 1246,
    "mat@@": 1247,
    "Met@@": 1248,
    "nächsten": 1249,
    "aten": 1250,
    "iv@@": 1251,
    "Form": 1252,
    "teten": 1253,
    "ktion@@": 1254,
    "alt@@": 1255,
    "namens": 1256,
    "sowie": 1257,
    "gleich@@": 1258,
    "Spieler": 1259,
    "fl@@": 1260,
    "Scho@@": 1261,
    "Ph@@": 1262,
    "Wasser": 1263,
    "mal": 1264,
    "ans": 1265,
    "po@@": 1266,
    "ex@@": 1267,
    "kten": 1268,
    "ey": 1269,
    "all": 1270,
    "alis@@": 1271,
    "bu@@": 1272,
    "Seite": 1273,
    "County": 1274,
    "schließlich": 1275,
    "Sc@@": 1276,
    "Rolle": 1277,
    "cher": 1278,
    "ystem@@": 1279,
    "ron@@": 1280,
    "Ex@@": 1281,
    "oo@@": 1282,
    "ov@@": 1283,
    "iss@@": 1284,
    "Haus": 1285,
    "schrei@@": 1286,
    "olog@@": 1287,
    "lte": 1288,
    "Kn@@": 1289,
    "ut": 1290,
    "ob": 1291,
    "bau@@": 1292,
    "Serie": 1293,
    "Col@@": 1294,
    "schw@@": 1295,
    "Karriere": 1296,
    "wieder@@": 1297,
    "spro@@": 1298,
    "bin@@": 1299,
    "Süd@@": 1300,
    "Person": 1301,
    "los@@": 1302,
    "geboren": 1303,
    "ersch@@": 1304,
    "eigenen": 1305,
    "ang": 1306,
    "acht": 1307,
    "Regel": 1308,
    "Beispiel": 1309,
    "ali@@": 1310,
    "sion@@": 1311,
    "ser@@": 1312,
    "stellte": 1313,
    "etz@@": 1314,
    "Drei": 1315,
    "plat@@": 1316,
    "Sen@@": 1317,
    "Ser@@": 1318,
    "ück@@": 1319,
    "trägt": 1320,
    "Regi@@": 1321,
    "üb@@": 1322,
    "gung": 1323,
    "stre@@": 1324,
    "–": 1325,
    "wirklich": 1326,
    "w": 1327,
    "ckte": 1328,
    "ess@@": 1329,
    "Bri@@": 1330,
    "sor@@": 1331,
    "gewann": 1332,
    "weit": 1333,
    "sehen": 1334,
    "off@@": 1335,
    "findet": 1336,
    "Andere": 1337,
    "ath@@": 1338,
    "ander@@": 1339,
    "zeu@@": 1340,
    "sh@@": 1341,
    "selben": 1342,
    "cke@@": 1343,
    "ehr@@": 1344,
    "University": 1345,
    "Fluss": 1346,
    "gek@@": 1347,
    "Hin@@": 1348,
    "Gegen@@": 1349,
    "Colle@@": 1350,
    "arr@@": 1351,
    "Schw@@": 1352,
    "Lied": 1353,
    "stark": 1354,
    "ks": 1355,
    "Tod": 1356,
    "Te@@": 1357,
    "Bra@@": 1358,
    "Reg@@": 1359,
    "chte": 1360,
    "Jahr@@": 1361,
    "nah@@": 1362,
    "Ihnen": 1363,
    "Arten": 1364,
    "mehreren": 1365,
    "liches": 1366,
    "her": 1367,
    "gegen@@": 1368,
    "Mittel@@": 1369,
    "nung": 1370,
    "lung": 1371,
    "Man": 1372,
    "zweiten": 1373,
    "r": 1374,
    "nehmen@@": 1375,
    "oh@@": 1376,
    "seit": 1377,
    "leg@@": 1378,
    "ele@@": 1379,
    "äl@@": 1380,
    "verfügt": 1381,
    "Groß@@": 1382,
    "An": 1383,
    "are": 1384,
    "fer": 1385,
    "Hei@@": 1386,
    "ähr@@": 1387,
    "zweite": 1388,
    "fall@@": 1389,
    "ou@@": 1390,
    "ffe@@": 1391,
    "weniger": 1392,
    "fü@@": 1393,
    "bietet": 1394,
    "ba@@": 1395,
    "versch@@": 1396,
    "hol@@": 1397,
    "hel@@": 1398,
    "gr@@": 1399,
    "eln@@": 1400,
    "amp@@": 1401,
    "So": 1402,
    "zieh@@": 1403,
    "yn@@": 1404,
    "schen@@": 1405,
    "Menschen@@": 1406,
    "dan@@": 1407,
    "?@@": 1408,
    "zusammen": 1409,
    "zeug@@": 1410,
    "wal@@": 1411,
    "ursprünglich": 1412,
    "kre@@": 1413,
    "enb@@": 1414,
    "Hu@@": 1415,
    "Ant@@": 1416,
    "sieben": 1417,
    "schaff@@": 1418,
    "entwick@@": 1419,
    "Regierung": 1420,
    "Mitglieder": 1421,
    "Heute": 1422,
    "Hal@@": 1423,
    "Gr@@": 1424,
    "one": 1425,
    "Liste": 1426,
    "Ku@@": 1427,
    "Tochter": 1428,
    "eg@@": 1429,
    "bald": 1430,
    "nahmen": 1431,
    "hoch@@": 1432,
    "Bus@@": 1433,
    "tungs@@": 1434,
    "Kri@@": 1435,
    "weißen": 1436,
    "tungen": 1437,
    "stra@@": 1438,
    "gemein@@": 1439,
    "Welt": 1440,
    "no@@": 1441,
    "Zwei@@": 1442,
    "York": 1443,
    "fa@@": 1444,
    "Dis@@": 1445,
    "rit@@": 1446,
    "Version": 1447,
    "weise": 1448,
    "paar": 1449,
    "Pal@@": 1450,
    "Fe@@": 1451,
    "Cor@@": 1452,
    "v": 1453,
    "gten": 1454,
    "Um": 1455,
    "Tor@@": 1456,
    "des@@": 1457,
    "tet": 1458,
    "Wor@@": 1459,
    "Plat@@": 1460,
    "schul@@": 1461,
    "US@@": 1462,
    "Fra@@": 1463,
    "bedeutet": 1464,
    "art@@": 1465,
    "Sport@@": 1466,
    "Begriff": 1467,
    "vil@@": 1468,
    "ja@@": 1469,
    "Sol@@": 1470,
    "Hemd": 1471,
    "ologie": 1472,
    "blieb": 1473,
    "Kor@@": 1474,
    "wenig": 1475,
    "ott@@": 1476,
    "enthält": 1477,
    "ville": 1478,
    "umfasst": 1479,
    "oren": 1480,
    "Sei@@": 1481,
    "komm@@": 1482,
    "erin": 1483,
    "spre@@": 1484,
    "neu@@": 1485,
    "erten": 1486,
    "Dra@@": 1487,
    "meinen": 1488,
    "erfolg@@": 1489,
    "Ak@@": 1490,
    "kleiner": 1491,
    "hinter": 1492,
    "det": 1493,
    "anzu@@": 1494,
    "setzte": 1495,
    "bereits": 1496,
    "normalerweise": 1497,
    "loss@@": 1498,
    "enti@@": 1499,
    "Frau@@": 1500,
    "tritt": 1501,
    "Sti@@": 1502,
    "gut@@": 1503,
    "Yor@@": 1504,
    "Da": 1505,
    "Che@@": 1506,
    "Bezirk": 1507,
    "gang": 1508,
    "New@@": 1509,
    "ender": 1510,
    "berei@@": 1511,
    "ett": 1512,
    "Wohn@@": 1513,
    "Kom@@": 1514,
    "sto@@": 1515,
    "sah": 1516,
    "ative": 1517,
    "Bre@@": 1518,
    "schaften": 1519,
    "onen": 1520,
    "schu@@": 1521,
    "ci@@": 1522,
    "ad": 1523,
    "stei@@": 1524,
    "ohn@@": 1525,
    "besten": 1526,
    "Ben@@": 1527,
    "wuchs": 1528,
    "zurück": 1529,
    "sion": 1530,
    "ier": 1531,
    "bel": 1532,
    "Wort": 1533,
    "geschloss@@": 1534,
    "gar@@": 1535,
    "vis@@": 1536,
    "ren@@": 1537,
    "ep@@": 1538,
    "Kin@@": 1539,
    "ßen@@": 1540,
    "jeder": 1541,
    "grün@@": 1542,
    "cke": 1543,
    "Pat@@": 1544,
    "Pap@@": 1545,
    "Lehr@@": 1546,
    "Hel@@": 1547,
    "Mal": 1548,
    "roten": 1549,
    "inter@@": 1550,
    "Is@@": 1551,
    "Buch@@": 1552,
    "Band@@": 1553,
    "Bal@@": 1554,
    "ät@@": 1555,
    "ry": 1556,
    "prä@@": 1557,
    "Ke@@": 1558,
    "zeigt": 1559,
    "ma": 1560,
    "kehr@@": 1561,
    "ette": 1562,
    "Bruder": 1563,
    "he": 1564,
    "Ä@@": 1565,
    "weiß@@": 1566,
    "schie@@": 1567,
    "od@@": 1568,
    "ität": 1569,
    "gehör@@": 1570,
    "errei@@": 1571,
    "süd@@": 1572,
    "ra": 1573,
    "ot": 1574,
    "größten": 1575,
    "Team": 1576,
    "Kunst@@": 1577,
    "Mein": 1578,
    "ßen": 1579,
    "rin@@": 1580,
    "ac@@": 1581,
    "Pri@@": 1582,
    "produz@@": 1583,
    "hande@@": 1584,
    "diente": 1585,
    "by@@": 1586,
    "aufgrund": 1587,
    "arbeiten": 1588,
    "Mus@@": 1589,
    "Ed@@": 1590,
    "wäre": 1591,
    "cher@@": 1592,
    "Kirche": 1593,
    "wider@@": 1594,
    "oten": 1595,
    "hen": 1596,
    "einmal": 1597,
    "Universit@@": 1598,
    "Weg": 1599,
    "bra@@": 1600,
    "Hier": 1601,
    "äre": 1602,
    "wär@@": 1603,
    "schei@@": 1604,
    "gerade": 1605,
    "fra@@": 1606,
    "blauen": 1607,
    "ats@@": 1608,
    "Pu@@": 1609,
    "All@@": 1610,
    "met@@": 1611,
    "mehr@@": 1612,
    "ham": 1613,
    "Gi@@": 1614,
    ")": 1615,
    "Prot@@": 1616,
    "Fußball@@": 1617,
    "Fin@@": 1618,
    "tig": 1619,
    "kur@@": 1620,
    "doch": 1621,
    "Dat@@": 1622,
    "von@@": 1623,
    "stellung": 1624,
    "fand": 1625,
    "fiz@@": 1626,
    "ande@@": 1627,
    "Wil@@": 1628,
    "Lebens@@": 1629,
    "itä@@": 1630,
    "gende": 1631,
    "Staaten": 1632,
    "Jo@@": 1633,
    "Char@@": 1634,
    "ons@@": 1635,
    "Fall": 1636,
    "hätte": 1637,
    "eri@@": 1638,
    "tei@@": 1639,
    "Sitz": 1640,
    "win@@": 1641,
    "Insel": 1642,
    "mü@@": 1643,
    "ktion": 1644,
    "verheirat@@": 1645,
    "leben@@": 1646,
    "Jun@@": 1647,
    "stän@@": 1648,
    "schle@@": 1649,
    "ließ": 1650,
    "junge": 1651,
    "gilt": 1652,
    "ab": 1653,
    "Fol@@": 1654,
    "schl@@": 1655,
    "ff": 1656,
    "William": 1657,
    "Sand@@": 1658,
    "Nachdem": 1659,
    "trau@@": 1660,
    "mei@@": 1661,
    "sollten": 1662,
    "Straß@@": 1663,
    "James": 1664,
    "Bahn@@": 1665,
    "ker@@": 1666,
    "cks": 1667,
    "Auto": 1668,
    "pa@@": 1669,
    "Person@@": 1670,
    "machen": 1671,
    "etwa": 1672,
    "bre@@": 1673,
    "allem": 1674,
    "Na@@": 1675,
    "City": 1676,
    "mor@@": 1677,
    "The@@": 1678,
    "Sha@@": 1679,
    "zw@@": 1680,
    "dr@@": 1681,
    "Tu@@": 1682,
    "ähn@@": 1683,
    "van@@": 1684,
    "ik": 1685,
    "dazu": 1686,
    "angeb@@": 1687,
    "Schu@@": 1688,
    "National": 1689,
    "George": 1690,
    "mög@@": 1691,
    "fahren": 1692,
    "West": 1693,
    "Gl@@": 1694,
    "los": 1695,
    "kor@@": 1696,
    "großer": 1697,
    "für@@": 1698,
    "ball@@": 1699,
    "anischen": 1700,
    "Entwicklung": 1701,
    "soll": 1702,
    "groß@@": 1703,
    "lä@@": 1704,
    "denk@@": 1705,
    "Spe@@": 1706,
    "ill": 1707,
    "spe@@": 1708,
    "nis@@": 1709,
    "gs": 1710,
    "cker@@": 1711,
    "hinaus": 1712,
    "gewor@@": 1713,
    "ganze": 1714,
    "besonders": 1715,
    "Ur@@": 1716,
    "Präsident": 1717,
    "lauf@@": 1718,
    "kurz": 1719,
    "Op@@": 1720,
    "Danach": 1721,
    "Ca@@": 1722,
    "darunter": 1723,
    "amerikanischen": 1724,
    "Partei": 1725,
    "Gel@@": 1726,
    "Not@@": 1727,
    "Bro@@": 1728,
    "leben": 1729,
    "Verbindung": 1730,
    "indem": 1731,
    "hand@@": 1732,
    "zahl@@": 1733,
    "oni@@": 1734,
    "Far@@": 1735,
    "Wel@@": 1736,
    "Tre@@": 1737,
    "National@@": 1738,
    "Mehrere": 1739,
    "wirk@@": 1740,
    "por@@": 1741,
    "bereit@@": 1742,
    "aler": 1743,
    "Durch": 1744,
    "unterstütz@@": 1745,
    "ford": 1746,
    "verkauf@@": 1747,
    "König@@": 1748,
    "üh@@": 1749,
    "mittel@@": 1750,
    "gesehen": 1751,
    "elt": 1752,
    "Meine": 1753,
    "uren": 1754,
    "stellen": 1755,
    "recht@@": 1756,
    "mel@@": 1757,
    "sieht": 1758,
    "leicht": 1759,
    "geben": 1760,
    "fte": 1761,
    "ente": 1762,
    "Kl@@": 1763,
    "Christ@@": 1764,
    "lichkeit": 1765,
    "belieb@@": 1766,
    "anc@@": 1767,
    "Mi@@": 1768,
    "Com@@": 1769,
    "Bru@@": 1770,
    "ies": 1771,
    "Unter": 1772,
    "Tr@@": 1773,
    "Bahnhof": 1774,
    "Aus": 1775,
    "ris@@": 1776,
    "kleines": 1777,
    "kar@@": 1778,
    "hielt": 1779,
    "Kur@@": 1780,
    "leb@@": 1781,
    "entlang": 1782,
    "az@@": 1783,
    "Hol@@": 1784,
    "selbst@@": 1785,
    "lag@@": 1786,
    "hen@@": 1787,
    "Spiele": 1788,
    "Ac@@": 1789,
    "wahr@@": 1790,
    "ure": 1791,
    "kehrte": 1792,
    "Rich@@": 1793,
    "Obwohl": 1794,
    "Cre@@": 1795,
    "Bei@@": 1796,
    "zahlreiche": 1797,
    "stimm@@": 1798,
    "ku@@": 1799,
    "ate": 1800,
    "Cro@@": 1801,
    "weiß": 1802,
    "pol@@": 1803,
    "ings@@": 1804,
    "flü@@": 1805,
    "kti@@": 1806,
    "Bild@@": 1807,
    "gri@@": 1808,
    "bt": 1809,
    "ant": 1810,
    "alte": 1811,
    "Show": 1812,
    "sse": 1813,
    "bek@@": 1814,
    "Rock@@": 1815,
    "North": 1816,
    "Kopf@@": 1817,
    "to": 1818,
    "hier@@": 1819,
    "schafts@@": 1820,
    "jedes": 1821,
    "San": 1822,
    "Hor@@": 1823,
    "schi@@": 1824,
    "Mu@@": 1825,
    "studierte": 1826,
    "Wieder@@": 1827,
    "weiteren": 1828,
    "pre@@": 1829,
    "mann@@": 1830,
    "kal@@": 1831,
    "gebil@@": 1832,
    "Produ@@": 1833,
    "Poli@@": 1834,
    "Flü@@": 1835,
    "Fernseh@@": 1836,
    "ganzen": 1837,
    "erw@@": 1838,
    "bor@@": 1839,
    "Stre@@": 1840,
    "Part@@": 1841,
    "Eltern": 1842,
    "kat@@": 1843,
    "ften": 1844,
    "Wer@@": 1845,
    "Wer": 1846,
    "Hand": 1847,
    "schwarzen": 1848,
    "läuft": 1849,
    "ct@@": 1850,
    "chter@@": 1851,
    "ativen": 1852,
    "Stu@@": 1853,
    "Wahl@@": 1854,
    "Sprache": 1855,
    "Linie": 1856,
    "Krieg": 1857,
    "Ball@@": 1858,
    "unden": 1859,
    "nieder@@": 1860,
    "ihres": 1861,
    "hän@@": 1862,
    "X@@": 1863,
    "Schl@@": 1864,
    "öffentlichen": 1865,
    "satz@@": 1866,
    "kun@@": 1867,
    "bie@@": 1868,
    "San@@": 1869,
    "Saison": 1870,
    "Nur": 1871,
    "Ir@@": 1872,
    "Bürger@@": 1873,
    "shi@@": 1874,
    "mp@@": 1875,
    "fährt": 1876,
    "drei@@": 1877,
    "Ros@@": 1878,
    "Fer@@": 1879,
    "woll@@": 1880,
    "wesen@@": 1881,
    "mer": 1882,
    "lag": 1883,
    "South": 1884,
    "rö@@": 1885,
    "ash@@": 1886,
    "amen": 1887,
    "sol@@": 1888,
    "reg@@": 1889,
    "gegenüber": 1890,
    "Tran@@": 1891,
    "Mis@@": 1892,
    "the@@": 1893,
    "stellt": 1894,
    "gän@@": 1895,
    "arbeitet": 1896,
    "ump@@": 1897,
    "Tro@@": 1898,
    "nachdem": 1899,
    "brachte": 1900,
    "Verwendung": 1901,
    "Durch@@": 1902,
    "Augen": 1903,
    "schau@@": 1904,
    "halb": 1905,
    "River": 1906,
    "Prä@@": 1907,
    "ort": 1908,
    "nor@@": 1909,
    "nimmt": 1910,
    "nahe": 1911,
    "je": 1912,
    "fül@@": 1913,
    "alter": 1914,
    "Platz": 1915,
    "Berg@@": 1916,
    "haus@@": 1917,
    "Tour@@": 1918,
    "Ton@@": 1919,
    "System": 1920,
    "Arbeit@@": 1921,
    "ß": 1922,
    "far@@": 1923,
    "sei": 1924,
    "don@@": 1925,
    "Kir@@": 1926,
    "Gemeinde@@": 1927,
    "ssen": 1928,
    "scheint": 1929,
    "erst": 1930,
    "eller": 1931,
    "werk@@": 1932,
    "dafür": 1933,
    "begra@@": 1934,
    "ale@@": 1935,
    "Richtung": 1936,
    "Ele@@": 1937,
    "Dem@@": 1938,
    "Club": 1939,
    "fro@@": 1940,
    "Go@@": 1941,
    "wichtige": 1942,
    "il": 1943,
    "also": 1944,
    "öff@@": 1945,
    "unk@@": 1946,
    "ins@@": 1947,
    "fri@@": 1948,
    "bit@@": 1949,
    "London": 1950,
    "klein@@": 1951,
    "fil@@": 1952,
    "einander@@": 1953,
    "Alb@@": 1954,
    "trag@@": 1955,
    "sech@@": 1956,
    "sc@@": 1957,
    "Weise": 1958,
    "Geschäfts@@": 1959,
    "Eis@@": 1960,
    "mu@@": 1961,
    "gleichen": 1962,
    "Sprach@@": 1963,
    "Gemein@@": 1964,
    "tlich": 1965,
    "spä@@": 1966,
    "gesamten": 1967,
    "geln": 1968,
    "Tal@@": 1969,
    "Kaliforn@@": 1970,
    "wert@@": 1971,
    "ziemlich": 1972,
    "wi@@": 1973,
    "offen@@": 1974,
    "ach": 1975,
    "Schulen": 1976,
    "Mut@@": 1977,
    "Gegend": 1978,
    "Abschluss": 1979,
    "irgend@@": 1980,
    "Pol@@": 1981,
    "Ker@@": 1982,
    "Jer@@": 1983,
    "Gal@@": 1984,
    "Geh@@": 1985,
    "zeiten": 1986,
    "sogar": 1987,
    "sitzen": 1988,
    "organis@@": 1989,
    "lungen": 1990,
    "gu@@": 1991,
    "ate@@": 1992,
    "Mac@@": 1993,
    "Dort": 1994,
    "unten": 1995,
    "lten": 1996,
    "ds@@": 1997,
    "ator@@": 1998,
    "Geld": 1999,
    "gesamte": 2000,
    "fäl@@": 2001,
    "entfern@@": 2002,
    "ei": 2003,
    "direkt": 2004,
    "besser": 2005,
    "anz": 2006,
    "Si@@": 2007,
    "Holz@@": 2008,
    "Dan@@": 2009,
    "A.": 2010,
    "usi@@": 2011,
    "kop@@": 2012,
    "gern": 2013,
    "Plan@@": 2014,
    "Fest@@": 2015,
    "san@@": 2016,
    "pl@@": 2017,
    "jeden": 2018,
    "größ@@": 2019,
    "Sub@@": 2020,
    "Ist": 2021,
    "sam@@": 2022,
    "neu": 2023,
    "befand": 2024,
    "Zentrum": 2025,
    "Unternehmen@@": 2026,
    "Kre@@": 2027,
    "enten": 2028,
    "Robert": 2029,
    "stelle": 2030,
    "ktionen": 2031,
    "ast": 2032,
    "zer": 2033,
    "such@@": 2034,
    "kam@@": 2035,
    "Darüber": 2036,
    "sche@@": 2037,
    "außerhalb": 2038,
    "ug@@": 2039,
    "stammt": 2040,
    "lassen": 2041,
    "Kap@@": 2042,
    "verlie@@": 2043,
    "ms": 2044,
    "früher": 2045,
    "druck@@": 2046,
    "dabei": 2047,
    "blei@@": 2048,
    "öffentliche": 2049,
    "sse@@": 2050,
    "schließ@@": 2051,
    "letz@@": 2052,
    "ham@@": 2053,
    "elte": 2054,
    "Can@@": 2055,
    "ße": 2056,
    "tie@@": 2057,
    "gend": 2058,
    "anische": 2059,
    "Bereich": 2060,
    "Arm@@": 2061,
    "tel": 2062,
    "klar@@": 2063,
    "immer@@": 2064,
    "genden": 2065,
    "Dinge": 2066,
    "öl@@": 2067,
    "wel@@": 2068,
    "bestand": 2069,
    "bare": 2070,
    "Sam@@": 2071,
    "unde": 2072,
    "haus": 2073,
    "genen": 2074,
    "els": 2075,
    "anderer": 2076,
    "Zum": 2077,
    "Leute": 2078,
    "lern@@": 2079,
    "kenn@@": 2080,
    "ckt": 2081,
    "Tex@@": 2082,
    "ser": 2083,
    "ieh@@": 2084,
    "ed": 2085,
    "asse": 2086,
    "Nam@@": 2087,
    "Anti@@": 2088,
    "Pla@@": 2089,
    "Mag@@": 2090,
    "Lieder": 2091,
    "üt@@": 2092,
    "lebte": 2093,
    "funktion@@": 2094,
    "erster": 2095,
    "Tur@@": 2096,
    "Bat@@": 2097,
    "ön@@": 2098,
    "kamen": 2099,
    "Prin@@": 2100,
    "No@@": 2101,
    "Jeder": 2102,
    "halten": 2103,
    "haf@@": 2104,
    "gebiet": 2105,
    "Sho@@": 2106,
    "wahrscheinlich": 2107,
    "einfach@@": 2108,
    "by": 2109,
    "Fil@@": 2110,
    "Cal@@": 2111,
    "insbesondere": 2112,
    "hast": 2113,
    "Ost@@": 2114,
    "Mer@@": 2115,
    "Jungen": 2116,
    "Gast@@": 2117,
    "Doch": 2118,
    "Artikel": 2119,
    "verk@@": 2120,
    "ums": 2121,
    "frühen": 2122,
    "Wol@@": 2123,
    "Vor": 2124,
    "Cl@@": 2125,
    "yp@@": 2126,
    "schein@@": 2127,
    "erneut": 2128,
    "ame": 2129,
    "On@@": 2130,
    "Men@@": 2131,
    "zäh@@": 2132,
    "trug": 2133,
    "oben": 2134,
    "liegen": 2135,
    "finanz@@": 2136,
    "Natur@@": 2137,
    "Hü@@": 2138,
    "schla@@": 2139,
    "om": 2140,
    "ment": 2141,
    "häl@@": 2142,
    "ged@@": 2143,
    "dungen": 2144,
    "Suche": 2145,
    "Hauptstadt": 2146,
    "Brü@@": 2147,
    "vollständig": 2148,
    "mischen": 2149,
    "eher": 2150,
    "Ter@@": 2151,
    "Süden": 2152,
    "Post@@": 2153,
    "Fisch@@": 2154,
    "zogen": 2155,
    "techn@@": 2156,
    "inen": 2157,
    "ina": 2158,
    "dem@@": 2159,
    "Nacht": 2160,
    "Gre@@": 2161,
    "Flughafen": 2162,
    "Boden": 2163,
    "wollte": 2164,
    "lage": 2165,
    "it": 2166,
    "Bü@@": 2167,
    "würden": 2168,
    "iti@@": 2169,
    "Super@@": 2170,
    "Station": 2171,
    "Paar": 2172,
    "lässt": 2173,
    "leh@@": 2174,
    "hervor@@": 2175,
    "fik@@": 2176,
    "betra@@": 2177,
    "Song": 2178,
    "Programm": 2179,
    "Gebie@@": 2180,
    "spiel": 2181,
    "best@@": 2182,
    "bau": 2183,
    "Tage": 2184,
    "Großteil": 2185,
    "Gro@@": 2186,
    "erklär@@": 2187,
    "ase": 2188,
    "König": 2189,
    "Grupp@@": 2190,
    "genau": 2191,
    "Paul": 2192,
    "Hy@@": 2193,
    "Allgemeinen": 2194,
    ")@@": 2195,
    "weil": 2196,
    "tragen": 2197,
    "teil": 2198,
    "ssi@@": 2199,
    "istischen": 2200,
    "ay@@": 2201,
    "Schn@@": 2202,
    "Mau@@": 2203,
    "Lau@@": 2204,
    "Komp@@": 2205,
    "illi@@": 2206,
    "bro@@": 2207,
    "Web@@": 2208,
    "Lan@@": 2209,
    "öst@@": 2210,
    "tere": 2211,
    "sit@@": 2212,
    "ev@@": 2213,
    "Werk@@": 2214,
    "Son@@": 2215,
    "punkt": 2216,
    "nord@@": 2217,
    "merk@@": 2218,
    "deut@@": 2219,
    "Ran@@": 2220,
    "Motor@@": 2221,
    "Gold@@": 2222,
    "unsere": 2223,
    "rieb@@": 2224,
    "gute": 2225,
    "feu@@": 2226,
    "dat@@": 2227,
    "ban@@": 2228,
    "State": 2229,
    "Bl@@": 2230,
    "verf@@": 2231,
    "kul@@": 2232,
    "ka": 2233,
    "issen": 2234,
    "alität": 2235,
    "Zusammen@@": 2236,
    "Playlist": 2237,
    "Män@@": 2238,
    "ion": 2239,
    "field": 2240,
    "ech@@": 2241,
    "besu@@": 2242,
    "Theat@@": 2243,
    "Studenten": 2244,
    "Renn@@": 2245,
    "Fü@@": 2246,
    "sofort": 2247,
    "mö@@": 2248,
    "jede": 2249,
    "itten@@": 2250,
    "gend@@": 2251,
    "ana": 2252,
    "Spielen": 2253,
    "Projekt": 2254,
    "England": 2255,
    "Über": 2256,
    "weg": 2257,
    "verw@@": 2258,
    "tierte": 2259,
    "recht": 2260,
    "iet@@": 2261,
    "gene": 2262,
    "Pl@@": 2263,
    "Gri@@": 2264,
    "Friedhof": 2265,
    "Aut@@": 2266,
    "tiger": 2267,
    "ielle": 2268,
    "enz": 2269,
    "einander": 2270,
    "bitte": 2271,
    "Informationen": 2272,
    "Einzel@@": 2273,
    "stes": 2274,
    "schwar@@": 2275,
    "wenige": 2276,
    "regelmäßig": 2277,
    "oph@@": 2278,
    "ligen": 2279,
    "dungs@@": 2280,
    "bleibt": 2281,
    "aufzu@@": 2282,
    "ahl@@": 2283,
    "Restaurant": 2284,
    "Ban@@": 2285,
    "wunder@@": 2286,
    "Kopf": 2287,
    "Hinter@@": 2288,
    "Han@@": 2289,
    "David": 2290,
    "‚@@": 2291,
    "äm@@": 2292,
    "ta": 2293,
    "schn@@": 2294,
    "antwortete": 2295,
    "Syn@@": 2296,
    "Krie@@": 2297,
    "Cap@@": 2298,
    "ären": 2299,
    "wechsel@@": 2300,
    "verfüg@@": 2301,
    "fall": 2302,
    "empf@@": 2303,
    "werk": 2304,
    "verwenden": 2305,
    "tliche": 2306,
    "tes@@": 2307,
    "krit@@": 2308,
    "Weitere": 2309,
    "Rennen": 2310,
    "Ort@@": 2311,
    "Norden": 2312,
    "Lake": 2313,
    "Augen@@": 2314,
    "zug": 2315,
    "woh@@": 2316,
    "strah@@": 2317,
    "ischen@@": 2318,
    "ir": 2319,
    "heiratete": 2320,
    "gehörte": 2321,
    "daher": 2322,
    "Ga@@": 2323,
    "ursprünglichen": 2324,
    "solche": 2325,
    "ors": 2326,
    "musste": 2327,
    "gerne": 2328,
    "bst@@": 2329,
    "Warum": 2330,
    "Straßen@@": 2331,
    "Michael": 2332,
    "unbe@@": 2333,
    "sagen": 2334,
    "nehmen": 2335,
    "mitt@@": 2336,
    "Woche": 2337,
    "Stein@@": 2338,
    "Stand@@": 2339,
    "Medi@@": 2340,
    "London@@": 2341,
    "Haben": 2342,
    "Grund": 2343,
    "Gesicht": 2344,
    "wach@@": 2345,
    "ty": 2346,
    "springt": 2347,
    "spieler": 2348,
    "isten@@": 2349,
    "ht@@": 2350,
    "har@@": 2351,
    "Por@@": 2352,
    "Herr@@": 2353,
    "wissen@@": 2354,
    "stein@@": 2355,
    "raum": 2356,
    "per": 2357,
    "line@@": 2358,
    "hin": 2359,
    "dro@@": 2360,
    "Unterstützung": 2361,
    "Roll@@": 2362,
    "Raum@@": 2363,
    "Monate": 2364,
    "isten": 2365,
    "gesp@@": 2366,
    "gehörten": 2367,
    "akt@@": 2368,
    "Bas@@": 2369,
    "östlich": 2370,
    "tö@@": 2371,
    "ober@@": 2372,
    "alt": 2373,
    "Mel@@": 2374,
    "Laufe": 2375,
    "Del@@": 2376,
    "Bücher": 2377,
    "tri@@": 2378,
    "stab@@": 2379,
    "re": 2380,
    "dreh@@": 2381,
    "ckten": 2382,
    "bri@@": 2383,
    "app@@": 2384,
    "Tisch": 2385,
    "Früh@@": 2386,
    "Eisenbahn@@": 2387,
    "mot@@": 2388,
    "minist@@": 2389,
    "legte": 2390,
    "drü@@": 2391,
    "dies@@": 2392,
    "bte": 2393,
    "Bon@@": 2394,
    "zz@@": 2395,
    "ult@@": 2396,
    "stat@@": 2397,
    "ore": 2398,
    "ood@@": 2399,
    "herr@@": 2400,
    "Richard": 2401,
    "Neben@@": 2402,
    "Mot@@": 2403,
    "Fot@@": 2404,
    "wood": 2405,
    "ret@@": 2406,
    "See": 2407,
    "Hun@@": 2408,
    "Gruppen": 2409,
    "Geor@@": 2410,
    "langen": 2411,
    "ffen": 2412,
    "deten": 2413,
    "britischen": 2414,
    "art": 2415,
    "Pil@@": 2416,
    "ms@@": 2417,
    "komp@@": 2418,
    "geschla@@": 2419,
    "ank@@": 2420,
    "achten": 2421,
    "Mad@@": 2422,
    "ungsp@@": 2423,
    "rän@@": 2424,
    "onen@@": 2425,
    "Teile": 2426,
    "Str@@": 2427,
    "Folge": 2428,
    "ss": 2429,
    "schloss": 2430,
    "brei@@": 2431,
    "Stimm@@": 2432,
    "Frank@@": 2433,
    "vorbei@@": 2434,
    "sam": 2435,
    "ade@@": 2436,
    "Gleich@@": 2437,
    "Aufgrund": 2438,
    "Position": 2439,
    "Gew@@": 2440,
    "Exp@@": 2441,
    "verletz@@": 2442,
    "ore@@": 2443,
    "kämpf@@": 2444,
    "aller": 2445,
    "aden@@": 2446,
    "Titel@@": 2447,
    "High@@": 2448,
    "Anzahl": 2449,
    "zerstör@@": 2450,
    "meinem": 2451,
    "konnten": 2452,
    "kin@@": 2453,
    "entwickelte": 2454,
    "Thomas": 2455,
    "Teil@@": 2456,
    "Nieder@@": 2457,
    "Hom@@": 2458,
    "Charles": 2459,
    "tau@@": 2460,
    "fu@@": 2461,
    "Zeitpunkt": 2462,
    "Uni@@": 2463,
    "Stil": 2464,
    "Sor@@": 2465,
    "zuvor": 2466,
    "ps": 2467,
    "plan@@": 2468,
    "hy@@": 2469,
    "gent@@": 2470,
    "ehemaligen": 2471,
    "Museum": 2472,
    "Hil@@": 2473,
    "Gei@@": 2474,
    "wä@@": 2475,
    "mag@@": 2476,
    "ings": 2477,
    "Pra@@": 2478,
    "Pet@@": 2479,
    "Künstler": 2480,
    "Fo@@": 2481,
    "Besitz": 2482,
    "seite": 2483,
    "ole@@": 2484,
    "moder@@": 2485,
    "innen": 2486,
    "ht": 2487,
    "Gran@@": 2488,
    "welche": 2489,
    "voller": 2490,
    "sprechen": 2491,
    "lokalen": 2492,
    "fs@@": 2493,
    "Proble@@": 2494,
    "Oh@@": 2495,
    "Herr": 2496,
    "nam@@": 2497,
    "einzu@@": 2498,
    "danach": 2499,
    "cker": 2500,
    "Werk": 2501,
    "Stimme": 2502,
    "Bor@@": 2503,
    "‘": 2504,
    "äh@@": 2505,
    "westlichen": 2506,
    "ters": 2507,
    "tag@@": 2508,
    "niedri@@": 2509,
    "mann": 2510,
    "gebie@@": 2511,
    "Vier": 2512,
    "Don@@": 2513,
    "spr@@": 2514,
    "ling": 2515,
    "ison": 2516,
    "geschrieben": 2517,
    "baren": 2518,
    "Raum": 2519,
    "Ess@@": 2520,
    "Ö@@": 2521,
    "ys@@": 2522,
    "use@@": 2523,
    "tiert": 2524,
    "nis": 2525,
    "kol@@": 2526,
    "auer": 2527,
    "Daher": 2528,
    "sprach": 2529,
    "produ@@": 2530,
    "nte": 2531,
    "elektr@@": 2532,
    "dy": 2533,
    "Wiedergabeliste": 2534,
    "öt@@": 2535,
    "ls@@": 2536,
    "fragte": 2537,
    "erzäh@@": 2538,
    "arten": 2539,
    "Flu@@": 2540,
    "ya": 2541,
    "wichtigsten": 2542,
    "verwal@@": 2543,
    "co": 2544,
    "brau@@": 2545,
    "Wind@@": 2546,
    "Que@@": 2547,
    "Künst@@": 2548,
    "Fort@@": 2549,
    "Armee": 2550,
    "verbess@@": 2551,
    "sport@@": 2552,
    "heiten": 2553,
    "bü@@": 2554,
    "annte": 2555,
    "aktiv@@": 2556,
    "Privat@@": 2557,
    "Fuß@@": 2558,
    "Chin@@": 2559,
    "Allerdings": 2560,
    "zeichen": 2561,
    "west@@": 2562,
    "igkeit": 2563,
    "gingen": 2564,
    "gegrün@@": 2565,
    "eter@@": 2566,
    "erforder@@": 2567,
    "Ster@@": 2568,
    "Ang@@": 2569,
    "ände": 2570,
    "kün@@": 2571,
    "gei@@": 2572,
    "fäh@@": 2573,
    "tun": 2574,
    "stadt": 2575,
    "mier@@": 2576,
    "fuhr": 2577,
    "fal@@": 2578,
    "amer@@": 2579,
    "Staats@@": 2580,
    "Rad@@": 2581,
    "Filme": 2582,
    "B.": 2583,
    "tigte": 2584,
    "scher": 2585,
    "laufen": 2586,
    "lagen": 2587,
    "erei": 2588,
    "dd@@": 2589,
    "auss@@": 2590,
    "Vi@@": 2591,
    "Sil@@": 2592,
    "Schüler": 2593,
    "Red@@": 2594,
    "Provinz": 2595,
    "Grenze": 2596,
    "Geld@@": 2597,
    "ums@@": 2598,
    "neun": 2599,
    "istische": 2600,
    "form": 2601,
    "erkenn@@": 2602,
    "Selbst@@": 2603,
    "Mil@@": 2604,
    "Mas@@": 2605,
    "zy@@": 2606,
    "zurückzu@@": 2607,
    "schwer": 2608,
    "ator": 2609,
    "anders": 2610,
    "Kal@@": 2611,
    "Gesetz@@": 2612,
    "zur@@": 2613,
    "zig": 2614,
    "ym@@": 2615,
    "strei@@": 2616,
    "fon@@": 2617,
    "erz@@": 2618,
    "erinn@@": 2619,
    "dessen": 2620,
    "bahn@@": 2621,
    "Sur@@": 2622,
    "Proje@@": 2623,
    "Deut@@": 2624,
    "zunächst": 2625,
    "spie@@": 2626,
    "lö@@": 2627,
    "heißt": 2628,
    "eigen@@": 2629,
    "dri@@": 2630,
    "Regen@@": 2631,
    "Nicht": 2632,
    "Freund": 2633,
    "Form@@": 2634,
    "wus@@": 2635,
    "wo@@": 2636,
    "sti@@": 2637,
    "ow": 2638,
    "liz@@": 2639,
    "aren": 2640,
    "Bevölkerung": 2641,
    "veröffentlichte": 2642,
    "ston": 2643,
    "kom@@": 2644,
    "führung": 2645,
    "amerikanische": 2646,
    "Veröffentlichung": 2647,
    "Hit@@": 2648,
    "Arch@@": 2649,
    "App@@": 2650,
    "rief": 2651,
    "meister@@": 2652,
    "issen@@": 2653,
    "daran": 2654,
    "bess@@": 2655,
    "Tag@@": 2656,
    "Roman": 2657,
    "Mäd@@": 2658,
    "Kampf": 2659,
    "Glo@@": 2660,
    "Erfolg": 2661,
    "zentr@@": 2662,
    "tran@@": 2663,
    "selten@@": 2664,
    "schwer@@": 2665,
    "mil@@": 2666,
    "bung": 2667,
    "assi@@": 2668,
    "Trotz": 2669,
    "Street": 2670,
    "Los": 2671,
    "Dorf@@": 2672,
    "Bot@@": 2673,
    "vie@@": 2674,
    "pro": 2675,
    "opp@@": 2676,
    "behaup@@": 2677,
    "ade": 2678,
    "Star@@": 2679,
    "Luft": 2680,
    "Kapit@@": 2681,
    "Cha@@": 2682,
    "umge@@": 2683,
    "lige": 2684,
    "Rechts@@": 2685,
    "Fällen": 2686,
    "Freund@@": 2687,
    "Feld@@": 2688,
    "nahme": 2689,
    "cy": 2690,
    "chs@@": 2691,
    "ak": 2692,
    "Ob@@": 2693,
    "Jede": 2694,
    "Blo@@": 2695,
    "'": 2696,
    "testen": 2697,
    "Val@@": 2698,
    "Schauspiel@@": 2699,
    "Rom@@": 2700,
    "Distri@@": 2701,
    "Dam@@": 2702,
    "Arbeiten": 2703,
    "1@@": 2704,
    "yst@@": 2705,
    "vielleicht": 2706,
    "politischen": 2707,
    "gewöhnlich": 2708,
    "früheren": 2709,
    "einzigen": 2710,
    "defin@@": 2711,
    "ches": 2712,
    "Sit@@": 2713,
    "Schwester": 2714,
    "Schließlich": 2715,
    "Lab@@": 2716,
    "Indi@@": 2717,
    "wort@@": 2718,
    "tro@@": 2719,
    "krie@@": 2720,
    "grünen": 2721,
    "allgemein": 2722,
    "Stat@@": 2723,
    "Ide@@": 2724,
    "Der@@": 2725,
    "Cat@@": 2726,
    "tigkeit": 2727,
    "kra@@": 2728,
    "führten": 2729,
    "dlich": 2730,
    "burg": 2731,
    "ater": 2732,
    "Radi@@": 2733,
    "Klein@@": 2734,
    "Führ@@": 2735,
    "Frauen@@": 2736,
    "Cra@@": 2737,
    "Clu@@": 2738,
    "imm@@": 2739,
    "anti@@": 2740,
    "ahn@@": 2741,
    "Tür@@": 2742,
    "Hall@@": 2743,
    "Fel@@": 2744,
    "worden": 2745,
    "ol": 2746,
    "jahr@@": 2747,
    "befin@@": 2748,
    "auszu@@": 2749,
    "Wetter": 2750,
    "Rot@@": 2751,
    "Em@@": 2752,
    "Dun@@": 2753,
    "voll": 2754,
    "viel@@": 2755,
    "verein@@": 2756,
    "verd@@": 2757,
    "typ@@": 2758,
    "sondern": 2759,
    "ograph@@": 2760,
    "lt": 2761,
    "geschä@@": 2762,
    "gelegenen": 2763,
    "benen": 2764,
    "arch@@": 2765,
    "abzu@@": 2766,
    "Tochter@@": 2767,
    "Letz@@": 2768,
    "Jap@@": 2769,
    "vo@@": 2770,
    "unterschiedliche": 2771,
    "schön@@": 2772,
    "fließt": 2773,
    "erwar@@": 2774,
    "draußen": 2775,
    "ca": 2776,
    "achte": 2777,
    "Wat@@": 2778,
    "Rest": 2779,
    "Osten": 2780,
    "Fun@@": 2781,
    "zü@@": 2782,
    "mmer": 2783,
    "lokale": 2784,
    "führen": 2785,
    "folgte": 2786,
    "entde@@": 2787,
    "denn": 2788,
    "bs@@": 2789,
    "Gebäu@@": 2790,
    "Familien@@": 2791,
    "verm@@": 2792,
    "tu@@": 2793,
    "lat@@": 2794,
    "folgt": 2795,
    "Tim@@": 2796,
    "Stil@@": 2797,
    "See@@": 2798,
    "Produktion": 2799,
    "Mur@@": 2800,
    "Il@@": 2801,
    "wer": 2802,
    "ungss@@": 2803,
    "stein": 2804,
    "lehr@@": 2805,
    "gem": 2806,
    "ee": 2807,
    "Werke": 2808,
    "Vis@@": 2809,
    "Team@@": 2810,
    "Problem": 2811,
    "Ord@@": 2812,
    "Alice": 2813,
    "ähnliche": 2814,
    "steu@@": 2815,
    "setzt": 2816,
    "gemeinsam": 2817,
    "gang@@": 2818,
    "asen@@": 2819,
    "ary": 2820,
    "Westen": 2821,
    "Geb@@": 2822,
    "Bul@@": 2823,
    "verlor": 2824,
    "sprach@@": 2825,
    "rech@@": 2826,
    "möglicherweise": 2827,
    "ichte": 2828,
    "gleich": 2829,
    "gers": 2830,
    "dritten": 2831,
    "Netz@@": 2832,
    "Militär@@": 2833,
    "Bank@@": 2834,
    "sionen": 2835,
    "schwier@@": 2836,
    "obwohl": 2837,
    "läuf@@": 2838,
    "ling@@": 2839,
    "entweder": 2840,
    "Wochen": 2841,
    "Wh@@": 2842,
    "Schwar@@": 2843,
    "Schiff@@": 2844,
    "Pen@@": 2845,
    "Kleidung": 2846,
    "Ges@@": 2847,
    "Dreh@@": 2848,
    "Arbeits@@": 2849,
    "wobei": 2850,
    "will@@": 2851,
    "kauf@@": 2852,
    "dest@@": 2853,
    "Mr.": 2854,
    "Klass@@": 2855,
    "General@@": 2856,
    "öpf@@": 2857,
    "sch": 2858,
    "kri@@": 2859,
    "beeinflus@@": 2860,
    "Wahl": 2861,
    "Tier@@": 2862,
    "Den@@": 2863,
    "Daten": 2864,
    "jedem": 2865,
    "eigene": 2866,
    "buch@@": 2867,
    "Scha@@": 2868,
    "Fall@@": 2869,
    "hö@@": 2870,
    "gefähr@@": 2871,
    "fr@@": 2872,
    "chter": 2873,
    "Hilfe": 2874,
    "Figur": 2875,
    "Bow@@": 2876,
    "zweimal": 2877,
    "zin@@": 2878,
    "wäl@@": 2879,
    "verbrei@@": 2880,
    "platz": 2881,
    "ktiv@@": 2882,
    "bli@@": 2883,
    "alien@@": 2884,
    "Partei@@": 2885,
    "Leben@@": 2886,
    "Laut": 2887,
    "spricht": 2888,
    "schnell@@": 2889,
    "reichen": 2890,
    "gin@@": 2891,
    "del": 2892,
    "bist": 2893,
    "bestimm@@": 2894,
    "berühm@@": 2895,
    "atur@@": 2896,
    "anten@@": 2897,
    "Win@@": 2898,
    "Ev@@": 2899,
    "Dor@@": 2900,
    "Autor": 2901,
    "hor@@": 2902,
    "gere@@": 2903,
    "erhäl@@": 2904,
    "anten": 2905,
    "Video@@": 2906,
    "Standort": 2907,
    "Punkt": 2908,
    "Peter": 2909,
    "A": 2910,
    "unterschie@@": 2911,
    "sä@@": 2912,
    "spiele": 2913,
    "samm@@": 2914,
    "junger": 2915,
    "ington": 2916,
    "herum@@": 2917,
    "bede@@": 2918,
    "Stück": 2919,
    "Shirt": 2920,
    "Hon@@": 2921,
    "Fi@@": 2922,
    "wagen": 2923,
    "oper@@": 2924,
    "mark@@": 2925,
    "gaben": 2926,
    "eng": 2927,
    "blo@@": 2928,
    "av@@": 2929,
    "allerdings": 2930,
    "Vol@@": 2931,
    "Tür": 2932,
    "Tö@@": 2933,
    "Typ@@": 2934,
    "Thr@@": 2935,
    "Nu@@": 2936,
    "Manche": 2937,
    "Boden@@": 2938,
    "teilung": 2939,
    "feh@@": 2940,
    "erhalten": 2941,
    "Zur": 2942,
    "Sau@@": 2943,
    "Samm@@": 2944,
    "Kampf@@": 2945,
    "Dre@@": 2946,
    "Bank": 2947,
    "will": 2948,
    "unver@@": 2949,
    "nten": 2950,
    "ney": 2951,
    "keits@@": 2952,
    "deren": 2953,
    "bezeichnet": 2954,
    "beginnt": 2955,
    "Kranken@@": 2956,
    "Brücke": 2957,
    "uns@@": 2958,
    "emp@@": 2959,
    "Seit": 2960,
    "Grün@@": 2961,
    "Fluss@@": 2962,
    "Bewer@@": 2963,
    "Ball": 2964,
    "scht": 2965,
    "grund@@": 2966,
    "flu@@": 2967,
    "Wo@@": 2968,
    "Vielleicht": 2969,
    "Songs": 2970,
    "Schlag@@": 2971,
    "Erd@@": 2972,
    "Einfluss": 2973,
    "ursprüngliche": 2974,
    "ont@@": 2975,
    "jen@@": 2976,
    "Thema": 2977,
    "Schlacht": 2978,
    "Sat@@": 2979,
    "Provin@@": 2980,
    "Hän@@": 2981,
    "Finanz@@": 2982,
    "Ath@@": 2983,
    "Ali@@": 2984,
    "versamm@@": 2985,
    "erwähn@@": 2986,
    "chn@@": 2987,
    "ara": 2988,
    "ane": 2989,
    "Sar@@": 2990,
    "Organisation": 2991,
    "Bild": 2992,
    "wander@@": 2993,
    "sin@@": 2994,
    "rig@@": 2995,
    "reiche": 2996,
    "ktor@@": 2997,
    "fern@@": 2998,
    "Vier@@": 2999,
    "Drei@@": 3000,
    "Dadurch": 3001,
    "Bewegung": 3002,
    "verließ": 3003,
    "stri@@": 3004,
    "nördlich": 3005,
    "kosten@@": 3006,
    "hoch": 3007,
    "formen": 3008,
    "bildet": 3009,
    "ativ@@": 3010,
    "Wild@@": 3011,
    "Town@@": 3012,
    "Sonnen@@": 3013,
    "Play@@": 3014,
    "Lak@@": 3015,
    "Baum@@": 3016,
    "yc@@": 3017,
    "veröffentlicht": 3018,
    "stoff@@": 3019,
    "relativ": 3020,
    "pe": 3021,
    "lose": 3022,
    "hinter@@": 3023,
    "haft": 3024,
    "falls": 3025,
    "einhei@@": 3026,
    "dor@@": 3027,
    "Ziel": 3028,
    "Städte": 3029,
    "Recht@@": 3030,
    "Fal@@": 3031,
    "Alter": 3032,
    "Abend": 3033,
    "serv@@": 3034,
    "modernen": 3035,
    "ire": 3036,
    "beste": 3037,
    "Zugang": 3038,
    "Wo": 3039,
    "Stra@@": 3040,
    "Preis": 3041,
    "Gef@@": 3042,
    "Ged@@": 3043,
    "Feuer@@": 3044,
    "Anfang": 3045,
    "ütz@@": 3046,
    "späteren": 3047,
    "profession@@": 3048,
    "keit": 3049,
    "Straßen": 3050,
    "Sin@@": 3051,
    "Schwe@@": 3052,
    "John@@": 3053,
    "Computer@@": 3054,
    "wäh@@": 3055,
    "ologische": 3056,
    "nächste": 3057,
    "hohen": 3058,
    "Sy@@": 3059,
    "Sim@@": 3060,
    "Probleme": 3061,
    "Port@@": 3062,
    "Gesellschaft": 3063,
    "Einer": 3064,
    "Baseball@@": 3065,
    "Air@@": 3066,
    "vertre@@": 3067,
    "r.": 3068,
    "gol@@": 3069,
    "ek@@": 3070,
    "[@@": 3071,
    "Spie@@": 3072,
    "Jetzt": 3073,
    "Gesetz": 3074,
    "pe@@": 3075,
    "int@@": 3076,
    "außer@@": 3077,
    "Lig@@": 3078,
    "ältere": 3079,
    "schaut": 3080,
    "rat": 3081,
    "kap@@": 3082,
    "ass": 3083,
    "Vat@@": 3084,
    "Politik": 3085,
    "Kü@@": 3086,
    "Kurz": 3087,
    "Innen@@": 3088,
    "Hauptsitz": 3089,
    "Ehren": 3090,
    "Die@@": 3091,
    "Bir@@": 3092,
    "wie@@": 3093,
    "ruh@@": 3094,
    "iel": 3095,
    "genie@@": 3096,
    "dium": 3097,
    "bestimmte": 3098,
    "age": 3099,
    "Train@@": 3100,
    "Sir": 3101,
    "Hunde": 3102,
    "East": 3103,
    "Besch@@": 3104,
    "westlich": 3105,
    "test": 3106,
    "stieg": 3107,
    "schnei@@": 3108,
    "passi@@": 3109,
    "ish": 3110,
    "ild@@": 3111,
    "fei@@": 3112,
    "bahn": 3113,
    "Stock@@": 3114,
    "Royal": 3115,
    "Pun@@": 3116,
    "Pi@@": 3117,
    "Hall": 3118,
    "End@@": 3119,
    "zieht": 3120,
    "ktor": 3121,
    "ick": 3122,
    "dient": 3123,
    "bru@@": 3124,
    "ble@@": 3125,
    "bewer@@": 3126,
    "assen": 3127,
    "]": 3128,
    "Vari@@": 3129,
    "Stelle": 3130,
    "Pfer@@": 3131,
    "American": 3132,
    "östlichen": 3133,
    "zip@@": 3134,
    "kü@@": 3135,
    "jähr@@": 3136,
    "gründete": 3137,
    "gelben": 3138,
    "för@@": 3139,
    "besie@@": 3140,
    "außer": 3141,
    "Wirtschaft": 3142,
    "Verfü@@": 3143,
    "Schiff": 3144,
    "Liber@@": 3145,
    "Camp@@": 3146,
    "Australien": 3147,
    "zung": 3148,
    "teren": 3149,
    "politische": 3150,
    "linie": 3151,
    "komplex@@": 3152,
    "feld": 3153,
    "eng@@": 3154,
    "endes": 3155,
    "annten": 3156,
    "Strand": 3157,
    "Standard@@": 3158,
    "Jugend@@": 3159,
    "Jack@@": 3160,
    "Henry": 3161,
    "Football": 3162,
    "Derzeit": 3163,
    "Dazu": 3164,
    "äd@@": 3165,
    "stie@@": 3166,
    "schien": 3167,
    "erschien": 3168,
    "ahl": 3169,
    "Wit@@": 3170,
    "Sprachen": 3171,
    "Schei@@": 3172,
    "J.": 3173,
    "zunehmen@@": 3174,
    "sagt": 3175,
    "pt@@": 3176,
    "ollen": 3177,
    "icht": 3178,
    "darüber": 3179,
    "anderem": 3180,
    "achsen@@": 3181,
    "Spr@@": 3182,
    "Sowohl": 3183,
    "Morgen": 3184,
    "Mitte": 3185,
    "Git@@": 3186,
    "Bürgermeister": 3187,
    "zentrum": 3188,
    "wehr@@": 3189,
    "völlig": 3190,
    "train@@": 3191,
    "schlug": 3192,
    "peri@@": 3193,
    "jungen": 3194,
    "ierende": 3195,
    "iellen": 3196,
    "erhöh@@": 3197,
    "dy@@": 3198,
    "dritte": 3199,
    "Wir@@": 3200,
    "Volks@@": 3201,
    "Trin@@": 3202,
    "Ren@@": 3203,
    "Ehr@@": 3204,
    "Cur@@": 3205,
    "äum@@": 3206,
    "zeigen": 3207,
    "sage": 3208,
    "own@@": 3209,
    "lam@@": 3210,
    "ichten": 3211,
    "Wort@@": 3212,
    "Road": 3213,
    "Pin@@": 3214,
    "Original@@": 3215,
    "Mikro@@": 3216,
    "Ern@@": 3217,
    "Entwick@@": 3218,
    "Comp@@": 3219,
    "Außen@@": 3220,
    "ßt": 3221,
    "ket@@": 3222,
    "kel@@": 3223,
    "gruppe": 3224,
    "füh@@": 3225,
    "ca@@": 3226,
    "Rec@@": 3227,
    "Mess@@": 3228,
    "Hen@@": 3229,
    "Gegensatz": 3230,
    "Fein@@": 3231,
    "Essen": 3232,
    "Autos": 3233,
    "zt": 3234,
    "yr@@": 3235,
    "weisen": 3236,
    "verbrachte": 3237,
    "licherweise": 3238,
    "internationale": 3239,
    "ierungen": 3240,
    "erweiter@@": 3241,
    "dau@@": 3242,
    "bür@@": 3243,
    "bild@@": 3244,
    "Wür@@": 3245,
    "Trans@@": 3246,
    "Sommer": 3247,
    "Island": 3248,
    "Deb@@": 3249,
    "zus@@": 3250,
    "na": 3251,
    "kla@@": 3252,
    "geklei@@": 3253,
    "erg@@": 3254,
    "Spei@@": 3255,
    "She@@": 3256,
    "Schutz@@": 3257,
    "Polizei": 3258,
    "Körper": 3259,
    "Kompon@@": 3260,
    "Kindern": 3261,
    "Kenn@@": 3262,
    "Inform@@": 3263,
    "Bla@@": 3264,
    "forder@@": 3265,
    "droh@@": 3266,
    "bs": 3267,
    "Ziel@@": 3268,
    "Zahl@@": 3269,
    "Regierungs@@": 3270,
    "wohn@@": 3271,
    "wirtschaft@@": 3272,
    "way": 3273,
    "verurs@@": 3274,
    "un": 3275,
    "tionen": 3276,
    "la": 3277,
    "folge": 3278,
    "dire@@": 3279,
    "Schie@@": 3280,
    "Klei@@": 3281,
    "Im@@": 3282,
    "Hill": 3283,
    "Erfol@@": 3284,
    "Bab@@": 3285,
    "warf": 3286,
    "vari@@": 3287,
    "sprech@@": 3288,
    "nannte": 3289,
    "les": 3290,
    "iere": 3291,
    "asiat@@": 3292,
    "Verwaltungs@@": 3293,
    "Herz@@": 3294,
    "Ergebnis": 3295,
    "Bau": 3296,
    "Baby": 3297,
    "Ander@@": 3298,
    "well": 3299,
    "ves": 3300,
    "treten": 3301,
    "stellten": 3302,
    "pass@@": 3303,
    "ome": 3304,
    "ls": 3305,
    "glich": 3306,
    "engl@@": 3307,
    "bten": 3308,
    "bekannte": 3309,
    "ales": 3310,
    "Reserv@@": 3311,
    "Moment": 3312,
    "Model@@": 3313,
    "General": 3314,
    "Cu@@": 3315,
    "Bedeut@@": 3316,
    "Ausbildung": 3317,
    "zeigte": 3318,
    "wand@@": 3319,
    "vorher@@": 3320,
    "tende": 3321,
    "tag": 3322,
    "sicht": 3323,
    "meist": 3324,
    "beruf@@": 3325,
    "Whit@@": 3326,
    "Vielzahl": 3327,
    "Single": 3328,
    "Seiten": 3329,
    "Klasse": 3330,
    "Gouverneur": 3331,
    "Autor@@": 3332,
    "schule": 3333,
    "schnit@@": 3334,
    "ppen@@": 3335,
    "ppe": 3336,
    "oss@@": 3337,
    "mische": 3338,
    "gebaut": 3339,
    "deutlich": 3340,
    "con@@": 3341,
    "Landes@@": 3342,
    "wohl": 3343,
    "stud@@": 3344,
    "olle": 3345,
    "gener@@": 3346,
    "deutschen": 3347,
    "Wander@@": 3348,
    "Ti@@": 3349,
    "Strei@@": 3350,
    "Ris@@": 3351,
    "Prozess": 3352,
    "Cam@@": 3353,
    "Austr@@": 3354,
    "teste": 3355,
    "statt": 3356,
    "mals": 3357,
    "bot": 3358,
    "bestä@@": 3359,
    "beobach@@": 3360,
    "atur": 3361,
    "anderes": 3362,
    "Winter@@": 3363,
    "Nation@@": 3364,
    "Mein@@": 3365,
    "Kannst": 3366,
    "Jan@@": 3367,
    "Heim@@": 3368,
    "Den": 3369,
    "Aktivitäten": 3370,
    "zeichnete": 3371,
    "tatsächlich": 3372,
    "sitz": 3373,
    "olo@@": 3374,
    "ikan@@": 3375,
    "hinzufügen": 3376,
    "fiel": 3377,
    "ffer@@": 3378,
    "dliche": 3379,
    "Zw@@": 3380,
    "Website": 3381,
    "Turn@@": 3382,
    "Temp@@": 3383,
    "Smith": 3384,
    "Russ@@": 3385,
    "Journ@@": 3386,
    "Heimat": 3387,
    "Harr@@": 3388,
    "Bedeutung": 3389,
    "Back@@": 3390,
    "traf": 3391,
    "tieren": 3392,
    "fün@@": 3393,
    "dest": 3394,
    "bert": 3395,
    "Tei@@": 3396,
    "Rat@@": 3397,
    "Neben": 3398,
    "Europ@@": 3399,
    "wick@@": 3400,
    "südlich": 3401,
    "sser": 3402,
    "nete": 3403,
    "ja": 3404,
    "ish@@": 3405,
    "historische": 3406,
    "gro@@": 3407,
    "blau@@": 3408,
    "band": 3409,
    "Wahr@@": 3410,
    "Sender": 3411,
    "Betrieb@@": 3412,
    "verheiratet": 3413,
    "spar@@": 3414,
    "scha@@": 3415,
    "sau@@": 3416,
    "ic": 3417,
    "etten": 3418,
    "din@@": 3419,
    "digung": 3420,
    "com@@": 3421,
    "chs": 3422,
    "bilden": 3423,
    "bestimmten": 3424,
    "asi@@": 3425,
    "Teams": 3426,
    "Schauspieler": 3427,
    "Rock": 3428,
    "Kriegs@@": 3429,
    "wichtigste": 3430,
    "wachsen@@": 3431,
    "teile": 3432,
    "stellungen": 3433,
    "sicher": 3434,
    "pun@@": 3435,
    "lieber": 3436,
    "kaum": 3437,
    "essen": 3438,
    "elles": 3439,
    "eins": 3440,
    "ders": 3441,
    "damals": 3442,
    "asste": 3443,
    "Zeitung": 3444,
    "Yo@@": 3445,
    "Temper@@": 3446,
    "Strecke": 3447,
    "Manchmal": 3448,
    "Kamer@@": 3449,
    "Gericht": 3450,
    "Dienst": 3451,
    "Bil@@": 3452,
    "Archite@@": 3453,
    "tik": 3454,
    "ohl@@": 3455,
    "leu@@": 3456,
    "ktur@@": 3457,
    "gh": 3458,
    "gemacht": 3459,
    "gar": 3460,
    "cal": 3461,
    "Well@@": 3462,
    "Sw@@": 3463,
    "Programm@@": 3464,
    "Instru@@": 3465,
    "Frage": 3466,
    "sign@@": 3467,
    "omat@@": 3468,
    "ischem": 3469,
    "englischen": 3470,
    "Umgebung": 3471,
    "Trau@@": 3472,
    "Test@@": 3473,
    "Tab@@": 3474,
    "Siehe": 3475,
    "Pul@@": 3476,
    "Menge": 3477,
    "Kil@@": 3478,
    "Gemeinden": 3479,
    "Boo@@": 3480,
    "Blut@@": 3481,
    "ws": 3482,
    "weiteres": 3483,
    "wann": 3484,
    "tigung": 3485,
    "schätz@@": 3486,
    "omen": 3487,
    "ließen": 3488,
    "liert": 3489,
    "lebten": 3490,
    "ity": 3491,
    "ise": 3492,
    "freund@@": 3493,
    "Wald@@": 3494,
    "Tom@@": 3495,
    "TO": 3496,
    "Pan@@": 3497,
    "Kurz@@": 3498,
    "Fahrrad": 3499,
    "Bis": 3500,
    "ül@@": 3501,
    "warum": 3502,
    "struktur@@": 3503,
    "pers@@": 3504,
    "grenzt": 3505,
    "fanden": 3506,
    "ebenso": 3507,
    "dischen": 3508,
    "diger": 3509,
    "derzeitige": 3510,
    "Vogel@@": 3511,
    "Studi@@": 3512,
    "Pop@@": 3513,
    "Mary": 3514,
    "Gerichts@@": 3515,
    "Bezirks@@": 3516,
    "Beginn": 3517,
    "weist": 3518,
    "nutz@@": 3519,
    "kurze": 3520,
    "kn@@": 3521,
    "hell@@": 3522,
    "großar@@": 3523,
    "ehemalige": 3524,
    "dig": 3525,
    "Tun@@": 3526,
    "Rahmen": 3527,
    "Komm@@": 3528,
    "Kanada": 3529,
    "Imp@@": 3530,
    "Hut": 3531,
    "Frankreich": 3532,
    "Europa": 3533,
    "Erde": 3534,
    "Einsatz": 3535,
    "wün@@": 3536,
    "verläuft": 3537,
    "val@@": 3538,
    "pri@@": 3539,
    "oli@@": 3540,
    "niemals": 3541,
    "lässi@@": 3542,
    "ili@@": 3543,
    "fla@@": 3544,
    "auff@@": 3545,
    "anschließend": 3546,
    "Wen@@": 3547,
    "Tat@@": 3548,
    "Organis@@": 3549,
    "Liebe": 3550,
    "Hot@@": 3551,
    "Haup@@": 3552,
    "örtlichen": 3553,
    "zes": 3554,
    "vers@@": 3555,
    "uten": 3556,
    "ograf@@": 3557,
    "gesell@@": 3558,
    "enthalten": 3559,
    "bevorzu@@": 3560,
    "au": 3561,
    "Som@@": 3562,
    "Prof@@": 3563,
    "Mög@@": 3564,
    "Kind@@": 3565,
    "Holl@@": 3566,
    "Füge": 3567,
    "Fort": 3568,
    "But@@": 3569,
    "übernahm": 3570,
    "wich@@": 3571,
    "vertei@@": 3572,
    "stag": 3573,
    "legen": 3574,
    "heutigen": 3575,
    "heu@@": 3576,
    "erscheint": 3577,
    "einf@@": 3578,
    "bildung": 3579,
    "abgel@@": 3580,
    "Tau@@": 3581,
    "Sä@@": 3582,
    "Out@@": 3583,
    "Mün@@": 3584,
    "Hast": 3585,
    "Halb@@": 3586,
    "Frü@@": 3587,
    "Feu@@": 3588,
    "Beziehung": 3589,
    "ät": 3590,
    "Öffentlichkeit": 3591,
    "va": 3592,
    "tions@@": 3593,
    "schwe@@": 3594,
    "reich": 3595,
    "rad@@": 3596,
    "lern": 3597,
    "imp@@": 3598,
    "größere": 3599,
    "dit@@": 3600,
    "aufen": 3601,
    "Wood@@": 3602,
    "REMOV@@": 3603,
    "Nav@@": 3604,
    "Lat@@": 3605,
    "Körper@@": 3606,
    "Fen@@": 3607,
    "Fehler": 3608,
    "Dienst@@": 3609,
    "Ähn@@": 3610,
    "setzung": 3611,
    "schte": 3612,
    "orn@@": 3613,
    "häuf@@": 3614,
    "heits@@": 3615,
    "digte": 3616,
    "ards": 3617,
    "Will@@": 3618,
    "Schnee@@": 3619,
    "Richter": 3620,
    "Lauf@@": 3621,
    "Kultur@@": 3622,
    "Green@@": 3623,
    "Fran@@": 3624,
    "Blick": 3625,
    "Anf@@": 3626,
    "Ach@@": 3627,
    "Aben@@": 3628,
    "ungspro@@": 3629,
    "teilweise": 3630,
    "ppen": 3631,
    "ice": 3632,
    "gerung": 3633,
    "Techn@@": 3634,
    "Schi@@": 3635,
    "Ihren": 3636,
    "Harry": 3637,
    "Geschä@@": 3638,
    "Gefüh@@": 3639,
    "Englisch": 3640,
    ",@@": 3641,
    "welt@@": 3642,
    "weiterer": 3643,
    "südlichen": 3644,
    "stütz@@": 3645,
    "maß@@": 3646,
    "lief": 3647,
    "gefü@@": 3648,
    "ets": 3649,
    "einst": 3650,
    "dah@@": 3651,
    "brü@@": 3652,
    "Span@@": 3653,
    "Musi@@": 3654,
    "Län@@": 3655,
    "Können": 3656,
    "Kraft@@": 3657,
    "Kra@@": 3658,
    "Kno@@": 3659,
    "Industrie@@": 3660,
    "Gam@@": 3661,
    "Bis@@": 3662,
    "Auto@@": 3663,
    "selten": 3664,
    "schutz@@": 3665,
    "ox@@": 3666,
    "lok@@": 3667,
    "hof": 3668,
    "hn@@": 3669,
    "ents@@": 3670,
    "Welche": 3671,
    "Söh@@": 3672,
    "Sig@@": 3673,
    "Polizei@@": 3674,
    "Dro@@": 3675,
    "Campus": 3676,
    "verwendete": 3677,
    "stro@@": 3678,
    "schwarze": 3679,
    "laden": 3680,
    "fs": 3681,
    "flie@@": 3682,
    "dition@@": 3683,
    "ah": 3684,
    "Stunden": 3685,
    "Nacht@@": 3686,
    "Mö@@": 3687,
    "Metro@@": 3688,
    "Ly@@": 3689,
    "Ki@@": 3690,
    "Clar@@": 3691,
    "Ap@@": 3692,
    "älteste": 3693,
    "zufrieden@@": 3694,
    "zuerst": 3695,
    "wichtig@@": 3696,
    "uss": 3697,
    "under@@": 3698,
    "ro": 3699,
    "nehm@@": 3700,
    "mme": 3701,
    "kurz@@": 3702,
    "guten": 3703,
    "gleiche": 3704,
    "ding@@": 3705,
    "bringt": 3706,
    "Ursprünglich": 3707,
    "Sammlung": 3708,
    "Design@@": 3709,
    "Creek": 3710,
    "ähnlich": 3711,
    "weiße": 3712,
    "verloren": 3713,
    "regelmäß@@": 3714,
    "port@@": 3715,
    "pflan@@": 3716,
    "ory": 3717,
    "näh@@": 3718,
    "nationalen": 3719,
    "kontrol@@": 3720,
    "ierungs@@": 3721,
    "ide@@": 3722,
    "hiel@@": 3723,
    "fünf@@": 3724,
    "flug@@": 3725,
    "fel": 3726,
    "einz@@": 3727,
    "dre@@": 3728,
    "beschäf@@": 3729,
    "bekannten": 3730,
    "anne": 3731,
    "ahr@@": 3732,
    "Sing@@": 3733,
    "Richt@@": 3734,
    "Obje@@": 3735,
    "Methode": 3736,
    "Landwirtschaft": 3737,
    "Jur@@": 3738,
    "tin@@": 3739,
    "tiges": 3740,
    "sprache": 3741,
    "res@@": 3742,
    "mes": 3743,
    "ließ@@": 3744,
    "klet@@": 3745,
    "dra@@": 3746,
    "anden": 3747,
    "akzep@@": 3748,
    "akti@@": 3749,
    "Sozial@@": 3750,
    "Sommer@@": 3751,
    "Nat@@": 3752,
    "Mich@@": 3753,
    "Martin": 3754,
    "Konf@@": 3755,
    "Gitarr@@": 3756,
    "Fach@@": 3757,
    "Eigen@@": 3758,
    "Din@@": 3759,
    "Cli@@": 3760,
    "Bundes@@": 3761,
    "wesent@@": 3762,
    "weltweit": 3763,
    "nördlichen": 3764,
    "mess@@": 3765,
    "lehnte": 3766,
    "lauf": 3767,
    "eig@@": 3768,
    "basiert": 3769,
    "aup@@": 3770,
    "Text": 3771,
    "Schlaf@@": 3772,
    "Sache": 3773,
    "Kunst": 3774,
    "Jam@@": 3775,
    "Fenster": 3776,
    "Farben": 3777,
    "Eben@@": 3778,
    "volution@@": 3779,
    "tert": 3780,
    "stände": 3781,
    "sil@@": 3782,
    "popul@@": 3783,
    "pha@@": 3784,
    "internationalen": 3785,
    "hielten": 3786,
    "eter": 3787,
    "erle@@": 3788,
    "bieten": 3789,
    "berg": 3790,
    "begrenz@@": 3791,
    "Uhr": 3792,
    "I": 3793,
    "Hum@@": 3794,
    "Got@@": 3795,
    "Carol@@": 3796,
    "Bay@@": 3797,
    "ungefähr": 3798,
    "stehenden": 3799,
    "pfer@@": 3800,
    "ong": 3801,
    "losen": 3802,
    "kompon@@": 3803,
    "id": 3804,
    "ichts@@": 3805,
    "go@@": 3806,
    "gehei@@": 3807,
    "enzen": 3808,
    "dien": 3809,
    "die@@": 3810,
    "Versionen": 3811,
    "Top@@": 3812,
    "Poly@@": 3813,
    "Näh@@": 3814,
    "Mannschaft": 3815,
    "Kr@@": 3816,
    "Japan": 3817,
    "Ep@@": 3818,
    "Beispiele": 3819,
    "...": 3820,
    "ätz@@": 3821,
    "är": 3822,
    "werke": 3823,
    "verur@@": 3824,
    "verbr@@": 3825,
    "unn@@": 3826,
    "uni@@": 3827,
    "mmer@@": 3828,
    "mitglieder": 3829,
    "linge": 3830,
    "klin@@": 3831,
    "ite@@": 3832,
    "inger": 3833,
    "flo@@": 3834,
    "einschließlich": 3835,
    "eben@@": 3836,
    "dachte": 3837,
    "bal@@": 3838,
    "aku@@": 3839,
    "Wann": 3840,
    "Professor": 3841,
    "Off@@": 3842,
    "Miss@@": 3843,
    "Kam@@": 3844,
    "Invest@@": 3845,
    "Gott": 3846,
    "Dennoch": 3847,
    "Champ@@": 3848,
    "Bill": 3849,
    "Berei@@": 3850,
    "Atlan@@": 3851,
    "Angriff": 3852,
    "wert": 3853,
    "ust": 3854,
    "tief@@": 3855,
    "sü@@": 3856,
    "ost@@": 3857,
    "hängt": 3858,
    "englische": 3859,
    "edi@@": 3860,
    "digen": 3861,
    "dienst": 3862,
    "denken": 3863,
    "bene": 3864,
    "Veranstaltung": 3865,
    "Soft@@": 3866,
    "Schwer@@": 3867,
    "Lö@@": 3868,
    "Lang@@": 3869,
    "Jedes": 3870,
    "Gil@@": 3871,
    "Gener@@": 3872,
    "Blu@@": 3873,
    "üblicherweise": 3874,
    "wichtiger": 3875,
    "wasser@@": 3876,
    "verschw@@": 3877,
    "veranstal@@": 3878,
    "trin@@": 3879,
    "tem": 3880,
    "stück": 3881,
    "klassi@@": 3882,
    "jemals": 3883,
    "griff": 3884,
    "gan": 3885,
    "benden": 3886,
    "Valley": 3887,
    "Ty@@": 3888,
    "Stattdessen": 3889,
    "My@@": 3890,
    "Glas@@": 3891,
    "Fuß": 3892,
    "Beim": 3893,
    "zel@@": 3894,
    "ysi@@": 3895,
    "umfass@@": 3896,
    "th": 3897,
    "städ@@": 3898,
    "heirat@@": 3899,
    "großes": 3900,
    "derung": 3901,
    "Ox@@": 3902,
    "Mei@@": 3903,
    "International": 3904,
    "Hut@@": 3905,
    "Heimat@@": 3906,
    "Hause": 3907,
    "Größe": 3908,
    "Black@@": 3909,
    "zufolge": 3910,
    "volle": 3911,
    "schrift@@": 3912,
    "rosa": 3913,
    "regi@@": 3914,
    "gens": 3915,
    "erfolgreich": 3916,
    "britische": 3917,
    "Ze@@": 3918,
    "Township": 3919,
    "Themen": 3920,
    "Sel@@": 3921,
    "Oli@@": 3922,
    "Feuer": 3923,
    "Doppel@@": 3924,
    "urm@@": 3925,
    "ogra@@": 3926,
    "liebe": 3927,
    "lebens@@": 3928,
    "langsam": 3929,
    "ktive": 3930,
    "hren": 3931,
    "ermög@@": 3932,
    "erfahr@@": 3933,
    "do": 3934,
    "deine": 3935,
    "allein": 3936,
    "Wettbewer@@": 3937,
    "Roman@@": 3938,
    "Pot@@": 3939,
    "Ont@@": 3940,
    "Mark": 3941,
    "Interesse": 3942,
    "Indian@@": 3943,
    "Daten@@": 3944,
    "Cle@@": 3945,
    "weitgehend": 3946,
    "vert@@": 3947,
    "schm@@": 3948,
    "schar@@": 3949,
    "rück@@": 3950,
    "nahe@@": 3951,
    "kannst": 3952,
    "bezir@@": 3953,
    "bewahr@@": 3954,
    "ausschließlich": 3955,
    "Vo@@": 3956,
    "Tru@@": 3957,
    "Operation": 3958,
    "Meeres@@": 3959,
    "Dur@@": 3960,
    "Deutschland": 3961,
    "weißer": 3962,
    "vol@@": 3963,
    "stür@@": 3964,
    "spir@@": 3965,
    "name": 3966,
    "leitete": 3967,
    "ingen": 3968,
    "ehr": 3969,
    "echn@@": 3970,
    "bereich": 3971,
    "alle@@": 3972,
    "Winter": 3973,
    "Vertrag": 3974,
    "Verk@@": 3975,
    "Pau@@": 3976,
    "Moder@@": 3977,
    "Mark@@": 3978,
    "Kontrolle": 3979,
    "Inseln": 3980,
    "Ihrer": 3981,
    "Ergebnisse": 3982,
    "Dies@@": 3983,
    "Cla@@": 3984,
    "Bom@@": 3985,
    "Basketball@@": 3986,
    "Asi@@": 3987,
    "zudem": 3988,
    "zeitig": 3989,
    "verkehr@@": 3990,
    "urn@@": 3991,
    "gefunden": 3992,
    "gangs@@": 3993,
    "ativ": 3994,
    "Willi@@": 3995,
    "Viel@@": 3996,
    "Höh@@": 3997,
    "Geschäft": 3998,
    "Amtszeit": 3999,
    "vin@@": 4000,
    "sex@@": 4001,
    "rang@@": 4002,
    "own": 4003,
    "läu@@": 4004,
    "han@@": 4005,
    "gere": 4006,
    "fern": 4007,
    "fallen": 4008,
    "einzigar@@": 4009,
    "bleiben": 4010,
    "asst": 4011,
    "Theorie": 4012,
    "Monat": 4013,
    "Lebens": 4014,
    "Konzer@@": 4015,
    "Jon@@": 4016,
    "Jahres": 4017,
    "zusätzliche": 4018,
    "zte": 4019,
    "ue": 4020,
    "stern": 4021,
    "schrit@@": 4022,
    "saß": 4023,
    "isierung": 4024,
    "historischen": 4025,
    "französischen": 4026,
    "erlau@@": 4027,
    "don": 4028,
    "berg@@": 4029,
    "Zeiten": 4030,
    "Wirtschafts@@": 4031,
    "Untersuchung": 4032,
    "Studenten@@": 4033,
    "Ol@@": 4034,
    "Mont@@": 4035,
    "Metho@@": 4036,
    "Mechan@@": 4037,
    "Inn@@": 4038,
    "Grundlage": 4039,
    "Feld": 4040,
    "Episode": 4041,
    "Charak@@": 4042,
    "Anim@@": 4043,
    "Ü@@": 4044,
    "zugän@@": 4045,
    "wusste": 4046,
    "wissenschaft@@": 4047,
    "weit@@": 4048,
    "syn@@": 4049,
    "stimmung": 4050,
    "satz": 4051,
    "präsen@@": 4052,
    "mite@@": 4053,
    "mik@@": 4054,
    "jem@@": 4055,
    "fahrer": 4056,
    "bury": 4057,
    "bruch": 4058,
    "brach": 4059,
    "betreibt": 4060,
    "Schwei@@": 4061,
    "Philip": 4062,
    "Nich@@": 4063,
    "Lad@@": 4064,
    "Fu@@": 4065,
    "Bron@@": 4066,
    "unterschiedlichen": 4067,
    "straße": 4068,
    "neten": 4069,
    "legt": 4070,
    "halt@@": 4071,
    "gressi@@": 4072,
    "cu@@": 4073,
    "blieben": 4074,
    "acher": 4075,
    "Zug": 4076,
    "Zahl": 4077,
    "Sus@@": 4078,
    "Sieg": 4079,
    "Sher@@": 4080,
    "Py@@": 4081,
    "Pak@@": 4082,
    "Nachrichten@@": 4083,
    "Meister@@": 4084,
    "Italien@@": 4085,
    "Hände": 4086,
    "Flugzeug": 4087,
    "Films": 4088,
    "Feh@@": 4089,
    "Edward": 4090,
    "Ebene": 4091,
    "Cas@@": 4092,
    "Brow@@": 4093,
    "Beweg@@": 4094,
    "Berg": 4095,
    "Arme@@": 4096,
    "Anschließend": 4097,
    "wit@@": 4098,
    "uelle": 4099,
    "ologischen": 4100,
    "ni@@": 4101,
    "lad@@": 4102,
    "jemand": 4103,
    "hundert": 4104,
    "gelegentlich": 4105,
    "enthielt": 4106,
    "Wur@@": 4107,
    "Wird": 4108,
    "Klassi@@": 4109,
    "Gitarre": 4110,
    "Forschungs@@": 4111,
    "Boot@@": 4112,
    "Black": 4113,
    "Bezug": 4114,
    "Antwort": 4115,
    "weis@@": 4116,
    "unternehmen": 4117,
    "sal@@": 4118,
    "oss": 4119,
    "müh@@": 4120,
    "krä@@": 4121,
    "ierenden": 4122,
    "go": 4123,
    "früh": 4124,
    "erf@@": 4125,
    "asen": 4126,
    "Zug@@": 4127,
    "Schiffe": 4128,
    "Büh@@": 4129,
    "Bahnho@@": 4130,
    "uell": 4131,
    "traditionellen": 4132,
    "tische": 4133,
    "suchen": 4134,
    "oc@@": 4135,
    "könnten": 4136,
    "iges": 4137,
    "histor@@": 4138,
    "haltung": 4139,
    "etten@@": 4140,
    "Telefon@@": 4141,
    "Seitdem": 4142,
    "Schreib@@": 4143,
    "Rand@@": 4144,
    "Plan": 4145,
    "Ot@@": 4146,
    "Mex@@": 4147,
    "Hir@@": 4148,
    "Gründung": 4149,
    "Glau@@": 4150,
    "Gele@@": 4151,
    "Fak@@": 4152,
    "Fahrrad@@": 4153,
    "Einwohner": 4154,
    "Chr@@": 4155,
    "äuf@@": 4156,
    "äts@@": 4157,
    "zö@@": 4158,
    "zeichnet": 4159,
    "zahlreichen": 4160,
    "ystem": 4161,
    "vin": 4162,
    "verhin@@": 4163,
    "verbin@@": 4164,
    "schreck@@": 4165,
    "positive": 4166,
    "neues": 4167,
    "natürlich": 4168,
    "moderne": 4169,
    "mittel": 4170,
    "lungs@@": 4171,
    "kommerziel@@": 4172,
    "hü@@": 4173,
    "hu@@": 4174,
    "handelte": 4175,
    "gewöhn@@": 4176,
    "for": 4177,
    "ermöglicht": 4178,
    "digit@@": 4179,
    "Tele@@": 4180,
    "Tagen": 4181,
    "Mount": 4182,
    "Licht": 4183,
    "Kop@@": 4184,
    "Kli@@": 4185,
    "Hotel": 4186,
    "Hintergrund": 4187,
    "Hem@@": 4188,
    "Französ@@": 4189,
    "District": 4190,
    "vorzu@@": 4191,
    "tic@@": 4192,
    "produziert": 4193,
    "polit@@": 4194,
    "mäßig": 4195,
    "krank@@": 4196,
    "kommun@@": 4197,
    "junges": 4198,
    "geplan@@": 4199,
    "gebracht": 4200,
    "fälle": 4201,
    "fun@@": 4202,
    "ents": 4203,
    "dis@@": 4204,
    "cc@@": 4205,
    "ann": 4206,
    "Tie@@": 4207,
    "Tar@@": 4208,
    "Reaktion": 4209,
    "Radio": 4210,
    "Kla@@": 4211,
    "Kino": 4212,
    "Joseph": 4213,
    "Jacke": 4214,
    "House": 4215,
    "Geheim@@": 4216,
    "Flo@@": 4217,
    "Einhei@@": 4218,
    "Bühne": 4219,
    "Boot": 4220,
    "Bibliothek": 4221,
    "Bass@@": 4222,
    "öse": 4223,
    "ymp@@": 4224,
    "let@@": 4225,
    "guter": 4226,
    "führer": 4227,
    "fällt": 4228,
    "frie@@": 4229,
    "fließ@@": 4230,
    "christ@@": 4231,
    "bezieht": 4232,
    "ats": 4233,
    "Ul@@": 4234,
    "Häuser": 4235,
    "Blü@@": 4236,
    "überqu@@": 4237,
    "zah@@": 4238,
    "rund": 4239,
    "net": 4240,
    "mindestens": 4241,
    "kultur@@": 4242,
    "jeweils": 4243,
    "di": 4244,
    "Verein@@": 4245,
    "Stell@@": 4246,
    "Schwimm@@": 4247,
    "Gelände": 4248,
    "Familien": 4249,
    "Erwachsen@@": 4250,
    "Befeh@@": 4251,
    "Bald": 4252,
    "Bade@@": 4253,
    "Also": 4254,
    "Abschnitt": 4255,
    "verste@@": 4256,
    "männ@@": 4257,
    "gehö@@": 4258,
    "gal@@": 4259,
    "erie": 4260,
    "elten": 4261,
    "domin@@": 4262,
    "dige": 4263,
    "angef@@": 4264,
    "Video": 4265,
    "Tom": 4266,
    "Reise": 4267,
    "Recht": 4268,
    "Q@@": 4269,
    "Ländern": 4270,
    "Leu@@": 4271,
    "Lass": 4272,
    "Konfli@@": 4273,
    "Jones": 4274,
    "Glück@@": 4275,
    "Foot@@": 4276,
    "Farbe": 4277,
    "Arbei@@": 4278,
    "wü@@": 4279,
    "verantwort@@": 4280,
    "tigt": 4281,
    "schütz@@": 4282,
    "licht": 4283,
    "langs@@": 4284,
    "iesen": 4285,
    "effe@@": 4286,
    "drin@@": 4287,
    "aner": 4288,
    "akadem@@": 4289,
    "Rat": 4290,
    "Fragen": 4291,
    "Entscheidung": 4292,
    "Design": 4293,
    "Damit": 4294,
    "überra@@": 4295,
    "überhaupt": 4296,
    "werte": 4297,
    "unterstützt": 4298,
    "uli@@": 4299,
    "träge": 4300,
    "tanz@@": 4301,
    "stammen": 4302,
    "posi@@": 4303,
    "neun@@": 4304,
    "model@@": 4305,
    "kreis@@": 4306,
    "kel": 4307,
    "ernst@@": 4308,
    "dur@@": 4309,
    "brauche": 4310,
    "besitzt": 4311,
    "Wettbewerb": 4312,
    "Ursprung": 4313,
    "Truppen": 4314,
    "Sicherheits@@": 4315,
    "Mitarbeiter": 4316,
    "Mike": 4317,
    "Histor@@": 4318,
    "Hard@@": 4319,
    "Gol@@": 4320,
    "Gat@@": 4321,
    "Fir@@": 4322,
    "Entschei@@": 4323,
    "Brau@@": 4324,
    "Box@@": 4325,
    "Bay": 4326,
    "Är@@": 4327,
    "yer": 4328,
    "wiederhol@@": 4329,
    "vermei@@": 4330,
    "use": 4331,
    "tlichen": 4332,
    "starken": 4333,
    "richtung": 4334,
    "pat@@": 4335,
    "mäch@@": 4336,
    "mag": 4337,
    "konstru@@": 4338,
    "integr@@": 4339,
    "hohe": 4340,
    "glück@@": 4341,
    "genommen": 4342,
    "gelten": 4343,
    "frei": 4344,
    "folgende": 4345,
    "White": 4346,
    "Tennis@@": 4347,
    "Tanz@@": 4348,
    "Struktur": 4349,
    "Markt": 4350,
    "Macht": 4351,
    "Jos@@": 4352,
    "Geschichten": 4353,
    "Gebiete": 4354,
    "Drit@@": 4355,
    "Bob": 4356,
    "Amt": 4357,
    "Alben": 4358,
    "änderte": 4359,
    "zwar": 4360,
    "zeuge": 4361,
    "stam@@": 4362,
    "sons": 4363,
    "rechts@@": 4364,
    "plan": 4365,
    "ots": 4366,
    "ju@@": 4367,
    "fi@@": 4368,
    "arbeit": 4369,
    "ange": 4370,
    "Virgin@@": 4371,
    "Söhne": 4372,
    "Rau@@": 4373,
    "North@@": 4374,
    "Mill@@": 4375,
    "Meinung": 4376,
    "Lage": 4377,
    "Jahres@@": 4378,
    "Freunde": 4379,
    "Dien@@": 4380,
    "Clo@@": 4381,
    "Central": 4382,
    "Alkoh@@": 4383,
    "ämpf@@": 4384,
    "verstär@@": 4385,
    "tte": 4386,
    "separ@@": 4387,
    "oll": 4388,
    "mün@@": 4389,
    "landwirtschaft@@": 4390,
    "japanischen": 4391,
    "hafte": 4392,
    "eigenes": 4393,
    "eien": 4394,
    "dge": 4395,
    "aktiv": 4396,
    "Steu@@": 4397,
    "Seiten@@": 4398,
    "Kann": 4399,
    "Ingenie@@": 4400,
    "Frank": 4401,
    "Doktor": 4402,
    "Aufnahme": 4403,
    "omet@@": 4404,
    "ki@@": 4405,
    "ierter": 4406,
    "herausge@@": 4407,
    "entscheiden@@": 4408,
    "auen": 4409,
    "angen": 4410,
    "Schritt": 4411,
    "Quellen": 4412,
    "Os@@": 4413,
    "Literatur@@": 4414,
    "Licht@@": 4415,
    "League": 4416,
    "King@@": 4417,
    "Jack": 4418,
    "Idee": 4419,
    "Gemeinschaft": 4420,
    "Dire@@": 4421,
    "Brand@@": 4422,
    "Beziehungen": 4423,
    "2@@": 4424,
    "öder@@": 4425,
    "willi@@": 4426,
    "stär@@": 4427,
    "ständig": 4428,
    "reise": 4429,
    "offizielle": 4430,
    "mut@@": 4431,
    "kümm@@": 4432,
    "glaube": 4433,
    "endete": 4434,
    "dauer@@": 4435,
    "ald": 4436,
    "Zeitschrift": 4437,
    "Todes@@": 4438,
    "Punk@@": 4439,
    "Länder": 4440,
    "Et@@": 4441,
    "Einheit": 4442,
    "Autob@@": 4443,
    "schlä@@": 4444,
    "miteinander": 4445,
    "lex@@": 4446,
    "kurzen": 4447,
    "inspir@@": 4448,
    "höher@@": 4449,
    "getrenn@@": 4450,
    "genug": 4451,
    "fizierung": 4452,
    "blon@@": 4453,
    "bestehen": 4454,
    "atoren": 4455,
    "Zustand": 4456,
    "Tan@@": 4457,
    "Rin@@": 4458,
    "Produkte": 4459,
    "Mehr@@": 4460,
    "Konzept": 4461,
    "Glei@@": 4462,
    "Fle@@": 4463,
    "Fans": 4464,
    "Cemetery": 4465,
    "Bewohner": 4466,
    "Ade@@": 4467,
    "zug@@": 4468,
    "ysteme": 4469,
    "yn": 4470,
    "waff@@": 4471,
    "vel@@": 4472,
    "starke": 4473,
    "meister": 4474,
    "lig": 4475,
    "höchste": 4476,
    "gewesen": 4477,
    "ffe": 4478,
    "eres": 4479,
    "dens@@": 4480,
    "ball": 4481,
    "angs@@": 4482,
    "amb@@": 4483,
    "Mak@@": 4484,
    "Lon@@": 4485,
    "Hälfte": 4486,
    "Formen": 4487,
    "Flusses": 4488,
    "Ehe@@": 4489,
    "Comi@@": 4490,
    "öh@@": 4491,
    "änger": 4492,
    "verkauft": 4493,
    "sichtlich": 4494,
    "schwarzer": 4495,
    "schreibt": 4496,
    "niemand": 4497,
    "größeren": 4498,
    "gabe": 4499,
    "frage": 4500,
    "fest": 4501,
    "erstes": 4502,
    "darf": 4503,
    "braunen": 4504,
    "basier@@": 4505,
    "Washington": 4506,
    "Veranstaltungen": 4507,
    "Tel@@": 4508,
    "Stan@@": 4509,
    "Prozess@@": 4510,
    "Material": 4511,
    "Liga": 4512,
    "Down@@": 4513,
    "weite": 4514,
    "tex@@": 4515,
    "tenden": 4516,
    "spezi@@": 4517,
    "ror@@": 4518,
    "part@@": 4519,
    "nation@@": 4520,
    "leitet": 4521,
    "künst@@": 4522,
    "fehl@@": 4523,
    "fach@@": 4524,
    "drück@@": 4525,
    "drit@@": 4526,
    "Wi@@": 4527,
    "Theater": 4528,
    "Sendung": 4529,
    "Präsident@@": 4530,
    "Metall@@": 4531,
    "Hi@@": 4532,
    "Herz": 4533,
    "Fla@@": 4534,
    "Empf@@": 4535,
    "Dau@@": 4536,
    "Center": 4537,
    "Brown": 4538,
    "Bran@@": 4539,
    "Albums": 4540,
    "0@@": 4541,
    "”": 4542,
    "unterstützte": 4543,
    "spei@@": 4544,
    "sili@@": 4545,
    "schulen": 4546,
    "pu@@": 4547,
    "neuer": 4548,
    "lichkeiten": 4549,
    "drehte": 4550,
    "derte": 4551,
    "betre@@": 4552,
    "beschreibt": 4553,
    "begannen": 4554,
    "aller@@": 4555,
    "ahnen": 4556,
    "Verhalten": 4557,
    "Rö@@": 4558,
    "Hör@@": 4559,
    "Eu@@": 4560,
    "Ersten": 4561,
    "Elemente": 4562,
    "Behandlung": 4563,
    "All": 4564,
    "unt": 4565,
    "traten": 4566,
    "stin@@": 4567,
    "spielten": 4568,
    "quali@@": 4569,
    "aktuellen": 4570,
    "Zäh@@": 4571,
    "Worte": 4572,
    "Voll@@": 4573,
    "Vict@@": 4574,
    "Skla@@": 4575,
    "Runde": 4576,
    "Net@@": 4577,
    "Lyn@@": 4578,
    "Infolgedessen": 4579,
    "Ham@@": 4580,
    "Fit@@": 4581,
    "Chicago": 4582,
    "Beruf@@": 4583,
    "Aufnahmen": 4584,
    "zusätz@@": 4585,
    "we": 4586,
    "redu@@": 4587,
    "nu@@": 4588,
    "isst": 4589,
    "iken": 4590,
    "hät@@": 4591,
    "förmi@@": 4592,
    "freie": 4593,
    "ete": 4594,
    "erziel@@": 4595,
    "ennt": 4596,
    "barkeit": 4597,
    "achtz@@": 4598,
    "Unternehmens": 4599,
    "Teilen": 4600,
    "Stunde": 4601,
    "Statist@@": 4602,
    "Spiels": 4603,
    "Song@@": 4604,
    "Publik@@": 4605,
    "Parlam@@": 4606,
    "Natur": 4607,
    "Lord": 4608,
    "Kreisstadt": 4609,
    "Kosten": 4610,
    "Johnson": 4611,
    "ürz@@": 4612,
    "zwe@@": 4613,
    "wohl@@": 4614,
    "wichtigen": 4615,
    "uf@@": 4616,
    "ständi@@": 4617,
    "spür@@": 4618,
    "sat@@": 4619,
    "pr@@": 4620,
    "nomin@@": 4621,
    "läch@@": 4622,
    "hä@@": 4623,
    "etz": 4624,
    "dert": 4625,
    "chron@@": 4626,
    "cast@@": 4627,
    "Vir@@": 4628,
    "Tit@@": 4629,
    "Shi@@": 4630,
    "Leistung": 4631,
    "Lar@@": 4632,
    "Internet": 4633,
    "Des@@": 4634,
    "Bundesstaat": 4635,
    "zählen": 4636,
    "wollen": 4637,
    "verz@@": 4638,
    "ute": 4639,
    "och": 4640,
    "nationale": 4641,
    "mente": 4642,
    "linien": 4643,
    "liegenden": 4644,
    "interessi@@": 4645,
    "gert": 4646,
    "beschrän@@": 4647,
    "befest@@": 4648,
    "ars": 4649,
    "arischen": 4650,
    "Zy@@": 4651,
    "Phil@@": 4652,
    "Mem@@": 4653,
    "Mass@@": 4654,
    "Markt@@": 4655,
    "Leiter": 4656,
    "Fußball": 4657,
    "Forschung": 4658,
    "Dom@@": 4659,
    "Brief": 4660,
    "Bezirks": 4661,
    "Ash@@": 4662,
    "Ange@@": 4663,
    "ähnlichen": 4664,
    "zwölf": 4665,
    "verwand@@": 4666,
    "sper@@": 4667,
    "itten": 4668,
    "isse": 4669,
    "identi@@": 4670,
    "gesellschaft": 4671,
    "genannt": 4672,
    "ga": 4673,
    "ftige": 4674,
    "entschied": 4675,
    "dru@@": 4676,
    "boo@@": 4677,
    "ble": 4678,
    "alismus": 4679,
    "ai": 4680,
    "Wein@@": 4681,
    "Vergangenheit": 4682,
    "Union": 4683,
    "Tax@@": 4684,
    "Sonne": 4685,
    "Rus@@": 4686,
    "Pion@@": 4687,
    "Nachfolger": 4688,
    "Gramm@@": 4689,
    "Funktionen": 4690,
    "Frie@@": 4691,
    "Eigent@@": 4692,
    "Bildungs@@": 4693,
    "Aktiv@@": 4694,
    "üsse": 4695,
    "Öl@@": 4696,
    "top@@": 4697,
    "steigen@@": 4698,
    "ordin@@": 4699,
    "ns": 4700,
    "musi@@": 4701,
    "küh@@": 4702,
    "itt": 4703,
    "ieb@@": 4704,
    "holte": 4705,
    "gsten": 4706,
    "bungen": 4707,
    "bringen": 4708,
    "ama": 4709,
    "aktuelle": 4710,
    "Werbe@@": 4711,
    "USA": 4712,
    "Tages@@": 4713,
    "Sun@@": 4714,
    "Onkel": 4715,
    "Modell": 4716,
    "Meer@@": 4717,
    "Medien": 4718,
    "Lebensmittel@@": 4719,
    "Kommun@@": 4720,
    "Koh@@": 4721,
    "Haw@@": 4722,
    "Flori@@": 4723,
    "Chi@@": 4724,
    "Air": 4725,
    "änder": 4726,
    "spann@@": 4727,
    "ph": 4728,
    "ong@@": 4729,
    "hieß": 4730,
    "griffen": 4731,
    "gerin@@": 4732,
    "fertig@@": 4733,
    "dün@@": 4734,
    "buch": 4735,
    "beschrieb": 4736,
    "ani@@": 4737,
    "ams": 4738,
    "Tiere": 4739,
    "Technologie": 4740,
    "Spitznamen": 4741,
    "Sied@@": 4742,
    "Lor@@": 4743,
    "Kultur": 4744,
    "Fern@@": 4745,
    "Dru@@": 4746,
    "Dame": 4747,
    "Brot@@": 4748,
    "Bern@@": 4749,
    "Abteilung": 4750,
    "ös@@": 4751,
    "älterer": 4752,
    "wenigen": 4753,
    "vern@@": 4754,
    "tat": 4755,
    "sichts@@": 4756,
    "schriften": 4757,
    "pen@@": 4758,
    "kts": 4759,
    "ith@@": 4760,
    "halt": 4761,
    "geschn@@": 4762,
    "gebäude": 4763,
    "eten": 4764,
    "anen": 4765,
    "Weihnachts@@": 4766,
    "Vorsitzender": 4767,
    "Sonn@@": 4768,
    "Sci@@": 4769,
    "Schriftstell@@": 4770,
    "Handels@@": 4771,
    "Green": 4772,
    "Gir@@": 4773,
    "Gebieten": 4774,
    "Ehe": 4775,
    "é@@": 4776,
    "stoff": 4777,
    "schir@@": 4778,
    "prakti@@": 4779,
    "nisse": 4780,
    "möglich": 4781,
    "liter@@": 4782,
    "konserv@@": 4783,
    "kleinere": 4784,
    "ile": 4785,
    "herunter@@": 4786,
    "erfolgt": 4787,
    "ena": 4788,
    "bild": 4789,
    "benö@@": 4790,
    "beinhaltet": 4791,
    "Theater@@": 4792,
    "Sü@@": 4793,
    "Rit@@": 4794,
    "Ram@@": 4795,
    "Milli@@": 4796,
    "Literatur": 4797,
    "Lehrer": 4798,
    "Jahrhunder@@": 4799,
    "Hügel": 4800,
    "Großbritannien": 4801,
    "Grand": 4802,
    "Fünf": 4803,
    "Figuren": 4804,
    "Einkaufs@@": 4805,
    "Bibliothe@@": 4806,
    "Beh@@": 4807,
    "Bar": 4808,
    "ühr@@": 4809,
    "til@@": 4810,
    "teilen": 4811,
    "rieb": 4812,
    "mussten": 4813,
    "lia": 4814,
    "häus@@": 4815,
    "fän@@": 4816,
    "erzielte": 4817,
    "ener": 4818,
    "braun@@": 4819,
    "bekam": 4820,
    "aturen": 4821,
    "ante": 4822,
    "ano": 4823,
    "Systeme": 4824,
    "Sto@@": 4825,
    "Staat": 4826,
    "Slo@@": 4827,
    "Schnee": 4828,
    "Moun@@": 4829,
    "Leg@@": 4830,
    "Kreuz@@": 4831,
    "Jag@@": 4832,
    "Heiligen": 4833,
    "Geträn@@": 4834,
    "Franc@@": 4835,
    "Corn@@": 4836,
    "Änderungen": 4837,
    "uellen": 4838,
    "täu@@": 4839,
    "stamm@@": 4840,
    "rote": 4841,
    "nungs@@": 4842,
    "gespielt": 4843,
    "gehend": 4844,
    "erer": 4845,
    "dunkel@@": 4846,
    "Veranstal@@": 4847,
    "Studien": 4848,
    "Sicherheit": 4849,
    "Schü@@": 4850,
    "Schön@@": 4851,
    "Manager": 4852,
    "Lee": 4853,
    "Komment@@": 4854,
    "Institu@@": 4855,
    "Hur@@": 4856,
    "Firma": 4857,
    "Felsen": 4858,
    "Dokument@@": 4859,
    "China": 4860,
    "Bilder": 4861,
    "Aspe@@": 4862,
    "Amts@@": 4863,
    "Alt@@": 4864,
    "Akt@@": 4865,
    "”@@": 4866,
    "zimmer": 4867,
    "wirst": 4868,
    "tive": 4869,
    "produzierte": 4870,
    "leiter": 4871,
    "interess@@": 4872,
    "illen": 4873,
    "hören": 4874,
    "hoff@@": 4875,
    "europäischen": 4876,
    "entwickelt": 4877,
    "ehen": 4878,
    "dopp@@": 4879,
    "brauner": 4880,
    "Williams": 4881,
    "Termin@@": 4882,
    "Ni@@": 4883,
    "Krankenhaus": 4884,
    "Exper@@": 4885,
    "Direktor": 4886,
    "Amerikan@@": 4887,
    "Abschl@@": 4888,
    "äußerst": 4889,
    "wissen": 4890,
    "trop@@": 4891,
    "tnis": 4892,
    "sorg@@": 4893,
    "setzen": 4894,
    "schläge": 4895,
    "nat@@": 4896,
    "lautet": 4897,
    "lands": 4898,
    "hörte": 4899,
    "entfernt": 4900,
    "dienst@@": 4901,
    "dein": 4902,
    "aliforn@@": 4903,
    "Verb@@": 4904,
    "United": 4905,
    "Trainer": 4906,
    "Stau@@": 4907,
    "Star": 4908,
    "Ric@@": 4909,
    "Programme": 4910,
    "Old": 4911,
    "Minuten": 4912,
    "Mensch@@": 4913,
    "Lösung": 4914,
    "Louis@@": 4915,
    "Lager@@": 4916,
    "Küste": 4917,
    "Hö@@": 4918,
    "Genau": 4919,
    "Filmen": 4920,
    "Big": 4921,
    "Bauern@@": 4922,
    "Aff@@": 4923,
    "win": 4924,
    "perfe@@": 4925,
    "ona": 4926,
    "offiziellen": 4927,
    "ktions@@": 4928,
    "herum": 4929,
    "gruppen": 4930,
    "glei@@": 4931,
    "gerei@@": 4932,
    "geord@@": 4933,
    "galt": 4934,
    "fung@@": 4935,
    "endet": 4936,
    "dische": 4937,
    "charakter@@": 4938,
    "besondere": 4939,
    "automat@@": 4940,
    "Süß@@": 4941,
    "Spann@@": 4942,
    "Sitz@@": 4943,
    "Schrift@@": 4944,
    "Party": 4945,
    "Oper@@": 4946,
    "Little": 4947,
    "Ins@@": 4948,
    "Get@@": 4949,
    "Erz@@": 4950,
    "Comm@@": 4951,
    "Ausdruck": 4952,
    "äumen": 4953,
    "umfassen": 4954,
    "tru@@": 4955,
    "stä@@": 4956,
    "sinn@@": 4957,
    "richten@@": 4958,
    "rein@@": 4959,
    "psych@@": 4960,
    "ordnung": 4961,
    "old": 4962,
    "letzter": 4963,
    "konzentr@@": 4964,
    "igung": 4965,
    "fünfzig": 4966,
    "fig@@": 4967,
    "exist@@": 4968,
    "ersta@@": 4969,
    "enge": 4970,
    "bezirk": 4971,
    "Wochen@@": 4972,
    "Wash@@": 4973,
    "Unsere": 4974,
    "Texas": 4975,
    "Solche": 4976,
    "Records": 4977,
    "Popul@@": 4978,
    "Pferd": 4979,
    "Himmel": 4980,
    "Gemälde": 4981,
    "Eri@@": 4982,
    "Enkel@@": 4983,
    "Deshalb": 4984,
    "Denk@@": 4985,
    "vat@@": 4986,
    "unser": 4987,
    "undzwanzig": 4988,
    "mitten": 4989,
    "metho@@": 4990,
    "jährlich": 4991,
    "ingt": 4992,
    "fluss": 4993,
    "erhielten": 4994,
    "ennen": 4995,
    "einzelnen": 4996,
    "beein@@": 4997,
    "astro@@": 4998,
    "ark": 4999,
    "ala": 5000,
    "Univer@@": 5001,
    "Stamm@@": 5002,
    "Schau@@": 5003,
    "Rober@@": 5004,
    "Regel@@": 5005,
    "Publikum": 5006,
    "Opfer": 5007,
    "Kraft": 5008,
    "Kell@@": 5009,
    "It@@": 5010,
    "Hoff@@": 5011,
    "Gattung": 5012,
    "Foto": 5013,
    "Alexander": 5014,
    "zehnten": 5015,
    "umfang@@": 5016,
    "schauen": 5017,
    "poli@@": 5018,
    "nes": 5019,
    "kanadischen": 5020,
    "inner@@": 5021,
    "inen@@": 5022,
    "ihr@@": 5023,
    "hob": 5024,
    "halts@@": 5025,
    "groß": 5026,
    "französische": 5027,
    "einiger": 5028,
    "dun@@": 5029,
    "blick": 5030,
    "Zer@@": 5031,
    "Zahlen": 5032,
    "Umwelt@@": 5033,
    "Stud@@": 5034,
    "Satz": 5035,
    "Pas@@": 5036,
    "Niemand": 5037,
    "Mär@@": 5038,
    "Kä@@": 5039,
    "Indien": 5040,
    "Hop@@": 5041,
    "Gesundheits@@": 5042,
    "Funktion": 5043,
    "Community": 5044,
    "älteren": 5045,
    "vollen": 5046,
    "versuchte": 5047,
    "tür@@": 5048,
    "sur@@": 5049,
    "setzten": 5050,
    "schli@@": 5051,
    "quenz": 5052,
    "post@@": 5053,
    "mond": 5054,
    "latein@@": 5055,
    "internation@@": 5056,
    "gliche": 5057,
    "gerte": 5058,
    "folgten": 5059,
    "eut@@": 5060,
    "ennung": 5061,
    "ckung": 5062,
    "chinesischen": 5063,
    "beru@@": 5064,
    "beherbergt": 5065,
    "assung": 5066,
    "Wett@@": 5067,
    "Verfahren": 5068,
    "Seh@@": 5069,
    "Schulbezirk": 5070,
    "Schriftsteller": 5071,
    "Rum@@": 5072,
    "Ruf": 5073,
    "Rand": 5074,
    "Persön@@": 5075,
    "Paris": 5076,
    "Nutz@@": 5077,
    "Nar@@": 5078,
    "Nachbar@@": 5079,
    "Miner@@": 5080,
    "Midd@@": 5081,
    "Konstru@@": 5082,
    "Fün@@": 5083,
    "Ei@@": 5084,
    "Demokrat@@": 5085,
    "Bun@@": 5086,
    "Barr@@": 5087,
    "unabhängig": 5088,
    "tigten": 5089,
    "stete": 5090,
    "stellvertre@@": 5091,
    "starr@@": 5092,
    "sig@@": 5093,
    "schnitt": 5094,
    "schieden@@": 5095,
    "ri": 5096,
    "res": 5097,
    "neg@@": 5098,
    "natürlichen": 5099,
    "mt": 5100,
    "morgen": 5101,
    "grupp@@": 5102,
    "erreichte": 5103,
    "erheb@@": 5104,
    "entstand": 5105,
    "entlich": 5106,
    "engag@@": 5107,
    "dreißig": 5108,
    "Zusammen": 5109,
    "World": 5110,
    "Vorort": 5111,
    "Tot@@": 5112,
    "St.": 5113,
    "Sind": 5114,
    "Sem@@": 5115,
    "Quelle": 5116,
    "Produkt": 5117,
    "Nachmittag": 5118,
    "Meilen": 5119,
    "Magaz@@": 5120,
    "Königin": 5121,
    "Fähigkeiten": 5122,
    "Bildung": 5123,
    "Arm": 5124,
    "Angel@@": 5125,
    "Ah@@": 5126,
    "ziel@@": 5127,
    "wid@@": 5128,
    "wand": 5129,
    "traditionelle": 5130,
    "tags@@": 5131,
    "selts@@": 5132,
    "schuss": 5133,
    "ott": 5134,
    "orien": 5135,
    "hem@@": 5136,
    "gon@@": 5137,
    "eil": 5138,
    "ay": 5139,
    "antwort@@": 5140,
    "Verbin@@": 5141,
    "Robot@@": 5142,
    "Pon@@": 5143,
    "Nahr@@": 5144,
    "Männern": 5145,
    "Mom@@": 5146,
    "Lassen": 5147,
    "King": 5148,
    "Festival": 5149,
    "Diale@@": 5150,
    "Chic@@": 5151,
    "weder": 5152,
    "stimmte": 5153,
    "station@@": 5154,
    "rist@@": 5155,
    "näch@@": 5156,
    "nei@@": 5157,
    "nehme": 5158,
    "musst": 5159,
    "kli@@": 5160,
    "indischen": 5161,
    "hil@@": 5162,
    "gezogen": 5163,
    "geschütz@@": 5164,
    "fühlte": 5165,
    "endgül@@": 5166,
    "digt": 5167,
    "deh@@": 5168,
    "Zusammenhang": 5169,
    "Start@@": 5170,
    "Rückkehr": 5171,
    "Psych@@": 5172,
    "Prü@@": 5173,
    "Massachus@@": 5174,
    "Krat@@": 5175,
    "Herstellung": 5176,
    "Hat": 5177,
    "Größ@@": 5178,
    "Great": 5179,
    "Glück": 5180,
    "Garten": 5181,
    "Fr@@": 5182,
    "Erfahrung": 5183,
    "Dr.": 5184,
    "Cast@@": 5185,
    "Brüder": 5186,
    "Brief@@": 5187,
    "äufer": 5188,
    "stehende": 5189,
    "stattdessen": 5190,
    "russ@@": 5191,
    "rick@@": 5192,
    "prü@@": 5193,
    "pflich@@": 5194,
    "orte": 5195,
    "löste": 5196,
    "lichem": 5197,
    "lernte": 5198,
    "inge": 5199,
    "halte": 5200,
    "ha": 5201,
    "getan": 5202,
    "dauerte": 5203,
    "chem@@": 5204,
    "atz": 5205,
    "Zivil@@": 5206,
    "Woh@@": 5207,
    "Mun@@": 5208,
    "Minist@@": 5209,
    "Mehrheit": 5210,
    "Masch@@": 5211,
    "Innerhalb": 5212,
    "Herrschaft": 5213,
    "Gut@@": 5214,
    "Goo@@": 5215,
    "East@@": 5216,
    "Bevor": 5217,
    "wa": 5218,
    "tendlich": 5219,
    "tele@@": 5220,
    "schlüss@@": 5221,
    "ländischen": 5222,
    "lis": 5223,
    "kle@@": 5224,
    "jährige": 5225,
    "haupt@@": 5226,
    "gefangen": 5227,
    "gebr@@": 5228,
    "frühe": 5229,
    "fein@@": 5230,
    "bis@@": 5231,
    "alog@@": 5232,
    "alisten": 5233,
    "Zentral@@": 5234,
    "Treffen": 5235,
    "Tal": 5236,
    "Strom@@": 5237,
    "Soldaten": 5238,
    "Pennsyl@@": 5239,
    "Patienten": 5240,
    "Mir": 5241,
    "Methoden": 5242,
    "Lewis": 5243,
    "Last@@": 5244,
    "Kapitän": 5245,
    "Joh@@": 5246,
    "Jahrzeh@@": 5247,
    "Gründer": 5248,
    "Gefängnis": 5249,
    "Flei@@": 5250,
    "Brun@@": 5251,
    "Baum": 5252,
    "umfasste": 5253,
    "teilte": 5254,
    "stör@@": 5255,
    "schmerz@@": 5256,
    "ole": 5257,
    "oberen": 5258,
    "kombin@@": 5259,
    "häufigsten": 5260,
    "grei@@": 5261,
    "führende": 5262,
    "fläch@@": 5263,
    "beschä@@": 5264,
    "bes": 5265,
    "ath": 5266,
    "abhän@@": 5267,
    "Zusammenarbeit": 5268,
    "Wider@@": 5269,
    "Pit@@": 5270,
    "Parks": 5271,
    "Marine@@": 5272,
    "Königreich": 5273,
    "Krater": 5274,
    "Kais@@": 5275,
    "Gibt": 5276,
    "Company": 5277,
    "Boston": 5278,
    "Bell@@": 5279,
    "Augu@@": 5280,
    "windig@@": 5281,
    "verwendeten": 5282,
    "transpor@@": 5283,
    "spor@@": 5284,
    "sieb@@": 5285,
    "sel": 5286,
    "schrift": 5287,
    "schneller": 5288,
    "reag@@": 5289,
    "nt": 5290,
    "nie@@": 5291,
    "linken": 5292,
    "körper@@": 5293,
    "hätten": 5294,
    "haar@@": 5295,
    "gestellt": 5296,
    "daraufhin": 5297,
    "bon@@": 5298,
    "ash": 5299,
    "ansässi@@": 5300,
    "anda": 5301,
    "Zusätzlich": 5302,
    "Zukunft": 5303,
    "Wert": 5304,
    "Ve@@": 5305,
    "Technolog@@": 5306,
    "Route": 5307,
    "Prie@@": 5308,
    "Pick@@": 5309,
    "Musiker": 5310,
    "Music": 5311,
    "Modelle": 5312,
    "Memorial": 5313,
    "Max@@": 5314,
    "Louis": 5315,
    "Lam@@": 5316,
    "Krieges": 5317,
    "Kit@@": 5318,
    "Jung@@": 5319,
    "Jahrhundert": 5320,
    "Fron@@": 5321,
    "Fro@@": 5322,
    "Fahrer": 5323,
    "Brit@@": 5324,
    "Blum@@": 5325,
    "Andre@@": 5326,
    "überall": 5327,
    "öffnete": 5328,
    "wärts": 5329,
    "wn": 5330,
    "ull": 5331,
    "tis": 5332,
    "seitdem": 5333,
    "rel@@": 5334,
    "offen": 5335,
    "medizin@@": 5336,
    "intensi@@": 5337,
    "half": 5338,
    "griechischen": 5339,
    "gleichzeitig": 5340,
    "gien": 5341,
    "day": 5342,
    "Zi@@": 5343,
    "Serv@@": 5344,
    "Präsidenten": 5345,
    "Pfarr@@": 5346,
    "Kön@@": 5347,
    "Kreis@@": 5348,
    "Kongress@@": 5349,
    "Jeans": 5350,
    "Ihm": 5351,
    "Betrieb": 5352,
    "Beobach@@": 5353,
    "Auszeichnung": 5354,
    "Alles": 5355,
    "wandte": 5356,
    "uch": 5357,
    "tiere": 5358,
    "sprü@@": 5359,
    "shire": 5360,
    "och@@": 5361,
    "not@@": 5362,
    "isierte": 5363,
    "io": 5364,
    "inzwischen": 5365,
    "han": 5366,
    "glie@@": 5367,
    "genannten": 5368,
    "fahrt": 5369,
    "erstre@@": 5370,
    "dlichen": 5371,
    "dent@@": 5372,
    "allgemeine": 5373,
    "Zeu@@": 5374,
    "Wissenschaft@@": 5375,
    "Wass@@": 5376,
    "Texte": 5377,
    "Ten@@": 5378,
    "Shar@@": 5379,
    "Schauspielerin": 5380,
    "Red": 5381,
    "Nov@@": 5382,
    "Forsch@@": 5383,
    "Emm@@": 5384,
    "Chris": 5385,
    "Büro": 5386,
    "statist@@": 5387,
    "schü@@": 5388,
    "reicher": 5389,
    "jün@@": 5390,
    "italien@@": 5391,
    "eingesetzt": 5392,
    "cre@@": 5393,
    "beauf@@": 5394,
    "beam@@": 5395,
    "arbeiter": 5396,
    "Züge": 5397,
    "Studium": 5398,
    "Steve": 5399,
    "Spit@@": 5400,
    "Situation": 5401,
    "Siedlung": 5402,
    "Schott@@": 5403,
    "Schla@@": 5404,
    "Praxis": 5405,
    "Pflanzen": 5406,
    "Kritik": 5407,
    "Joe": 5408,
    "Grenzen": 5409,
    "Gas@@": 5410,
    "Erschein@@": 5411,
    "Erinner@@": 5412,
    "Eisen@@": 5413,
    "Dank": 5414,
    "Cher@@": 5415,
    "Auswirkungen": 5416,
    "Alex@@": 5417,
    "’@@": 5418,
    "zeug": 5419,
    "vierte": 5420,
    "tem@@": 5421,
    "sätz@@": 5422,
    "stärk@@": 5423,
    "spit@@": 5424,
    "solchen": 5425,
    "rigen": 5426,
    "reserv@@": 5427,
    "proble@@": 5428,
    "pfen": 5429,
    "otte": 5430,
    "offiziell": 5431,
    "nal": 5432,
    "lik@@": 5433,
    "lieb@@": 5434,
    "kür@@": 5435,
    "itäten": 5436,
    "höch@@": 5437,
    "grau@@": 5438,
    "glichen": 5439,
    "fing": 5440,
    "ethn@@": 5441,
    "erober@@": 5442,
    "ehn": 5443,
    "Wagen": 5444,
    "Verbess@@": 5445,
    "Tradition": 5446,
    "Ton": 5447,
    "Stro@@": 5448,
    "Stadion": 5449,
    "Society": 5450,
    "Sicher@@": 5451,
    "Reise@@": 5452,
    "Organisationen": 5453,
    "Mission": 5454,
    "Krank@@": 5455,
    "Kirchen@@": 5456,
    "Ih@@": 5457,
    "Gü@@": 5458,
    "Grü@@": 5459,
    "verkehr": 5460,
    "unseren": 5461,
    "still@@": 5462,
    "station": 5463,
    "spruch": 5464,
    "rechten": 5465,
    "more": 5466,
    "meines": 5467,
    "mau@@": 5468,
    "male": 5469,
    "ild": 5470,
    "gabe@@": 5471,
    "Wissen": 5472,
    "Tante": 5473,
    "Stad@@": 5474,
    "Schrit@@": 5475,
    "Offiz@@": 5476,
    "Finde": 5477,
    "Ausgabe": 5478,
    "Ansatz": 5479,
    "zün@@": 5480,
    "stung": 5481,
    "rupp@@": 5482,
    "rennt": 5483,
    "religi@@": 5484,
    "ktiv": 5485,
    "keiten": 5486,
    "hervorra@@": 5487,
    "gelegene": 5488,
    "geber": 5489,
    "bisschen": 5490,
    "beu@@": 5491,
    "bende": 5492,
    "beinhal@@": 5493,
    "Vorder@@": 5494,
    "Städten": 5495,
    "Stä@@": 5496,
    "Smit@@": 5497,
    "Restauran@@": 5498,
    "Rak@@": 5499,
    "Monaten": 5500,
    "Küsten@@": 5501,
    "Grafschaft": 5502,
    "Eth@@": 5503,
    "Division": 5504,
    "Brie@@": 5505,
    "Beam@@": 5506,
    "Anhänger": 5507,
    "Altern@@": 5508,
    "0": 5509,
    "vieler": 5510,
    "versucht": 5511,
    "unserer": 5512,
    "sub@@": 5513,
    "stau@@": 5514,
    "schöne": 5515,
    "reisen": 5516,
    "reis@@": 5517,
    "nischen": 5518,
    "mäß@@": 5519,
    "machten": 5520,
    "ly": 5521,
    "könig@@": 5522,
    "haber": 5523,
    "gre@@": 5524,
    "freien": 5525,
    "fläche": 5526,
    "dür@@": 5527,
    "betrachtet": 5528,
    "annt": 5529,
    "ands": 5530,
    "ami@@": 5531,
    "Zit@@": 5532,
    "Zeichen": 5533,
    "Virginia": 5534,
    "Stücke": 5535,
    "Stuhl": 5536,
    "Preis@@": 5537,
    "Ner@@": 5538,
    "May@@": 5539,
    "Mathem@@": 5540,
    "Kart@@": 5541,
    "Kalifornien": 5542,
    "Hande@@": 5543,
    "Gefän@@": 5544,
    "Gebir@@": 5545,
    "Dou@@": 5546,
    "Dabei": 5547,
    "Computer": 5548,
    "Beat@@": 5549,
    "August": 5550,
    "schlossen": 5551,
    "pal@@": 5552,
    "ose": 5553,
    "lächeln@@": 5554,
    "kürzlich": 5555,
    "isiert": 5556,
    "ino": 5557,
    "fluss@@": 5558,
    "erstreckt": 5559,
    "effizi@@": 5560,
    "begei@@": 5561,
    "ance": 5562,
    "abe": 5563,
    "Wäl@@": 5564,
    "Säu@@": 5565,
    "Sänger": 5566,
    "Shir@@": 5567,
    "Santa": 5568,
    "Ohne": 5569,
    "Natürlich": 5570,
    "Lev@@": 5571,
    "Hay@@": 5572,
    "Göt@@": 5573,
    "Farb@@": 5574,
    "Energie@@": 5575,
    "Eich@@": 5576,
    "Druck@@": 5577,
    "Darstellung": 5578,
    "Columbia": 5579,
    "zweiter": 5580,
    "zweit@@": 5581,
    "zierte": 5582,
    "versor@@": 5583,
    "ther": 5584,
    "teu@@": 5585,
    "terin": 5586,
    "stige": 5587,
    "stall@@": 5588,
    "spru@@": 5589,
    "schließt": 5590,
    "rechte": 5591,
    "passiert": 5592,
    "onie": 5593,
    "mitglie@@": 5594,
    "lex": 5595,
    "konf@@": 5596,
    "ikt@@": 5597,
    "hrop@@": 5598,
    "hi": 5599,
    "größtenteils": 5600,
    "grenz@@": 5601,
    "bir@@": 5602,
    "arren": 5603,
    "album": 5604,
    "Wis@@": 5605,
    "Verwaltungssitz": 5606,
    "Spitze": 5607,
    "Schutz": 5608,
    "Schreiben": 5609,
    "Pflanzen@@": 5610,
    "Lern@@": 5611,
    "Klo@@": 5612,
    "Gehir@@": 5613,
    "Einrichtungen": 5614,
    "Coll@@": 5615,
    "Church": 5616,
    "Broad@@": 5617,
    "Beglei@@": 5618,
    "zentralen": 5619,
    "ym": 5620,
    "ye": 5621,
    "wohnt": 5622,
    "westliche": 5623,
    "tender": 5624,
    "teilungen": 5625,
    "sprachen": 5626,
    "sonn@@": 5627,
    "scheinen": 5628,
    "opti@@": 5629,
    "mannschaft": 5630,
    "kehrt": 5631,
    "igsten": 5632,
    "ignor@@": 5633,
    "häuser": 5634,
    "haften": 5635,
    "chester": 5636,
    "berühmten": 5637,
    "aden": 5638,
    "Thom@@": 5639,
    "Studios": 5640,
    "Software": 5641,
    "Noch": 5642,
    "Long": 5643,
    "Krankheit": 5644,
    "Kaiser": 5645,
    "Hose": 5646,
    "Himm@@": 5647,
    "Eröff@@": 5648,
    "Erklärung": 5649,
    "Dri@@": 5650,
    "Diag@@": 5651,
    "Ce@@": 5652,
    "Blue": 5653,
    "Ausgaben": 5654,
    "Ara@@": 5655,
    "Überreste": 5656,
    "wör@@": 5657,
    "veran@@": 5658,
    "tierten": 5659,
    "richtig": 5660,
    "rah@@": 5661,
    "onische": 5662,
    "nutzen": 5663,
    "mie@@": 5664,
    "mas@@": 5665,
    "malen": 5666,
    "klei@@": 5667,
    "insgesamt": 5668,
    "herrsch@@": 5669,
    "hart": 5670,
    "getötet": 5671,
    "ence": 5672,
    "dunklen": 5673,
    "drän@@": 5674,
    "aufgenommen": 5675,
    "atz@@": 5676,
    "Tor": 5677,
    "Stipen@@": 5678,
    "Reservierung": 5679,
    "Religi@@": 5680,
    "Rail@@": 5681,
    "Prop@@": 5682,
    "Parlament": 5683,
    "Oak@@": 5684,
    "Nan@@": 5685,
    "Nah@@": 5686,
    "Mid@@": 5687,
    "Maskottchen": 5688,
    "Konserv@@": 5689,
    "Key@@": 5690,
    "Internation@@": 5691,
    "Golf@@": 5692,
    "Elektr@@": 5693,
    "Dem": 5694,
    "Budd@@": 5695,
    "Bedingungen": 5696,
    "Argum@@": 5697,
    "ämm@@": 5698,
    "verkaufte": 5699,
    "umin@@": 5700,
    "umf@@": 5701,
    "tut": 5702,
    "tin": 5703,
    "schlag": 5704,
    "repar@@": 5705,
    "park": 5706,
    "mitglied": 5707,
    "jo@@": 5708,
    "iker": 5709,
    "gegeben": 5710,
    "frü@@": 5711,
    "ek": 5712,
    "eigent@@": 5713,
    "dale": 5714,
    "beendete": 5715,
    "atte": 5716,
    "alien": 5717,
    "Zwischen@@": 5718,
    "Van@@": 5719,
    "Taylor": 5720,
    "Städ@@": 5721,
    "Stir@@": 5722,
    "Rollen": 5723,
    "Regie": 5724,
    "Portug@@": 5725,
    "Mir@@": 5726,
    "Mand@@": 5727,
    "Fru@@": 5728,
    "Fig@@": 5729,
    "Est@@": 5730,
    "Ergeb@@": 5731,
    "Charakter": 5732,
    "C.": 5733,
    "Award": 5734,
    "Anwalt": 5735,
    "Angst": 5736,
    "zahl": 5737,
    "wäss@@": 5738,
    "ware": 5739,
    "stiz@@": 5740,
    "stens": 5741,
    "orig@@": 5742,
    "miss@@": 5743,
    "ländische": 5744,
    "kreu@@": 5745,
    "krei@@": 5746,
    "kampf": 5747,
    "halb@@": 5748,
    "fts@@": 5749,
    "dienste": 5750,
    "bisher": 5751,
    "atten": 5752,
    "ada": 5753,
    "Wirk@@": 5754,
    "Text@@": 5755,
    "Technik": 5756,
    "Service": 5757,
    "Rap@@": 5758,
    "Quar@@": 5759,
    "Port": 5760,
    "Pho@@": 5761,
    "Mitgliedern": 5762,
    "Kostü@@": 5763,
    "Kern@@": 5764,
    "Hier@@": 5765,
    "Gewä@@": 5766,
    "Feuerwehr@@": 5767,
    "Dutz@@": 5768,
    "Distrikt": 5769,
    "Diskus@@": 5770,
    "Dach@@": 5771,
    "Buck@@": 5772,
    "überwiegend": 5773,
    "äng@@": 5774,
    "zep@@": 5775,
    "zeitgenöss@@": 5776,
    "za": 5777,
    "yan": 5778,
    "wen": 5779,
    "schwimm@@": 5780,
    "mögen": 5781,
    "masch@@": 5782,
    "liste": 5783,
    "größer": 5784,
    "erreicht": 5785,
    "einfache": 5786,
    "befanden": 5787,
    "anzen": 5788,
    "Teilnehmer": 5789,
    "Tat": 5790,
    "Spring@@": 5791,
    "Scott": 5792,
    "Schach@@": 5793,
    "Pläne": 5794,
    "Over@@": 5795,
    "Nachrichten": 5796,
    "Marke": 5797,
    "Mah@@": 5798,
    "Lit@@": 5799,
    "Kleid": 5800,
    "Katze": 5801,
    "Hersteller": 5802,
    "Gold": 5803,
    "Geschle@@": 5804,
    "Gem@@": 5805,
    "Erzäh@@": 5806,
    "Eines": 5807,
    "Ecke": 5808,
    "Cho@@": 5809,
    "British": 5810,
    "Bli@@": 5811,
    "Besonder@@": 5812,
    "Ass@@": 5813,
    "vollständi@@": 5814,
    "verlassen": 5815,
    "terte": 5816,
    "menschlichen": 5817,
    "materi@@": 5818,
    "lität": 5819,
    "künstler@@": 5820,
    "ingu@@": 5821,
    "gänge": 5822,
    "gige": 5823,
    "fung": 5824,
    "bungs@@": 5825,
    "angem@@": 5826,
    "alo@@": 5827,
    "Zimmer": 5828,
    "Verkauf@@": 5829,
    "Stor@@": 5830,
    "Sich@@": 5831,
    "Sex@@": 5832,
    "Rech@@": 5833,
    "Public": 5834,
    "Pad@@": 5835,
    "Nomin@@": 5836,
    "Kandidaten": 5837,
    "Exempl@@": 5838,
    "Dich@@": 5839,
    "Blei@@": 5840,
    "Andrew": 5841,
    "Academy": 5842,
    "vollständige": 5843,
    "unteren": 5844,
    "trifft": 5845,
    "treffen": 5846,
    "tierung": 5847,
    "tens": 5848,
    "schiff": 5849,
    "rank@@": 5850,
    "mäh@@": 5851,
    "mus": 5852,
    "ko": 5853,
    "geren": 5854,
    "erklärte": 5855,
    "druck": 5856,
    "bat": 5857,
    "argum@@": 5858,
    "abi@@": 5859,
    "Wirt@@": 5860,
    "Wirkung": 5861,
    "Viertel": 5862,
    "Tony": 5863,
    "Swe@@": 5864,
    "Sum@@": 5865,
    "Steuer@@": 5866,
    "Sign@@": 5867,
    "Schnell@@": 5868,
    "Rund@@": 5869,
    "Regionen": 5870,
    "Refer@@": 5871,
    "Namens@@": 5872,
    "Motor": 5873,
    "Milit@@": 5874,
    "Maria": 5875,
    "Karten": 5876,
    "Herausforder@@": 5877,
    "Feier@@": 5878,
    "Fas@@": 5879,
    "Fair@@": 5880,
    "Einrichtung": 5881,
    "Cr@@": 5882,
    "Bezir@@": 5883,
    "Astron@@": 5884,
    "Allen": 5885,
    "Abstamm@@": 5886,
    "urg@@": 5887,
    "trei@@": 5888,
    "suche": 5889,
    "stücke": 5890,
    "stet": 5891,
    "schaute": 5892,
    "prof@@": 5893,
    "offiz@@": 5894,
    "low": 5895,
    "leitung": 5896,
    "kes": 5897,
    "ight": 5898,
    "ide": 5899,
    "geschlossen": 5900,
    "fle@@": 5901,
    "exp@@": 5902,
    "eth@@": 5903,
    "erfor@@": 5904,
    "berühmte": 5905,
    "altern@@": 5906,
    "Waffen": 5907,
    "Vorfall": 5908,
    "Van": 5909,
    "Territ@@": 5910,
    "Stahl@@": 5911,
    "South@@": 5912,
    "Sab@@": 5913,
    "Republik": 5914,
    "Pom@@": 5915,
    "Philosophie": 5916,
    "Maß@@": 5917,
    "Landes": 5918,
    "Kirchen": 5919,
    "Effe@@": 5920,
    "Denn@@": 5921,
    "Brad@@": 5922,
    "Aufgabe": 5923,
    "Arbeiter": 5924,
    "Anwendungen": 5925,
    "Ag@@": 5926,
    "ziehen": 5927,
    "wart": 5928,
    "unmittel@@": 5929,
    "tischen": 5930,
    "tief": 5931,
    "tain@@": 5932,
    "stimmt": 5933,
    "ral": 5934,
    "ola": 5935,
    "neh@@": 5936,
    "klass@@": 5937,
    "instru@@": 5938,
    "hül@@": 5939,
    "gesagt": 5940,
    "eton": 5941,
    "dürfen": 5942,
    "dreimal": 5943,
    "brenn@@": 5944,
    "bb@@": 5945,
    "Verfügung": 5946,
    "Universitäten": 5947,
    "Tabelle": 5948,
    "Sn@@": 5949,
    "Selbst": 5950,
    "Quad@@": 5951,
    "Punkte": 5952,
    "Patri@@": 5953,
    "Nummer": 5954,
    "Nap@@": 5955,
    "Mitglie@@": 5956,
    "Miss": 5957,
    "Kämpf@@": 5958,
    "Kritikern": 5959,
    "Kritiker": 5960,
    "Kie@@": 5961,
    "Kamera": 5962,
    "Haar": 5963,
    "Celia": 5964,
    "Associ@@": 5965,
    "Alber@@": 5966,
    "Übersetzung": 5967,
    "zuver@@": 5968,
    "vest@@": 5969,
    "urm": 5970,
    "schwei@@": 5971,
    "roll@@": 5972,
    "orium": 5973,
    "mung": 5974,
    "medi@@": 5975,
    "iment@@": 5976,
    "hinzu": 5977,
    "gebiete": 5978,
    "führenden": 5979,
    "flächen@@": 5980,
    "dienen": 5981,
    "deter": 5982,
    "dam@@": 5983,
    "brech@@": 5984,
    "braucht": 5985,
    "berech@@": 5986,
    "bemerkens@@": 5987,
    "Unterschied": 5988,
    "Tä@@": 5989,
    "Tepp@@": 5990,
    "Stru@@": 5991,
    "Siedler": 5992,
    "Rezep@@": 5993,
    "Ret@@": 5994,
    "Menschenmenge": 5995,
    "Lieblings@@": 5996,
    "Kunden": 5997,
    "Kontrover@@": 5998,
    "Ideen": 5999,
    "Früher": 6000,
    "Einheiten": 6001,
    "Eigenschaften": 6002,
    "Bin@@": 6003,
    "Autoren": 6004,
    "Anwendung": 6005,
    "Anwen@@": 6006,
    "Akti@@": 6007,
    "wodurch": 6008,
    "verfü@@": 6009,
    "stammte": 6010,
    "sofern": 6011,
    "schlägt": 6012,
    "schluss": 6013,
    "rie": 6014,
    "ode": 6015,
    "kos@@": 6016,
    "komplett": 6017,
    "igkeiten": 6018,
    "hoh@@": 6019,
    "gelegen@@": 6020,
    "ftigen": 6021,
    "fort": 6022,
    "ersetzte": 6023,
    "ele": 6024,
    "deutsche": 6025,
    "demokrat@@": 6026,
    "braune": 6027,
    "betrieb": 6028,
    "befrei@@": 6029,
    "bedeutende": 6030,
    "Vorsitzende": 6031,
    "Spa@@": 6032,
    "Sonder@@": 6033,
    "Proz@@": 6034,
    "Pr@@": 6035,
    "Minister": 6036,
    "Kun@@": 6037,
    "Gründen": 6038,
    "Gestal@@": 6039,
    "Fähr@@": 6040,
    "Cin@@": 6041,
    "Chem@@": 6042,
    "Bud@@": 6043,
    "Bestandteil": 6044,
    "Bericht": 6045,
    "Auszeichnungen": 6046,
    "Aufmerksamkeit": 6047,
    "Agen@@": 6048,
    "östliche": 6049,
    "wissenschaftliche": 6050,
    "wirft": 6051,
    "urt": 6052,
    "stil": 6053,
    "steller": 6054,
    "schaffte": 6055,
    "namen": 6056,
    "mär@@": 6057,
    "lief@@": 6058,
    "lichste": 6059,
    "lebenden": 6060,
    "klär@@": 6061,
    "jüngeren": 6062,
    "irgendwo": 6063,
    "ils": 6064,
    "iell": 6065,
    "gig": 6066,
    "gelte": 6067,
    "gefei@@": 6068,
    "frühere": 6069,
    "ehemaliger": 6070,
    "ativer": 6071,
    "arbeitung": 6072,
    "Zwischenzeit": 6073,
    "Zerstör@@": 6074,
    "Verf@@": 6075,
    "Verbindungen": 6076,
    "Unterstütz@@": 6077,
    "Tän@@": 6078,
    "Test": 6079,
    "Tempel": 6080,
    "Szene": 6081,
    "Stein": 6082,
    "Sm@@": 6083,
    "Silber@@": 6084,
    "Schlüssel": 6085,
    "Point": 6086,
    "Pfei@@": 6087,
    "Mül@@": 6088,
    "Mund": 6089,
    "Mul@@": 6090,
    "Mol@@": 6091,
    "Marine": 6092,
    "Lös@@": 6093,
    "Liebl@@": 6094,
    "Kauf@@": 6095,
    "Kateg@@": 6096,
    "Junior": 6097,
    "Jackson": 6098,
    "Höhe@@": 6099,
    "Großvater": 6100,
    "Fels@@": 6101,
    "Einen": 6102,
    "Davis": 6103,
    "Bereichen": 6104,
    "Basis": 6105,
    "Assist@@": 6106,
    "Arthur": 6107,
    "Ansichten": 6108,
    "Angeles": 6109,
    "vierten": 6110,
    "van": 6111,
    "tiv@@": 6112,
    "stitu@@": 6113,
    "stieß": 6114,
    "schwarz": 6115,
    "onischen": 6116,
    "mierte": 6117,
    "lin": 6118,
    "lass": 6119,
    "kir@@": 6120,
    "jüngere": 6121,
    "itäts@@": 6122,
    "grä@@": 6123,
    "geschichte": 6124,
    "gebung": 6125,
    "entschul@@": 6126,
    "dende": 6127,
    "benannt": 6128,
    "basi@@": 6129,
    "australischen": 6130,
    "altung": 6131,
    "aktive": 6132,
    "Zudem": 6133,
    "Wald": 6134,
    "Verwaltung": 6135,
    "Stern@@": 6136,
    "Skate@@": 6137,
    "Sek@@": 6138,
    "Schlüssel@@": 6139,
    "Pass@@": 6140,
    "Oberfläche": 6141,
    "Milch@@": 6142,
    "Mana@@": 6143,
    "Holz": 6144,
    "Gib": 6145,
    "Fried@@": 6146,
    "Ereignisse": 6147,
    "Ehren@@": 6148,
    "Diam@@": 6149,
    "Chef@@": 6150,
    "Cent@@": 6151,
    "Blat@@": 6152,
    "Auftritt": 6153,
    "Anweis@@": 6154,
    "äußer@@": 6155,
    "zwanzig": 6156,
    "worth": 6157,
    "unabhängige": 6158,
    "tour@@": 6159,
    "tic": 6160,
    "sist@@": 6161,
    "scheu@@": 6162,
    "pot@@": 6163,
    "ossen": 6164,
    "onien": 6165,
    "konzentriert": 6166,
    "iet": 6167,
    "ident@@": 6168,
    "finde": 6169,
    "film": 6170,
    "extrem": 6171,
    "dlicher": 6172,
    "brechen": 6173,
    "beträch@@": 6174,
    "angeblich": 6175,
    "allgemeinen": 6176,
    "Zweck": 6177,
    "Weltkrieg": 6178,
    "Vertreter": 6179,
    "Treppe": 6180,
    "Staffel": 6181,
    "Rede": 6182,
    "Peri@@": 6183,
    "Orch@@": 6184,
    "Namens": 6185,
    "Klima@@": 6186,
    "Keine": 6187,
    "Jac@@": 6188,
    "Höhe": 6189,
    "Hamp@@": 6190,
    "Gouver@@": 6191,
    "För@@": 6192,
    "Fehl@@": 6193,
    "E.": 6194,
    "Brille": 6195,
    "öffentlich": 6196,
    "zie@@": 6197,
    "wahrschein@@": 6198,
    "ständ@@": 6199,
    "spekt@@": 6200,
    "organ@@": 6201,
    "minister": 6202,
    "lers": 6203,
    "laub@@": 6204,
    "japanische": 6205,
    "grüne": 6206,
    "gelang": 6207,
    "erwarb": 6208,
    "dunkl@@": 6209,
    "dens": 6210,
    "ctor": 6211,
    "chern": 6212,
    "bewus@@": 6213,
    "beer@@": 6214,
    "baute": 6215,
    "aut": 6216,
    "ami": 6217,
    "Vögel": 6218,
    "Stock": 6219,
    "Status": 6220,
    "Physi@@": 6221,
    "Parteien": 6222,
    "Mantel": 6223,
    "Lok@@": 6224,
    "Kombination": 6225,
    "Jim": 6226,
    "Häus@@": 6227,
    "Hub@@": 6228,
    "Gras": 6229,
    "Falls": 6230,
    "Experi@@": 6231,
    "Eur@@": 6232,
    "Emp@@": 6233,
    "Druck": 6234,
    "Dig@@": 6235,
    "Clin@@": 6236,
    "Chil@@": 6237,
    "verlei@@": 6238,
    "verbra@@": 6239,
    "vention@@": 6240,
    "trag": 6241,
    "theit": 6242,
    "sätze": 6243,
    "ologen": 6244,
    "notwen@@": 6245,
    "mont": 6246,
    "mmern": 6247,
    "mechan@@": 6248,
    "länger": 6249,
    "höhere": 6250,
    "grenze": 6251,
    "est": 6252,
    "deinen": 6253,
    "befeh@@": 6254,
    "attra@@": 6255,
    "Vergleich": 6256,
    "Touristen": 6257,
    "Ski@@": 6258,
    "Schne@@": 6259,
    "Offen@@": 6260,
    "Männchen": 6261,
    "Mitt@@": 6262,
    "Millionen": 6263,
    "Micro@@": 6264,
    "Leuten": 6265,
    "Leh@@": 6266,
    "Konzep@@": 6267,
    "Kommand@@": 6268,
    "Imm@@": 6269,
    "Häuf@@": 6270,
    "Hart@@": 6271,
    "Hafen": 6272,
    "Gymna@@": 6273,
    "Feder@@": 6274,
    "Energie": 6275,
    "Bezeichnung": 6276,
    "Benutz@@": 6277,
    "Beiträge": 6278,
    "öß@@": 6279,
    "öffent@@": 6280,
    "Ägyp@@": 6281,
    "ziert": 6282,
    "wahl": 6283,
    "view": 6284,
    "teilt": 6285,
    "stische": 6286,
    "sport": 6287,
    "riesigen": 6288,
    "ood": 6289,
    "off": 6290,
    "natürliche": 6291,
    "män@@": 6292,
    "markt": 6293,
    "liebt": 6294,
    "liber@@": 6295,
    "lassung": 6296,
    "lan": 6297,
    "korre@@": 6298,
    "ini": 6299,
    "igt": 6300,
    "hom@@": 6301,
    "gramm": 6302,
    "gelassen": 6303,
    "ffs": 6304,
    "ess": 6305,
    "daille": 6306,
    "bereitet": 6307,
    "benachbar@@": 6308,
    "beliebtes": 6309,
    "ask@@": 6310,
    "Zahn@@": 6311,
    "Wegen": 6312,
    "Spezies": 6313,
    "Schwier@@": 6314,
    "Ricardo": 6315,
    "Pseu@@": 6316,
    "Meer": 6317,
    "M.": 6318,
    "Lou@@": 6319,
    "Kanal": 6320,
    "Gä@@": 6321,
    "Folgen": 6322,
    "B": 6323,
    "Aufgaben": 6324,
    "As@@": 6325,
    "Angebot": 6326,
    "Anführer": 6327,
    "Americ@@": 6328,
    "verwir@@": 6329,
    "verblei@@": 6330,
    "une": 6331,
    "struktur": 6332,
    "sprin@@": 6333,
    "sollen": 6334,
    "serie": 6335,
    "schirm": 6336,
    "rige": 6337,
    "reicht": 6338,
    "private": 6339,
    "positi@@": 6340,
    "online": 6341,
    "nütz@@": 6342,
    "lub": 6343,
    "katholischen": 6344,
    "jährigen": 6345,
    "inform@@": 6346,
    "ian": 6347,
    "hilfe": 6348,
    "genutzt": 6349,
    "gender": 6350,
    "cial": 6351,
    "chtete": 6352,
    "bul@@": 6353,
    "blü@@": 6354,
    "bekanntesten": 6355,
    "ammer": 6356,
    "ames": 6357,
    "alter@@": 6358,
    "absol@@": 6359,
    "Weibchen": 6360,
    "Water@@": 6361,
    "W.": 6362,
    "Ufer": 6363,
    "Studien@@": 6364,
    "Ori@@": 6365,
    "Ordnung": 6366,
    "Oran@@": 6367,
    "Nig@@": 6368,
    "Myth@@": 6369,
    "Mig@@": 6370,
    "Maschinen@@": 6371,
    "Log@@": 6372,
    "Les@@": 6373,
    "Handel": 6374,
    "Florida": 6375,
    "Fernsehen": 6376,
    "Ear@@": 6377,
    "Dir@@": 6378,
    "Bang@@": 6379,
    "Avenue": 6380,
    "Aqu@@": 6381,
    "Amate@@": 6382,
    "ältesten": 6383,
    "wards": 6384,
    "verschiedener": 6385,
    "umgeben": 6386,
    "stren@@": 6387,
    "rup@@": 6388,
    "rieben": 6389,
    "olz": 6390,
    "ki": 6391,
    "italienischen": 6392,
    "ines": 6393,
    "ind": 6394,
    "günst@@": 6395,
    "gewöhnliche": 6396,
    "füllt": 6397,
    "ester": 6398,
    "ermu@@": 6399,
    "erhält": 6400,
    "eigentlich": 6401,
    "diag@@": 6402,
    "cs": 6403,
    "breite": 6404,
    "bein@@": 6405,
    "aum": 6406,
    "arab@@": 6407,
    "analy@@": 6408,
    "ake": 6409,
    "Wör@@": 6410,
    "Vil@@": 6411,
    "Verkauf": 6412,
    "Singles": 6413,
    "Sehr": 6414,
    "Revolution": 6415,
    "Pir@@": 6416,
    "Länge": 6417,
    "Leider": 6418,
    "Klima": 6419,
    "Geschäfte": 6420,
    "Gegenstand": 6421,
    "Freien": 6422,
    "Francis": 6423,
    "Flor@@": 6424,
    "Cous@@": 6425,
    "Buff@@": 6426,
    "Australi@@": 6427,
    "äden": 6428,
    "wes@@": 6429,
    "vielfäl@@": 6430,
    "verrin@@": 6431,
    "verfügen": 6432,
    "verbunden": 6433,
    "unterscheidet": 6434,
    "trock@@": 6435,
    "tradition@@": 6436,
    "strecke": 6437,
    "sters": 6438,
    "richtete": 6439,
    "ografie": 6440,
    "natür@@": 6441,
    "mmet@@": 6442,
    "lediglich": 6443,
    "kandi@@": 6444,
    "jüdischen": 6445,
    "jährliche": 6446,
    "inischen": 6447,
    "genauso": 6448,
    "führungen": 6449,
    "funk@@": 6450,
    "flei@@": 6451,
    "europä@@": 6452,
    "bzw.": 6453,
    "bisch@@": 6454,
    "ax@@": 6455,
    "annen": 6456,
    "Zun@@": 6457,
    "Wahlen": 6458,
    "Vorsitz@@": 6459,
    "Verkehrs@@": 6460,
    "Vaters": 6461,
    "Tok@@": 6462,
    "Stör@@": 6463,
    "Spar@@": 6464,
    "September": 6465,
    "Sax@@": 6466,
    "Platten@@": 6467,
    "Mitglied@@": 6468,
    "Mischung": 6469,
    "Materi@@": 6470,
    "Kontakt": 6471,
    "Kampagne": 6472,
    "H.": 6473,
    "Gor@@": 6474,
    "Geben": 6475,
    "Fri@@": 6476,
    "Flugzeuge": 6477,
    "Don": 6478,
    "Besatzung": 6479,
    "Absolv@@": 6480,
    "äche": 6481,
    "zweif@@": 6482,
    "zehn@@": 6483,
    "ystemen": 6484,
    "wan": 6485,
    "verst@@": 6486,
    "ua": 6487,
    "typischerweise": 6488,
    "sucht": 6489,
    "springen": 6490,
    "sozialen": 6491,
    "sonst": 6492,
    "sem@@": 6493,
    "reu@@": 6494,
    "regionale": 6495,
    "pper": 6496,
    "omi@@": 6497,
    "menschliche": 6498,
    "kin": 6499,
    "hergestellt": 6500,
    "gewal@@": 6501,
    "getr@@": 6502,
    "ession@@": 6503,
    "direkte": 6504,
    "dauert": 6505,
    "darin": 6506,
    "daraus": 6507,
    "aktuell": 6508,
    "Yu@@": 6509,
    "Western": 6510,
    "Wahrheit": 6511,
    "Tak@@": 6512,
    "Straf@@": 6513,
    "Spitz@@": 6514,
    "Schna@@": 6515,
    "Rog@@": 6516,
    "Rel@@": 6517,
    "Multi@@": 6518,
    "Kein": 6519,
    "Kau@@": 6520,
    "Integr@@": 6521,
    "Herkunft": 6522,
    "Flüssig@@": 6523,
    "Elizabeth": 6524,
    "Ehemann": 6525,
    "Dach": 6526,
    "Cy@@": 6527,
    "By@@": 6528,
    "Besucher": 6529,
    "Angeb@@": 6530,
    "ücken": 6531,
    "yd": 6532,
    "wich": 6533,
    "terer": 6534,
    "q@@": 6535,
    "promin@@": 6536,
    "pla@@": 6537,
    "pen": 6538,
    "mili@@": 6539,
    "konzentrierte": 6540,
    "klassischen": 6541,
    "keiner": 6542,
    "hinterließ": 6543,
    "gehalten": 6544,
    "filme": 6545,
    "eum": 6546,
    "etische": 6547,
    "erwies": 6548,
    "erinnert": 6549,
    "entsprech@@": 6550,
    "enter": 6551,
    "beobachtet": 6552,
    "beliebte": 6553,
    "abger@@": 6554,
    "Zwischen": 6555,
    "Zauber@@": 6556,
    "Young": 6557,
    "Vul@@": 6558,
    "Tour": 6559,
    "Tig@@": 6560,
    "Tam@@": 6561,
    "Spezial@@": 6562,
    "Sam": 6563,
    "Ron@@": 6564,
    "Pur@@": 6565,
    "Musikvide@@": 6566,
    "Magazin": 6567,
    "Latein@@": 6568,
    "Karte": 6569,
    "Jemand": 6570,
    "Irland": 6571,
    "Identi@@": 6572,
    "Generation": 6573,
    "Gebur@@": 6574,
    "Fris@@": 6575,
    "Bol@@": 6576,
    "Bill@@": 6577,
    "Besetzung": 6578,
    "Berichten": 6579,
    "Af@@": 6580,
    "Aber@@": 6581,
    "ßer": 6582,
    "zerr@@": 6583,
    "zentrale": 6584,
    "wick": 6585,
    "wesen": 6586,
    "verlän@@": 6587,
    "uth": 6588,
    "traum": 6589,
    "sey": 6590,
    "sahen": 6591,
    "russischen": 6592,
    "raten": 6593,
    "orienti@@": 6594,
    "nehmer": 6595,
    "musik": 6596,
    "leuch@@": 6597,
    "laut": 6598,
    "klassische": 6599,
    "hau@@": 6600,
    "genaue": 6601,
    "gebro@@": 6602,
    "ftung": 6603,
    "erungs@@": 6604,
    "erfolgte": 6605,
    "eingeschrän@@": 6606,
    "durchschnit@@": 6607,
    "digkeit": 6608,
    "brauchen": 6609,
    "bewe@@": 6610,
    "benutzt": 6611,
    "Zell@@": 6612,
    "Wü@@": 6613,
    "Wetter@@": 6614,
    "Stie@@": 6615,
    "Sobald": 6616,
    "Snow@@": 6617,
    "Senator": 6618,
    "Produktions@@": 6619,
    "Partner": 6620,
    "Nehmen": 6621,
    "Mittel": 6622,
    "Leucht@@": 6623,
    "Leicht@@": 6624,
    "Ken@@": 6625,
    "Italien": 6626,
    "Hä@@": 6627,
    "Grundschule": 6628,
    "Geburt": 6629,
    "Frieden": 6630,
    "Erei@@": 6631,
    "Blätter": 6632,
    "ährung": 6633,
    "zun@@": 6634,
    "zess@@": 6635,
    "vorsichtig": 6636,
    "standen": 6637,
    "schwör@@": 6638,
    "phen": 6639,
    "ok": 6640,
    "maßen": 6641,
    "kungen": 6642,
    "kung": 6643,
    "indi@@": 6644,
    "ical": 6645,
    "helfen": 6646,
    "genannte": 6647,
    "gegangen": 6648,
    "fir@@": 6649,
    "essi@@": 6650,
    "erwachsen@@": 6651,
    "elf": 6652,
    "bun@@": 6653,
    "bessere": 6654,
    "beliebter": 6655,
    "amerikan@@": 6656,
    "Vieh@@": 6657,
    "Var@@": 6658,
    "Untersuch@@": 6659,
    "Tatsächlich": 6660,
    "Rho@@": 6661,
    "Mos@@": 6662,
    "Mobil@@": 6663,
    "Kei@@": 6664,
    "Gär@@": 6665,
    "Flüsse": 6666,
    "Elektro@@": 6667,
    "Dy@@": 6668,
    "Block@@": 6669,
    "Änderung": 6670,
    "zukün@@": 6671,
    "zeugen": 6672,
    "vorüber@@": 6673,
    "uther@@": 6674,
    "system": 6675,
    "staat@@": 6676,
    "sowjet@@": 6677,
    "schä@@": 6678,
    "schwere": 6679,
    "schott@@": 6680,
    "riesi@@": 6681,
    "produktion": 6682,
    "position": 6683,
    "ographie": 6684,
    "musikal@@": 6685,
    "litt": 6686,
    "ktr@@": 6687,
    "kore@@": 6688,
    "jahr": 6689,
    "ium": 6690,
    "istan": 6691,
    "iss": 6692,
    "iko": 6693,
    "gemischte": 6694,
    "gefäl@@": 6695,
    "farben": 6696,
    "erlei@@": 6697,
    "erfordert": 6698,
    "elli@@": 6699,
    "afrikan@@": 6700,
    "Wik@@": 6701,
    "Unterschiede": 6702,
    "Trotzdem": 6703,
    "Statue": 6704,
    "Spra@@": 6705,
    "Past@@": 6706,
    "Nick@@": 6707,
    "Möglichkeit": 6708,
    "Minder@@": 6709,
    "Kontin@@": 6710,
    "Independent": 6711,
    "Immobili@@": 6712,
    "Gründungs@@": 6713,
    "Führung": 6714,
    "Fäh@@": 6715,
    "Fast": 6716,
    "Eli@@": 6717,
    "Dorfes": 6718,
    "De": 6719,
    "Dave": 6720,
    "Dampf@@": 6721,
    "Bö@@": 6722,
    "Bek@@": 6723,
    "Albert": 6724,
    "ütze": 6725,
    "Öster@@": 6726,
    "züglich": 6727,
    "zem": 6728,
    "yne": 6729,
    "weiten": 6730,
    "verab@@": 6731,
    "unterscheiden": 6732,
    "unabhängigen": 6733,
    "trugen": 6734,
    "traditionell": 6735,
    "tage": 6736,
    "siden@@": 6737,
    "schreiben": 6738,
    "räger": 6739,
    "rise": 6740,
    "menten": 6741,
    "ländlichen": 6742,
    "kleineren": 6743,
    "herausra@@": 6744,
    "halbe": 6745,
    "gestern": 6746,
    "gelt": 6747,
    "gebau@@": 6748,
    "ganzes": 6749,
    "fürwor@@": 6750,
    "fällig": 6751,
    "ftig": 6752,
    "frucht@@": 6753,
    "esten": 6754,
    "erungen": 6755,
    "erheblich": 6756,
    "eli@@": 6757,
    "drau@@": 6758,
    "cer": 6759,
    "bran@@": 6760,
    "berück@@": 6761,
    "begrün@@": 6762,
    "Zuvor": 6763,
    "Vit@@": 6764,
    "Veget@@": 6765,
    "Urein@@": 6766,
    "Töchter": 6767,
    "Tests": 6768,
    "Sympt@@": 6769,
    "Schokol@@": 6770,
    "Schatten": 6771,
    "Rang": 6772,
    "Phän@@": 6773,
    "Orten": 6774,
    "Oberteil": 6775,
    "My": 6776,
    "Leitung": 6777,
    "Leit@@": 6778,
    "Kindheit": 6779,
    "Jedoch": 6780,
    "Isa@@": 6781,
    "Gegner": 6782,
    "Frem@@": 6783,
    "Flag@@": 6784,
    "Europä@@": 6785,
    "Eisenbahn": 6786,
    "Definition": 6787,
    "Dal@@": 6788,
    "Clubs": 6789,
    "Boule@@": 6790,
    "Bahn": 6791,
    "zahlen": 6792,
    "verwaltung": 6793,
    "urs": 6794,
    "ura": 6795,
    "uen": 6796,
    "taus@@": 6797,
    "sy@@": 6798,
    "sions@@": 6799,
    "richtigen": 6800,
    "programm": 6801,
    "plätze": 6802,
    "otyp@@": 6803,
    "orie": 6804,
    "lös@@": 6805,
    "kraft": 6806,
    "kanad@@": 6807,
    "kan": 6808,
    "häufiger": 6809,
    "hilft": 6810,
    "hers": 6811,
    "fur@@": 6812,
    "fter": 6813,
    "frühe@@": 6814,
    "fotograf@@": 6815,
    "folgen": 6816,
    "fizierte": 6817,
    "etzung": 6818,
    "basierte": 6819,
    "artige": 6820,
    "alisierung": 6821,
    "Wy@@": 6822,
    "Situ@@": 6823,
    "Shows": 6824,
    "Premi@@": 6825,
    "Platt@@": 6826,
    "Philipp@@": 6827,
    "Mör@@": 6828,
    "Matthe@@": 6829,
    "Lich@@": 6830,
    "Leiden@@": 6831,
    "Küh@@": 6832,
    "Kreu@@": 6833,
    "Inse@@": 6834,
    "Innenstadt": 6835,
    "Händen": 6836,
    "Hat@@": 6837,
    "Gewinner": 6838,
    "Gesamt@@": 6839,
    "Gelehr@@": 6840,
    "Ful@@": 6841,
    "Exe@@": 6842,
    "Erwachsene": 6843,
    "Code": 6844,
    "Bäume": 6845,
    "Berat@@": 6846,
    "Autobahn": 6847,
    "Alli@@": 6848,
    "ähnelt": 6849,
    "verbindet": 6850,
    "ulation": 6851,
    "täglich": 6852,
    "städtischen": 6853,
    "strö@@": 6854,
    "sozial@@": 6855,
    "rische": 6856,
    "rei": 6857,
    "protest@@": 6858,
    "pin@@": 6859,
    "ower": 6860,
    "mäßige": 6861,
    "mittleren": 6862,
    "massi@@": 6863,
    "lemen@@": 6864,
    "lehnt": 6865,
    "landes@@": 6866,
    "krieg": 6867,
    "krat@@": 6868,
    "iser@@": 6869,
    "ike": 6870,
    "gänger": 6871,
    "grü@@": 6872,
    "griech@@": 6873,
    "gemäß@@": 6874,
    "fuß@@": 6875,
    "fragen": 6876,
    "erter": 6877,
    "entsprechend": 6878,
    "bst": 6879,
    "blät@@": 6880,
    "Zeitungen": 6881,
    "Wilson": 6882,
    "Wand": 6883,
    "Victoria": 6884,
    "Verschiedene": 6885,
    "Trupp@@": 6886,
    "Transport": 6887,
    "Tha@@": 6888,
    "Symbol@@": 6889,
    "Studio": 6890,
    "Stoff@@": 6891,
    "Squ@@": 6892,
    "Sport": 6893,
    "Schlä@@": 6894,
    "Satelli@@": 6895,
    "Rhyth@@": 6896,
    "Pfund": 6897,
    "Ohio": 6898,
    "Niederlan@@": 6899,
    "Nachricht": 6900,
    "Kabin@@": 6901,
    "God@@": 6902,
    "Fund@@": 6903,
    "Französisch": 6904,
    "Format": 6905,
    "Expre@@": 6906,
    "Caf@@": 6907,
    "Bürgersteig": 6908,
    "Auftritte": 6909,
    "Abendessen": 6910,
    "örtliche": 6911,
    "ätten": 6912,
    "ziger": 6913,
    "zeichneten": 6914,
    "verfahren": 6915,
    "stätte": 6916,
    "stungs@@": 6917,
    "spezif@@": 6918,
    "soli@@": 6919,
    "rot": 6920,
    "punkte": 6921,
    "posiert": 6922,
    "port": 6923,
    "orthodo@@": 6924,
    "liest": 6925,
    "lab@@": 6926,
    "kretär": 6927,
    "industrie": 6928,
    "hundert@@": 6929,
    "erklärt": 6930,
    "einziges": 6931,
    "dramat@@": 6932,
    "chtes": 6933,
    "bew@@": 6934,
    "betrieben": 6935,
    "belie@@": 6936,
    "aker": 6937,
    "Veränder@@": 6938,
    "Turnier": 6939,
    "Toron@@": 6940,
    "Tee": 6941,
    "Sul@@": 6942,
    "Streitkräfte": 6943,
    "Sla@@": 6944,
    "Schle@@": 6945,
    "S.": 6946,
    "Ry@@": 6947,
    "Programmier@@": 6948,
    "Posi@@": 6949,
    "Panz@@": 6950,
    "Merk@@": 6951,
    "Mensch": 6952,
    "Loch": 6953,
    "Label": 6954,
    "Kreis": 6955,
    "Kalk@@": 6956,
    "Kab@@": 6957,
    "Howard": 6958,
    "Graf@@": 6959,
    "Geschen@@": 6960,
    "Gerü@@": 6961,
    "Forts@@": 6962,
    "Etwa": 6963,
    "Bischof": 6964,
    "Anhän@@": 6965,
    "überprü@@": 6966,
    "ändern": 6967,
    "zit@@": 6968,
    "wohlha@@": 6969,
    "weis": 6970,
    "utzt": 6971,
    "up": 6972,
    "trot@@": 6973,
    "suchte": 6974,
    "strat@@": 6975,
    "stin": 6976,
    "schwemm@@": 6977,
    "reiste": 6978,
    "phil@@": 6979,
    "nungen": 6980,
    "mak@@": 6981,
    "lichsten": 6982,
    "legung": 6983,
    "kämpfen": 6984,
    "gewe@@": 6985,
    "geschätz@@": 6986,
    "gelegt": 6987,
    "funktioniert": 6988,
    "disku@@": 6989,
    "brille": 6990,
    "blüh@@": 6991,
    "bemerkenswer@@": 6992,
    "bekannter": 6993,
    "bares": 6994,
    "atische": 6995,
    "ampe": 6996,
    "able": 6997,
    "Wie@@": 6998,
    "Waffe": 6999,
    "Verkehr": 7000,
    "Ven@@": 7001,
    "Variante": 7002,
    "Top": 7003,
    "Tick@@": 7004,
    "Soc@@": 7005,
    "Shorts": 7006,
    "Schlu@@": 7007,
    "Pier@@": 7008,
    "Oxford": 7009,
    "Orte": 7010,
    "Medikam@@": 7011,
    "Mars@@": 7012,
    "Law@@": 7013,
    "Kas@@": 7014,
    "Kamp@@": 7015,
    "Geschwi@@": 7016,
    "Gefühl": 7017,
    "Gab@@": 7018,
    "Erfin@@": 7019,
    "Deta@@": 7020,
    "Common@@": 7021,
    "Brian": 7022,
    "Behaup@@": 7023,
    "äuß@@": 7024,
    "verursacht": 7025,
    "trotz": 7026,
    "tain": 7027,
    "stellungs@@": 7028,
    "spezifische": 7029,
    "spanischen": 7030,
    "sh": 7031,
    "sang": 7032,
    "ruhig": 7033,
    "rasch": 7034,
    "pp": 7035,
    "orangefarbenen": 7036,
    "ora": 7037,
    "manchen": 7038,
    "klo@@": 7039,
    "jüngste": 7040,
    "irischen": 7041,
    "igste": 7042,
    "gewonnen": 7043,
    "gesamm@@": 7044,
    "gemeinsame": 7045,
    "gegenseitig": 7046,
    "erfol@@": 7047,
    "eo": 7048,
    "enes": 7049,
    "burn": 7050,
    "beliebt": 7051,
    "barer": 7052,
    "ates": 7053,
    "assten": 7054,
    "ani": 7055,
    "Ziele": 7056,
    "Wohltätigkeits@@": 7057,
    "Wohl@@": 7058,
    "Wissenschaftler": 7059,
    "Vok@@": 7060,
    "Veter@@": 7061,
    "Varianten": 7062,
    "Unterricht": 7063,
    "Typ": 7064,
    "Toronto": 7065,
    "Schriften": 7066,
    "Schrei@@": 7067,
    "Schlei@@": 7068,
    "Sche@@": 7069,
    "Ruhe@@": 7070,
    "Rechte": 7071,
    "Rebel@@": 7072,
    "Premierminister": 7073,
    "Med@@": 7074,
    "Londoner": 7075,
    "Liv@@": 7076,
    "Leon@@": 7077,
    "Jenn@@": 7078,
    "Je": 7079,
    "Illustr@@": 7080,
    "Grab": 7081,
    "Forest": 7082,
    "Flügel": 7083,
    "Dörfer": 7084,
    "Domin@@": 7085,
    "Behörden": 7086,
    "Bachel@@": 7087,
    "Ausnahme": 7088,
    "April": 7089,
    "wort": 7090,
    "wirt@@": 7091,
    "weißem": 7092,
    "weigerte": 7093,
    "weich@@": 7094,
    "text": 7095,
    "teres": 7096,
    "spu@@": 7097,
    "solcher": 7098,
    "ski": 7099,
    "sis": 7100,
    "singt": 7101,
    "schlu@@": 7102,
    "ren": 7103,
    "orts": 7104,
    "ool": 7105,
    "omie": 7106,
    "musikalische": 7107,
    "medizinische": 7108,
    "legten": 7109,
    "illeg@@": 7110,
    "illa": 7111,
    "iertes": 7112,
    "ieller": 7113,
    "ichtete": 7114,
    "hum@@": 7115,
    "gewannen": 7116,
    "geschäft": 7117,
    "frem@@": 7118,
    "endlich": 7119,
    "dynam@@": 7120,
    "benötigen": 7121,
    "bens@@": 7122,
    "back": 7123,
    "You": 7124,
    "Widerstand": 7125,
    "War": 7126,
    "Verteidigung": 7127,
    "Urhe@@": 7128,
    "Teenager": 7129,
    "Sym@@": 7130,
    "Strö@@": 7131,
    "Spen@@": 7132,
    "Spaß": 7133,
    "Schloss": 7134,
    "Samuel": 7135,
    "Rh@@": 7136,
    "Normalerweise": 7137,
    "Nik@@": 7138,
    "Mannschaften": 7139,
    "Kel@@": 7140,
    "Kandi@@": 7141,
    "Irgend@@": 7142,
    "Initi@@": 7143,
    "Hypothe@@": 7144,
    "Herausgeber": 7145,
    "Golf": 7146,
    "Gedichte": 7147,
    "Fleisch": 7148,
    "Flam@@": 7149,
    "Finn@@": 7150,
    "Crick@@": 7151,
    "Büros": 7152,
    "Bundesstaat@@": 7153,
    "Besuch": 7154,
    "Ank@@": 7155,
    "wöchent@@": 7156,
    "wirkt": 7157,
    "wettbewer@@": 7158,
    "titel": 7159,
    "tausend": 7160,
    "sts": 7161,
    "sky": 7162,
    "schwan@@": 7163,
    "ron": 7164,
    "opro@@": 7165,
    "offenen": 7166,
    "nachts": 7167,
    "militärische": 7168,
    "ingham": 7169,
    "hall": 7170,
    "gemeins@@": 7171,
    "entschieden": 7172,
    "deln": 7173,
    "com": 7174,
    "bour@@": 7175,
    "beginnen": 7176,
    "austral@@": 7177,
    "Zie@@": 7178,
    "Wesentlichen": 7179,
    "Verd@@": 7180,
    "Unabhäng@@": 7181,
    "Thor@@": 7182,
    "Sydney": 7183,
    "Sonntag": 7184,
    "Restaurants": 7185,
    "Papier": 7186,
    "Olympischen": 7187,
    "Nachfol@@": 7188,
    "Mord": 7189,
    "Liver@@": 7190,
    "Leistungen": 7191,
    "Konfer@@": 7192,
    "Juni": 7193,
    "Institute": 7194,
    "Industrie": 7195,
    "Greg@@": 7196,
    "Dollar": 7197,
    "Bord": 7198,
    "Ble@@": 7199,
    "Bevölkerungs@@": 7200,
    "Bemühungen": 7201,
    "ürzte": 7202,
    "Öff@@": 7203,
    "wu@@": 7204,
    "wil@@": 7205,
    "vermut@@": 7206,
    "umb@@": 7207,
    "staatlichen": 7208,
    "sorgt": 7209,
    "ris": 7210,
    "pul@@": 7211,
    "phys@@": 7212,
    "oti@@": 7213,
    "mouth": 7214,
    "maschin@@": 7215,
    "komme": 7216,
    "ischsprach@@": 7217,
    "heißen": 7218,
    "gericht": 7219,
    "fertig": 7220,
    "eingesch@@": 7221,
    "dition": 7222,
    "bezeichnete": 7223,
    "behandelt": 7224,
    "ags": 7225,
    "Zuhause": 7226,
    "Ziegel@@": 7227,
    "Stamm": 7228,
    "Rücken": 7229,
    "Rezen@@": 7230,
    "Regeln": 7231,
    "Ray@@": 7232,
    "Pitts@@": 7233,
    "Param@@": 7234,
    "Manchester": 7235,
    "Kurse": 7236,
    "Handlung": 7237,
    "Gewin@@": 7238,
    "Gefan@@": 7239,
    "Ford": 7240,
    "First": 7241,
    "Finger": 7242,
    "Ero@@": 7243,
    "Eigentümer": 7244,
    "Doktor@@": 7245,
    "Carr@@": 7246,
    "Bag@@": 7247,
    "Association": 7248,
    "üm@@": 7249,
    "wollten": 7250,
    "welt": 7251,
    "stischen": 7252,
    "sphäre": 7253,
    "soziale": 7254,
    "silien": 7255,
    "schung": 7256,
    "schickte": 7257,
    "ord": 7258,
    "neter": 7259,
    "leistungs@@": 7260,
    "katholische": 7261,
    "j": 7262,
    "industr@@": 7263,
    "ily": 7264,
    "iers": 7265,
    "ica": 7266,
    "häng@@": 7267,
    "gebe": 7268,
    "existiert": 7269,
    "erlitt": 7270,
    "einzelne": 7271,
    "besuchen": 7272,
    "bedient": 7273,
    "angrenz@@": 7274,
    "Wissen@@": 7275,
    "Wahrschein@@": 7276,
    "Vin@@": 7277,
    "Verlust": 7278,
    "Verhäl@@": 7279,
    "Vergn@@": 7280,
    "Trag@@": 7281,
    "Skulpt@@": 7282,
    "Rein@@": 7283,
    "Piz@@": 7284,
    "Passag@@": 7285,
    "November": 7286,
    "Nordosten": 7287,
    "Netzwerk": 7288,
    "Mathematik": 7289,
    "Materialien": 7290,
    "Lande@@": 7291,
    "Kommission": 7292,
    "Kok@@": 7293,
    "Is": 7294,
    "Innov@@": 7295,
    "Große": 7296,
    "Gipfel": 7297,
    "Gespräch": 7298,
    "Freiwilli@@": 7299,
    "Francisco": 7300,
    "Erweiterung": 7301,
    "Episoden": 7302,
    "Entwicklungs@@": 7303,
    "Einführung": 7304,
    "Dör@@": 7305,
    "Dr@@": 7306,
    "Cowbo@@": 7307,
    "Bos@@": 7308,
    "Beru@@": 7309,
    "Bereiche": 7310,
    "Aven@@": 7311,
    "Arab@@": 7312,
    "ünst@@": 7313,
    "wissenschaften": 7314,
    "wechselte": 7315,
    "wartet": 7316,
    "unterhalten": 7317,
    "strie@@": 7318,
    "stan@@": 7319,
    "spez@@": 7320,
    "sorgfäl@@": 7321,
    "schlechte": 7322,
    "regionalen": 7323,
    "region@@": 7324,
    "pä@@": 7325,
    "passt": 7326,
    "messer": 7327,
    "mehrerer": 7328,
    "iv": 7329,
    "grauen": 7330,
    "fröh@@": 7331,
    "flächen": 7332,
    "flex@@": 7333,
    "faszin@@": 7334,
    "farb@@": 7335,
    "erson": 7336,
    "erseits": 7337,
    "drückt": 7338,
    "adi@@": 7339,
    "Zweiten": 7340,
    "Zwe@@": 7341,
    "Zo@@": 7342,
    "Wär@@": 7343,
    "Wäh@@": 7344,
    "Volk": 7345,
    "Verein": 7346,
    "Unfall": 7347,
    "Tausende": 7348,
    "Stephen": 7349,
    "Spir@@": 7350,
    "Sechs": 7351,
    "Schwerpunkt": 7352,
    "Olymp@@": 7353,
    "Möchten": 7354,
    "Kongress": 7355,
    "Kathedrale": 7356,
    "Gur@@": 7357,
    "Gru@@": 7358,
    "Grafik@@": 7359,
    "Good@@": 7360,
    "Fälle": 7361,
    "Flagge": 7362,
    "Fei@@": 7363,
    "Einschrän@@": 7364,
    "Dän@@": 7365,
    "Daniel": 7366,
    "Beweise": 7367,
    "Arzt": 7368,
    "Are@@": 7369,
    "Amer@@": 7370,
    "özese": 7371,
    "äuch@@": 7372,
    "wissenschaftlichen": 7373,
    "wasser": 7374,
    "tle": 7375,
    "terie": 7376,
    "ssystem": 7377,
    "spät": 7378,
    "somit": 7379,
    "rou@@": 7380,
    "romant@@": 7381,
    "plötzlich": 7382,
    "ook": 7383,
    "mehrmals": 7384,
    "lebende": 7385,
    "küste": 7386,
    "konkurr@@": 7387,
    "klar": 7388,
    "jewei@@": 7389,
    "ills": 7390,
    "handlungen": 7391,
    "gramme": 7392,
    "gigen": 7393,
    "gewählt": 7394,
    "gestrei@@": 7395,
    "gekenn@@": 7396,
    "fühlt": 7397,
    "entdeckt": 7398,
    "einfachen": 7399,
    "dus": 7400,
    "dunk@@": 7401,
    "dokum@@": 7402,
    "diver@@": 7403,
    "chts@@": 7404,
    "blauem": 7405,
    "blau": 7406,
    "behielt": 7407,
    "beeinträch@@": 7408,
    "basis": 7409,
    "ba": 7410,
    "ason": 7411,
    "anwalt": 7412,
    "ac": 7413,
    "Zul@@": 7414,
    "Winn@@": 7415,
    "Wechsel@@": 7416,
    "Wasserst@@": 7417,
    "Wales": 7418,
    "Vorschlag": 7419,
    "Tin@@": 7420,
    "Symbol": 7421,
    "Stadtrat": 7422,
    "Rom": 7423,
    "Prinz": 7424,
    "Phase": 7425,
    "Penn@@": 7426,
    "Kub@@": 7427,
    "Johnny": 7428,
    "Historiker": 7429,
    "Für@@": 7430,
    "Fox": 7431,
    "Fabri@@": 7432,
    "Chron@@": 7433,
    "Ankunft": 7434,
    "Algorith@@": 7435,
    "wirtschaftliche": 7436,
    "wiederholt": 7437,
    "weibliche": 7438,
    "vers": 7439,
    "utzte": 7440,
    "tätig": 7441,
    "trainer": 7442,
    "tnisse": 7443,
    "sack": 7444,
    "religiösen": 7445,
    "rein": 7446,
    "quar@@": 7447,
    "priv@@": 7448,
    "prakt@@": 7449,
    "nissen": 7450,
    "nennt": 7451,
    "mögliche": 7452,
    "monat@@": 7453,
    "inten@@": 7454,
    "gon": 7455,
    "glücklich": 7456,
    "genehmi@@": 7457,
    "gehol@@": 7458,
    "gefer@@": 7459,
    "fünfzehn": 7460,
    "fas@@": 7461,
    "exter@@": 7462,
    "etab@@": 7463,
    "cro@@": 7464,
    "col@@": 7465,
    "chent@@": 7466,
    "brä@@": 7467,
    "blaue": 7468,
    "berühmt": 7469,
    "anhand": 7470,
    "alisierte": 7471,
    "akter@@": 7472,
    "Ye@@": 7473,
    "Walter": 7474,
    "Völ@@": 7475,
    "Tol@@": 7476,
    "Schnit@@": 7477,
    "Radios@@": 7478,
    "Post": 7479,
    "Pause": 7480,
    "Muster": 7481,
    "Motto": 7482,
    "Love": 7483,
    "Linien": 7484,
    "Len@@": 7485,
    "Jugend": 7486,
    "Interpre@@": 7487,
    "Großen": 7488,
    "Großbritann@@": 7489,
    "Geschwindigkeit": 7490,
    "Fotos": 7491,
    "Erfahrungen": 7492,
    "Entde@@": 7493,
    "Daraufhin": 7494,
    "Charl@@": 7495,
    "Cambridge": 7496,
    "Berk@@": 7497,
    "Ben": 7498,
    "Außer@@": 7499,
    "Auff@@": 7500,
    "zif@@": 7501,
    "wahlen": 7502,
    "version": 7503,
    "undenen": 7504,
    "tt": 7505,
    "tagen": 7506,
    "symbol@@": 7507,
    "startete": 7508,
    "spon@@": 7509,
    "sende": 7510,
    "schottischen": 7511,
    "rele@@": 7512,
    "onn@@": 7513,
    "onal": 7514,
    "nächstgelegenen": 7515,
    "nami@@": 7516,
    "mittelalter@@": 7517,
    "latz": 7518,
    "ktur": 7519,
    "kins": 7520,
    "geg@@": 7521,
    "fakt@@": 7522,
    "exper@@": 7523,
    "erium": 7524,
    "einfluss@@": 7525,
    "char@@": 7526,
    "brauchte": 7527,
    "blie@@": 7528,
    "artigen": 7529,
    "anna": 7530,
    "ahn": 7531,
    "absolut": 7532,
    "Wettervorhersage": 7533,
    "Vogel": 7534,
    "Veränderungen": 7535,
    "Verteidigungs@@": 7536,
    "Tap@@": 7537,
    "Stimmen": 7538,
    "Stellen": 7539,
    "Staff@@": 7540,
    "Schalt@@": 7541,
    "Raub@@": 7542,
    "Preise": 7543,
    "Pennsylvania": 7544,
    "Oze@@": 7545,
    "Opposi@@": 7546,
    "Neuseeland": 7547,
    "Mü@@": 7548,
    "Musli@@": 7549,
    "Mrs.": 7550,
    "Moh@@": 7551,
    "Mai": 7552,
    "Kult@@": 7553,
    "Kos@@": 7554,
    "Korre@@": 7555,
    "Institut": 7556,
    "Inf@@": 7557,
    "Hig@@": 7558,
    "Haaren": 7559,
    "Gren@@": 7560,
    "Gesang": 7561,
    "Fahrzeug": 7562,
    "Fahrt": 7563,
    "Ereignis": 7564,
    "D.": 7565,
    "Chap@@": 7566,
    "Beitrag": 7567,
    "Beach": 7568,
    "Autom@@": 7569,
    "Auswahl": 7570,
    "Aufzeichnungen": 7571,
    "Auftr@@": 7572,
    "Architektur": 7573,
    "Andy": 7574,
    "Ale@@": 7575,
    "Adre@@": 7576,
    "üss@@": 7577,
    "zwanz@@": 7578,
    "weib@@": 7579,
    "virtu@@": 7580,
    "trafen": 7581,
    "tisch": 7582,
    "teilten": 7583,
    "tation": 7584,
    "ständige": 7585,
    "spezielle": 7586,
    "side": 7587,
    "schweren": 7588,
    "rennen": 7589,
    "osau@@": 7590,
    "offene": 7591,
    "nützlich": 7592,
    "nordwestlich": 7593,
    "leger": 7594,
    "lege": 7595,
    "ktro@@": 7596,
    "kontinuier@@": 7597,
    "klasse": 7598,
    "kennen": 7599,
    "iso@@": 7600,
    "grundle@@": 7601,
    "gewöhnlichen": 7602,
    "ery": 7603,
    "ermor@@": 7604,
    "eman": 7605,
    "eiten": 7606,
    "definiert": 7607,
    "bet": 7608,
    "bern": 7609,
    "beispielsweise": 7610,
    "bauten": 7611,
    "anlagen": 7612,
    "anischer": 7613,
    "alist": 7614,
    "akt": 7615,
    "Vorstand": 7616,
    "Toil@@": 7617,
    "Strah@@": 7618,
    "Soundtrack": 7619,
    "Rot": 7620,
    "Rab@@": 7621,
    "Minnes@@": 7622,
    "Landschaft": 7623,
    "Jazz": 7624,
    "Gewerk@@": 7625,
    "Gewalt": 7626,
    "Gerät": 7627,
    "Freder@@": 7628,
    "Franch@@": 7629,
    "Fantas@@": 7630,
    "Fakt@@": 7631,
    "Fahrzeuge": 7632,
    "Erhol@@": 7633,
    "Eigentum": 7634,
    "Eier": 7635,
    "Dol@@": 7636,
    "Charaktere": 7637,
    "Brenn@@": 7638,
    "Brei@@": 7639,
    "Beschreibung": 7640,
    "Arena": 7641,
    "Anforder@@": 7642,
    "äume": 7643,
    "zerstört": 7644,
    "wohnern": 7645,
    "wiederum": 7646,
    "teln": 7647,
    "stoffe": 7648,
    "stig": 7649,
    "steigen": 7650,
    "sent@@": 7651,
    "riebene": 7652,
    "privaten": 7653,
    "ometer": 7654,
    "nahezu": 7655,
    "jüngerer": 7656,
    "jüdische": 7657,
    "isl@@": 7658,
    "instal@@": 7659,
    "individu@@": 7660,
    "gül@@": 7661,
    "familie": 7662,
    "falt": 7663,
    "etischen": 7664,
    "energ@@": 7665,
    "dimension@@": 7666,
    "damaligen": 7667,
    "chinesische": 7668,
    "bol@@": 7669,
    "bekommen": 7670,
    "Wissenschaft": 7671,
    "Vinc@@": 7672,
    "Urteil": 7673,
    "Tsch@@": 7674,
    "Sterne": 7675,
    "Sprecher": 7676,
    "Schwierigkeiten": 7677,
    "Schmu@@": 7678,
    "Rug@@": 7679,
    "Ruck@@": 7680,
    "One": 7681,
    "Mosk@@": 7682,
    "Lincoln": 7683,
    "Landkreis": 7684,
    "Kont@@": 7685,
    "Kohlen@@": 7686,
    "Jersey": 7687,
    "Inva@@": 7688,
    "Indu@@": 7689,
    "Gegenwärtig": 7690,
    "Gedicht": 7691,
    "Geburts@@": 7692,
    "Einw@@": 7693,
    "Dist@@": 7694,
    "Davi@@": 7695,
    "Cricket": 7696,
    "Canadi@@": 7697,
    "Baseball": 7698,
    "Bands": 7699,
    "Alan": 7700,
    "zunehmend": 7701,
    "zip": 7702,
    "wichtig": 7703,
    "wachsen": 7704,
    "veröffentlichten": 7705,
    "unglück@@": 7706,
    "town": 7707,
    "stü@@": 7708,
    "sthe@@": 7709,
    "speziell": 7710,
    "siehe": 7711,
    "rug": 7712,
    "restau@@": 7713,
    "ray": 7714,
    "que": 7715,
    "nächstgelegene": 7716,
    "mm": 7717,
    "kru@@": 7718,
    "klein": 7719,
    "iner": 7720,
    "ille": 7721,
    "igur@@": 7722,
    "ib@@": 7723,
    "höchsten": 7724,
    "gste": 7725,
    "gemeinnütz@@": 7726,
    "geko@@": 7727,
    "fällen": 7728,
    "ergän@@": 7729,
    "erfolgreiche": 7730,
    "benutzen": 7731,
    "bean@@": 7732,
    "atik": 7733,
    "amin": 7734,
    "alternative": 7735,
    "akte@@": 7736,
    "Wrest@@": 7737,
    "Wahlkreis": 7738,
    "Vorstands@@": 7739,
    "Tromm@@": 7740,
    "Sound": 7741,
    "Sonnenunter@@": 7742,
    "Siedlungen": 7743,
    "Shr@@": 7744,
    "Seg@@": 7745,
    "Seen": 7746,
    "Schild": 7747,
    "Schicksal": 7748,
    "Operationen": 7749,
    "Kommunik@@": 7750,
    "Jord@@": 7751,
    "Jahrzehnte": 7752,
    "Herzog@@": 7753,
    "Gord@@": 7754,
    "Gesundheit": 7755,
    "Freude": 7756,
    "Finale": 7757,
    "Famili@@": 7758,
    "Ever@@": 7759,
    "Dunkel@@": 7760,
    "Donn@@": 7761,
    "Court": 7762,
    "Council": 7763,
    "Carolina": 7764,
    "Bus": 7765,
    "Blut": 7766,
    "Berufung": 7767,
    "Auft@@": 7768,
    "Abgeord@@": 7769,
    "öhn@@": 7770,
    "äten": 7771,
    "änden": 7772,
    "älter": 7773,
    "zellen": 7774,
    "wären": 7775,
    "wohner": 7776,
    "wimmen": 7777,
    "verkün@@": 7778,
    "verbreitete": 7779,
    "unserem": 7780,
    "sprang": 7781,
    "schönen": 7782,
    "schließen": 7783,
    "schlecht": 7784,
    "rt": 7785,
    "plötz@@": 7786,
    "ning": 7787,
    "möglichen": 7788,
    "mund": 7789,
    "miert": 7790,
    "las": 7791,
    "kus@@": 7792,
    "kurzem": 7793,
    "kaufte": 7794,
    "house": 7795,
    "gutes": 7796,
    "greif@@": 7797,
    "glo@@": 7798,
    "gezeigt": 7799,
    "gesetzt": 7800,
    "gement": 7801,
    "gekommen": 7802,
    "ffer": 7803,
    "fach": 7804,
    "explo@@": 7805,
    "ese": 7806,
    "enheit": 7807,
    "dasselbe": 7808,
    "cor@@": 7809,
    "chsel": 7810,
    "chens": 7811,
    "bücher": 7812,
    "boden": 7813,
    "besonderen": 7814,
    "beschul@@": 7815,
    "ata": 7816,
    "assozi@@": 7817,
    "amm": 7818,
    "Verbrau@@": 7819,
    "Tul@@": 7820,
    "Spanien": 7821,
    "Schottland": 7822,
    "Romane": 7823,
    "Münzen": 7824,
    "Mala@@": 7825,
    "Lap@@": 7826,
    "Küche": 7827,
    "Jimm@@": 7828,
    "Jane": 7829,
    "Hospit@@": 7830,
    "Hochschule": 7831,
    "Geist": 7832,
    "Freundin": 7833,
    "Fernsehsen@@": 7834,
    "Einzelhande@@": 7835,
    "Det@@": 7836,
    "Bruce": 7837,
    "Analy@@": 7838,
    "ßer@@": 7839,
    "xen": 7840,
    "wesenheit": 7841,
    "vis": 7842,
    "stärker": 7843,
    "streifen": 7844,
    "späten": 7845,
    "reichte": 7846,
    "regul@@": 7847,
    "norweg@@": 7848,
    "nah": 7849,
    "mutter": 7850,
    "mex@@": 7851,
    "lesen": 7852,
    "lam": 7853,
    "ktoren": 7854,
    "igten": 7855,
    "iden": 7856,
    "höh@@": 7857,
    "grün": 7858,
    "grundlegende": 7859,
    "gebäu@@": 7860,
    "fügte": 7861,
    "frikan@@": 7862,
    "französ@@": 7863,
    "erscheinen": 7864,
    "entwickelten": 7865,
    "entschei@@": 7866,
    "cia": 7867,
    "bevölk@@": 7868,
    "besonder@@": 7869,
    "arische": 7870,
    "archite@@": 7871,
    "angs": 7872,
    "Wurzeln": 7873,
    "Wind": 7874,
    "Vertei@@": 7875,
    "Techniken": 7876,
    "Regisseur": 7877,
    "Ral@@": 7878,
    "Moz@@": 7879,
    "Mik@@": 7880,
    "Merkmale": 7881,
    "Meister": 7882,
    "Manuskrip@@": 7883,
    "Lady": 7884,
    "Konferenz": 7885,
    "Inhalt": 7886,
    "Hex@@": 7887,
    "Heutzutage": 7888,
    "Hamilton": 7889,
    "Geschmack": 7890,
    "Freu@@": 7891,
    "Dienste": 7892,
    "Damals": 7893,
    "Cir@@": 7894,
    "Berater": 7895,
    "Ausstellung": 7896,
    "Anzug": 7897,
    "Analyse": 7898,
    "Airport": 7899,
    "é": 7900,
    "äter": 7901,
    "ächs@@": 7902,
    "wachen": 7903,
    "vorsitz@@": 7904,
    "vernich@@": 7905,
    "skri@@": 7906,
    "schafft": 7907,
    "riebenen": 7908,
    "republi@@": 7909,
    "rechts": 7910,
    "rad": 7911,
    "praktisch": 7912,
    "physi@@": 7913,
    "ov": 7914,
    "näher": 7915,
    "mehrfach": 7916,
    "lösung": 7917,
    "lo": 7918,
    "line": 7919,
    "ktiven": 7920,
    "karten": 7921,
    "hängen": 7922,
    "gewicht": 7923,
    "gentin@@": 7924,
    "eth": 7925,
    "erlangte": 7926,
    "erhöht": 7927,
    "enor@@": 7928,
    "ement": 7929,
    "ehem@@": 7930,
    "dadurch": 7931,
    "ces": 7932,
    "breiten": 7933,
    "assungs@@": 7934,
    "ari": 7935,
    "antwor@@": 7936,
    "alem": 7937,
    "aktu@@": 7938,
    "Zellen": 7939,
    "Wachstum": 7940,
    "Wach@@": 7941,
    "Umständen": 7942,
    "Terra@@": 7943,
    "Rettungs@@": 7944,
    "Pierre": 7945,
    "Phili@@": 7946,
    "Nun": 7947,
    "Melodie": 7948,
    "Lawrence": 7949,
    "Kritiken": 7950,
    "Kleine": 7951,
    "Juli": 7952,
    "Ihrem": 7953,
    "Handschu@@": 7954,
    "Golden": 7955,
    "Gewe@@": 7956,
    "Geburtsort": 7957,
    "Erinnerung": 7958,
    "Dyna@@": 7959,
    "Donald": 7960,
    "Chir@@": 7961,
    "Campbel@@": 7962,
    "Camp": 7963,
    "Bisch@@": 7964,
    "Benutzer": 7965,
    "Attra@@": 7966,
    "Arn@@": 7967,
    "Arkan@@": 7968,
    "Ariz@@": 7969,
    "änge": 7970,
    "ystems": 7971,
    "wirtschaftlichen": 7972,
    "verschwin@@": 7973,
    "vermutlich": 7974,
    "verfolgte": 7975,
    "unterrichtete": 7976,
    "stets": 7977,
    "stechn@@": 7978,
    "staatliche": 7979,
    "sph@@": 7980,
    "scheinend": 7981,
    "räume": 7982,
    "pfel": 7983,
    "persönlichen": 7984,
    "persönliche": 7985,
    "nördliche": 7986,
    "militärischen": 7987,
    "kämpfte": 7988,
    "koh@@": 7989,
    "itionen": 7990,
    "istisch": 7991,
    "immi@@": 7992,
    "gerten": 7993,
    "gefil@@": 7994,
    "forschung": 7995,
    "fabri@@": 7996,
    "erwähnt": 7997,
    "erhe@@": 7998,
    "erfre@@": 7999,
    "entstanden": 8000,
    "ehrt": 8001,
    "dierte": 8002,
    "brit@@": 8003,
    "arbeiteten": 8004,
    "amerikanischer": 8005,
    "aktiven": 8006,
    "absolvierte": 8007,
    "Zunächst": 8008,
    "Zir@@": 8009,
    "Zin@@": 8010,
    "Wörter": 8011,
    "Weltkriegs": 8012,
    "Vene@@": 8013,
    "Szenen": 8014,
    "Strateg@@": 8015,
    "Simon": 8016,
    "Republi@@": 8017,
    "Repräsent@@": 8018,
    "Pati@@": 8019,
    "Passagiere": 8020,
    "Northern": 8021,
    "Nation": 8022,
    "März": 8023,
    "Mes@@": 8024,
    "Medizin": 8025,
    "Major": 8026,
    "Magi@@": 8027,
    "Inneren": 8028,
    "Hinsicht": 8029,
    "Hauptquartier": 8030,
    "Haare": 8031,
    "Glasg@@": 8032,
    "Gesetze": 8033,
    "Geschma@@": 8034,
    "Dokument": 8035,
    "Bä@@": 8036,
    "Blumen": 8037,
    "Auge": 8038,
    "äle": 8039,
    "zeichnung": 8040,
    "wirtschaft": 8041,
    "willig": 8042,
    "wichtiges": 8043,
    "versuchen": 8044,
    "stru@@": 8045,
    "set": 8046,
    "quelle": 8047,
    "prot@@": 8048,
    "nett": 8049,
    "negative": 8050,
    "lington": 8051,
    "ji": 8052,
    "iten": 8053,
    "isa": 8054,
    "holi@@": 8055,
    "hang": 8056,
    "gemäß": 8057,
    "falsch": 8058,
    "dreht": 8059,
    "deutet": 8060,
    "can": 8061,
    "breitung": 8062,
    "brachten": 8063,
    "blickt": 8064,
    "aly@@": 8065,
    "alog": 8066,
    "Waren": 8067,
    "Urspr@@": 8068,
    "Tasche": 8069,
    "Südosten": 8070,
    "Southern": 8071,
    "Sinn": 8072,
    "Schri@@": 8073,
    "Religion": 8074,
    "Reich": 8075,
    "Premier@@": 8076,
    "Ple@@": 8077,
    "Nachbarn": 8078,
    "Konz@@": 8079,
    "Jungs": 8080,
    "Haust@@": 8081,
    "Gemü@@": 8082,
    "Gedanken": 8083,
    "Farm": 8084,
    "Entfernung": 8085,
    "Entdeckung": 8086,
    "Dichter": 8087,
    "Clark": 8088,
    "Besitzer": 8089,
    "Berichte": 8090,
    "Antrag": 8091,
    "züge": 8092,
    "xe": 8093,
    "vertrat": 8094,
    "terien": 8095,
    "sorgte": 8096,
    "sichtigt": 8097,
    "schön": 8098,
    "sammlung": 8099,
    "program@@": 8100,
    "ond": 8101,
    "mans": 8102,
    "lätze": 8103,
    "lover": 8104,
    "let": 8105,
    "ius": 8106,
    "issi@@": 8107,
    "gelern@@": 8108,
    "entspricht": 8109,
    "ea": 8110,
    "ct": 8111,
    "andelt": 8112,
    "akteur": 8113,
    "Zeremonie": 8114,
    "Wes@@": 8115,
    "Ursache": 8116,
    "Umfang": 8117,
    "Turm": 8118,
    "Tournee": 8119,
    "Teilnahme": 8120,
    "Sängerin": 8121,
    "Spezi@@": 8122,
    "Senat": 8123,
    "Oktober": 8124,
    "Male": 8125,
    "Liz@@": 8126,
    "Lager": 8127,
    "Jefferson": 8128,
    "Israel": 8129,
    "Insgesamt": 8130,
    "Hunderte": 8131,
    "Gewicht": 8132,
    "Erfindung": 8133,
    "Cousin": 8134,
    "Commun@@": 8135,
    "Billy": 8136,
    "Bezieh@@": 8137,
    "Auftrag": 8138,
    "Architekten": 8139,
    "Anschluss": 8140,
    "Anderson": 8141,
    "Amerikaner": 8142,
    "Amerika": 8143,
    "Akademie": 8144,
    "ügen": 8145,
    "äne": 8146,
    "yo": 8147,
    "wächst": 8148,
    "wurf": 8149,
    "temp@@": 8150,
    "sterte": 8151,
    "senden": 8152,
    "schiffe": 8153,
    "lieren": 8154,
    "lichte": 8155,
    "krö@@": 8156,
    "knapp": 8157,
    "kette": 8158,
    "jekt": 8159,
    "hr": 8160,
    "hoher": 8161,
    "förmigen": 8162,
    "elben": 8163,
    "dingt": 8164,
    "dene": 8165,
    "deckt": 8166,
    "daten": 8167,
    "cus": 8168,
    "bestimmt": 8169,
    "beschrieben": 8170,
    "benötigt": 8171,
    "automatisch": 8172,
    "ahe": 8173,
    "Sturm": 8174,
    "Sicht": 8175,
    "Science": 8176,
    "Schlagzeuger": 8177,
    "Sand": 8178,
    "Qualität": 8179,
    "Kreuzung": 8180,
    "Helm": 8181,
    "Glauben": 8182,
    "Geräte": 8183,
    "Gebrauch": 8184,
    "Existenz": 8185,
    "Drehbuch": 8186,
    "Berlin": 8187,
    "Abstammung": 8188,
    "widmete": 8189,
    "wegs": 8190,
    "versorgung": 8191,
    "tiker": 8192,
    "ständnis": 8193,
    "straßen": 8194,
    "strafe": 8195,
    "stands@@": 8196,
    "sta": 8197,
    "sozi@@": 8198,
    "schüttelte": 8199,
    "schritt": 8200,
    "prüfung": 8201,
    "ppt": 8202,
    "owjet@@": 8203,
    "ments": 8204,
    "leidet": 8205,
    "kran@@": 8206,
    "ita": 8207,
    "ico": 8208,
    "herap@@": 8209,
    "handlung": 8210,
    "geführt": 8211,
    "gebieten": 8212,
    "fess@@": 8213,
    "existieren": 8214,
    "entr@@": 8215,
    "dler": 8216,
    "boarder": 8217,
    "behör@@": 8218,
    "annes": 8219,
    "ager": 8220,
    "Wun@@": 8221,
    "Weiß": 8222,
    "Verletzung": 8223,
    "Tennessee": 8224,
    "Start": 8225,
    "Schuhe": 8226,
    "Schar@@": 8227,
    "Sarah": 8228,
    "Rob@@": 8229,
    "Reaktionen": 8230,
    "Produzent": 8231,
    "Planeten": 8232,
    "Pflanze": 8233,
    "Ontario": 8234,
    "Oh": 8235,
    "Mountain": 8236,
    "Miller": 8237,
    "Merkmal": 8238,
    "Margaret": 8239,
    "Lokomoti@@": 8240,
    "Kandidat": 8241,
    "Job": 8242,
    "Fic@@": 8243,
    "Christopher": 8244,
    "Bucht": 8245,
    "Briten": 8246,
    "Bezirke": 8247,
    "Befehle": 8248,
    "Anthony": 8249,
    "Anerkennung": 8250,
    "Adams": 8251,
    "ück": 8252,
    "übersetzt": 8253,
    "Än@@": 8254,
    "wirkte": 8255,
    "wies": 8256,
    "warten": 8257,
    "unterschei@@": 8258,
    "sell": 8259,
    "politan": 8260,
    "phe": 8261,
    "orangefar@@": 8262,
    "oper": 8263,
    "nimm@@": 8264,
    "ness": 8265,
    "mily": 8266,
    "lätz@@": 8267,
    "ition": 8268,
    "ission": 8269,
    "gründeten": 8270,
    "gessen": 8271,
    "erzählt": 8272,
    "erkannte": 8273,
    "eit": 8274,
    "chin@@": 8275,
    "bus": 8276,
    "bewohner": 8277,
    "besiegte": 8278,
    "bemerkte": 8279,
    "bedingungen": 8280,
    "Wochenende": 8281,
    "Weihna@@": 8282,
    "Videos": 8283,
    "Tim": 8284,
    "Sachen": 8285,
    "Russland": 8286,
    "Riv@@": 8287,
    "Positionen": 8288,
    "O": 8289,
    "Nutzung": 8290,
    "Moderne": 8291,
    "Mexiko": 8292,
    "Kleinkind": 8293,
    "Hauptrolle": 8294,
    "Gregson": 8295,
    "Gerichtshof": 8296,
    "Etwas": 8297,
    "Deutschen": 8298,
    "Christian": 8299,
    "Bewegungen": 8300,
    "Angelegenheiten": 8301,
    "Algorithmus": 8302,
    "ühren": 8303,
    "überrascht": 8304,
    "uld": 8305,
    "trauen": 8306,
    "tons": 8307,
    "tikel": 8308,
    "stit@@": 8309,
    "stal@@": 8310,
    "see": 8311,
    "schauer": 8312,
    "row": 8313,
    "richter": 8314,
    "rich": 8315,
    "regierung": 8316,
    "racht": 8317,
    "ouver@@": 8318,
    "othe@@": 8319,
    "oth@@": 8320,
    "organisation": 8321,
    "mierung": 8322,
    "kürz@@": 8323,
    "körper": 8324,
    "kirche": 8325,
    "if@@": 8326,
    "heiß": 8327,
    "gerungen": 8328,
    "eute": 8329,
    "ells": 8330,
    "einzel@@": 8331,
    "dat": 8332,
    "beschloss": 8333,
    "ally": 8334,
    "Werken": 8335,
    "Vereinig@@": 8336,
    "Theorien": 8337,
    "Schweden": 8338,
    "Produzenten": 8339,
    "Pferde": 8340,
    "Pacific": 8341,
    "Niederlage": 8342,
    "Krone": 8343,
    "Harris": 8344,
    "Haltung": 8345,
    "Gelegenheit": 8346,
    "Gary": 8347,
    "Franklin": 8348,
    "Erklär@@": 8349,
    "Entwurf": 8350,
    "Dorothy": 8351,
    "Day": 8352,
    "Color@@": 8353,
    "3@@": 8354,
    "zel": 8355,
    "wählen": 8356,
    "vorbei": 8357,
    "variiert": 8358,
    "variieren": 8359,
    "utze": 8360,
    "urop@@": 8361,
    "tanzen": 8362,
    "stattung": 8363,
    "schüt@@": 8364,
    "schläft": 8365,
    "right": 8366,
    "riebe": 8367,
    "rey": 8368,
    "rest@@": 8369,
    "rate": 8370,
    "ough": 8371,
    "orten": 8372,
    "ols": 8373,
    "offensichtlich": 8374,
    "litten": 8375,
    "ismen": 8376,
    "igte": 8377,
    "how": 8378,
    "ghts": 8379,
    "gentlich": 8380,
    "gemeinde": 8381,
    "gelö@@": 8382,
    "formation": 8383,
    "erlei": 8384,
    "elson": 8385,
    "een": 8386,
    "dson": 8387,
    "board": 8388,
    "blickte": 8389,
    "ati": 8390,
    "Woo@@": 8391,
    "Scot@@": 8392,
    "Milch": 8393,
    "Michigan": 8394,
    "Maschine": 8395,
    "Lauf": 8396,
    "Kerl": 8397,
    "Kansas": 8398,
    "Highway": 8399,
    "Herbst": 8400,
    "Hau@@": 8401,
    "Gemüse": 8402,
    "Eis": 8403,
    "Einzelheiten": 8404,
    "Doll@@": 8405,
    "Büchern": 8406,
    "Bach": 8407,
    "Adam": 8408,
    "öcke": 8409,
    "zählt": 8410,
    "zufrieden": 8411,
    "zess": 8412,
    "yle": 8413,
    "unge": 8414,
    "ula": 8415,
    "tauchte": 8416,
    "taucht": 8417,
    "sa": 8418,
    "ruf": 8419,
    "pft": 8420,
    "persönlich": 8421,
    "ote": 8422,
    "od": 8423,
    "nennen": 8424,
    "möchten": 8425,
    "ika": 8426,
    "ieht": 8427,
    "händler": 8428,
    "herapie": 8429,
    "heim": 8430,
    "fungierte": 8431,
    "entrums": 8432,
    "denke": 8433,
    "ckey": 8434,
    "bewegte": 8435,
    "besucht": 8436,
    "bby": 8437,
    "bauen": 8438,
    "Wein": 8439,
    "Vize@@": 8440,
    "Veröffentlichungen": 8441,
    "Vereinigung": 8442,
    "Teufel": 8443,
    "Tenne@@": 8444,
    "Strat@@": 8445,
    "Reihenfolge": 8446,
    "Prinzessin": 8447,
    "Phi@@": 8448,
    "Personal": 8449,
    "Orange": 8450,
    "Offiziere": 8451,
    "Micha@@": 8452,
    "Kräfte": 8453,
    "Kategorie": 8454,
    "Intelligenz": 8455,
    "Gussie": 8456,
    "Bevölk@@": 8457,
    "Bett": 8458,
    "Ausland": 8459,
    "Ari@@": 8460,
    "Anwesen": 8461,
    "öpfe": 8462,
    "wechselt": 8463,
    "wass@@": 8464,
    "verrü@@": 8465,
    "tigkeiten": 8466,
    "quenzen": 8467,
    "pra@@": 8468,
    "nel": 8469,
    "lingen": 8470,
    "lerin": 8471,
    "langer": 8472,
    "kleidung": 8473,
    "kalt": 8474,
    "gle": 8475,
    "fikation": 8476,
    "erh@@": 8477,
    "ello": 8478,
    "benutzte": 8479,
    "beln": 8480,
    "behörde": 8481,
    "arme": 8482,
    "andel": 8483,
    "altet": 8484,
    "Vorstellung": 8485,
    "Vizepräsiden@@": 8486,
    "Verfassung": 8487,
    "Urlau@@": 8488,
    "Strukturen": 8489,
    "Stadtzentrum": 8490,
    "Sant@@": 8491,
    "Nationen": 8492,
    "Lizenz": 8493,
    "Klassen": 8494,
    "Jesus": 8495,
    "Georgia": 8496,
    "Fabrik": 8497,
    "Element": 8498,
    "Castle": 8499,
    "C": 8500,
    "Burg": 8501,
    "Buchstaben": 8502,
    "Bell": 8503,
    "Beine": 8504,
    "Basketball": 8505,
    "Bart": 8506,
    "Arts": 8507,
    "Angriffe": 8508,
    "ösen": 8509,
    "äte": 8510,
    "Öffent@@": 8511,
    "vertrag": 8512,
    "verband": 8513,
    "stigen": 8514,
    "schrie": 8515,
    "schau": 8516,
    "riss": 8517,
    "richtungen": 8518,
    "positiv": 8519,
    "kräfte": 8520,
    "hinten": 8521,
    "hing": 8522,
    "gerschaft": 8523,
    "gehe": 8524,
    "fühle": 8525,
    "ffizi@@": 8526,
    "dd": 8527,
    "Zü@@": 8528,
    "Zwecke": 8529,
    "Zentr@@": 8530,
    "Versuch": 8531,
    "Südwesten": 8532,
    "Systems": 8533,
    "Stern": 8534,
    "Radfahrer": 8535,
    "Projekte": 8536,
    "Polen": 8537,
    "Nort@@": 8538,
    "Nordwesten": 8539,
    "Minute": 8540,
    "Lesen": 8541,
    "Kommunikation": 8542,
    "Inde@@": 8543,
    "Herzen": 8544,
    "Halbinsel": 8545,
    "Führer": 8546,
    "Forscher": 8547,
    "Faktoren": 8548,
    "Edinburgh": 8549,
    "Connec@@": 8550,
    "Bach@@": 8551,
    "Aktivität": 8552,
    "Abschnitte": 8553,
    "ächter": 8554,
    "würfe": 8555,
    "verbindungen": 8556,
    "usses": 8557,
    "tot": 8558,
    "tei": 8559,
    "starben": 8560,
    "sive": 8561,
    "sachen": 8562,
    "präsentiert": 8563,
    "pfte": 8564,
    "orn": 8565,
    "oo": 8566,
    "nam": 8567,
    "lierte": 8568,
    "liebte": 8569,
    "ischt": 8570,
    "ict@@": 8571,
    "heben": 8572,
    "gyp@@": 8573,
    "finale": 8574,
    "extre@@": 8575,
    "esien": 8576,
    "erzeugt": 8577,
    "derungen": 8578,
    "ction": 8579,
    "bliothe@@": 8580,
    "beteili@@": 8581,
    "besiegt": 8582,
    "ament": 8583,
    "Welle": 8584,
    "Wappen": 8585,
    "Tourismus": 8586,
    "Tages": 8587,
    "Strom": 8588,
    "Streifen": 8589,
    "Schwestern": 8590,
    "Ruhestand": 8591,
    "Roy@@": 8592,
    "Lebensmittel": 8593,
    "Law": 8594,
    "Laden": 8595,
    "Kollegen": 8596,
    "Instrumente": 8597,
    "Hunder@@": 8598,
    "Hoo@@": 8599,
    "Hauses": 8600,
    "Dokum@@": 8601,
    "Dezember": 8602,
    "Denkmal": 8603,
    "Corporation": 8604,
    "Corpor@@": 8605,
    "Centre": 8606,
    "Berge": 8607,
    "Begriffe": 8608,
    "überw@@": 8609,
    "viertel": 8610,
    "unterschiedlich": 8611,
    "tent@@": 8612,
    "spaz@@": 8613,
    "schuldig": 8614,
    "reitet": 8615,
    "persön@@": 8616,
    "ny": 8617,
    "nern": 8618,
    "istin": 8619,
    "iler": 8620,
    "ief": 8621,
    "hört": 8622,
    "freundlich": 8623,
    "fangen": 8624,
    "einte": 8625,
    "bridge": 8626,
    "bend": 8627,
    "anzug": 8628,
    "Türk@@": 8629,
    "Teen@@": 8630,
    "Super": 8631,
    "Skateboard": 8632,
    "Schwarz": 8633,
    "Schools": 8634,
    "Nachbarschaft": 8635,
    "Mannes": 8636,
    "Jean": 8637,
    "Ehem@@": 8638,
    "Chef": 8639,
    "Blät@@": 8640,
    "Anne": 8641,
    "yp": 8642,
    "warst": 8643,
    "verlässt": 8644,
    "uts": 8645,
    "ungsmittel": 8646,
    "steigt": 8647,
    "ssourcen": 8648,
    "schusses": 8649,
    "ruhi@@": 8650,
    "olas": 8651,
    "nant": 8652,
    "mitteln": 8653,
    "merkt": 8654,
    "ky": 8655,
    "kord": 8656,
    "karriere": 8657,
    "höher": 8658,
    "heraus": 8659,
    "gewiesen": 8660,
    "gegründet": 8661,
    "flüsse": 8662,
    "entwicklung": 8663,
    "danke": 8664,
    "chines@@": 8665,
    "burgh": 8666,
    "bank": 8667,
    "aga": 8668,
    "Werbung": 8669,
    "Verkehr@@": 8670,
    "Urlaub": 8671,
    "Rose": 8672,
    "Maßnahmen": 8673,
    "Massachusetts": 8674,
    "Hockey": 8675,
    "Helden": 8676,
    "Details": 8677,
    "Bäumen": 8678,
    "Beste": 8679,
    "Bergen": 8680,
    "ändert": 8681,
    "werken": 8682,
    "unterricht": 8683,
    "ule": 8684,
    "tötet": 8685,
    "pool": 8686,
    "langt": 8687,
    "lager": 8688,
    "kompl@@": 8689,
    "klus": 8690,
    "ital": 8691,
    "illon": 8692,
    "höfe": 8693,
    "früher@@": 8694,
    "entwickeln": 8695,
    "eindeutig": 8696,
    "bewegung": 8697,
    "bedeckt": 8698,
    "anlage": 8699,
    "anie": 8700,
    "ampen": 8701,
    "achtet": 8702,
    "Wachst@@": 8703,
    "Town": 8704,
    "Thompson": 8705,
    "Sorgen": 8706,
    "Samen": 8707,
    "Republikaner": 8708,
    "Möglichkeiten": 8709,
    "Helene": 8710,
    "Gefahr": 8711,
    "Gebäuden": 8712,
    "Eingang": 8713,
    "Effekt": 8714,
    "Cover": 8715,
    "Bier": 8716,
    "Behand@@": 8717,
    "Ausrüstung": 8718,
    "übt": 8719,
    "überlebte": 8720,
    "ödie": 8721,
    "ziehung": 8722,
    "work": 8723,
    "weigert": 8724,
    "wache": 8725,
    "verantwortlich": 8726,
    "ul": 8727,
    "trover@@": 8728,
    "stone": 8729,
    "stimmen": 8730,
    "sehe": 8731,
    "schwierig": 8732,
    "scheiden": 8733,
    "riech@@": 8734,
    "richten": 8735,
    "grad": 8736,
    "gnis": 8737,
    "gil@@": 8738,
    "getroffen": 8739,
    "gate": 8740,
    "garten": 8741,
    "fungen": 8742,
    "floh": 8743,
    "eur": 8744,
    "erwäh@@": 8745,
    "dorthin": 8746,
    "derer": 8747,
    "bricht": 8748,
    "beinhalten": 8749,
    "ausgeführt": 8750,
    "antwortung": 8751,
    "X": 8752,
    "Unabhängigkeit": 8753,
    "Teu@@": 8754,
    "Senior": 8755,
    "Regen": 8756,
    "Presse": 8757,
    "Posten": 8758,
    "Philadelphia": 8759,
    "Nordamerika": 8760,
    "Naz@@": 8761,
    "Lincol@@": 8762,
    "Klavier": 8763,
    "Interessen": 8764,
    "Illinois": 8765,
    "Field": 8766,
    "Bridge": 8767,
    "Anlage": 8768,
    "ährt": 8769,
    "zentren": 8770,
    "zeichnen": 8771,
    "verstehe": 8772,
    "una": 8773,
    "terten": 8774,
    "sum": 8775,
    "stehend": 8776,
    "seien": 8777,
    "schlagen": 8778,
    "sache": 8779,
    "reichs": 8780,
    "ont": 8781,
    "nör@@": 8782,
    "lieben": 8783,
    "kturen": 8784,
    "hilf@@": 8785,
    "halle": 8786,
    "gerin": 8787,
    "flüge": 8788,
    "fiziert": 8789,
    "fa": 8790,
    "eutzutage": 8791,
    "euch": 8792,
    "ersetzt": 8793,
    "erneu@@": 8794,
    "entsteht": 8795,
    "dt": 8796,
    "besitzer": 8797,
    "att": 8798,
    "arch": 8799,
    "angesehen": 8800,
    "alb@@": 8801,
    "akte": 8802,
    "Werte": 8803,
    "Vereinbarung": 8804,
    "Tier": 8805,
    "Tanz": 8806,
    "Streit@@": 8807,
    "Stars": 8808,
    "Sound@@": 8809,
    "Plattform": 8810,
    "Ozean": 8811,
    "Line": 8812,
    "Hit": 8813,
    "Gesund@@": 8814,
    "Erweiter@@": 8815,
    "Bürger": 8816,
    "Angelegenheit": 8817,
    "waffe": 8818,
    "unkt": 8819,
    "stuhl": 8820,
    "sorgen": 8821,
    "saison": 8822,
    "rig": 8823,
    "reden": 8824,
    "pflanzen": 8825,
    "ohen": 8826,
    "möglichkeiten": 8827,
    "maschine": 8828,
    "listen": 8829,
    "links": 8830,
    "krank": 8831,
    "horn": 8832,
    "geld": 8833,
    "ez": 8834,
    "chtest": 8835,
    "braun": 8836,
    "beeinflusst": 8837,
    "Verletzungen": 8838,
    "Stand": 8839,
    "Spur": 8840,
    "Railway": 8841,
    "Physik": 8842,
    "Moore": 8843,
    "Meisterschaft": 8844,
    "Komponenten": 8845,
    "Isra@@": 8846,
    "Instrument": 8847,
    "Hou@@": 8848,
    "Hollywood": 8849,
    "Hinweis": 8850,
    "Handy": 8851,
    "Festivals": 8852,
    "Festiv@@": 8853,
    "Enter@@": 8854,
    "Ehefrau": 8855,
    "Ebenen": 8856,
    "Dienstleistungen": 8857,
    "Charlie": 8858,
    "Ann": 8859,
    "weißt": 8860,
    "verwaltet": 8861,
    "stron@@": 8862,
    "stisch": 8863,
    "ros": 8864,
    "reiben": 8865,
    "raft": 8866,
    "oto": 8867,
    "organisiert": 8868,
    "ologien": 8869,
    "nieman@@": 8870,
    "nd": 8871,
    "liefert": 8872,
    "kathol@@": 8873,
    "int": 8874,
    "iens": 8875,
    "getragen": 8876,
    "ella": 8877,
    "dio": 8878,
    "dagegen": 8879,
    "aka": 8880,
    "ain": 8881,
    "ads": 8882,
    "Wood": 8883,
    "Village": 8884,
    "Standard": 8885,
    "Morris": 8886,
    "Melbourne": 8887,
    "Logo": 8888,
    "Identität": 8889,
    "Hawai@@": 8890,
    "Glas": 8891,
    "Einkaufszentrum": 8892,
    "Dynastie": 8893,
    "Area": 8894,
    "Arbeitgeber": 8895,
    "Academ@@": 8896,
    "—": 8897,
    "wohnen": 8898,
    "wenden": 8899,
    "verändert": 8900,
    "utz": 8901,
    "ud": 8902,
    "stheorie": 8903,
    "sterben": 8904,
    "siedlung": 8905,
    "schutz": 8906,
    "schrän@@": 8907,
    "ohlen": 8908,
    "mord": 8909,
    "leute": 8910,
    "itte": 8911,
    "ickte": 8912,
    "here": 8913,
    "geschlagen": 8914,
    "gangen": 8915,
    "funktion": 8916,
    "erschienen": 8917,
    "entum": 8918,
    "ema": 8919,
    "elbe": 8920,
    "borough": 8921,
    "baut": 8922,
    "asser": 8923,
    "ace": 8924,
    "Villa": 8925,
    "Taus@@": 8926,
    "Program@@": 8927,
    "Politiker": 8928,
    "Patrick": 8929,
    "Neuse@@": 8930,
    "Motorrad": 8931,
    "Motoren": 8932,
    "Lächeln": 8933,
    "Krä@@": 8934,
    "Kennedy": 8935,
    "Kaffee": 8936,
    "Hongkong": 8937,
    "Hills": 8938,
    "Hamil@@": 8939,
    "Gebäudes": 8940,
    "Fisch": 8941,
    "Douglas": 8942,
    "Abenteuer": 8943,
    "vision": 8944,
    "verstanden": 8945,
    "verschieden@@": 8946,
    "verletzt": 8947,
    "sident@@": 8948,
    "leichter": 8949,
    "kna@@": 8950,
    "getrennt": 8951,
    "geschah": 8952,
    "gels": 8953,
    "förmig": 8954,
    "erien": 8955,
    "archie": 8956,
    "Süda@@": 8957,
    "Stär@@": 8958,
    "Roo@@": 8959,
    "Ritter": 8960,
    "Republikan@@": 8961,
    "Rah@@": 8962,
    "Philosoph@@": 8963,
    "Pass": 8964,
    "Maler": 8965,
    "Herkun@@": 8966,
    "Harvard": 8967,
    "Griechen@@": 8968,
    "Al": 8969,
    "zdem": 8970,
    "vil": 8971,
    "vergessen": 8972,
    "val": 8973,
    "rün@@": 8974,
    "positionen": 8975,
    "osoph@@": 8976,
    "ln": 8977,
    "ield": 8978,
    "gst": 8979,
    "gin": 8980,
    "gekauft": 8981,
    "gefällt": 8982,
    "brücke": 8983,
    "ausch": 8984,
    "Zigarette": 8985,
    "Zigar@@": 8986,
    "Verwal@@": 8987,
    "Telefon": 8988,
    "Südafrika": 8989,
    "Spielzeug": 8990,
    "Spielern": 8991,
    "Library": 8992,
    "Kommando": 8993,
    "Jour@@": 8994,
    "Group": 8995,
    "öffnet": 8996,
    "äus@@": 8997,
    "wartete": 8998,
    "verwandt": 8999,
    "verfolgt": 9000,
    "steig": 9001,
    "spra@@": 9002,
    "seln": 9003,
    "schied": 9004,
    "quellen": 9005,
    "owell": 9006,
    "miker": 9007,
    "mache": 9008,
    "ligen@@": 9009,
    "kurr@@": 9010,
    "ionen": 9011,
    "hie@@": 9012,
    "get": 9013,
    "ering": 9014,
    "delt": 9015,
    "bo": 9016,
    "Weste": 9017,
    "Wege": 9018,
    "Versuche": 9019,
    "Stadtz@@": 9020,
    "Springs": 9021,
    "Server": 9022,
    "Schulter": 9023,
    "Ring": 9024,
    "Mond": 9025,
    "Lane": 9026,
    "Kentucky": 9027,
    "Jeeves": 9028,
    "Fäl@@": 9029,
    "Force": 9030,
    "Deutsch": 9031,
    "Defin@@": 9032,
    "Dah@@": 9033,
    "Country": 9034,
    "Afrika": 9035,
    "äger": 9036,
    "zieren": 9037,
    "ulen": 9038,
    "uar": 9039,
    "singen": 9040,
    "sigkeit": 9041,
    "schre@@": 9042,
    "publi@@": 9043,
    "oga": 9044,
    "lätzen": 9045,
    "lässig": 9046,
    "lien": 9047,
    "king": 9048,
    "holt": 9049,
    "hinweg": 9050,
    "hafen": 9051,
    "figur": 9052,
    "erwartet": 9053,
    "eits": 9054,
    "dor": 9055,
    "ditionen": 9056,
    "ding": 9057,
    "diert": 9058,
    "dia": 9059,
    "code": 9060,
    "chtern": 9061,
    "bewegt": 9062,
    "betri@@": 9063,
    "beteiligt": 9064,
    "begonnen": 9065,
    "ausgewählt": 9066,
    "ao": 9067,
    "aki": 9068,
    "Vide@@": 9069,
    "Schließ@@": 9070,
    "Objekt": 9071,
    "Minnesota": 9072,
    "Labour": 9073,
    "Kurs": 9074,
    "Haut": 9075,
    "Earl": 9076,
    "Detroit": 9077,
    "&": 9078,
    "ätze": 9079,
    "ähren": 9080,
    "ählt": 9081,
    "ury": 9082,
    "unterrichtet": 9083,
    "unken": 9084,
    "ungewöhnlich": 9085,
    "tue": 9086,
    "trinken": 9087,
    "schwach": 9088,
    "richtet": 9089,
    "rang": 9090,
    "lustr@@": 9091,
    "kinder": 9092,
    "gerät": 9093,
    "fliegen": 9094,
    "fehlt": 9095,
    "ermöglichen": 9096,
    "einheiten": 9097,
    "dustr@@": 9098,
    "darum": 9099,
    "betrachten": 9100,
    "aktion": 9101,
    "ader": 9102,
    "Veröffentlich@@": 9103,
    "Stärke": 9104,
    "Power": 9105,
    "Lernen": 9106,
    "Käse": 9107,
    "Kentu@@": 9108,
    "Kent@@": 9109,
    "Jahrhunderts": 9110,
    "Hyp@@": 9111,
    "Geschäftsmann": 9112,
    "Front": 9113,
    "Fische": 9114,
    "Entertainment": 9115,
    "Dak@@": 9116,
    "Canyon": 9117,
    "Canada": 9118,
    "Book": 9119,
    "Ansicht": 9120,
    "ücke": 9121,
    "yton": 9122,
    "wechseln": 9123,
    "utter": 9124,
    "unterteilt": 9125,
    "untersucht": 9126,
    "uel": 9127,
    "spazieren": 9128,
    "reifen": 9129,
    "preis": 9130,
    "op": 9131,
    "langte": 9132,
    "izi@@": 9133,
    "grund": 9134,
    "ghton": 9135,
    "gesprochen": 9136,
    "etts": 9137,
    "erlaubt": 9138,
    "cky": 9139,
    "buchen": 9140,
    "bie": 9141,
    "beschäftigt": 9142,
    "ban": 9143,
    "Zus@@": 9144,
    "Ursprün@@": 9145,
    "Stone": 9146,
    "Schlange": 9147,
    "Okl@@": 9148,
    "Misch@@": 9149,
    "Master": 9150,
    "Management": 9151,
    "Krebs": 9152,
    "Konzert": 9153,
    "Foundation": 9154,
    "Found@@": 9155,
    "Fan": 9156,
    "Erste": 9157,
    "D": 9158,
    "Cow@@": 9159,
    "Bou@@": 9160,
    "5@@": 9161,
    "äß@@": 9162,
    "ämpft": 9163,
    "wiegend": 9164,
    "vorhanden": 9165,
    "vard": 9166,
    "utzen": 9167,
    "ume": 9168,
    "ssig@@": 9169,
    "seu@@": 9170,
    "schrecklich": 9171,
    "ritt": 9172,
    "pa": 9173,
    "ohn": 9174,
    "jüd@@": 9175,
    "its": 9176,
    "ieden": 9177,
    "hinunter": 9178,
    "ela": 9179,
    "eau": 9180,
    "cester": 9181,
    "beziehen": 9182,
    "bereiten": 9183,
    "bereit": 9184,
    "bemerk@@": 9185,
    "beendet": 9186,
    "becken": 9187,
    "awa": 9188,
    "aktionen": 9189,
    "achsen": 9190,
    "abgeschlossen": 9191,
    "Windows": 9192,
    "Schweiz": 9193,
    "Psychologie": 9194,
    "Mail": 9195,
    "Juden": 9196,
    "Erfahr@@": 9197,
    "Enkel": 9198,
    "Cross": 9199,
    "Broadway": 9200,
    "ötz@@": 9201,
    "zucht": 9202,
    "zeitung": 9203,
    "zahlt": 9204,
    "vir@@": 9205,
    "verstehen": 9206,
    "verhalten": 9207,
    "verfügbar": 9208,
    "unterstützen": 9209,
    "ti": 9210,
    "telligen@@": 9211,
    "sium": 9212,
    "rus": 9213,
    "ota": 9214,
    "osi@@": 9215,
    "ix": 9216,
    "ikas": 9217,
    "holen": 9218,
    "glauben": 9219,
    "geschickt": 9220,
    "gelöst": 9221,
    "gebrochen": 9222,
    "fru@@": 9223,
    "blem": 9224,
    "bla@@": 9225,
    "anisch": 9226,
    "Pool": 9227,
    "Open": 9228,
    "Missouri": 9229,
    "Künstlern": 9230,
    "Houston": 9231,
    "Hongkon@@": 9232,
    "Hof": 9233,
    "Fähigkeit": 9234,
    "Freiheit": 9235,
    "Dublin": 9236,
    "Comics": 9237,
    "Angela": 9238,
    "’": 9239,
    "ür": 9240,
    "ögel": 9241,
    "zweifelt": 9242,
    "wege": 9243,
    "ward": 9244,
    "vidu@@": 9245,
    "sso@@": 9246,
    "rüstung": 9247,
    "rufen": 9248,
    "ony": 9249,
    "li": 9250,
    "kehren": 9251,
    "iti": 9252,
    "ima": 9253,
    "hauses": 9254,
    "gor@@": 9255,
    "gnisse": 9256,
    "gestorben": 9257,
    "gefallen": 9258,
    "eland": 9259,
    "durchgeführt": 9260,
    "derzei@@": 9261,
    "alth": 9262,
    "alia": 9263,
    "Verletz@@": 9264,
    "Sun": 9265,
    "Student@@": 9266,
    "Studen@@": 9267,
    "Soundtra@@": 9268,
    "Mississippi": 9269,
    "Kinos": 9270,
    "It": 9271,
    "Instit@@": 9272,
    "Insekten": 9273,
    "E": 9274,
    "Cup": 9275,
    "Cleveland": 9276,
    "Aufmerk@@": 9277,
    "windigkeit": 9278,
    "ständen": 9279,
    "sst": 9280,
    "sien": 9281,
    "serve": 9282,
    "nchen": 9283,
    "kult@@": 9284,
    "kas": 9285,
    "jun@@": 9286,
    "entstehen": 9287,
    "disch": 9288,
    "dargestellt": 9289,
    "ated": 9290,
    "any": 9291,
    "Staates": 9292,
    "Philadelph@@": 9293,
    "Oreg@@": 9294,
    "Oklahoma": 9295,
    "Ohren": 9296,
    "Louisiana": 9297,
    "Lippen": 9298,
    "Hits": 9299,
    "Gesam@@": 9300,
    "Brookl@@": 9301,
    "Armen": 9302,
    "Alab@@": 9303,
    "übrig": 9304,
    "ämpfen": 9305,
    "xis": 9306,
    "trolle": 9307,
    "tra": 9308,
    "ssel": 9309,
    "sied@@": 9310,
    "ship": 9311,
    "schießen": 9312,
    "schaffen": 9313,
    "regel@@": 9314,
    "ops": 9315,
    "oma": 9316,
    "kreis": 9317,
    "innt": 9318,
    "herine": 9319,
    "geändert": 9320,
    "gelb": 9321,
    "fähig": 9322,
    "fot@@": 9323,
    "folge@@": 9324,
    "erstellt": 9325,
    "abhängig": 9326,
    "Wunsch": 9327,
    "Tenn@@": 9328,
    "Singap@@": 9329,
    "Montreal": 9330,
    "Maryland": 9331,
    "Kenne@@": 9332,
    "Edin@@": 9333,
    "Dallas": 9334,
    "Colorado": 9335,
    "zir@@": 9336,
    "verhaftet": 9337,
    "verbreitet": 9338,
    "tan": 9339,
    "rier": 9340,
    "reduziert": 9341,
    "out": 9342,
    "mensch@@": 9343,
    "mas": 9344,
    "jap@@": 9345,
    "iem@@": 9346,
    "geschehen": 9347,
    "fordert": 9348,
    "einrichtungen": 9349,
    "dauern": 9350,
    "bewusst": 9351,
    "ations": 9352,
    "ants": 9353,
    "ado": 9354,
    "Zau@@": 9355,
    "Unterschie@@": 9356,
    "Restau@@": 9357,
    "Jeff@@": 9358,
    "Eins": 9359,
    "Dakota": 9360,
    "Dahlia": 9361,
    "äß": 9362,
    "zwöl@@": 9363,
    "wütend": 9364,
    "wärtig": 9365,
    "versteckt": 9366,
    "veranstaltet": 9367,
    "uri": 9368,
    "sonder@@": 9369,
    "rix": 9370,
    "owa": 9371,
    "kaufen": 9372,
    "eint": 9373,
    "ander": 9374,
    "amerika": 9375,
    "Zerem@@": 9376,
    "Seattle": 9377,
    "Seat@@": 9378,
    "Reihen@@": 9379,
    "Profess@@": 9380,
    "Oregon": 9381,
    "Entfern@@": 9382,
    "Dauer": 9383,
    "Chance": 9384,
    "Bass": 9385,
    "wirken": 9386,
    "verkaufen": 9387,
    "ppy": 9388,
    "iveau": 9389,
    "griffe": 9390,
    "greifen": 9391,
    "geblieben": 9392,
    "etzen": 9393,
    "ehmi@@": 9394,
    "drücken": 9395,
    "droht": 9396,
    "davor": 9397,
    "chan@@": 9398,
    "bedeutete": 9399,
    "ausgesprochen": 9400,
    "arriere": 9401,
    "ago": 9402,
    "Way": 9403,
    "Trot@@": 9404,
    "Trail": 9405,
    "Tayl@@": 9406,
    "Spanisch": 9407,
    "Montre@@": 9408,
    "Iran": 9409,
    "Home": 9410,
    "Behör@@": 9411,
    "ühm@@": 9412,
    "ös": 9413,
    "volution": 9414,
    "vater": 9415,
    "sign": 9416,
    "oria": 9417,
    "merzen": 9418,
    "hire": 9419,
    "fügen": 9420,
    "feiern": 9421,
    "erforderlich": 9422,
    "bens": 9423,
    "Singapur": 9424,
    "Pop": 9425,
    "Connecticut": 9426,
    "Asien": 9427,
    "spielsweise": 9428,
    "sas": 9429,
    "ran": 9430,
    "liefern": 9431,
    "grau": 9432,
    "geschützt": 9433,
    "geplant": 9434,
    "gegensei@@": 9435,
    "ernannt": 9436,
    "entworfen": 9437,
    "behalten": 9438,
    "austr@@": 9439,
    "aufgeführt": 9440,
    "alisiert": 9441,
    "Tem@@": 9442,
    "Minne@@": 9443,
    "Metal": 9444,
    "Live": 9445,
    "Kent": 9446,
    "Intelligen@@": 9447,
    "Grie@@": 9448,
    "9@@": 9449,
    "6@@": 9450,
    "ächer": 9451,
    "zugänglich": 9452,
    "tier": 9453,
    "stritten": 9454,
    "schmerzen": 9455,
    "leistet": 9456,
    "kunft": 9457,
    "komplex": 9458,
    "holz": 9459,
    "gründen": 9460,
    "geleitet": 9461,
    "druckt": 9462,
    "dieren": 9463,
    "besetzt": 9464,
    "auft": 9465,
    "Wet@@": 9466,
    "Pflan@@": 9467,
    "Pers@@": 9468,
    "News": 9469,
    "Bestand@@": 9470,
    "Alabama": 9471,
    "üd@@": 9472,
    "üblich": 9473,
    "zeichnungen": 9474,
    "undet": 9475,
    "lächelt": 9476,
    "kriegs": 9477,
    "istor@@": 9478,
    "handeln": 9479,
    "erinnern": 9480,
    "chtet": 9481,
    "aue": 9482,
    "Time": 9483,
    "Schick@@": 9484,
    "Me": 9485,
    "Life": 9486,
    "Indiana": 9487,
    "Eliz@@": 9488,
    "Cem@@": 9489,
    "Angelegen@@": 9490,
    "&@@": 9491,
    "ümer": 9492,
    "ührt": 9493,
    "überlebt": 9494,
    "werfen": 9495,
    "verbind@@": 9496,
    "ungs": 9497,
    "unger": 9498,
    "studiert": 9499,
    "stown": 9500,
    "stert": 9501,
    "ssourc@@": 9502,
    "sichten": 9503,
    "samkeit": 9504,
    "q": 9505,
    "mingham": 9506,
    "militär@@": 9507,
    "lichten": 9508,
    "inne": 9509,
    "iele": 9510,
    "glaubt": 9511,
    "geschnitten": 9512,
    "geeignet": 9513,
    "fang": 9514,
    "ex": 9515,
    "eg": 9516,
    "edy": 9517,
    "dreiß@@": 9518,
    "dent": 9519,
    "bezeichnen": 9520,
    "Tabel@@": 9521,
    "Sees": 9522,
    "Rasen": 9523,
    "Original": 9524,
    "Mikrofon": 9525,
    "Jul@@": 9526,
    "Alpha": 9527,
    "/@@": 9528,
    "öffnen": 9529,
    "unmöglich": 9530,
    "steige": 9531,
    "spezialisiert": 9532,
    "ows": 9533,
    "osten": 9534,
    "mittl@@": 9535,
    "kümmern": 9536,
    "kontin@@": 9537,
    "gerichtet": 9538,
    "fizieren": 9539,
    "entiert": 9540,
    "brauch": 9541,
    "behauptete": 9542,
    "ardo": 9543,
    "andt": 9544,
    "Worten": 9545,
    "Hawaii": 9546,
    "Griechenland": 9547,
    "Gesprä@@": 9548,
    "Geräusch": 9549,
    "2": 9550,
    "wall": 9551,
    "teili@@": 9552,
    "serviert": 9553,
    "sal": 9554,
    "mmen": 9555,
    "menge": 9556,
    "ierend": 9557,
    "hand": 9558,
    "geöffnet": 9559,
    "geworden": 9560,
    "gebildet": 9561,
    "euert": 9562,
    "erweitert": 9563,
    "erreichen": 9564,
    "erkun@@": 9565,
    "enne@@": 9566,
    "bewegen": 9567,
    "Vertre@@": 9568,
    "Verteidig@@": 9569,
    "Herausge@@": 9570,
    "Hampshire": 9571,
    "Dall@@": 9572,
    "Abenteu@@": 9573,
    "7@@": 9574,
    "wirkungen": 9575,
    "verbessert": 9576,
    "sinn": 9577,
    "präsent@@": 9578,
    "mat": 9579,
    "läne": 9580,
    "leistungen": 9581,
    "isieren": 9582,
    "ieder@@": 9583,
    "geschaffen": 9584,
    "gelesen": 9585,
    "gehoben": 9586,
    "europ@@": 9587,
    "eingestellt": 9588,
    "damal@@": 9589,
    "beherber@@": 9590,
    "begleitet": 9591,
    "ario": 9592,
    "Uns@@": 9593,
    "Unab@@": 9594,
    "Spez@@": 9595,
    "H": 9596,
    "Einkauf@@": 9597,
    "Brooklyn": 9598,
    "Blues": 9599,
    "übernommen": 9600,
    "wimm@@": 9601,
    "verteilt": 9602,
    "spiegel": 9603,
    "okrat@@": 9604,
    "interessiert": 9605,
    "hinzugefügt": 9606,
    "gewinnen": 9607,
    "gelernt": 9608,
    "geheiratet": 9609,
    "frau": 9610,
    "eignet": 9611,
    "dion": 9612,
    "bart": 9613,
    "ause": 9614,
    "Rugby": 9615,
    "4@@": 9616,
    "ux": 9617,
    "urce": 9618,
    "striert": 9619,
    "schnitte": 9620,
    "reibt": 9621,
    "ordnet": 9622,
    "ischerweise": 9623,
    "geprägt": 9624,
    "errichtet": 9625,
    "ernen": 9626,
    "berichtet": 9627,
    "aufgelöst": 9628,
    "ahlen": 9629,
    "abgeleitet": 9630,
    "Produz@@": 9631,
    "M": 9632,
    "Kör@@": 9633,
    "Ihr@@": 9634,
    "Eisenb@@": 9635,
    "Compu@@": 9636,
    "Allgem@@": 9637,
    "übertragen": 9638,
    "wahr": 9639,
    "schlafen": 9640,
    "pfer": 9641,
    "our": 9642,
    "finanziert": 9643,
    "erkannt": 9644,
    "deu@@": 9645,
    "begraben": 9646,
    "antwortet": 9647,
    "Wisconsin": 9648,
    "S": 9649,
    "L": 9650,
    "Kombin@@": 9651,
    "4": 9652,
    "überqueren": 9653,
    "ördert": 9654,
    "unser@@": 9655,
    "tauchen": 9656,
    "tah": 9657,
    "ohl": 9658,
    "odie": 9659,
    "leiten": 9660,
    "hunder@@": 9661,
    "hinein": 9662,
    "hinauf": 9663,
    "gerufen": 9664,
    "etzt": 9665,
    "erkennen": 9666,
    "erhoben": 9667,
    "eingeführt": 9668,
    "eindeu@@": 9669,
    "eim@@": 9670,
    "angenommen": 9671,
    "ahen": 9672,
    "R": 9673,
    "Quebec": 9674,
    "Columb@@": 9675,
    "Arth@@": 9676,
    "Aller@@": 9677,
    "8@@": 9678,
    "á@@": 9679,
    "urc@@": 9680,
    "präsiden@@": 9681,
    "passen": 9682,
    "notwendig": 9683,
    "gearbeitet": 9684,
    "erzählen": 9685,
    "begrenzt": 9686,
    "ausgerichtet": 9687,
    "angeboten": 9688,
    "akzeptiert": 9689,
    "Jem@@": 9690,
    "Halbin@@": 9691,
    "Gemäl@@": 9692,
    "Anth@@": 9693,
    "..": 9694,
    "wendet": 9695,
    "verurteilt": 9696,
    "schützen": 9697,
    "ords": 9698,
    "omin@@": 9699,
    "nominiert": 9700,
    "kör@@": 9701,
    "heiraten": 9702,
    "gemischt": 9703,
    "entlassen": 9704,
    "beten": 9705,
    "ausgebildet": 9706,
    "antworten": 9707,
    "angewendet": 9708,
    "V": 9709,
    "Erinn@@": 9710,
    "Bür@@": 9711,
    "worben": 9712,
    "volu@@": 9713,
    "vide@@": 9714,
    "sweise": 9715,
    "niem@@": 9716,
    "mittag": 9717,
    "mieren": 9718,
    "konzentrieren": 9719,
    "kontr@@": 9720,
    "jor": 9721,
    "jenigen": 9722,
    "immen": 9723,
    "identifiziert": 9724,
    "geworfen": 9725,
    "ermordet": 9726,
    "dings": 9727,
    "N": 9728,
    "ürzt": 9729,
    "verschwunden": 9730,
    "ursprüng@@": 9731,
    "undert": 9732,
    "sammeln": 9733,
    "rom@@": 9734,
    "raus": 9735,
    "ogar": 9736,
    "lobt": 9737,
    "kritisiert": 9738,
    "hyth@@": 9739,
    "hoffe": 9740,
    "gegessen": 9741,
    "gedreht": 9742,
    "gedacht": 9743,
    "esse": 9744,
    "dustrie": 9745,
    "abgelehnt": 9746,
    "Zusätz@@": 9747,
    "Opp@@": 9748,
    "Inv@@": 9749,
    "Heraus@@": 9750,
    "verwundet": 9751,
    "verlegt": 9752,
    "schreibung": 9753,
    "schland": 9754,
    "schieden": 9755,
    "nee": 9756,
    "lossen": 9757,
    "loss": 9758,
    "logen": 9759,
    "leid": 9760,
    "bewahrt": 9761,
    "adem@@": 9762,
    "Publi@@": 9763,
    "Margar@@": 9764,
    "Läch@@": 9765,
    "Libr@@": 9766,
    "Jes@@": 9767,
    "7": 9768,
    "zuständig": 9769,
    "wickelt": 9770,
    "voraus": 9771,
    "vertrauen": 9772,
    "untergebracht": 9773,
    "töten": 9774,
    "sprochen": 9775,
    "sichtbar": 9776,
    "olis": 9777,
    "lernen": 9778,
    "komponiert": 9779,
    "inspiriert": 9780,
    "haupt": 9781,
    "beschädigt": 9782,
    "ampf": 9783,
    "abhängi@@": 9784,
    "Viz@@": 9785,
    "Vergan@@": 9786,
    "T": 9787,
    "Ost": 9788,
    "Origin@@": 9789,
    "Ja": 9790,
    "Entertain@@": 9791,
    "Dunk@@": 9792,
    "Detro@@": 9793,
    "ziem@@": 9794,
    "zeh@@": 9795,
    "verursachen": 9796,
    "verfasst": 9797,
    "umbenannt": 9798,
    "tikern": 9799,
    "gram@@": 9800,
    "füllen": 9801,
    "erzeugen": 9802,
    "erklären": 9803,
    "erfahren": 9804,
    "ehmen": 9805,
    "bewohnt": 9806,
    "betrifft": 9807,
    "beschreiben": 9808,
    "ausgestattet": 9809,
    "appen": 9810,
    "angebracht": 9811,
    "agne": 9812,
    "Niem@@": 9813,
    "Energ@@": 9814,
    "Dez@@": 9815,
    "western": 9816,
    "wendung": 9817,
    "vergeben": 9818,
    "sym@@": 9819,
    "staat": 9820,
    "lösen": 9821,
    "herausgegeben": 9822,
    "glas": 9823,
    "geteilt": 9824,
    "gesam@@": 9825,
    "gefahren": 9826,
    "fon": 9827,
    "festgestellt": 9828,
    "festgelegt": 9829,
    "destens": 9830,
    "behauptet": 9831,
    "Weih@@": 9832,
    "Times": 9833,
    "Exist@@": 9834,
    "Centr@@": 9835,
    "ängerin": 9836,
    "zial@@": 9837,
    "vertrieben": 9838,
    "stungen": 9839,
    "sichtig": 9840,
    "pson": 9841,
    "misch": 9842,
    "leisten": 9843,
    "gren@@": 9844,
    "gerettet": 9845,
    "flä@@": 9846,
    "erzielt": 9847,
    "erweise": 9848,
    "boar@@": 9849,
    "betreut": 9850,
    "angebaut": 9851,
    "Whi@@": 9852,
    "Sout@@": 9853,
    "Häl@@": 9854,
    "Eig@@": 9855,
    "Dopp@@": 9856,
    "yon": 9857,
    "wünschte": 9858,
    "völ@@": 9859,
    "vertreten": 9860,
    "verliehen": 9861,
    "urch": 9862,
    "tie": 9863,
    "roffen": 9864,
    "onnen": 9865,
    "chmal": 9866,
    "bestätigt": 9867,
    "aufgebaut": 9868,
    "anerkannt": 9869,
    "Fiction": 9870,
    "8": 9871,
    "​@@": 9872,
    "zin": 9873,
    "verbringen": 9874,
    "try": 9875,
    "listet": 9876,
    "kott@@": 9877,
    "geliefert": 9878,
    "erwarten": 9879,
    "erhältlich": 9880,
    "ausgezeichnet": 9881,
    "ausgestrahlt": 9882,
    "aufhin": 9883,
    "allgem@@": 9884,
    "Symp@@": 9885,
    "REMOVE": 9886,
    "K": 9887,
    "üben": 9888,
    "wö@@": 9889,
    "stehe": 9890,
    "sprä@@": 9891,
    "hodo@@": 9892,
    "geordnet": 9893,
    "gefähr": 9894,
    "gefasst": 9895,
    "gedruckt": 9896,
    "fft": 9897,
    "entrum": 9898,
    "bourne": 9899,
    "bchen": 9900,
    "aufgeteilt": 9901,
    "adt": 9902,
    "abet@@": 9903,
    "Christop@@": 9904,
    "Begin@@": 9905,
    "5": 9906,
    "öze@@": 9907,
    "ó@@": 9908,
    "ñ@@": 9909,
    "´@@": 9910,
    "zurückzuführen": 9911,
    "verlieren": 9912,
    "telte": 9913,
    "owj@@": 9914,
    "otto": 9915,
    "neur": 9916,
    "nab@@": 9917,
    "kind": 9918,
    "fran@@": 9919,
    "entscheiden": 9920,
    "einzi@@": 9921,
    "diskutiert": 9922,
    "Rett@@": 9923,
    "P": 9924,
    "Base@@": 9925,
    "vorbereitet": 9926,
    "retten": 9927,
    "reis": 9928,
    "nein": 9929,
    "ischte": 9930,
    "gner": 9931,
    "gia": 9932,
    "genheit": 9933,
    "funktionieren": 9934,
    "froh": 9935,
    "emen": 9936,
    "denti@@": 9937,
    "asselbe": 9938,
    "angegeben": 9939,
    "W": 9940,
    "Spre@@": 9941,
    "Paci@@": 9942,
    "J": 9943,
    "Inner@@": 9944,
    "3": 9945,
    "yland": 9946,
    "unabhängi@@": 9947,
    "träch@@": 9948,
    "syl@@": 9949,
    "nieder": 9950,
    "gum@@": 9951,
    "gorith@@": 9952,
    "gewidmet": 9953,
    "gelegen": 9954,
    "gekennzeichnet": 9955,
    "frika": 9956,
    "ersetzen": 9957,
    "erkennung": 9958,
    "benach@@": 9959,
    "Z": 9960,
    "Mic@@": 9961,
    "Fant@@": 9962,
    "Episo@@": 9963,
    "Überre@@": 9964,
    "zeugt": 9965,
    "zeln": 9966,
    "wai@@": 9967,
    "vorgeschlagen": 9968,
    "verboten": 9969,
    "solv@@": 9970,
    "quot@@": 9971,
    "hoben": 9972,
    "haupts@@": 9973,
    "gelangen": 9974,
    "gehabt": 9975,
    "entlichen": 9976,
    "cil": 9977,
    "barung": 9978,
    "aufgewachsen": 9979,
    "anstal@@": 9980,
    "ahr": 9981,
    "abgehalten": 9982,
    "Unit@@": 9983,
    "Online": 9984,
    "Kohl@@": 9985,
    "Kathedr@@": 9986,
    "Bertie": 9987,
    "ächlich": 9988,
    "wett@@": 9989,
    "westen": 9990,
    "vermeiden": 9991,
    "ulpt@@": 9992,
    "tigkeits@@": 9993,
    "strahlt": 9994,
    "rums": 9995,
    "nommen": 9996,
    "kto@@": 9997,
    "hl": 9998,
    "hause": 9999,
    "gewachsen": 10000,
    "gefeiert": 10001,
    "ffee": 10002,
    "Deu@@": 10003,
    "zugeschrieben": 10004,
    "verfolgen": 10005,
    "umstritten": 10006,
    "rence": 10007,
    "lück@@": 10008,
    "komoti@@": 10009,
    "gesungen": 10010,
    "eröffnet": 10011,
    "bol": 10012,
    "beschlossen": 10013,
    "Sep@@": 10014,
    "Nord": 10015,
    "Aug@@": 10016,
    ":@@": 10017,
    "9": 10018,
    "ú@@": 10019,
    "vorgestellt": 10020,
    "vorgenommen": 10021,
    "verbessern": 10022,
    "ssist@@": 10023,
    "okol@@": 10024,
    "ligi@@": 10025,
    "igan": 10026,
    "iest": 10027,
    "gliedert": 10028,
    "chsel@@": 10029,
    "ausgestellt": 10030,
    "abri@@": 10031,
    "U": 10032,
    "Ahnung": 10033,
    "„": 10034,
    "´": 10035,
    "verhindern": 10036,
    "orben": 10037,
[...]
