{
    "<pad>": 0,
    "<unk>": 1,
    "<s>": 2,
    "</s>": 3,
    "<||>": 4,
    ".": 5,
    ",": 6,
    "der": 7,
    "und": 8,
    "die": 9,
    "in": 10,
    "t@@": 11,
    "en@@": 12,
    "von": 13,
    "ist": 14,
    "-@@": 15,
    "Die": 16,
    "den": 17,
    "zu": 18,
    "„@@": 19,
    "eine": 20,
    "ein": 21,
    "mit": 22,
    "das": 23,
    "wurde": 24,
    "sich": 25,
    "Sie": 26,
    "auf": 27,
    "war": 28,
    "e@@": 29,
    "für": 30,
    "des": 31,
    "er": 32,
    "er@@": 33,
    "als": 34,
    "es": 35,
    "Er": 36,
    "ge@@": 37,
    "Es": 38,
    "Der": 39,
    "im": 40,
    "dem": 41,
    "s@@": 42,
    "Das": 43,
    "d@@": 44,
    "an": 45,
    "auch": 46,
    "an@@": 47,
    "“": 48,
    "einem": 49,
    "gen@@": 50,
    "be@@": 51,
    "sie": 52,
    "te@@": 53,
    "den@@": 54,
    "nicht": 55,
    "a@@": 56,
    "sind": 57,
    "einen": 58,
    "y@@": 59,
    "ben@@": 60,
    "ver@@": 61,
    "Ich": 62,
    "g@@": 63,
    "einer": 64,
    "wird": 65,
    "st@@": 66,
    "n@@": 67,
    "Ein": 68,
    "k@@": 69,
    "et@@": 70,
    "“@@": 71,
    "ein@@": 72,
    "hat": 73,
    "ten@@": 74,
    "?": 75,
    "aus": 76,
    "de@@": 77,
    "nach": 78,
    "um": 79,
    "dass": 80,
    "o@@": 81,
    "m@@": 82,
    "l@@": 83,
    "ier@@": 84,
    "in@@": 85,
    "b@@": 86,
    "auf@@": 87,
    "ch@@": 88,
    "ung@@": 89,
    "le@@": 90,
    "f@@": 91,
    "ich": 92,
    "In": 93,
    "un@@": 94,
    "ent@@": 95,
    "al@@": 96,
    "on@@": 97,
    "s": 98,
    "sch@@": 99,
    "wurden": 100,
    "z@@": 101,
    "i@@": 102,
    "aus@@": 103,
    "wer@@": 104,
    "werden": 105,
    "ab@@": 106,
    "te": 107,
    "Ver@@": 108,
    "K@@": 109,
    "bei": 110,
    "über": 111,
    "S@@": 112,
    "p@@": 113,
    "ar@@": 114,
    "ten": 115,
    "lich@@": 116,
    "h@@": 117,
    "c@@": 118,
    "w@@": 119,
    "oder": 120,
    "ann@@": 121,
    "is@@": 122,
    "seine": 123,
    "Be@@": 124,
    "Eine": 125,
    "t": 126,
    "e": 127,
    "um@@": 128,
    "A@@": 129,
    "u@@": 130,
    "wie": 131,
    "ischen": 132,
    "el@@": 133,
    "An@@": 134,
    "zu@@": 135,
    "es@@": 136,
    "ter@@": 137,
    "am": 138,
    "ck@@": 139,
    "or@@": 140,
    "ische": 141,
    "ur@@": 142,
    "durch": 143,
    "en": 144,
    "ist@@": 145,
    "zum": 146,
    "ger@@": 147,
    "zwei": 148,
    "der@@": 149,
    "N@@": 150,
    "gibt": 151,
    "T@@": 152,
    "re@@": 153,
    "at@@": 154,
    "haben": 155,
    "Sch@@": 156,
    "li@@": 157,
    "as@@": 158,
    "<bin39>": 159,
    "<bin47>": 160,
    "vor@@": 161,
    "<bin43>": 162,
    "H@@": 163,
    "war@@": 164,
    "<bin32>": 165,
    "B@@": 166,
    "r@@": 167,
    "a": 168,
    "<bin51>": 169,
    "\"@@": 170,
    "<bin54>": 171,
    "G@@": 172,
    "ha@@": 173,
    "y": 174,
    "<bin77>": 175,
    "seiner": 176,
    "<bin35>": 177,
    "L@@": 178,
    "zur": 179,
    "!": 180,
    "<bin57>": 181,
    "W@@": 182,
    "<bin29>": 183,
    "R@@": 184,
    "<bin59>": 185,
    "Diese": 186,
    "kann": 187,
    "v@@": 188,
    "o": 189,
    "über@@": 190,
    "F@@": 191,
    "<bin63>": 192,
    "ung": 193,
    "waren": 194,
    "<bin15>": 195,
    "<bin25>": 196,
    "s.": 197,
    "C@@": 198,
    "<bin79>": 199,
    "<bin65>": 200,
    "ie@@": 201,
    "Mann": 202,
    "dieser": 203,
    "<bin6>": 204,
    "<bin27>": 205,
    "E@@": 206,
    "<bin61>": 207,
    "<bin84>": 208,
    "<bin24>": 209,
    "hatte": 210,
    "<bin66>": 211,
    "P@@": 212,
    "<bin68>": 213,
    "<bin69>": 214,
    "<bin81>": 215,
    "<bin21>": 216,
    "<bin93>": 217,
    "<bin89>": 218,
    "ihre": 219,
    "<bin13>": 220,
    "<bin71>": 221,
    "<bin3>": 222,
    "<bin72>": 223,
    "<bin98>": 224,
    "vor": 225,
    "<bin9>": 226,
    "<bin96>": 227,
    "<bin86>": 228,
    "ot@@": 229,
    "noch": 230,
    "<bin91>": 231,
    "<bin20>": 232,
    "<bin82>": 233,
    "<bin12>": 234,
    "ol@@": 235,
    "<bin87>": 236,
    "ad@@": 237,
    "<bin100>": 238,
    "<bin22>": 239,
    "<bin95>": 240,
    "<bin74>": 241,
    "<bin19>": 242,
    "chen@@": 243,
    "<bin73>": 244,
    "det@@": 245,
    "<bin75>": 246,
    "<bin11>": 247,
    "it@@": 248,
    "nur": 249,
    "<bin90>": 250,
    "<bin83>": 251,
    "<bin99>": 252,
    "<bin17>": 253,
    "<bin1>": 254,
    "<bin18>": 255,
    "M@@": 256,
    "cht@@": 257,
    "<bin8>": 258,
    "<bin97>": 259,
    "O@@": 260,
    "<bin2>": 261,
    "<bin49>": 262,
    "ra@@": 263,
    "<bin5>": 264,
    "Re@@": 265,
    "i": 266,
    "<bin92>": 267,
    "ing@@": 268,
    "<bin94>": 269,
    "<bin45>": 270,
    "<bin41>": 271,
    "ter": 272,
    "on": 273,
    "jedoch": 274,
    "<bin4>": 275,
    "<bin38>": 276,
    "D@@": 277,
    "<bin88>": 278,
    "and@@": 279,
    "<bin53>": 280,
    "<bin16>": 281,
    "<bin76>": 282,
    "ig@@": 283,
    "aber": 284,
    "<bin78>": 285,
    "<bin58>": 286,
    "sehr": 287,
    "<bin46>": 288,
    "Stadt": 289,
    "<bin7>": 290,
    "<bin36>": 291,
    "<bin85>": 292,
    "am@@": 293,
    "St@@": 294,
    "<bin37>": 295,
    "<bin44>": 296,
    "<bin10>": 297,
    "Ab@@": 298,
    "<bin42>": 299,
    "<bin33>": 300,
    "<bin60>": 301,
    "<bin52>": 302,
    "<bin40>": 303,
    "isch@@": 304,
    "<bin31>": 305,
    "<bin28>": 306,
    "ern@@": 307,
    "se@@": 308,
    "<bin48>": 309,
    "<bin55>": 310,
    "di@@": 311,
    "-": 312,
    "<bin34>": 313,
    "Im": 314,
    "<bin50>": 315,
    "<bin30>": 316,
    "wur@@": 317,
    "ungen": 318,
    "stell@@": 319,
    "<bin14>": 320,
    "<bin56>": 321,
    "<bin26>": 322,
    "keine": 323,
    "du": 324,
    "<bin62>": 325,
    "ss@@": 326,
    "eines": 327,
    "<bin64>": 328,
    "d": 329,
    "unter@@": 330,
    "sein": 331,
    "<bin80>": 332,
    "<bin23>": 333,
    "können": 334,
    "seinen": 335,
    "ei@@": 336,
    "unter": 337,
    "mi@@": 338,
    "Vor@@": 339,
    "la@@": 340,
    "Aus@@": 341,
    "hat@@": 342,
    "Dies": 343,
    "<bin67>": 344,
    "gel@@": 345,
    "drei": 346,
    "gen": 347,
    "so": 348,
    "us@@": 349,
    "geb@@": 350,
    "Ein@@": 351,
    "<bin70>": 352,
    "ut@@": 353,
    "Er@@": 354,
    "ber@@": 355,
    "diese": 356,
    "befindet": 357,
    "lei@@": 358,
    "il@@": 359,
    "Frau": 360,
    "während": 361,
    "ir@@": 362,
    "ne@@": 363,
    "In@@": 364,
    "vom": 365,
    "al": 366,
    "au@@": 367,
    "ff@@": 368,
    "de": 369,
    "Zeit": 370,
    "da@@": 371,
    "ungs@@": 372,
    "habe": 373,
    "mir": 374,
    "ä@@": 375,
    "ag@@": 376,
    "ti@@": 377,
    "geh@@": 378,
    "her@@": 379,
    "liegt": 380,
    "Ge@@": 381,
    "Z@@": 382,
    "Mar@@": 383,
    "man": 384,
    "kt@@": 385,
    "ro@@": 386,
    "was": 387,
    "gesch@@": 388,
    "diesem": 389,
    "ihn": 390,
    "liche": 391,
    "wir": 392,
    "om@@": 393,
    ":": 394,
    "bekann@@": 395,
    "ts@@": 396,
    "seh@@": 397,
    "mich": 398,
    "Teil": 399,
    "l": 400,
    "ft@@": 401,
    "gew@@": 402,
    "später": 403,
    "sp@@": 404,
    "net@@": 405,
    "st": 406,
    "k": 407,
    "Wir": 408,
    "ach@@": 409,
    "ul@@": 410,
    "ich@@": 411,
    "os@@": 412,
    "Seine": 413,
    "immer": 414,
    "alle": 415,
    "Nach": 416,
    "ind@@": 417,
    "führ@@": 418,
    "ern": 419,
    "sagte": 420,
    "anderen": 421,
    "ass@@": 422,
    "nich@@": 423,
    "ge": 424,
    "em@@": 425,
    "V@@": 426,
    "zurück@@": 427,
    "lich": 428,
    "ing": 429,
    "ungen@@": 430,
    "ange@@": 431,
    "viele": 432,
    "of": 433,
    "dar@@": 434,
    "seinem": 435,
    "hin@@": 436,
    "le": 437,
    "sa@@": 438,
    "rie@@": 439,
    "ischer": 440,
    "ri@@": 441,
    "ihr": 442,
    "x@@": 443,
    "Al@@": 444,
    "j@@": 445,
    "Se@@": 446,
    "lo@@": 447,
    "ak@@": 448,
    "Ar@@": 449,
    "I@@": 450,
    "andere": 451,
    "bis": 452,
    "ihm": 453,
    "tig@@": 454,
    "ie": 455,
    "De@@": 456,
    "sten": 457,
    "nen@@": 458,
    "Sein": 459,
    "erste": 460,
    "zeich@@": 461,
    "ihrer": 462,
    "op@@": 463,
    "\"": 464,
    "isch": 465,
    "wir@@": 466,
    "Le@@": 467,
    "ell@@": 468,
    "sen@@": 469,
    "verwen@@": 470,
    "fen@@": 471,
    "lichen": 472,
    "Zwei": 473,
    "spiel@@": 474,
    "Sp@@": 475,
    "ation@@": 476,
    "The": 477,
    "gebor@@": 478,
    "ihren": 479,
    "all@@": 480,
    "mehr": 481,
    "teil@@": 482,
    "J@@": 483,
    "si@@": 484,
    "chen": 485,
    "ik@@": 486,
    "rei@@": 487,
    "Ch@@": 488,
    "Ro@@": 489,
    "gab": 490,
    "ersten": 491,
    "eh@@": 492,
    "em": 493,
    "wenn": 494,
    "Wie": 495,
    "Als": 496,
    "zwischen": 497,
    "Ma@@": 498,
    "Menschen": 499,
    "tra@@": 500,
    "qu@@": 501,
    "gegen": 502,
    "ausge@@": 503,
    "Zu": 504,
    "etwas": 505,
    "dann": 506,
    "setz@@": 507,
    "ens@@": 508,
    "g": 509,
    "lie@@": 510,
    "us": 511,
    "ation": 512,
    "ster@@": 513,
    "men@@": 514,
    "ste": 515,
    "Co@@": 516,
    "el": 517,
    "ck": 518,
    "n": 519,
    "kon@@": 520,
    "New": 521,
    "'@@": 522,
    "beiden": 523,
    "gef@@": 524,
    "Und": 525,
    "ü@@": 526,
    "Auf@@": 527,
    "he@@": 528,
    "Ihre": 529,
    "nie": 530,
    "wieder": 531,
    "Über@@": 532,
    "ale": 533,
    "bei@@": 534,
    "Unter@@": 535,
    "or": 536,
    "bar@@": 537,
    "m": 538,
    "ho@@": 539,
    "gi@@": 540,
    "vier": 541,
    "Was": 542,
    "end@@": 543,
    "Haupt@@": 544,
    "tr@@": 545,
    "halten@@": 546,
    "ant@@": 547,
    "einige": 548,
    "as": 549,
    "sich@@": 550,
    "U@@": 551,
    "Un@@": 552,
    "Jahr": 553,
    "aut@@": 554,
    "mehrere": 555,
    "ommen@@": 556,
    "ste@@": 557,
    "ö@@": 558,
    "durch@@": 559,
    "h": 560,
    "Jahre": 561,
    "meisten": 562,
    "Zu@@": 563,
    "da": 564,
    "se": 565,
    "dieses": 566,
    "man@@": 567,
    "Aber": 568,
    "ende": 569,
    "Bo@@": 570,
    "fin@@": 571,
    "einge@@": 572,
    "pp@@": 573,
    "är@@": 574,
    "tier@@": 575,
    "f": 576,
    "Stadt@@": 577,
    "ts": 578,
    "ph@@": 579,
    "mm@@": 580,
    "ers": 581,
    "ru@@": 582,
    "ler@@": 583,
    "mit@@": 584,
    "Während": 585,
    "na@@": 586,
    "lan@@": 587,
    "ap@@": 588,
    "bin": 589,
    "Gruppe": 590,
    "land@@": 591,
    "men": 592,
    "acht@@": 593,
    "Namen": 594,
    "Kon@@": 595,
    "and": 596,
    "ins": 597,
    "ebenfalls": 598,
    "u": 599,
    "und@@": 600,
    "diesen": 601,
    "br@@": 602,
    "än@@": 603,
    "Einige": 604,
    "Bei": 605,
    "oft": 606,
    "me@@": 607,
    "ne": 608,
    "jetzt": 609,
    "Auf": 610,
    "enden": 611,
    "ah@@": 612,
    "ar": 613,
    "kei@@": 614,
    "z": 615,
    "ster": 616,
    "Ihr": 617,
    "Di@@": 618,
    "Name": 619,
    "ch": 620,
    "wei@@": 621,
    "uns": 622,
    "Mon@@": 623,
    "Viele": 624,
    "ierte": 625,
    "hei@@": 626,
    "En@@": 627,
    "ß@@": 628,
    "Y@@": 629,
    "Spiel@@": 630,
    "ben": 631,
    "Nähe": 632,
    "selbst": 633,
    "Wenn": 634,
    "iert": 635,
    "Par@@": 636,
    "schaft@@": 637,
    "Mo@@": 638,
    "ma@@": 639,
    "kommen@@": 640,
    "ers@@": 641,
    "wor@@": 642,
    "heute": 643,
    "ler": 644,
    "tes": 645,
    "steht": 646,
    "ic@@": 647,
    "dig@@": 648,
    "Zeit@@": 649,
    "enz@@": 650,
    "Li@@": 651,
    "ger": 652,
    "ta@@": 653,
    "du@@": 654,
    "Gra@@": 655,
    "for@@": 656,
    "zei@@": 657,
    "bel@@": 658,
    "pf@@": 659,
    "sen": 660,
    "inn@@": 661,
    "ok@@": 662,
    "arbei@@": 663,
    "He@@": 664,
    "Bar@@": 665,
    "statt@@": 666,
    "Sa@@": 667,
    "sk@@": 668,
    "licher": 669,
    "Land@@": 670,
    "gem@@": 671,
    "hr@@": 672,
    "spielte": 673,
    "Car@@": 674,
    "lin@@": 675,
    "viel": 676,
    "bet@@": 677,
    "Alle": 678,
    "sag@@": 679,
    "Mädchen": 680,
    "cken": 681,
    "nach@@": 682,
    "str@@": 683,
    "ken": 684,
    "Wei@@": 685,
    "ken@@": 686,
    "b": 687,
    "zi@@": 688,
    "reich@@": 689,
    "würde": 690,
    "ke": 691,
    "Für": 692,
    "fe@@": 693,
    "os": 694,
    "lang": 695,
    "School": 696,
    "be": 697,
    "alen": 698,
    "zusammen@@": 699,
    "wa@@": 700,
    "Album": 701,
    "im@@": 702,
    "aufge@@": 703,
    "meine": 704,
    "sie@@": 705,
    "ien@@": 706,
    "beg@@": 707,
    "fer@@": 708,
    "che": 709,
    "muss": 710,
    "Dieser": 711,
    "unden@@": 712,
    "ihrem": 713,
    "tre@@": 714,
    "ohne": 715,
    "ow@@": 716,
    "bo@@": 717,
    "th@@": 718,
    "ill@@": 719,
    "ige": 720,
    "beim": 721,
    "steh@@": 722,
    "ierten": 723,
    "Ta@@": 724,
    "len": 725,
    "mal@@": 726,
    "end": 727,
    "ies@@": 728,
    "ton": 729,
    "fen": 730,
    "so@@": 731,
    "gut": 732,
    "cken@@": 733,
    "Um@@": 734,
    "Film": 735,
    "La@@": 736,
    "kt": 737,
    "Ne@@": 738,
    "Ha@@": 739,
    "große": 740,
    "So@@": 741,
    "est@@": 742,
    "Schul@@": 743,
    "neue": 744,
    "rich@@": 745,
    "wür@@": 746,
    "besch@@": 747,
    "ord@@": 748,
    "Gemeinde": 749,
    "Her@@": 750,
    "geht": 751,
    "fahr@@": 752,
    "ang@@": 753,
    "fünf": 754,
    "Mit": 755,
    "Ho@@": 756,
    "ere": 757,
    "enn@@": 758,
    "ine": 759,
    "John": 760,
    "hal@@": 761,
    "Wasser@@": 762,
    "co@@": 763,
    "erhielt": 764,
    "spielt": 765,
    "ging": 766,
    "Männer": 767,
    "ationen": 768,
    "Rei@@": 769,
    "Kinder@@": 770,
    "kön@@": 771,
    "kam": 772,
    "Geschichte": 773,
    "mo@@": 774,
    "len@@": 775,
    "Man@@": 776,
    "kein": 777,
    "gest@@": 778,
    "Familie": 779,
    "Po@@": 780,
    "tik@@": 781,
    "Auch": 782,
    "stand": 783,
    "hatten": 784,
    "wo": 785,
    "Qu@@": 786,
    "El@@": 787,
    "großen": 788,
    "Jahren": 789,
    "Unternehmen": 790,
    "Mc@@": 791,
    "tion@@": 792,
    "eu@@": 793,
    "igen": 794,
    "ys": 795,
    "Kinder": 796,
    "müssen": 797,
    "erte": 798,
    "Me@@": 799,
    "Ber@@": 800,
    "ran@@": 801,
    "gan@@": 802,
    "nen": 803,
    "Su@@": 804,
    "Sohn": 805,
    "verb@@": 806,
    "son@@": 807,
    "Nach@@": 808,
    "Kan@@": 809,
    "pro@@": 810,
    "weitere": 811,
    "begann": 812,
    "dies": 813,
    "Art": 814,
    "we@@": 815,
    "tige": 816,
    "og@@": 817,
    "fest@@": 818,
    "kl@@": 819,
    "ien": 820,
    "ce@@": 821,
    "me": 822,
    "Pro@@": 823,
    "Ju@@": 824,
    "p": 825,
    "führte": 826,
    "bi@@": 827,
    "at": 828,
    "lang@@": 829,
    "Sie@@": 830,
    "Arbeit": 831,
    "ent": 832,
    "ko@@": 833,
    "Or@@": 834,
    "Lo@@": 835,
    "elt@@": 836,
    "su@@": 837,
    "par@@": 838,
    "ieren": 839,
    "Leben": 840,
    "Bet@@": 841,
    "Ra@@": 842,
    "Kar@@": 843,
    "mach@@": 844,
    "Vater": 845,
    "Titel": 846,
    "stand@@": 847,
    "sten@@": 848,
    "bil@@": 849,
    "ner": 850,
    "Du": 851,
    "x": 852,
    "schaft": 853,
    "konnte": 854,
    "chten": 855,
    "gn@@": 856,
    "Con@@": 857,
    "Ri@@": 858,
    "Band": 859,
    "nahm": 860,
    "kommen": 861,
    "ün@@": 862,
    "spielen": 863,
    "mon@@": 864,
    "Spiel": 865,
    "Ja@@": 866,
    "get@@": 867,
    "Tra@@": 868,
    "Ende": 869,
    "vielen": 870,
    "Fl@@": 871,
    "sowohl": 872,
    "kte": 873,
    "Sh@@": 874,
    "Mor@@": 875,
    "eren": 876,
    "bl@@": 877,
    "Hand@@": 878,
    "ati@@": 879,
    "ob@@": 880,
    "hör@@": 881,
    "ens": 882,
    "mein": 883,
    "häufig": 884,
    "ve@@": 885,
    "ton@@": 886,
    "ley": 887,
    "ih@@": 888,
    "uss@@": 889,
    "meiner": 890,
    "enk@@": 891,
    "Har@@": 892,
    "zen@@": 893,
    "min@@": 894,
    "Dieses": 895,
    "Später": 896,
    "Lin@@": 897,
    "werde": 898,
    "Junge": 899,
    "icht@@": 900,
    "Gesch@@": 901,
    "is": 902,
    "äu@@": 903,
    "utz@@": 904,
    "ene": 905,
    "vier@@": 906,
    "Straße": 907,
    "cht": 908,
    "ve": 909,
    "dort": 910,
    "isches": 911,
    "erk@@": 912,
    ".@@": 913,
    "zwei@@": 914,
    "ft": 915,
    "Pe@@": 916,
    "hier": 917,
    "enen": 918,
    "ick@@": 919,
    "gehören": 920,
    "Dar@@": 921,
    "kleine": 922,
    "To@@": 923,
    "Mitglied": 924,
    "Ger@@": 925,
    "Pa@@": 926,
    "Lie@@": 927,
    "oll@@": 928,
    "gte": 929,
    "frei@@": 930,
    "del@@": 931,
    "Ko@@": 932,
    "seines": 933,
    "gh@@": 934,
    "Mann@@": 935,
    "sei@@": 936,
    "Gu@@": 937,
    "sollte": 938,
    "zog": 939,
    "lu@@": 940,
    "Th@@": 941,
    "äch@@": 942,
    "West@@": 943,
    "hi@@": 944,
    ";": 945,
    "ner@@": 946,
    "Park": 947,
    "tung": 948,
    "mus@@": 949,
    "elle": 950,
    "besteht": 951,
    "Ka@@": 952,
    "ges": 953,
    "Au@@": 954,
    "gra@@": 955,
    "rau@@": 956,
    "gehört": 957,
    "(@@": 958,
    "veröffent@@": 959,
    "ur": 960,
    "mar@@": 961,
    "Mit@@": 962,
    "son": 963,
    "ard@@": 964,
    "je@@": 965,
    "Universität": 966,
    "che@@": 967,
    "ierung": 968,
    "gl@@": 969,
    "eln": 970,
    "High": 971,
    "amm@@": 972,
    "Ad@@": 973,
    "ber": 974,
    "We@@": 975,
    "land": 976,
    "Gar@@": 977,
    "Fre@@": 978,
    "Am@@": 979,
    "Tag": 980,
    "Schule": 981,
    "ver": 982,
    "Da@@": 983,
    "zeit": 984,
    "ihnen": 985,
    "ell": 986,
    "hinzu@@": 987,
    "z.": 988,
    "ce": 989,
    "gehen": 990,
    "fol@@": 991,
    "fe": 992,
    "Ent@@": 993,
    "sicher@@": 994,
    "ze@@": 995,
    "heit@@": 996,
    "hauptsächlich": 997,
    "Bu@@": 998,
    "erst@@": 999,
    "Musik@@": 1000,
    "Hund": 1001,
    "iel@@": 1002,
    "Ober@@": 1003,
    "Sk@@": 1004,
    "zehn": 1005,
    "Gebäude": 1006,
    "verschiedene": 1007,
    "ges@@": 1008,
    "dien@@": 1009,
    "c": 1010,
    "bekannt": 1011,
    "Welt@@": 1012,
    "ker": 1013,
    "id@@": 1014,
    "War@@": 1015,
    "the": 1016,
    "‘@@": 1017,
    "macht": 1018,
    "versu@@": 1019,
    "ga@@": 1020,
    "Musik": 1021,
    "Dann": 1022,
    "Bur@@": 1023,
    "Neu@@": 1024,
    "Gebiet": 1025,
    "ori@@": 1026,
    "hält": 1027,
    "College": 1028,
    "wen@@": 1029,
    "Reihe": 1030,
    "schon": 1031,
    "ment@@": 1032,
    "zeit@@": 1033,
    "möchte": 1034,
    "anz@@": 1035,
    "Inter@@": 1036,
    "gt": 1037,
    "wegen": 1038,
    "verwendet": 1039,
    "fort@@": 1040,
    "arbeitete": 1041,
    "Frauen": 1042,
    "Kind": 1043,
    "Br@@": 1044,
    "kan@@": 1045,
    "größte": 1046,
    "Zei@@": 1047,
    "nun": 1048,
    "verschiedenen": 1049,
    "Engl@@": 1050,
    "For@@": 1051,
    "ast@@": 1052,
    "letzten": 1053,
    "zo@@": 1054,
    "ia": 1055,
    "Wa@@": 1056,
    "Bel@@": 1057,
    "soll@@": 1058,
    "befinden": 1059,
    "weiter@@": 1060,
    "Lei@@": 1061,
    "dern": 1062,
    "zer@@": 1063,
    "darauf": 1064,
    "gesetz@@": 1065,
    "angen@@": 1066,
    "änder@@": 1067,
    "weiter": 1068,
    "tä@@": 1069,
    "machte": 1070,
    "län@@": 1071,
    "lig@@": 1072,
    "einigen": 1073,
    "vi@@": 1074,
    "ari@@": 1075,
    "Nor@@": 1076,
    "Gen@@": 1077,
    "ze": 1078,
    "rat@@": 1079,
    "ort@@": 1080,
    "Sta@@": 1081,
    "Per@@": 1082,
    "Bitte": 1083,
    "zen": 1084,
    "denen": 1085,
    "tete": 1086,
    "Park@@": 1087,
    "Fa@@": 1088,
    "Tri@@": 1089,
    "Bi@@": 1090,
    "les@@": 1091,
    "einfach": 1092,
    "Ste@@": 1093,
    "Rück@@": 1094,
    "Haus@@": 1095,
    "kommt": 1096,
    "Je@@": 1097,
    "Min@@": 1098,
    "Ru@@": 1099,
    "mer@@": 1100,
    "sechs": 1101,
    "Fahr@@": 1102,
    "finden": 1103,
    "fast": 1104,
    "Kat@@": 1105,
    "trä@@": 1106,
    "stehen": 1107,
    "dich": 1108,
    "weg@@": 1109,
    "ds": 1110,
    "tigen": 1111,
    "gele@@": 1112,
    "rü@@": 1113,
    "nichts": 1114,
    "ellen": 1115,
    "do@@": 1116,
    "bevor": 1117,
    "ks@@": 1118,
    "glau@@": 1119,
    "fel@@": 1120,
    "Am": 1121,
    "trat": 1122,
    "besuchte": 1123,
    "Mutter": 1124,
    "star@@": 1125,
    "ig": 1126,
    "ke@@": 1127,
    "ganz": 1128,
    "bef@@": 1129,
    "rot@@": 1130,
    "bur@@": 1131,
    "alles": 1132,
    "verl@@": 1133,
    "Do@@": 1134,
    "rä@@": 1135,
    "neuen": 1136,
    "ert": 1137,
    "Du@@": 1138,
    "Coun@@": 1139,
    "per@@": 1140,
    "Grund@@": 1141,
    "heit": 1142,
    "tern": 1143,
    "gel": 1144,
    "ed@@": 1145,
    "heraus@@": 1146,
    "alten": 1147,
    "Lu@@": 1148,
    "sicht@@": 1149,
    "sel@@": 1150,
    "et": 1151,
    "Pf@@": 1152,
    "kleinen": 1153,
    "Flug@@": 1154,
    "starb": 1155,
    "folgenden": 1156,
    "iger": 1157,
    "schnell": 1158,
    "!@@": 1159,
    "sche": 1160,
    "to@@": 1161,
    "Dorf": 1162,
    "dung": 1163,
    "ett@@": 1164,
    "Saint": 1165,
    "stu@@": 1166,
    "ven": 1167,
    "ka@@": 1168,
    "Bau@@": 1169,
    "lit@@": 1170,
    "abge@@": 1171,
    "sitz@@": 1172,
    "gs@@": 1173,
    "ons": 1174,
    "dir": 1175,
    "yl@@": 1176,
    "ine@@": 1177,
    "Personen": 1178,
    "Buch": 1179,
    "ub@@": 1180,
    "schrieb": 1181,
    "Wal@@": 1182,
    "form@@": 1183,
    "innerhalb": 1184,
    "Mal@@": 1185,
    "keinen": 1186,
    "einzige": 1187,
    "Nord@@": 1188,
    "Hoch@@": 1189,
    "bedeut@@": 1190,
    "neben": 1191,
    "damit": 1192,
    "bar": 1193,
    "lange": 1194,
    "außerdem": 1195,
    "ür@@": 1196,
    "allen": 1197,
    "Sal@@": 1198,
    "Vereinigten": 1199,
    "Ba@@": 1200,
    "ör@@": 1201,
    "manchmal": 1202,
    "führt": 1203,
    "tz@@": 1204,
    "lebt": 1205,
    "ion@@": 1206,
    "handelt": 1207,
    "At@@": 1208,
    "ations@@": 1209,
    "tern@@": 1210,
    "iz@@": 1211,
    "davon": 1212,
    "letzte": 1213,
    "Luft@@": 1214,
    "tion": 1215,
    "sta@@": 1216,
    "sitzt": 1217,
    "schen": 1218,
    "ip@@": 1219,
    "Frei@@": 1220,
    "ven@@": 1221,
    "ard": 1222,
    "Film@@": 1223,
    "Pre@@": 1224,
    "Mat@@": 1225,
    "lau@@": 1226,
    "fre@@": 1227,
    "Region": 1228,
    "Ort": 1229,
    "Land": 1230,
    "Beide": 1231,
    "gewäh@@": 1232,
    "ismus": 1233,
    "tel@@": 1234,
    "könnte": 1235,
    "Kol@@": 1236,
    "Außerdem": 1237,
    "weiterhin": 1238,
    "erung": 1239,
    "dete": 1240,
    "derzeit": 1241,
    "beide": 1242,
    "voll@@": 1243,
    "Von": 1244,
    "mat@@": 1245,
    "Met@@": 1246,
    "nächsten": 1247,
    "aten": 1248,
    "iv@@": 1249,
    "Form": 1250,
    "teten": 1251,
    "ktion@@": 1252,
    "alt@@": 1253,
    "namens": 1254,
    "sowie": 1255,
    "gleich@@": 1256,
    "Spieler": 1257,
    "fl@@": 1258,
    "Scho@@": 1259,
    "Ph@@": 1260,
    "Wasser": 1261,
    "mal": 1262,
    "ans": 1263,
    "po@@": 1264,
    "ex@@": 1265,
    "kten": 1266,
    "ey": 1267,
    "all": 1268,
    "alis@@": 1269,
    "bu@@": 1270,
    "Seite": 1271,
    "County": 1272,
    "schließlich": 1273,
    "Sc@@": 1274,
    "Rolle": 1275,
    "cher": 1276,
    "ystem@@": 1277,
    "ron@@": 1278,
    "Ex@@": 1279,
    "oo@@": 1280,
    "ov@@": 1281,
    "iss@@": 1282,
    "Haus": 1283,
    "schrei@@": 1284,
    "olog@@": 1285,
    "lte": 1286,
    "Kn@@": 1287,
    "ut": 1288,
    "ob": 1289,
    "bau@@": 1290,
    "Serie": 1291,
    "Col@@": 1292,
    "schw@@": 1293,
    "Karriere": 1294,
    "wieder@@": 1295,
    "spro@@": 1296,
    "bin@@": 1297,
    "Süd@@": 1298,
    "Person": 1299,
    "los@@": 1300,
    "geboren": 1301,
    "ersch@@": 1302,
    "eigenen": 1303,
    "ang": 1304,
    "acht": 1305,
    "Regel": 1306,
    "Beispiel": 1307,
    "ali@@": 1308,
    "sion@@": 1309,
    "ser@@": 1310,
    "stellte": 1311,
    "etz@@": 1312,
    "Drei": 1313,
    "plat@@": 1314,
    "Sen@@": 1315,
    "Ser@@": 1316,
    "ück@@": 1317,
    "trägt": 1318,
    "Regi@@": 1319,
    "üb@@": 1320,
    "gung": 1321,
    "stre@@": 1322,
    "–": 1323,
    "wirklich": 1324,
    "w": 1325,
    "ckte": 1326,
    "ess@@": 1327,
    "Bri@@": 1328,
    "sor@@": 1329,
    "gewann": 1330,
    "weit": 1331,
    "sehen": 1332,
    "off@@": 1333,
    "findet": 1334,
    "Andere": 1335,
    "ath@@": 1336,
    "ander@@": 1337,
    "zeu@@": 1338,
    "sh@@": 1339,
    "selben": 1340,
    "cke@@": 1341,
    "ehr@@": 1342,
    "University": 1343,
    "Fluss": 1344,
    "gek@@": 1345,
    "Hin@@": 1346,
    "Gegen@@": 1347,
    "Colle@@": 1348,
    "arr@@": 1349,
    "Schw@@": 1350,
    "Lied": 1351,
    "stark": 1352,
    "ks": 1353,
    "Tod": 1354,
    "Te@@": 1355,
    "Bra@@": 1356,
    "Reg@@": 1357,
    "chte": 1358,
    "Jahr@@": 1359,
    "nah@@": 1360,
    "Ihnen": 1361,
    "Arten": 1362,
    "mehreren": 1363,
    "liches": 1364,
    "her": 1365,
    "gegen@@": 1366,
    "Mittel@@": 1367,
    "nung": 1368,
    "lung": 1369,
    "Man": 1370,
    "zweiten": 1371,
    "r": 1372,
    "nehmen@@": 1373,
    "oh@@": 1374,
    "seit": 1375,
    "leg@@": 1376,
    "ele@@": 1377,
    "äl@@": 1378,
    "verfügt": 1379,
    "Groß@@": 1380,
    "An": 1381,
    "are": 1382,
    "fer": 1383,
    "Hei@@": 1384,
    "ähr@@": 1385,
    "zweite": 1386,
    "fall@@": 1387,
    "ou@@": 1388,
    "ffe@@": 1389,
    "weniger": 1390,
    "fü@@": 1391,
    "bietet": 1392,
    "ba@@": 1393,
    "versch@@": 1394,
    "hol@@": 1395,
    "hel@@": 1396,
    "gr@@": 1397,
    "eln@@": 1398,
    "amp@@": 1399,
    "So": 1400,
    "zieh@@": 1401,
    "yn@@": 1402,
    "schen@@": 1403,
    "Menschen@@": 1404,
    "dan@@": 1405,
    "?@@": 1406,
    "zusammen": 1407,
    "zeug@@": 1408,
    "wal@@": 1409,
    "ursprünglich": 1410,
    "kre@@": 1411,
    "enb@@": 1412,
    "Hu@@": 1413,
    "Ant@@": 1414,
    "sieben": 1415,
    "schaff@@": 1416,
    "entwick@@": 1417,
    "Regierung": 1418,
    "Mitglieder": 1419,
    "Heute": 1420,
    "Hal@@": 1421,
    "Gr@@": 1422,
    "one": 1423,
    "Liste": 1424,
    "Ku@@": 1425,
    "Tochter": 1426,
    "eg@@": 1427,
    "bald": 1428,
    "nahmen": 1429,
    "hoch@@": 1430,
    "Bus@@": 1431,
    "tungs@@": 1432,
    "Kri@@": 1433,
    "weißen": 1434,
    "tungen": 1435,
    "stra@@": 1436,
    "gemein@@": 1437,
    "Welt": 1438,
    "no@@": 1439,
    "Zwei@@": 1440,
    "York": 1441,
    "fa@@": 1442,
    "Dis@@": 1443,
    "rit@@": 1444,
    "Version": 1445,
    "weise": 1446,
    "paar": 1447,
    "Pal@@": 1448,
    "Fe@@": 1449,
    "Cor@@": 1450,
    "v": 1451,
    "gten": 1452,
    "Um": 1453,
    "Tor@@": 1454,
    "des@@": 1455,
    "tet": 1456,
    "Wor@@": 1457,
    "Plat@@": 1458,
    "schul@@": 1459,
    "US@@": 1460,
    "Fra@@": 1461,
    "bedeutet": 1462,
    "art@@": 1463,
    "Sport@@": 1464,
    "Begriff": 1465,
    "vil@@": 1466,
    "ja@@": 1467,
    "Sol@@": 1468,
    "Hemd": 1469,
    "ologie": 1470,
    "blieb": 1471,
    "Kor@@": 1472,
    "wenig": 1473,
    "ott@@": 1474,
    "enthält": 1475,
    "ville": 1476,
    "umfasst": 1477,
    "oren": 1478,
    "Sei@@": 1479,
    "komm@@": 1480,
    "erin": 1481,
    "spre@@": 1482,
    "neu@@": 1483,
    "erten": 1484,
    "Dra@@": 1485,
    "meinen": 1486,
    "erfolg@@": 1487,
    "Ak@@": 1488,
    "kleiner": 1489,
    "hinter": 1490,
    "det": 1491,
    "anzu@@": 1492,
    "setzte": 1493,
    "bereits": 1494,
    "normalerweise": 1495,
    "loss@@": 1496,
    "enti@@": 1497,
    "Frau@@": 1498,
    "tritt": 1499,
    "Sti@@": 1500,
    "gut@@": 1501,
    "Yor@@": 1502,
    "Da": 1503,
    "Che@@": 1504,
    "Bezirk": 1505,
    "gang": 1506,
    "New@@": 1507,
    "ender": 1508,
    "berei@@": 1509,
    "ett": 1510,
    "Wohn@@": 1511,
    "Kom@@": 1512,
    "sto@@": 1513,
    "sah": 1514,
    "ative": 1515,
    "Bre@@": 1516,
    "schaften": 1517,
    "onen": 1518,
    "schu@@": 1519,
    "ci@@": 1520,
    "ad": 1521,
    "stei@@": 1522,
    "ohn@@": 1523,
    "besten": 1524,
    "Ben@@": 1525,
    "wuchs": 1526,
    "zurück": 1527,
    "sion": 1528,
    "ier": 1529,
    "bel": 1530,
    "Wort": 1531,
    "geschloss@@": 1532,
    "gar@@": 1533,
    "vis@@": 1534,
    "ren@@": 1535,
    "ep@@": 1536,
    "Kin@@": 1537,
    "ßen@@": 1538,
    "jeder": 1539,
    "grün@@": 1540,
    "cke": 1541,
    "Pat@@": 1542,
    "Pap@@": 1543,
    "Lehr@@": 1544,
    "Hel@@": 1545,
    "Mal": 1546,
    "roten": 1547,
    "inter@@": 1548,
    "Is@@": 1549,
    "Buch@@": 1550,
    "Band@@": 1551,
    "Bal@@": 1552,
    "ät@@": 1553,
    "ry": 1554,
    "prä@@": 1555,
    "Ke@@": 1556,
    "zeigt": 1557,
    "ma": 1558,
    "kehr@@": 1559,
    "ette": 1560,
    "Bruder": 1561,
    "he": 1562,
    "Ä@@": 1563,
    "weiß@@": 1564,
    "schie@@": 1565,
    "od@@": 1566,
    "ität": 1567,
    "gehör@@": 1568,
    "errei@@": 1569,
    "süd@@": 1570,
    "ra": 1571,
    "ot": 1572,
    "größten": 1573,
    "Team": 1574,
    "Kunst@@": 1575,
    "Mein": 1576,
    "ßen": 1577,
    "rin@@": 1578,
    "ac@@": 1579,
    "Pri@@": 1580,
    "produz@@": 1581,
    "hande@@": 1582,
    "diente": 1583,
    "by@@": 1584,
    "aufgrund": 1585,
    "arbeiten": 1586,
    "Mus@@": 1587,
    "Ed@@": 1588,
    "wäre": 1589,
    "cher@@": 1590,
    "Kirche": 1591,
    "wider@@": 1592,
    "oten": 1593,
    "hen": 1594,
    "einmal": 1595,
    "Universit@@": 1596,
    "Weg": 1597,
    "bra@@": 1598,
    "Hier": 1599,
    "äre": 1600,
    "wär@@": 1601,
    "schei@@": 1602,
    "gerade": 1603,
    "fra@@": 1604,
    "blauen": 1605,
    "ats@@": 1606,
    "Pu@@": 1607,
    "All@@": 1608,
    "met@@": 1609,
    "mehr@@": 1610,
    "ham": 1611,
    "Gi@@": 1612,
    ")": 1613,
    "Prot@@": 1614,
    "Fußball@@": 1615,
    "Fin@@": 1616,
    "tig": 1617,
    "kur@@": 1618,
    "doch": 1619,
    "Dat@@": 1620,
    "von@@": 1621,
    "stellung": 1622,
    "fand": 1623,
    "fiz@@": 1624,
    "ande@@": 1625,
    "Wil@@": 1626,
    "Lebens@@": 1627,
    "itä@@": 1628,
    "gende": 1629,
    "Staaten": 1630,
    "Jo@@": 1631,
    "Char@@": 1632,
    "ons@@": 1633,
    "Fall": 1634,
    "hätte": 1635,
    "eri@@": 1636,
    "tei@@": 1637,
    "Sitz": 1638,
    "win@@": 1639,
    "Insel": 1640,
    "mü@@": 1641,
    "ktion": 1642,
    "verheirat@@": 1643,
    "leben@@": 1644,
    "Jun@@": 1645,
    "stän@@": 1646,
    "schle@@": 1647,
    "ließ": 1648,
    "junge": 1649,
    "gilt": 1650,
    "ab": 1651,
    "Fol@@": 1652,
    "schl@@": 1653,
    "ff": 1654,
    "William": 1655,
    "Sand@@": 1656,
    "Nachdem": 1657,
    "trau@@": 1658,
    "mei@@": 1659,
    "sollten": 1660,
    "Straß@@": 1661,
    "James": 1662,
    "Bahn@@": 1663,
    "ker@@": 1664,
    "cks": 1665,
    "Auto": 1666,
    "pa@@": 1667,
    "Person@@": 1668,
    "machen": 1669,
    "etwa": 1670,
    "bre@@": 1671,
    "allem": 1672,
    "Na@@": 1673,
    "City": 1674,
    "mor@@": 1675,
    "The@@": 1676,
    "Sha@@": 1677,
    "zw@@": 1678,
    "dr@@": 1679,
    "Tu@@": 1680,
    "ähn@@": 1681,
    "van@@": 1682,
    "ik": 1683,
    "dazu": 1684,
    "angeb@@": 1685,
    "Schu@@": 1686,
    "National": 1687,
    "George": 1688,
    "mög@@": 1689,
    "fahren": 1690,
    "West": 1691,
    "Gl@@": 1692,
    "los": 1693,
    "kor@@": 1694,
    "großer": 1695,
    "für@@": 1696,
    "ball@@": 1697,
    "anischen": 1698,
    "Entwicklung": 1699,
    "soll": 1700,
    "groß@@": 1701,
    "lä@@": 1702,
    "denk@@": 1703,
    "Spe@@": 1704,
    "ill": 1705,
    "spe@@": 1706,
    "nis@@": 1707,
    "gs": 1708,
    "cker@@": 1709,
    "hinaus": 1710,
    "gewor@@": 1711,
    "ganze": 1712,
    "besonders": 1713,
    "Ur@@": 1714,
    "Präsident": 1715,
    "lauf@@": 1716,
    "kurz": 1717,
    "Op@@": 1718,
    "Danach": 1719,
    "Ca@@": 1720,
    "darunter": 1721,
    "amerikanischen": 1722,
    "Partei": 1723,
    "Gel@@": 1724,
    "Not@@": 1725,
    "Bro@@": 1726,
    "leben": 1727,
    "Verbindung": 1728,
    "indem": 1729,
    "hand@@": 1730,
    "zahl@@": 1731,
    "oni@@": 1732,
    "Far@@": 1733,
    "Wel@@": 1734,
    "Tre@@": 1735,
    "National@@": 1736,
    "Mehrere": 1737,
    "wirk@@": 1738,
    "por@@": 1739,
    "bereit@@": 1740,
    "aler": 1741,
    "Durch": 1742,
    "unterstütz@@": 1743,
    "ford": 1744,
    "verkauf@@": 1745,
    "König@@": 1746,
    "üh@@": 1747,
    "mittel@@": 1748,
    "gesehen": 1749,
    "elt": 1750,
    "Meine": 1751,
    "uren": 1752,
    "stellen": 1753,
    "recht@@": 1754,
    "mel@@": 1755,
    "sieht": 1756,
    "leicht": 1757,
    "geben": 1758,
    "fte": 1759,
    "ente": 1760,
    "Kl@@": 1761,
    "Christ@@": 1762,
    "lichkeit": 1763,
    "belieb@@": 1764,
    "anc@@": 1765,
    "Mi@@": 1766,
    "Com@@": 1767,
    "Bru@@": 1768,
    "ies": 1769,
    "Unter": 1770,
    "Tr@@": 1771,
    "Bahnhof": 1772,
    "Aus": 1773,
    "ris@@": 1774,
    "kleines": 1775,
    "kar@@": 1776,
    "hielt": 1777,
    "Kur@@": 1778,
    "leb@@": 1779,
    "entlang": 1780,
    "az@@": 1781,
    "Hol@@": 1782,
    "selbst@@": 1783,
    "lag@@": 1784,
    "hen@@": 1785,
    "Spiele": 1786,
    "Ac@@": 1787,
    "wahr@@": 1788,
    "ure": 1789,
    "kehrte": 1790,
    "Rich@@": 1791,
    "Obwohl": 1792,
    "Cre@@": 1793,
    "Bei@@": 1794,
    "zahlreiche": 1795,
    "stimm@@": 1796,
    "ku@@": 1797,
    "ate": 1798,
    "Cro@@": 1799,
    "weiß": 1800,
    "pol@@": 1801,
    "ings@@": 1802,
    "flü@@": 1803,
    "kti@@": 1804,
    "Bild@@": 1805,
    "gri@@": 1806,
    "bt": 1807,
    "ant": 1808,
    "alte": 1809,
    "Show": 1810,
    "sse": 1811,
    "bek@@": 1812,
    "Rock@@": 1813,
    "North": 1814,
    "Kopf@@": 1815,
    "to": 1816,
    "hier@@": 1817,
    "schafts@@": 1818,
    "jedes": 1819,
    "San": 1820,
    "Hor@@": 1821,
    "schi@@": 1822,
    "Mu@@": 1823,
    "studierte": 1824,
    "Wieder@@": 1825,
    "weiteren": 1826,
    "pre@@": 1827,
    "mann@@": 1828,
    "kal@@": 1829,
    "gebil@@": 1830,
    "Produ@@": 1831,
    "Poli@@": 1832,
    "Flü@@": 1833,
    "Fernseh@@": 1834,
    "ganzen": 1835,
    "erw@@": 1836,
    "bor@@": 1837,
    "Stre@@": 1838,
    "Part@@": 1839,
    "Eltern": 1840,
    "kat@@": 1841,
    "ften": 1842,
    "Wer@@": 1843,
    "Wer": 1844,
    "Hand": 1845,
    "schwarzen": 1846,
    "läuft": 1847,
    "ct@@": 1848,
    "chter@@": 1849,
    "ativen": 1850,
    "Stu@@": 1851,
    "Wahl@@": 1852,
    "Sprache": 1853,
    "Linie": 1854,
    "Krieg": 1855,
    "Ball@@": 1856,
    "unden": 1857,
    "nieder@@": 1858,
    "ihres": 1859,
    "hän@@": 1860,
    "X@@": 1861,
    "Schl@@": 1862,
    "öffentlichen": 1863,
    "satz@@": 1864,
    "kun@@": 1865,
    "bie@@": 1866,
    "San@@": 1867,
    "Saison": 1868,
    "Nur": 1869,
    "Ir@@": 1870,
    "Bürger@@": 1871,
    "shi@@": 1872,
    "mp@@": 1873,
    "fährt": 1874,
    "drei@@": 1875,
    "Ros@@": 1876,
    "Fer@@": 1877,
    "woll@@": 1878,
    "wesen@@": 1879,
    "mer": 1880,
    "lag": 1881,
    "South": 1882,
    "rö@@": 1883,
    "ash@@": 1884,
    "amen": 1885,
    "sol@@": 1886,
    "reg@@": 1887,
    "gegenüber": 1888,
    "Tran@@": 1889,
    "Mis@@": 1890,
    "the@@": 1891,
    "stellt": 1892,
    "gän@@": 1893,
    "arbeitet": 1894,
    "ump@@": 1895,
    "Tro@@": 1896,
    "nachdem": 1897,
    "brachte": 1898,
    "Verwendung": 1899,
    "Durch@@": 1900,
    "Augen": 1901,
    "schau@@": 1902,
    "halb": 1903,
    "River": 1904,
    "Prä@@": 1905,
    "ort": 1906,
    "nor@@": 1907,
    "nimmt": 1908,
    "nahe": 1909,
    "je": 1910,
    "fül@@": 1911,
    "alter": 1912,
    "Platz": 1913,
    "Berg@@": 1914,
    "haus@@": 1915,
    "Tour@@": 1916,
    "Ton@@": 1917,
    "System": 1918,
    "Arbeit@@": 1919,
    "ß": 1920,
    "far@@": 1921,
    "sei": 1922,
    "don@@": 1923,
    "Kir@@": 1924,
    "Gemeinde@@": 1925,
    "ssen": 1926,
    "scheint": 1927,
    "erst": 1928,
    "eller": 1929,
    "werk@@": 1930,
    "dafür": 1931,
    "begra@@": 1932,
    "ale@@": 1933,
    "Richtung": 1934,
    "Ele@@": 1935,
    "Dem@@": 1936,
    "Club": 1937,
    "fro@@": 1938,
    "Go@@": 1939,
    "wichtige": 1940,
    "il": 1941,
    "also": 1942,
    "öff@@": 1943,
    "unk@@": 1944,
    "ins@@": 1945,
    "fri@@": 1946,
    "bit@@": 1947,
    "London": 1948,
    "klein@@": 1949,
    "fil@@": 1950,
    "einander@@": 1951,
    "Alb@@": 1952,
    "trag@@": 1953,
    "sech@@": 1954,
    "sc@@": 1955,
    "Weise": 1956,
    "Geschäfts@@": 1957,
    "Eis@@": 1958,
    "mu@@": 1959,
    "gleichen": 1960,
    "Sprach@@": 1961,
    "Gemein@@": 1962,
    "tlich": 1963,
    "spä@@": 1964,
    "gesamten": 1965,
    "geln": 1966,
    "Tal@@": 1967,
    "Kaliforn@@": 1968,
    "wert@@": 1969,
    "ziemlich": 1970,
    "wi@@": 1971,
    "offen@@": 1972,
    "ach": 1973,
    "Schulen": 1974,
    "Mut@@": 1975,
    "Gegend": 1976,
    "Abschluss": 1977,
    "irgend@@": 1978,
    "Pol@@": 1979,
    "Ker@@": 1980,
    "Jer@@": 1981,
    "Gal@@": 1982,
    "Geh@@": 1983,
    "zeiten": 1984,
    "sogar": 1985,
    "sitzen": 1986,
    "organis@@": 1987,
    "lungen": 1988,
    "gu@@": 1989,
    "ate@@": 1990,
    "Mac@@": 1991,
    "Dort": 1992,
    "unten": 1993,
    "lten": 1994,
    "ds@@": 1995,
    "ator@@": 1996,
    "Geld": 1997,
    "gesamte": 1998,
    "fäl@@": 1999,
    "entfern@@": 2000,
    "ei": 2001,
    "direkt": 2002,
    "besser": 2003,
    "anz": 2004,
    "Si@@": 2005,
    "Holz@@": 2006,
    "Dan@@": 2007,
    "A.": 2008,
    "usi@@": 2009,
    "kop@@": 2010,
    "gern": 2011,
    "Plan@@": 2012,
    "Fest@@": 2013,
    "san@@": 2014,
    "pl@@": 2015,
    "jeden": 2016,
    "größ@@": 2017,
    "Sub@@": 2018,
    "Ist": 2019,
    "sam@@": 2020,
    "neu": 2021,
    "befand": 2022,
    "Zentrum": 2023,
    "Unternehmen@@": 2024,
    "Kre@@": 2025,
    "enten": 2026,
    "Robert": 2027,
    "stelle": 2028,
    "ktionen": 2029,
    "ast": 2030,
    "zer": 2031,
    "such@@": 2032,
    "kam@@": 2033,
    "Darüber": 2034,
    "sche@@": 2035,
    "außerhalb": 2036,
    "ug@@": 2037,
    "stammt": 2038,
    "lassen": 2039,
    "Kap@@": 2040,
    "verlie@@": 2041,
    "ms": 2042,
    "früher": 2043,
    "druck@@": 2044,
    "dabei": 2045,
    "blei@@": 2046,
    "öffentliche": 2047,
    "sse@@": 2048,
    "schließ@@": 2049,
    "letz@@": 2050,
    "ham@@": 2051,
    "elte": 2052,
    "Can@@": 2053,
    "ße": 2054,
    "tie@@": 2055,
    "gend": 2056,
    "anische": 2057,
    "Bereich": 2058,
    "Arm@@": 2059,
    "tel": 2060,
    "klar@@": 2061,
    "immer@@": 2062,
    "genden": 2063,
    "Dinge": 2064,
    "öl@@": 2065,
    "wel@@": 2066,
    "bestand": 2067,
    "bare": 2068,
    "Sam@@": 2069,
    "unde": 2070,
    "haus": 2071,
    "genen": 2072,
    "els": 2073,
    "anderer": 2074,
    "Zum": 2075,
    "Leute": 2076,
    "lern@@": 2077,
    "kenn@@": 2078,
    "ckt": 2079,
    "Tex@@": 2080,
    "ser": 2081,
    "ieh@@": 2082,
    "ed": 2083,
    "asse": 2084,
    "Nam@@": 2085,
    "Anti@@": 2086,
    "Pla@@": 2087,
    "Mag@@": 2088,
    "Lieder": 2089,
    "üt@@": 2090,
    "lebte": 2091,
    "funktion@@": 2092,
    "erster": 2093,
    "Tur@@": 2094,
    "Bat@@": 2095,
    "ön@@": 2096,
    "kamen": 2097,
    "Prin@@": 2098,
    "No@@": 2099,
    "Jeder": 2100,
    "halten": 2101,
    "haf@@": 2102,
    "gebiet": 2103,
    "Sho@@": 2104,
    "wahrscheinlich": 2105,
    "einfach@@": 2106,
    "by": 2107,
    "Fil@@": 2108,
    "Cal@@": 2109,
    "insbesondere": 2110,
    "hast": 2111,
    "Ost@@": 2112,
    "Mer@@": 2113,
    "Jungen": 2114,
    "Gast@@": 2115,
    "Doch": 2116,
    "Artikel": 2117,
    "verk@@": 2118,
    "ums": 2119,
    "frühen": 2120,
    "Wol@@": 2121,
    "Vor": 2122,
    "Cl@@": 2123,
    "yp@@": 2124,
    "schein@@": 2125,
    "erneut": 2126,
    "ame": 2127,
    "On@@": 2128,
    "Men@@": 2129,
    "zäh@@": 2130,
    "trug": 2131,
    "oben": 2132,
    "liegen": 2133,
    "finanz@@": 2134,
    "Natur@@": 2135,
    "Hü@@": 2136,
    "schla@@": 2137,
    "om": 2138,
    "ment": 2139,
    "häl@@": 2140,
    "ged@@": 2141,
    "dungen": 2142,
    "Suche": 2143,
    "Hauptstadt": 2144,
    "Brü@@": 2145,
    "vollständig": 2146,
    "mischen": 2147,
    "eher": 2148,
    "Ter@@": 2149,
    "Süden": 2150,
    "Post@@": 2151,
    "Fisch@@": 2152,
    "zogen": 2153,
    "techn@@": 2154,
    "inen": 2155,
    "ina": 2156,
    "dem@@": 2157,
    "Nacht": 2158,
    "Gre@@": 2159,
    "Flughafen": 2160,
    "Boden": 2161,
    "wollte": 2162,
    "lage": 2163,
    "it": 2164,
    "Bü@@": 2165,
    "würden": 2166,
    "iti@@": 2167,
    "Super@@": 2168,
    "Station": 2169,
    "Paar": 2170,
    "lässt": 2171,
    "leh@@": 2172,
    "hervor@@": 2173,
    "fik@@": 2174,
    "betra@@": 2175,
    "Song": 2176,
    "Programm": 2177,
    "Gebie@@": 2178,
    "spiel": 2179,
    "best@@": 2180,
    "bau": 2181,
    "Tage": 2182,
    "Großteil": 2183,
    "Gro@@": 2184,
    "erklär@@": 2185,
    "ase": 2186,
    "König": 2187,
    "Grupp@@": 2188,
    "genau": 2189,
    "Paul": 2190,
    "Hy@@": 2191,
    "Allgemeinen": 2192,
    ")@@": 2193,
    "weil": 2194,
    "tragen": 2195,
    "teil": 2196,
    "ssi@@": 2197,
    "istischen": 2198,
    "ay@@": 2199,
    "Schn@@": 2200,
    "Mau@@": 2201,
    "Lau@@": 2202,
    "Komp@@": 2203,
    "illi@@": 2204,
    "bro@@": 2205,
    "Web@@": 2206,
    "Lan@@": 2207,
    "öst@@": 2208,
    "tere": 2209,
    "sit@@": 2210,
    "ev@@": 2211,
    "Werk@@": 2212,
    "Son@@": 2213,
    "punkt": 2214,
    "nord@@": 2215,
    "merk@@": 2216,
    "deut@@": 2217,
    "Ran@@": 2218,
    "Motor@@": 2219,
    "Gold@@": 2220,
    "unsere": 2221,
    "rieb@@": 2222,
    "gute": 2223,
    "feu@@": 2224,
    "dat@@": 2225,
    "ban@@": 2226,
    "State": 2227,
    "Bl@@": 2228,
    "verf@@": 2229,
    "kul@@": 2230,
    "ka": 2231,
    "issen": 2232,
    "alität": 2233,
    "Zusammen@@": 2234,
    "Playlist": 2235,
    "Män@@": 2236,
    "ion": 2237,
    "field": 2238,
    "ech@@": 2239,
    "besu@@": 2240,
    "Theat@@": 2241,
    "Studenten": 2242,
    "Renn@@": 2243,
    "Fü@@": 2244,
    "sofort": 2245,
    "mö@@": 2246,
    "jede": 2247,
    "itten@@": 2248,
    "gend@@": 2249,
    "ana": 2250,
    "Spielen": 2251,
    "Projekt": 2252,
    "England": 2253,
    "Über": 2254,
    "weg": 2255,
    "verw@@": 2256,
    "tierte": 2257,
    "recht": 2258,
    "iet@@": 2259,
    "gene": 2260,
    "Pl@@": 2261,
    "Gri@@": 2262,
    "Friedhof": 2263,
    "Aut@@": 2264,
    "tiger": 2265,
    "ielle": 2266,
    "enz": 2267,
    "einander": 2268,
    "bitte": 2269,
    "Informationen": 2270,
    "Einzel@@": 2271,
    "stes": 2272,
    "schwar@@": 2273,
    "wenige": 2274,
    "regelmäßig": 2275,
    "oph@@": 2276,
    "ligen": 2277,
    "dungs@@": 2278,
    "bleibt": 2279,
    "aufzu@@": 2280,
    "ahl@@": 2281,
    "Restaurant": 2282,
    "Ban@@": 2283,
    "wunder@@": 2284,
    "Kopf": 2285,
    "Hinter@@": 2286,
    "Han@@": 2287,
    "David": 2288,
    "‚@@": 2289,
    "äm@@": 2290,
    "ta": 2291,
    "schn@@": 2292,
    "antwortete": 2293,
    "Syn@@": 2294,
    "Krie@@": 2295,
    "Cap@@": 2296,
    "ären": 2297,
    "wechsel@@": 2298,
    "verfüg@@": 2299,
    "fall": 2300,
    "empf@@": 2301,
    "werk": 2302,
    "verwenden": 2303,
    "tliche": 2304,
    "tes@@": 2305,
    "krit@@": 2306,
    "Weitere": 2307,
    "Rennen": 2308,
    "Ort@@": 2309,
    "Norden": 2310,
    "Lake": 2311,
    "Augen@@": 2312,
    "zug": 2313,
    "woh@@": 2314,
    "strah@@": 2315,
    "ischen@@": 2316,
    "ir": 2317,
    "heiratete": 2318,
    "gehörte": 2319,
    "daher": 2320,
    "Ga@@": 2321,
    "ursprünglichen": 2322,
    "solche": 2323,
    "ors": 2324,
    "musste": 2325,
    "gerne": 2326,
    "bst@@": 2327,
    "Warum": 2328,
    "Straßen@@": 2329,
    "Michael": 2330,
    "unbe@@": 2331,
    "sagen": 2332,
    "nehmen": 2333,
    "mitt@@": 2334,
    "Woche": 2335,
    "Stein@@": 2336,
    "Stand@@": 2337,
    "Medi@@": 2338,
    "London@@": 2339,
    "Haben": 2340,
    "Grund": 2341,
    "Gesicht": 2342,
    "wach@@": 2343,
    "ty": 2344,
    "springt": 2345,
    "spieler": 2346,
    "isten@@": 2347,
    "ht@@": 2348,
    "har@@": 2349,
    "Por@@": 2350,
    "Herr@@": 2351,
    "wissen@@": 2352,
    "stein@@": 2353,
    "raum": 2354,
    "per": 2355,
    "line@@": 2356,
    "hin": 2357,
    "dro@@": 2358,
    "Unterstützung": 2359,
    "Roll@@": 2360,
    "Raum@@": 2361,
    "Monate": 2362,
    "isten": 2363,
    "gesp@@": 2364,
    "gehörten": 2365,
    "akt@@": 2366,
    "Bas@@": 2367,
    "östlich": 2368,
    "tö@@": 2369,
    "ober@@": 2370,
    "alt": 2371,
    "Mel@@": 2372,
    "Laufe": 2373,
    "Del@@": 2374,
    "Bücher": 2375,
    "tri@@": 2376,
    "stab@@": 2377,
    "re": 2378,
    "dreh@@": 2379,
    "ckten": 2380,
    "bri@@": 2381,
    "app@@": 2382,
    "Tisch": 2383,
    "Früh@@": 2384,
    "Eisenbahn@@": 2385,
    "mot@@": 2386,
    "minist@@": 2387,
    "legte": 2388,
    "drü@@": 2389,
    "dies@@": 2390,
    "bte": 2391,
    "Bon@@": 2392,
    "zz@@": 2393,
    "ult@@": 2394,
    "stat@@": 2395,
    "ore": 2396,
    "ood@@": 2397,
    "herr@@": 2398,
    "Richard": 2399,
    "Neben@@": 2400,
    "Mot@@": 2401,
    "Fot@@": 2402,
    "wood": 2403,
    "ret@@": 2404,
    "See": 2405,
    "Hun@@": 2406,
    "Gruppen": 2407,
    "Geor@@": 2408,
    "langen": 2409,
    "ffen": 2410,
    "deten": 2411,
    "britischen": 2412,
    "art": 2413,
    "Pil@@": 2414,
    "ms@@": 2415,
    "komp@@": 2416,
    "geschla@@": 2417,
    "ank@@": 2418,
    "achten": 2419,
    "Mad@@": 2420,
    "ungsp@@": 2421,
    "rän@@": 2422,
    "onen@@": 2423,
    "Teile": 2424,
    "Str@@": 2425,
    "Folge": 2426,
    "ss": 2427,
    "schloss": 2428,
    "brei@@": 2429,
    "Stimm@@": 2430,
    "Frank@@": 2431,
    "vorbei@@": 2432,
    "sam": 2433,
    "ade@@": 2434,
    "Gleich@@": 2435,
    "Aufgrund": 2436,
    "Position": 2437,
    "Gew@@": 2438,
    "Exp@@": 2439,
    "verletz@@": 2440,
    "ore@@": 2441,
    "kämpf@@": 2442,
    "aller": 2443,
    "aden@@": 2444,
    "Titel@@": 2445,
    "High@@": 2446,
    "Anzahl": 2447,
    "zerstör@@": 2448,
    "meinem": 2449,
    "konnten": 2450,
    "kin@@": 2451,
    "entwickelte": 2452,
    "Thomas": 2453,
    "Teil@@": 2454,
    "Nieder@@": 2455,
    "Hom@@": 2456,
    "Charles": 2457,
    "tau@@": 2458,
    "fu@@": 2459,
    "Zeitpunkt": 2460,
    "Uni@@": 2461,
    "Stil": 2462,
    "Sor@@": 2463,
    "zuvor": 2464,
    "ps": 2465,
    "plan@@": 2466,
    "hy@@": 2467,
    "gent@@": 2468,
    "ehemaligen": 2469,
    "Museum": 2470,
    "Hil@@": 2471,
    "Gei@@": 2472,
    "wä@@": 2473,
    "mag@@": 2474,
    "ings": 2475,
    "Pra@@": 2476,
    "Pet@@": 2477,
    "Künstler": 2478,
    "Fo@@": 2479,
    "Besitz": 2480,
    "seite": 2481,
    "ole@@": 2482,
    "moder@@": 2483,
    "innen": 2484,
    "ht": 2485,
    "Gran@@": 2486,
    "welche": 2487,
    "voller": 2488,
    "sprechen": 2489,
    "lokalen": 2490,
    "fs@@": 2491,
    "Proble@@": 2492,
    "Oh@@": 2493,
    "Herr": 2494,
    "nam@@": 2495,
    "einzu@@": 2496,
    "danach": 2497,
    "cker": 2498,
    "Werk": 2499,
    "Stimme": 2500,
    "Bor@@": 2501,
    "‘": 2502,
    "äh@@": 2503,
    "westlichen": 2504,
    "ters": 2505,
    "tag@@": 2506,
    "niedri@@": 2507,
    "mann": 2508,
    "gebie@@": 2509,
    "Vier": 2510,
    "Don@@": 2511,
    "spr@@": 2512,
    "ling": 2513,
    "ison": 2514,
    "geschrieben": 2515,
    "baren": 2516,
    "Raum": 2517,
    "Ess@@": 2518,
    "Ö@@": 2519,
    "ys@@": 2520,
    "use@@": 2521,
    "tiert": 2522,
    "nis": 2523,
    "kol@@": 2524,
    "auer": 2525,
    "Daher": 2526,
    "sprach": 2527,
    "produ@@": 2528,
    "nte": 2529,
    "elektr@@": 2530,
    "dy": 2531,
    "Wiedergabeliste": 2532,
    "öt@@": 2533,
    "ls@@": 2534,
    "fragte": 2535,
    "erzäh@@": 2536,
    "arten": 2537,
    "Flu@@": 2538,
    "ya": 2539,
    "wichtigsten": 2540,
    "verwal@@": 2541,
    "co": 2542,
    "brau@@": 2543,
    "Wind@@": 2544,
    "Que@@": 2545,
    "Künst@@": 2546,
    "Fort@@": 2547,
    "Armee": 2548,
    "verbess@@": 2549,
    "sport@@": 2550,
    "heiten": 2551,
    "bü@@": 2552,
    "annte": 2553,
    "aktiv@@": 2554,
    "Privat@@": 2555,
    "Fuß@@": 2556,
    "Chin@@": 2557,
    "Allerdings": 2558,
    "zeichen": 2559,
    "west@@": 2560,
    "igkeit": 2561,
    "gingen": 2562,
    "gegrün@@": 2563,
    "eter@@": 2564,
    "erforder@@": 2565,
    "Ster@@": 2566,
    "Ang@@": 2567,
    "ände": 2568,
    "kün@@": 2569,
    "gei@@": 2570,
    "fäh@@": 2571,
    "tun": 2572,
    "stadt": 2573,
    "mier@@": 2574,
    "fuhr": 2575,
    "fal@@": 2576,
    "amer@@": 2577,
    "Staats@@": 2578,
    "Rad@@": 2579,
    "Filme": 2580,
    "B.": 2581,
    "tigte": 2582,
    "scher": 2583,
    "laufen": 2584,
    "lagen": 2585,
    "erei": 2586,
    "dd@@": 2587,
    "auss@@": 2588,
    "Vi@@": 2589,
    "Sil@@": 2590,
    "Schüler": 2591,
    "Red@@": 2592,
    "Provinz": 2593,
    "Grenze": 2594,
    "Geld@@": 2595,
    "ums@@": 2596,
    "neun": 2597,
    "istische": 2598,
    "form": 2599,
    "erkenn@@": 2600,
    "Selbst@@": 2601,
    "Mil@@": 2602,
    "Mas@@": 2603,
    "zy@@": 2604,
    "zurückzu@@": 2605,
    "schwer": 2606,
    "ator": 2607,
    "anders": 2608,
    "Kal@@": 2609,
    "Gesetz@@": 2610,
    "zur@@": 2611,
    "zig": 2612,
    "ym@@": 2613,
    "strei@@": 2614,
    "fon@@": 2615,
    "erz@@": 2616,
    "erinn@@": 2617,
    "dessen": 2618,
    "bahn@@": 2619,
    "Sur@@": 2620,
    "Proje@@": 2621,
    "Deut@@": 2622,
    "zunächst": 2623,
    "spie@@": 2624,
    "lö@@": 2625,
    "heißt": 2626,
    "eigen@@": 2627,
    "dri@@": 2628,
    "Regen@@": 2629,
    "Nicht": 2630,
    "Freund": 2631,
    "Form@@": 2632,
    "wus@@": 2633,
    "wo@@": 2634,
    "sti@@": 2635,
    "ow": 2636,
    "liz@@": 2637,
    "aren": 2638,
    "Bevölkerung": 2639,
    "veröffentlichte": 2640,
    "ston": 2641,
    "kom@@": 2642,
    "führung": 2643,
    "amerikanische": 2644,
    "Veröffentlichung": 2645,
    "Hit@@": 2646,
    "Arch@@": 2647,
    "App@@": 2648,
    "rief": 2649,
    "meister@@": 2650,
    "issen@@": 2651,
    "daran": 2652,
    "bess@@": 2653,
    "Tag@@": 2654,
    "Roman": 2655,
    "Mäd@@": 2656,
    "Kampf": 2657,
    "Glo@@": 2658,
    "Erfolg": 2659,
    "zentr@@": 2660,
    "tran@@": 2661,
    "selten@@": 2662,
    "schwer@@": 2663,
    "mil@@": 2664,
    "bung": 2665,
    "assi@@": 2666,
    "Trotz": 2667,
    "Street": 2668,
    "Los": 2669,
    "Dorf@@": 2670,
    "Bot@@": 2671,
    "vie@@": 2672,
    "pro": 2673,
    "opp@@": 2674,
    "behaup@@": 2675,
    "ade": 2676,
    "Star@@": 2677,
    "Luft": 2678,
    "Kapit@@": 2679,
    "Cha@@": 2680,
    "umge@@": 2681,
    "lige": 2682,
    "Rechts@@": 2683,
    "Fällen": 2684,
    "Freund@@": 2685,
    "Feld@@": 2686,
    "nahme": 2687,
    "cy": 2688,
    "chs@@": 2689,
    "ak": 2690,
    "Ob@@": 2691,
    "Jede": 2692,
    "Blo@@": 2693,
    "'": 2694,
    "testen": 2695,
    "Val@@": 2696,
    "Schauspiel@@": 2697,
    "Rom@@": 2698,
    "Distri@@": 2699,
    "Dam@@": 2700,
    "Arbeiten": 2701,
    "1@@": 2702,
    "yst@@": 2703,
    "vielleicht": 2704,
    "politischen": 2705,
    "gewöhnlich": 2706,
    "früheren": 2707,
    "einzigen": 2708,
    "defin@@": 2709,
    "ches": 2710,
    "Sit@@": 2711,
    "Schwester": 2712,
    "Schließlich": 2713,
    "Lab@@": 2714,
    "Indi@@": 2715,
    "wort@@": 2716,
    "tro@@": 2717,
    "krie@@": 2718,
    "grünen": 2719,
    "allgemein": 2720,
    "Stat@@": 2721,
    "Ide@@": 2722,
    "Der@@": 2723,
    "Cat@@": 2724,
    "tigkeit": 2725,
    "kra@@": 2726,
    "führten": 2727,
    "dlich": 2728,
    "burg": 2729,
    "ater": 2730,
    "Radi@@": 2731,
    "Klein@@": 2732,
    "Führ@@": 2733,
    "Frauen@@": 2734,
    "Cra@@": 2735,
    "Clu@@": 2736,
    "imm@@": 2737,
    "anti@@": 2738,
    "ahn@@": 2739,
    "Tür@@": 2740,
    "Hall@@": 2741,
    "Fel@@": 2742,
    "worden": 2743,
    "ol": 2744,
    "jahr@@": 2745,
    "befin@@": 2746,
    "auszu@@": 2747,
    "Wetter": 2748,
    "Rot@@": 2749,
    "Em@@": 2750,
    "Dun@@": 2751,
    "voll": 2752,
    "viel@@": 2753,
    "verein@@": 2754,
    "verd@@": 2755,
    "typ@@": 2756,
    "sondern": 2757,
    "ograph@@": 2758,
    "lt": 2759,
    "geschä@@": 2760,
    "gelegenen": 2761,
    "benen": 2762,
    "arch@@": 2763,
    "abzu@@": 2764,
    "Tochter@@": 2765,
    "Letz@@": 2766,
    "Jap@@": 2767,
    "vo@@": 2768,
    "unterschiedliche": 2769,
    "schön@@": 2770,
    "fließt": 2771,
    "erwar@@": 2772,
    "draußen": 2773,
    "ca": 2774,
    "achte": 2775,
    "Wat@@": 2776,
    "Rest": 2777,
    "Osten": 2778,
    "Fun@@": 2779,
    "zü@@": 2780,
    "mmer": 2781,
    "lokale": 2782,
    "führen": 2783,
    "folgte": 2784,
    "entde@@": 2785,
    "denn": 2786,
    "bs@@": 2787,
    "Gebäu@@": 2788,
    "Familien@@": 2789,
    "verm@@": 2790,
    "tu@@": 2791,
    "lat@@": 2792,
    "folgt": 2793,
    "Tim@@": 2794,
    "Stil@@": 2795,
    "See@@": 2796,
    "Produktion": 2797,
    "Mur@@": 2798,
    "Il@@": 2799,
    "wer": 2800,
    "ungss@@": 2801,
    "stein": 2802,
    "lehr@@": 2803,
    "gem": 2804,
    "ee": 2805,
    "Werke": 2806,
    "Vis@@": 2807,
    "Team@@": 2808,
    "Problem": 2809,
    "Ord@@": 2810,
    "Alice": 2811,
    "ähnliche": 2812,
    "steu@@": 2813,
    "setzt": 2814,
    "gemeinsam": 2815,
    "gang@@": 2816,
    "asen@@": 2817,
    "ary": 2818,
    "Westen": 2819,
    "Geb@@": 2820,
    "Bul@@": 2821,
    "verlor": 2822,
    "sprach@@": 2823,
    "rech@@": 2824,
    "möglicherweise": 2825,
    "ichte": 2826,
    "gleich": 2827,
    "gers": 2828,
    "dritten": 2829,
    "Netz@@": 2830,
    "Militär@@": 2831,
    "Bank@@": 2832,
    "sionen": 2833,
    "schwier@@": 2834,
    "obwohl": 2835,
    "läuf@@": 2836,
    "ling@@": 2837,
    "entweder": 2838,
    "Wochen": 2839,
    "Wh@@": 2840,
    "Schwar@@": 2841,
    "Schiff@@": 2842,
    "Pen@@": 2843,
    "Kleidung": 2844,
    "Ges@@": 2845,
    "Dreh@@": 2846,
    "Arbeits@@": 2847,
    "wobei": 2848,
    "will@@": 2849,
    "kauf@@": 2850,
    "dest@@": 2851,
    "Mr.": 2852,
    "Klass@@": 2853,
    "General@@": 2854,
    "öpf@@": 2855,
    "sch": 2856,
    "kri@@": 2857,
    "beeinflus@@": 2858,
    "Wahl": 2859,
    "Tier@@": 2860,
    "Den@@": 2861,
    "Daten": 2862,
    "jedem": 2863,
    "eigene": 2864,
    "buch@@": 2865,
    "Scha@@": 2866,
    "Fall@@": 2867,
    "hö@@": 2868,
    "gefähr@@": 2869,
    "fr@@": 2870,
    "chter": 2871,
    "Hilfe": 2872,
    "Figur": 2873,
    "Bow@@": 2874,
    "zweimal": 2875,
    "zin@@": 2876,
    "wäl@@": 2877,
    "verbrei@@": 2878,
    "platz": 2879,
    "ktiv@@": 2880,
    "bli@@": 2881,
    "alien@@": 2882,
    "Partei@@": 2883,
    "Leben@@": 2884,
    "Laut": 2885,
    "spricht": 2886,
    "schnell@@": 2887,
    "reichen": 2888,
    "gin@@": 2889,
    "del": 2890,
    "bist": 2891,
    "bestimm@@": 2892,
    "berühm@@": 2893,
    "atur@@": 2894,
    "anten@@": 2895,
    "Win@@": 2896,
    "Ev@@": 2897,
    "Dor@@": 2898,
    "Autor": 2899,
    "hor@@": 2900,
    "gere@@": 2901,
    "erhäl@@": 2902,
    "anten": 2903,
    "Video@@": 2904,
    "Standort": 2905,
    "Punkt": 2906,
    "Peter": 2907,
    "A": 2908,
    "unterschie@@": 2909,
    "sä@@": 2910,
    "spiele": 2911,
    "samm@@": 2912,
    "junger": 2913,
    "ington": 2914,
    "herum@@": 2915,
    "bede@@": 2916,
    "Stück": 2917,
    "Shirt": 2918,
    "Hon@@": 2919,
    "Fi@@": 2920,
    "wagen": 2921,
    "oper@@": 2922,
    "mark@@": 2923,
    "gaben": 2924,
    "eng": 2925,
    "blo@@": 2926,
    "av@@": 2927,
    "allerdings": 2928,
    "Vol@@": 2929,
    "Tür": 2930,
    "Tö@@": 2931,
    "Typ@@": 2932,
    "Thr@@": 2933,
    "Nu@@": 2934,
    "Manche": 2935,
    "Boden@@": 2936,
    "teilung": 2937,
    "feh@@": 2938,
    "erhalten": 2939,
    "Zur": 2940,
    "Sau@@": 2941,
    "Samm@@": 2942,
    "Kampf@@": 2943,
    "Dre@@": 2944,
    "Bank": 2945,
    "will": 2946,
    "unver@@": 2947,
    "nten": 2948,
    "ney": 2949,
    "keits@@": 2950,
    "deren": 2951,
    "bezeichnet": 2952,
    "beginnt": 2953,
    "Kranken@@": 2954,
    "Brücke": 2955,
    "uns@@": 2956,
    "emp@@": 2957,
    "Seit": 2958,
    "Grün@@": 2959,
    "Fluss@@": 2960,
    "Bewer@@": 2961,
    "Ball": 2962,
    "scht": 2963,
    "grund@@": 2964,
    "flu@@": 2965,
    "Wo@@": 2966,
    "Vielleicht": 2967,
    "Songs": 2968,
    "Schlag@@": 2969,
    "Erd@@": 2970,
    "Einfluss": 2971,
    "ursprüngliche": 2972,
    "ont@@": 2973,
    "jen@@": 2974,
    "Thema": 2975,
    "Schlacht": 2976,
    "Sat@@": 2977,
    "Provin@@": 2978,
    "Hän@@": 2979,
    "Finanz@@": 2980,
    "Ath@@": 2981,
    "Ali@@": 2982,
    "versamm@@": 2983,
    "erwähn@@": 2984,
    "chn@@": 2985,
    "ara": 2986,
    "ane": 2987,
    "Sar@@": 2988,
    "Organisation": 2989,
    "Bild": 2990,
    "wander@@": 2991,
    "sin@@": 2992,
    "rig@@": 2993,
    "reiche": 2994,
    "ktor@@": 2995,
    "fern@@": 2996,
    "Vier@@": 2997,
    "Drei@@": 2998,
    "Dadurch": 2999,
    "Bewegung": 3000,
    "verließ": 3001,
    "stri@@": 3002,
    "nördlich": 3003,
    "kosten@@": 3004,
    "hoch": 3005,
    "formen": 3006,
    "bildet": 3007,
    "ativ@@": 3008,
    "Wild@@": 3009,
    "Town@@": 3010,
    "Sonnen@@": 3011,
    "Play@@": 3012,
    "Lak@@": 3013,
    "Baum@@": 3014,
    "yc@@": 3015,
    "veröffentlicht": 3016,
    "stoff@@": 3017,
    "relativ": 3018,
    "pe": 3019,
    "lose": 3020,
    "hinter@@": 3021,
    "haft": 3022,
    "falls": 3023,
    "einhei@@": 3024,
    "dor@@": 3025,
    "Ziel": 3026,
    "Städte": 3027,
    "Recht@@": 3028,
    "Fal@@": 3029,
    "Alter": 3030,
    "Abend": 3031,
    "serv@@": 3032,
    "modernen": 3033,
    "ire": 3034,
    "beste": 3035,
    "Zugang": 3036,
    "Wo": 3037,
    "Stra@@": 3038,
    "Preis": 3039,
    "Gef@@": 3040,
    "Ged@@": 3041,
    "Feuer@@": 3042,
    "Anfang": 3043,
    "ütz@@": 3044,
    "späteren": 3045,
    "profession@@": 3046,
    "keit": 3047,
    "Straßen": 3048,
    "Sin@@": 3049,
    "Schwe@@": 3050,
    "John@@": 3051,
    "Computer@@": 3052,
    "wäh@@": 3053,
    "ologische": 3054,
    "nächste": 3055,
    "hohen": 3056,
    "Sy@@": 3057,
    "Sim@@": 3058,
    "Probleme": 3059,
    "Port@@": 3060,
    "Gesellschaft": 3061,
    "Einer": 3062,
    "Baseball@@": 3063,
    "Air@@": 3064,
    "vertre@@": 3065,
    "r.": 3066,
    "gol@@": 3067,
    "ek@@": 3068,
    "[@@": 3069,
    "Spie@@": 3070,
    "Jetzt": 3071,
    "Gesetz": 3072,
    "pe@@": 3073,
    "int@@": 3074,
    "außer@@": 3075,
    "Lig@@": 3076,
    "ältere": 3077,
    "schaut": 3078,
    "rat": 3079,
    "kap@@": 3080,
    "ass": 3081,
    "Vat@@": 3082,
    "Politik": 3083,
    "Kü@@": 3084,
    "Kurz": 3085,
    "Innen@@": 3086,
    "Hauptsitz": 3087,
    "Ehren": 3088,
    "Die@@": 3089,
    "Bir@@": 3090,
    "wie@@": 3091,
    "ruh@@": 3092,
    "iel": 3093,
    "genie@@": 3094,
    "dium": 3095,
    "bestimmte": 3096,
    "age": 3097,
    "Train@@": 3098,
    "Sir": 3099,
    "Hunde": 3100,
    "East": 3101,
    "Besch@@": 3102,
    "westlich": 3103,
    "test": 3104,
    "stieg": 3105,
    "schnei@@": 3106,
    "passi@@": 3107,
    "ish": 3108,
    "ild@@": 3109,
    "fei@@": 3110,
    "bahn": 3111,
    "Stock@@": 3112,
    "Royal": 3113,
    "Pun@@": 3114,
    "Pi@@": 3115,
    "Hall": 3116,
    "End@@": 3117,
    "zieht": 3118,
    "ktor": 3119,
    "ick": 3120,
    "dient": 3121,
    "bru@@": 3122,
    "ble@@": 3123,
    "bewer@@": 3124,
    "assen": 3125,
    "]": 3126,
    "Vari@@": 3127,
    "Stelle": 3128,
    "Pfer@@": 3129,
    "American": 3130,
    "östlichen": 3131,
    "zip@@": 3132,
    "kü@@": 3133,
    "jähr@@": 3134,
    "gründete": 3135,
    "gelben": 3136,
    "för@@": 3137,
    "besie@@": 3138,
    "außer": 3139,
    "Wirtschaft": 3140,
    "Verfü@@": 3141,
    "Schiff": 3142,
    "Liber@@": 3143,
    "Camp@@": 3144,
    "Australien": 3145,
    "zung": 3146,
    "teren": 3147,
    "politische": 3148,
    "linie": 3149,
    "komplex@@": 3150,
    "feld": 3151,
    "eng@@": 3152,
    "endes": 3153,
    "annten": 3154,
    "Strand": 3155,
    "Standard@@": 3156,
    "Jugend@@": 3157,
    "Jack@@": 3158,
    "Henry": 3159,
    "Football": 3160,
    "Derzeit": 3161,
    "Dazu": 3162,
    "äd@@": 3163,
    "stie@@": 3164,
    "schien": 3165,
    "erschien": 3166,
    "ahl": 3167,
    "Wit@@": 3168,
    "Sprachen": 3169,
    "Schei@@": 3170,
    "J.": 3171,
    "zunehmen@@": 3172,
    "sagt": 3173,
    "pt@@": 3174,
    "ollen": 3175,
    "icht": 3176,
    "darüber": 3177,
    "anderem": 3178,
    "achsen@@": 3179,
    "Spr@@": 3180,
    "Sowohl": 3181,
    "Morgen": 3182,
    "Mitte": 3183,
    "Git@@": 3184,
    "Bürgermeister": 3185,
    "zentrum": 3186,
    "wehr@@": 3187,
    "völlig": 3188,
    "train@@": 3189,
    "schlug": 3190,
    "peri@@": 3191,
    "jungen": 3192,
    "ierende": 3193,
    "iellen": 3194,
    "erhöh@@": 3195,
    "dy@@": 3196,
    "dritte": 3197,
    "Wir@@": 3198,
    "Volks@@": 3199,
    "Trin@@": 3200,
    "Ren@@": 3201,
    "Ehr@@": 3202,
    "Cur@@": 3203,
    "äum@@": 3204,
    "zeigen": 3205,
    "sage": 3206,
    "own@@": 3207,
    "lam@@": 3208,
    "ichten": 3209,
    "Wort@@": 3210,
    "Road": 3211,
    "Pin@@": 3212,
    "Original@@": 3213,
    "Mikro@@": 3214,
    "Ern@@": 3215,
    "Entwick@@": 3216,
    "Comp@@": 3217,
    "Außen@@": 3218,
    "ßt": 3219,
    "ket@@": 3220,
    "kel@@": 3221,
    "gruppe": 3222,
    "füh@@": 3223,
    "ca@@": 3224,
    "Rec@@": 3225,
    "Mess@@": 3226,
    "Hen@@": 3227,
    "Gegensatz": 3228,
    "Fein@@": 3229,
    "Essen": 3230,
    "Autos": 3231,
    "zt": 3232,
    "yr@@": 3233,
    "weisen": 3234,
    "verbrachte": 3235,
    "licherweise": 3236,
    "internationale": 3237,
    "ierungen": 3238,
    "erweiter@@": 3239,
    "dau@@": 3240,
    "bür@@": 3241,
    "bild@@": 3242,
    "Wür@@": 3243,
    "Trans@@": 3244,
    "Sommer": 3245,
    "Island": 3246,
    "Deb@@": 3247,
    "zus@@": 3248,
    "na": 3249,
    "kla@@": 3250,
    "geklei@@": 3251,
    "erg@@": 3252,
    "Spei@@": 3253,
    "She@@": 3254,
    "Schutz@@": 3255,
    "Polizei": 3256,
    "Körper": 3257,
    "Kompon@@": 3258,
    "Kindern": 3259,
    "Kenn@@": 3260,
    "Inform@@": 3261,
    "Bla@@": 3262,
    "forder@@": 3263,
    "droh@@": 3264,
    "bs": 3265,
    "Ziel@@": 3266,
    "Zahl@@": 3267,
    "Regierungs@@": 3268,
    "wohn@@": 3269,
    "wirtschaft@@": 3270,
    "way": 3271,
    "verurs@@": 3272,
    "un": 3273,
    "tionen": 3274,
    "la": 3275,
    "folge": 3276,
    "dire@@": 3277,
    "Schie@@": 3278,
    "Klei@@": 3279,
    "Im@@": 3280,
    "Hill": 3281,
    "Erfol@@": 3282,
    "Bab@@": 3283,
    "warf": 3284,
    "vari@@": 3285,
    "sprech@@": 3286,
    "nannte": 3287,
    "les": 3288,
    "iere": 3289,
    "asiat@@": 3290,
    "Verwaltungs@@": 3291,
    "Herz@@": 3292,
    "Ergebnis": 3293,
    "Bau": 3294,
    "Baby": 3295,
    "Ander@@": 3296,
    "well": 3297,
    "ves": 3298,
    "treten": 3299,
    "stellten": 3300,
    "pass@@": 3301,
    "ome": 3302,
    "ls": 3303,
    "glich": 3304,
    "engl@@": 3305,
    "bten": 3306,
    "bekannte": 3307,
    "ales": 3308,
    "Reserv@@": 3309,
    "Moment": 3310,
    "Model@@": 3311,
    "General": 3312,
    "Cu@@": 3313,
    "Bedeut@@": 3314,
    "Ausbildung": 3315,
    "zeigte": 3316,
    "wand@@": 3317,
    "vorher@@": 3318,
    "tende": 3319,
    "tag": 3320,
    "sicht": 3321,
    "meist": 3322,
    "beruf@@": 3323,
    "Whit@@": 3324,
    "Vielzahl": 3325,
    "Single": 3326,
    "Seiten": 3327,
    "Klasse": 3328,
    "Gouverneur": 3329,
    "Autor@@": 3330,
    "schule": 3331,
    "schnit@@": 3332,
    "ppen@@": 3333,
    "ppe": 3334,
    "oss@@": 3335,
    "mische": 3336,
    "gebaut": 3337,
    "deutlich": 3338,
    "con@@": 3339,
    "Landes@@": 3340,
    "wohl": 3341,
    "stud@@": 3342,
    "olle": 3343,
    "gener@@": 3344,
    "deutschen": 3345,
    "Wander@@": 3346,
    "Ti@@": 3347,
    "Strei@@": 3348,
    "Ris@@": 3349,
    "Prozess": 3350,
    "Cam@@": 3351,
    "Austr@@": 3352,
    "teste": 3353,
    "statt": 3354,
    "mals": 3355,
    "bot": 3356,
    "bestä@@": 3357,
    "beobach@@": 3358,
    "atur": 3359,
    "anderes": 3360,
    "Winter@@": 3361,
    "Nation@@": 3362,
    "Mein@@": 3363,
    "Kannst": 3364,
    "Jan@@": 3365,
    "Heim@@": 3366,
    "Den": 3367,
    "Aktivitäten": 3368,
    "zeichnete": 3369,
    "tatsächlich": 3370,
    "sitz": 3371,
    "olo@@": 3372,
    "ikan@@": 3373,
    "hinzufügen": 3374,
    "fiel": 3375,
    "ffer@@": 3376,
    "dliche": 3377,
    "Zw@@": 3378,
    "Website": 3379,
    "Turn@@": 3380,
    "Temp@@": 3381,
    "Smith": 3382,
    "Russ@@": 3383,
    "Journ@@": 3384,
    "Heimat": 3385,
    "Harr@@": 3386,
    "Bedeutung": 3387,
    "Back@@": 3388,
    "traf": 3389,
    "tieren": 3390,
    "fün@@": 3391,
    "dest": 3392,
    "bert": 3393,
    "Tei@@": 3394,
    "Rat@@": 3395,
    "Neben": 3396,
    "Europ@@": 3397,
    "wick@@": 3398,
    "südlich": 3399,
    "sser": 3400,
    "nete": 3401,
    "ja": 3402,
    "ish@@": 3403,
    "historische": 3404,
    "gro@@": 3405,
    "blau@@": 3406,
    "band": 3407,
    "Wahr@@": 3408,
    "Sender": 3409,
    "Betrieb@@": 3410,
    "verheiratet": 3411,
    "spar@@": 3412,
    "scha@@": 3413,
    "sau@@": 3414,
    "ic": 3415,
    "etten": 3416,
    "din@@": 3417,
    "digung": 3418,
    "com@@": 3419,
    "chs": 3420,
    "bilden": 3421,
    "bestimmten": 3422,
    "asi@@": 3423,
    "Teams": 3424,
    "Schauspieler": 3425,
    "Rock": 3426,
    "Kriegs@@": 3427,
    "wichtigste": 3428,
    "wachsen@@": 3429,
    "teile": 3430,
    "stellungen": 3431,
    "sicher": 3432,
    "pun@@": 3433,
    "lieber": 3434,
    "kaum": 3435,
    "essen": 3436,
    "elles": 3437,
    "eins": 3438,
    "ders": 3439,
    "damals": 3440,
    "asste": 3441,
    "Zeitung": 3442,
    "Yo@@": 3443,
    "Temper@@": 3444,
    "Strecke": 3445,
    "Manchmal": 3446,
    "Kamer@@": 3447,
    "Gericht": 3448,
    "Dienst": 3449,
    "Bil@@": 3450,
    "Archite@@": 3451,
    "tik": 3452,
    "ohl@@": 3453,
    "leu@@": 3454,
    "ktur@@": 3455,
    "gh": 3456,
    "gemacht": 3457,
    "gar": 3458,
    "cal": 3459,
    "Well@@": 3460,
    "Sw@@": 3461,
    "Programm@@": 3462,
    "Instru@@": 3463,
    "Frage": 3464,
    "sign@@": 3465,
    "omat@@": 3466,
    "ischem": 3467,
    "englischen": 3468,
    "Umgebung": 3469,
    "Trau@@": 3470,
    "Test@@": 3471,
    "Tab@@": 3472,
    "Siehe": 3473,
    "Pul@@": 3474,
    "Menge": 3475,
    "Kil@@": 3476,
    "Gemeinden": 3477,
    "Boo@@": 3478,
    "Blut@@": 3479,
    "ws": 3480,
    "weiteres": 3481,
    "wann": 3482,
    "tigung": 3483,
    "schätz@@": 3484,
    "omen": 3485,
    "ließen": 3486,
    "liert": 3487,
    "lebten": 3488,
    "ity": 3489,
    "ise": 3490,
    "freund@@": 3491,
    "Wald@@": 3492,
    "Tom@@": 3493,
    "TO": 3494,
    "Pan@@": 3495,
    "Kurz@@": 3496,
    "Fahrrad": 3497,
    "Bis": 3498,
    "ül@@": 3499,
    "warum": 3500,
    "struktur@@": 3501,
    "pers@@": 3502,
    "grenzt": 3503,
    "fanden": 3504,
    "ebenso": 3505,
    "dischen": 3506,
    "diger": 3507,
    "derzeitige": 3508,
    "Vogel@@": 3509,
    "Studi@@": 3510,
    "Pop@@": 3511,
    "Mary": 3512,
    "Gerichts@@": 3513,
    "Bezirks@@": 3514,
    "Beginn": 3515,
    "weist": 3516,
    "nutz@@": 3517,
    "kurze": 3518,
    "kn@@": 3519,
    "hell@@": 3520,
    "großar@@": 3521,
    "ehemalige": 3522,
    "dig": 3523,
    "Tun@@": 3524,
    "Rahmen": 3525,
    "Komm@@": 3526,
    "Kanada": 3527,
    "Imp@@": 3528,
    "Hut": 3529,
    "Frankreich": 3530,
    "Europa": 3531,
    "Erde": 3532,
    "Einsatz": 3533,
    "wün@@": 3534,
    "verläuft": 3535,
    "val@@": 3536,
    "pri@@": 3537,
    "oli@@": 3538,
    "niemals": 3539,
    "lässi@@": 3540,
    "ili@@": 3541,
    "fla@@": 3542,
    "auff@@": 3543,
    "anschließend": 3544,
    "Wen@@": 3545,
    "Tat@@": 3546,
    "Organis@@": 3547,
    "Liebe": 3548,
    "Hot@@": 3549,
    "Haup@@": 3550,
    "örtlichen": 3551,
    "zes": 3552,
    "vers@@": 3553,
    "uten": 3554,
    "ograf@@": 3555,
    "gesell@@": 3556,
    "enthalten": 3557,
    "bevorzu@@": 3558,
    "au": 3559,
    "Som@@": 3560,
    "Prof@@": 3561,
    "Mög@@": 3562,
    "Kind@@": 3563,
    "Holl@@": 3564,
    "Füge": 3565,
    "Fort": 3566,
    "But@@": 3567,
    "übernahm": 3568,
    "wich@@": 3569,
    "vertei@@": 3570,
    "stag": 3571,
    "legen": 3572,
    "heutigen": 3573,
    "heu@@": 3574,
    "erscheint": 3575,
    "einf@@": 3576,
    "bildung": 3577,
    "abgel@@": 3578,
    "Tau@@": 3579,
    "Sä@@": 3580,
    "Out@@": 3581,
    "Mün@@": 3582,
    "Hast": 3583,
    "Halb@@": 3584,
    "Frü@@": 3585,
    "Feu@@": 3586,
    "Beziehung": 3587,
    "ät": 3588,
    "Öffentlichkeit": 3589,
    "va": 3590,
    "tions@@": 3591,
    "schwe@@": 3592,
    "reich": 3593,
    "rad@@": 3594,
    "lern": 3595,
    "imp@@": 3596,
    "größere": 3597,
    "dit@@": 3598,
    "aufen": 3599,
    "Wood@@": 3600,
    "REMOV@@": 3601,
    "Nav@@": 3602,
    "Lat@@": 3603,
    "Körper@@": 3604,
    "Fen@@": 3605,
    "Fehler": 3606,
    "Dienst@@": 3607,
    "Ähn@@": 3608,
    "setzung": 3609,
    "schte": 3610,
    "orn@@": 3611,
    "häuf@@": 3612,
    "heits@@": 3613,
    "digte": 3614,
    "ards": 3615,
    "Will@@": 3616,
    "Schnee@@": 3617,
    "Richter": 3618,
    "Lauf@@": 3619,
    "Kultur@@": 3620,
    "Green@@": 3621,
    "Fran@@": 3622,
    "Blick": 3623,
    "Anf@@": 3624,
    "Ach@@": 3625,
    "Aben@@": 3626,
    "ungspro@@": 3627,
    "teilweise": 3628,
    "ppen": 3629,
    "ice": 3630,
    "gerung": 3631,
    "Techn@@": 3632,
    "Schi@@": 3633,
    "Ihren": 3634,
    "Harry": 3635,
    "Geschä@@": 3636,
    "Gefüh@@": 3637,
    "Englisch": 3638,
    ",@@": 3639,
    "welt@@": 3640,
    "weiterer": 3641,
    "südlichen": 3642,
    "stütz@@": 3643,
    "maß@@": 3644,
    "lief": 3645,
    "gefü@@": 3646,
    "ets": 3647,
    "einst": 3648,
    "dah@@": 3649,
    "brü@@": 3650,
    "Span@@": 3651,
    "Musi@@": 3652,
    "Län@@": 3653,
    "Können": 3654,
    "Kraft@@": 3655,
    "Kra@@": 3656,
    "Kno@@": 3657,
    "Industrie@@": 3658,
    "Gam@@": 3659,
    "Bis@@": 3660,
    "Auto@@": 3661,
    "selten": 3662,
    "schutz@@": 3663,
    "ox@@": 3664,
    "lok@@": 3665,
    "hof": 3666,
    "hn@@": 3667,
    "ents@@": 3668,
    "Welche": 3669,
    "Söh@@": 3670,
    "Sig@@": 3671,
    "Polizei@@": 3672,
    "Dro@@": 3673,
    "Campus": 3674,
    "verwendete": 3675,
    "stro@@": 3676,
    "schwarze": 3677,
    "laden": 3678,
    "fs": 3679,
    "flie@@": 3680,
    "dition@@": 3681,
    "ah": 3682,
    "Stunden": 3683,
    "Nacht@@": 3684,
    "Mö@@": 3685,
    "Metro@@": 3686,
    "Ly@@": 3687,
    "Ki@@": 3688,
    "Clar@@": 3689,
    "Ap@@": 3690,
    "älteste": 3691,
    "zufrieden@@": 3692,
    "zuerst": 3693,
    "wichtig@@": 3694,
    "uss": 3695,
    "under@@": 3696,
    "ro": 3697,
    "nehm@@": 3698,
    "mme": 3699,
    "kurz@@": 3700,
    "guten": 3701,
    "gleiche": 3702,
    "ding@@": 3703,
    "bringt": 3704,
    "Ursprünglich": 3705,
    "Sammlung": 3706,
    "Design@@": 3707,
    "Creek": 3708,
    "ähnlich": 3709,
    "weiße": 3710,
    "verloren": 3711,
    "regelmäß@@": 3712,
    "port@@": 3713,
    "pflan@@": 3714,
    "ory": 3715,
    "näh@@": 3716,
    "nationalen": 3717,
    "kontrol@@": 3718,
    "ierungs@@": 3719,
    "ide@@": 3720,
    "hiel@@": 3721,
    "fünf@@": 3722,
    "flug@@": 3723,
    "fel": 3724,
    "einz@@": 3725,
    "dre@@": 3726,
    "beschäf@@": 3727,
    "bekannten": 3728,
    "anne": 3729,
    "ahr@@": 3730,
    "Sing@@": 3731,
    "Richt@@": 3732,
    "Obje@@": 3733,
    "Methode": 3734,
    "Landwirtschaft": 3735,
    "Jur@@": 3736,
    "tin@@": 3737,
    "tiges": 3738,
    "sprache": 3739,
    "res@@": 3740,
    "mes": 3741,
    "ließ@@": 3742,
    "klet@@": 3743,
    "dra@@": 3744,
    "anden": 3745,
    "akzep@@": 3746,
    "akti@@": 3747,
    "Sozial@@": 3748,
    "Sommer@@": 3749,
    "Nat@@": 3750,
    "Mich@@": 3751,
    "Martin": 3752,
    "Konf@@": 3753,
    "Gitarr@@": 3754,
    "Fach@@": 3755,
    "Eigen@@": 3756,
    "Din@@": 3757,
    "Cli@@": 3758,
    "Bundes@@": 3759,
    "wesent@@": 3760,
    "weltweit": 3761,
    "nördlichen": 3762,
    "mess@@": 3763,
    "lehnte": 3764,
    "lauf": 3765,
    "eig@@": 3766,
    "basiert": 3767,
    "aup@@": 3768,
    "Text": 3769,
    "Schlaf@@": 3770,
    "Sache": 3771,
    "Kunst": 3772,
    "Jam@@": 3773,
    "Fenster": 3774,
    "Farben": 3775,
    "Eben@@": 3776,
    "volution@@": 3777,
    "tert": 3778,
    "stände": 3779,
    "sil@@": 3780,
    "popul@@": 3781,
    "pha@@": 3782,
    "internationalen": 3783,
    "hielten": 3784,
    "eter": 3785,
    "erle@@": 3786,
    "bieten": 3787,
    "berg": 3788,
    "begrenz@@": 3789,
    "Uhr": 3790,
    "I": 3791,
    "Hum@@": 3792,
    "Got@@": 3793,
    "Carol@@": 3794,
    "Bay@@": 3795,
    "ungefähr": 3796,
    "stehenden": 3797,
    "pfer@@": 3798,
    "ong": 3799,
    "losen": 3800,
    "kompon@@": 3801,
    "id": 3802,
    "ichts@@": 3803,
    "go@@": 3804,
    "gehei@@": 3805,
    "enzen": 3806,
    "dien": 3807,
    "die@@": 3808,
    "Versionen": 3809,
    "Top@@": 3810,
    "Poly@@": 3811,
    "Näh@@": 3812,
    "Mannschaft": 3813,
    "Kr@@": 3814,
    "Japan": 3815,
    "Ep@@": 3816,
    "Beispiele": 3817,
    "...": 3818,
    "ätz@@": 3819,
    "är": 3820,
    "werke": 3821,
    "verur@@": 3822,
    "verbr@@": 3823,
    "unn@@": 3824,
    "uni@@": 3825,
    "mmer@@": 3826,
    "mitglieder": 3827,
    "linge": 3828,
    "klin@@": 3829,
    "ite@@": 3830,
    "inger": 3831,
    "flo@@": 3832,
    "einschließlich": 3833,
    "eben@@": 3834,
    "dachte": 3835,
    "bal@@": 3836,
    "aku@@": 3837,
    "Wann": 3838,
    "Professor": 3839,
    "Off@@": 3840,
    "Miss@@": 3841,
    "Kam@@": 3842,
    "Invest@@": 3843,
    "Gott": 3844,
    "Dennoch": 3845,
    "Champ@@": 3846,
    "Bill": 3847,
    "Berei@@": 3848,
    "Atlan@@": 3849,
    "Angriff": 3850,
    "wert": 3851,
    "ust": 3852,
    "tief@@": 3853,
    "sü@@": 3854,
    "ost@@": 3855,
    "hängt": 3856,
    "englische": 3857,
    "edi@@": 3858,
    "digen": 3859,
    "dienst": 3860,
    "denken": 3861,
    "bene": 3862,
    "Veranstaltung": 3863,
    "Soft@@": 3864,
    "Schwer@@": 3865,
    "Lö@@": 3866,
    "Lang@@": 3867,
    "Jedes": 3868,
    "Gil@@": 3869,
    "Gener@@": 3870,
    "Blu@@": 3871,
    "üblicherweise": 3872,
    "wichtiger": 3873,
    "wasser@@": 3874,
    "verschw@@": 3875,
    "veranstal@@": 3876,
    "trin@@": 3877,
    "tem": 3878,
    "stück": 3879,
    "klassi@@": 3880,
    "jemals": 3881,
    "griff": 3882,
    "gan": 3883,
    "benden": 3884,
    "Valley": 3885,
    "Ty@@": 3886,
    "Stattdessen": 3887,
    "My@@": 3888,
    "Glas@@": 3889,
    "Fuß": 3890,
    "Beim": 3891,
    "zel@@": 3892,
    "ysi@@": 3893,
    "umfass@@": 3894,
    "th": 3895,
    "städ@@": 3896,
    "heirat@@": 3897,
    "großes": 3898,
    "derung": 3899,
    "Ox@@": 3900,
    "Mei@@": 3901,
    "International": 3902,
    "Hut@@": 3903,
    "Heimat@@": 3904,
    "Hause": 3905,
    "Größe": 3906,
    "Black@@": 3907,
    "zufolge": 3908,
    "volle": 3909,
    "schrift@@": 3910,
    "rosa": 3911,
    "regi@@": 3912,
    "gens": 3913,
    "erfolgreich": 3914,
    "britische": 3915,
    "Ze@@": 3916,
    "Township": 3917,
    "Themen": 3918,
    "Sel@@": 3919,
    "Oli@@": 3920,
    "Feuer": 3921,
    "Doppel@@": 3922,
    "urm@@": 3923,
    "ogra@@": 3924,
    "liebe": 3925,
    "lebens@@": 3926,
    "langsam": 3927,
    "ktive": 3928,
    "hren": 3929,
    "ermög@@": 3930,
    "erfahr@@": 3931,
    "do": 3932,
    "deine": 3933,
    "allein": 3934,
    "Wettbewer@@": 3935,
    "Roman@@": 3936,
    "Pot@@": 3937,
    "Ont@@": 3938,
    "Mark": 3939,
    "Interesse": 3940,
    "Indian@@": 3941,
    "Daten@@": 3942,
    "Cle@@": 3943,
    "weitgehend": 3944,
    "vert@@": 3945,
    "schm@@": 3946,
    "schar@@": 3947,
    "rück@@": 3948,
    "nahe@@": 3949,
    "kannst": 3950,
    "bezir@@": 3951,
    "bewahr@@": 3952,
    "ausschließlich": 3953,
    "Vo@@": 3954,
    "Tru@@": 3955,
    "Operation": 3956,
    "Meeres@@": 3957,
    "Dur@@": 3958,
    "Deutschland": 3959,
    "weißer": 3960,
    "vol@@": 3961,
    "stür@@": 3962,
    "spir@@": 3963,
    "name": 3964,
    "leitete": 3965,
    "ingen": 3966,
    "ehr": 3967,
    "echn@@": 3968,
    "bereich": 3969,
    "alle@@": 3970,
    "Winter": 3971,
    "Vertrag": 3972,
    "Verk@@": 3973,
    "Pau@@": 3974,
    "Moder@@": 3975,
    "Mark@@": 3976,
    "Kontrolle": 3977,
    "Inseln": 3978,
    "Ihrer": 3979,
    "Ergebnisse": 3980,
    "Dies@@": 3981,
    "Cla@@": 3982,
    "Bom@@": 3983,
    "Basketball@@": 3984,
    "Asi@@": 3985,
    "zudem": 3986,
    "zeitig": 3987,
    "verkehr@@": 3988,
    "urn@@": 3989,
    "gefunden": 3990,
    "gangs@@": 3991,
    "ativ": 3992,
    "Willi@@": 3993,
    "Viel@@": 3994,
    "Höh@@": 3995,
    "Geschäft": 3996,
    "Amtszeit": 3997,
    "vin@@": 3998,
    "sex@@": 3999,
    "rang@@": 4000,
    "own": 4001,
    "läu@@": 4002,
    "han@@": 4003,
    "gere": 4004,
    "fern": 4005,
    "fallen": 4006,
    "einzigar@@": 4007,
    "bleiben": 4008,
    "asst": 4009,
    "Theorie": 4010,
    "Monat": 4011,
    "Lebens": 4012,
    "Konzer@@": 4013,
    "Jon@@": 4014,
    "Jahres": 4015,
    "zusätzliche": 4016,
    "zte": 4017,
    "ue": 4018,
    "stern": 4019,
    "schrit@@": 4020,
    "saß": 4021,
    "isierung": 4022,
    "historischen": 4023,
    "französischen": 4024,
    "erlau@@": 4025,
    "don": 4026,
    "berg@@": 4027,
    "Zeiten": 4028,
    "Wirtschafts@@": 4029,
    "Untersuchung": 4030,
    "Studenten@@": 4031,
    "Ol@@": 4032,
    "Mont@@": 4033,
    "Metho@@": 4034,
    "Mechan@@": 4035,
    "Inn@@": 4036,
    "Grundlage": 4037,
    "Feld": 4038,
    "Episode": 4039,
    "Charak@@": 4040,
    "Anim@@": 4041,
    "Ü@@": 4042,
    "zugän@@": 4043,
    "wusste": 4044,
    "wissenschaft@@": 4045,
    "weit@@": 4046,
    "syn@@": 4047,
    "stimmung": 4048,
    "satz": 4049,
    "präsen@@": 4050,
    "mite@@": 4051,
    "mik@@": 4052,
    "jem@@": 4053,
    "fahrer": 4054,
    "bury": 4055,
    "bruch": 4056,
    "brach": 4057,
    "betreibt": 4058,
    "Schwei@@": 4059,
    "Philip": 4060,
    "Nich@@": 4061,
    "Lad@@": 4062,
    "Fu@@": 4063,
    "Bron@@": 4064,
    "unterschiedlichen": 4065,
    "straße": 4066,
    "neten": 4067,
    "legt": 4068,
    "halt@@": 4069,
    "gressi@@": 4070,
    "cu@@": 4071,
    "blieben": 4072,
    "acher": 4073,
    "Zug": 4074,
    "Zahl": 4075,
    "Sus@@": 4076,
    "Sieg": 4077,
    "Sher@@": 4078,
    "Py@@": 4079,
    "Pak@@": 4080,
    "Nachrichten@@": 4081,
    "Meister@@": 4082,
    "Italien@@": 4083,
    "Hände": 4084,
    "Flugzeug": 4085,
    "Films": 4086,
    "Feh@@": 4087,
    "Edward": 4088,
    "Ebene": 4089,
    "Cas@@": 4090,
    "Brow@@": 4091,
    "Beweg@@": 4092,
    "Berg": 4093,
    "Arme@@": 4094,
    "Anschließend": 4095,
    "wit@@": 4096,
    "uelle": 4097,
    "ologischen": 4098,
    "ni@@": 4099,
    "lad@@": 4100,
    "jemand": 4101,
    "hundert": 4102,
    "gelegentlich": 4103,
    "enthielt": 4104,
    "Wur@@": 4105,
    "Wird": 4106,
    "Klassi@@": 4107,
    "Gitarre": 4108,
    "Forschungs@@": 4109,
    "Boot@@": 4110,
    "Black": 4111,
    "Bezug": 4112,
    "Antwort": 4113,
    "weis@@": 4114,
    "unternehmen": 4115,
    "sal@@": 4116,
    "oss": 4117,
    "müh@@": 4118,
    "krä@@": 4119,
    "ierenden": 4120,
    "go": 4121,
    "früh": 4122,
    "erf@@": 4123,
    "asen": 4124,
    "Zug@@": 4125,
    "Schiffe": 4126,
    "Büh@@": 4127,
    "Bahnho@@": 4128,
    "uell": 4129,
    "traditionellen": 4130,
    "tische": 4131,
    "suchen": 4132,
    "oc@@": 4133,
    "könnten": 4134,
    "iges": 4135,
    "histor@@": 4136,
    "haltung": 4137,
    "etten@@": 4138,
    "Telefon@@": 4139,
    "Seitdem": 4140,
    "Schreib@@": 4141,
    "Rand@@": 4142,
    "Plan": 4143,
    "Ot@@": 4144,
    "Mex@@": 4145,
    "Hir@@": 4146,
    "Gründung": 4147,
    "Glau@@": 4148,
    "Gele@@": 4149,
    "Fak@@": 4150,
    "Fahrrad@@": 4151,
    "Einwohner": 4152,
    "Chr@@": 4153,
    "äuf@@": 4154,
    "äts@@": 4155,
    "zö@@": 4156,
    "zeichnet": 4157,
    "zahlreichen": 4158,
    "ystem": 4159,
    "vin": 4160,
    "verhin@@": 4161,
    "verbin@@": 4162,
    "schreck@@": 4163,
    "positive": 4164,
    "neues": 4165,
    "natürlich": 4166,
    "moderne": 4167,
    "mittel": 4168,
    "lungs@@": 4169,
    "kommerziel@@": 4170,
    "hü@@": 4171,
    "hu@@": 4172,
    "handelte": 4173,
    "gewöhn@@": 4174,
    "for": 4175,
    "ermöglicht": 4176,
    "digit@@": 4177,
    "Tele@@": 4178,
    "Tagen": 4179,
    "Mount": 4180,
    "Licht": 4181,
    "Kop@@": 4182,
    "Kli@@": 4183,
    "Hotel": 4184,
    "Hintergrund": 4185,
    "Hem@@": 4186,
    "Französ@@": 4187,
    "District": 4188,
    "vorzu@@": 4189,
    "tic@@": 4190,
    "produziert": 4191,
    "polit@@": 4192,
    "mäßig": 4193,
    "krank@@": 4194,
    "kommun@@": 4195,
    "junges": 4196,
    "geplan@@": 4197,
    "gebracht": 4198,
    "fälle": 4199,
    "fun@@": 4200,
    "ents": 4201,
    "dis@@": 4202,
    "cc@@": 4203,
    "ann": 4204,
    "Tie@@": 4205,
    "Tar@@": 4206,
    "Reaktion": 4207,
    "Radio": 4208,
    "Kla@@": 4209,
    "Kino": 4210,
    "Joseph": 4211,
    "Jacke": 4212,
    "House": 4213,
    "Geheim@@": 4214,
    "Flo@@": 4215,
    "Einhei@@": 4216,
    "Bühne": 4217,
    "Boot": 4218,
    "Bibliothek": 4219,
    "Bass@@": 4220,
    "öse": 4221,
    "ymp@@": 4222,
    "let@@": 4223,
    "guter": 4224,
    "führer": 4225,
    "fällt": 4226,
    "frie@@": 4227,
    "fließ@@": 4228,
    "christ@@": 4229,
    "bezieht": 4230,
    "ats": 4231,
    "Ul@@": 4232,
    "Häuser": 4233,
    "Blü@@": 4234,
    "überqu@@": 4235,
    "zah@@": 4236,
    "rund": 4237,
    "net": 4238,
    "mindestens": 4239,
    "kultur@@": 4240,
    "jeweils": 4241,
    "di": 4242,
    "Verein@@": 4243,
    "Stell@@": 4244,
    "Schwimm@@": 4245,
    "Gelände": 4246,
    "Familien": 4247,
    "Erwachsen@@": 4248,
    "Befeh@@": 4249,
    "Bald": 4250,
    "Bade@@": 4251,
    "Also": 4252,
    "Abschnitt": 4253,
    "verste@@": 4254,
    "männ@@": 4255,
    "gehö@@": 4256,
    "gal@@": 4257,
    "erie": 4258,
    "elten": 4259,
    "domin@@": 4260,
    "dige": 4261,
    "angef@@": 4262,
    "Video": 4263,
    "Tom": 4264,
    "Reise": 4265,
    "Recht": 4266,
    "Q@@": 4267,
    "Ländern": 4268,
    "Leu@@": 4269,
    "Lass": 4270,
    "Konfli@@": 4271,
    "Jones": 4272,
    "Glück@@": 4273,
    "Foot@@": 4274,
    "Farbe": 4275,
    "Arbei@@": 4276,
    "wü@@": 4277,
    "verantwort@@": 4278,
    "tigt": 4279,
    "schütz@@": 4280,
    "licht": 4281,
    "langs@@": 4282,
    "iesen": 4283,
    "effe@@": 4284,
    "drin@@": 4285,
    "aner": 4286,
    "akadem@@": 4287,
    "Rat": 4288,
    "Fragen": 4289,
    "Entscheidung": 4290,
    "Design": 4291,
    "Damit": 4292,
    "überra@@": 4293,
    "überhaupt": 4294,
    "werte": 4295,
    "unterstützt": 4296,
    "uli@@": 4297,
    "träge": 4298,
    "tanz@@": 4299,
    "stammen": 4300,
    "posi@@": 4301,
    "neun@@": 4302,
    "model@@": 4303,
    "kreis@@": 4304,
    "kel": 4305,
    "ernst@@": 4306,
    "dur@@": 4307,
    "brauche": 4308,
    "besitzt": 4309,
    "Wettbewerb": 4310,
    "Ursprung": 4311,
    "Truppen": 4312,
    "Sicherheits@@": 4313,
    "Mitarbeiter": 4314,
    "Mike": 4315,
    "Histor@@": 4316,
    "Hard@@": 4317,
    "Gol@@": 4318,
    "Gat@@": 4319,
    "Fir@@": 4320,
    "Entschei@@": 4321,
    "Brau@@": 4322,
    "Box@@": 4323,
    "Bay": 4324,
    "Är@@": 4325,
    "yer": 4326,
    "wiederhol@@": 4327,
    "vermei@@": 4328,
    "use": 4329,
    "tlichen": 4330,
    "starken": 4331,
    "richtung": 4332,
    "pat@@": 4333,
    "mäch@@": 4334,
    "mag": 4335,
    "konstru@@": 4336,
    "integr@@": 4337,
    "hohe": 4338,
    "glück@@": 4339,
    "genommen": 4340,
    "gelten": 4341,
    "frei": 4342,
    "folgende": 4343,
    "White": 4344,
    "Tennis@@": 4345,
    "Tanz@@": 4346,
    "Struktur": 4347,
    "Markt": 4348,
    "Macht": 4349,
    "Jos@@": 4350,
    "Geschichten": 4351,
    "Gebiete": 4352,
    "Drit@@": 4353,
    "Bob": 4354,
    "Amt": 4355,
    "Alben": 4356,
    "änderte": 4357,
    "zwar": 4358,
    "zeuge": 4359,
    "stam@@": 4360,
    "sons": 4361,
    "rechts@@": 4362,
    "plan": 4363,
    "ots": 4364,
    "ju@@": 4365,
    "fi@@": 4366,
    "arbeit": 4367,
    "ange": 4368,
    "Virgin@@": 4369,
    "Söhne": 4370,
    "Rau@@": 4371,
    "North@@": 4372,
    "Mill@@": 4373,
    "Meinung": 4374,
    "Lage": 4375,
    "Jahres@@": 4376,
    "Freunde": 4377,
    "Dien@@": 4378,
    "Clo@@": 4379,
    "Central": 4380,
    "Alkoh@@": 4381,
    "ämpf@@": 4382,
    "verstär@@": 4383,
    "tte": 4384,
    "separ@@": 4385,
    "oll": 4386,
    "mün@@": 4387,
    "landwirtschaft@@": 4388,
    "japanischen": 4389,
    "hafte": 4390,
    "eigenes": 4391,
    "eien": 4392,
    "dge": 4393,
    "aktiv": 4394,
    "Steu@@": 4395,
    "Seiten@@": 4396,
    "Kann": 4397,
    "Ingenie@@": 4398,
    "Frank": 4399,
    "Doktor": 4400,
    "Aufnahme": 4401,
    "omet@@": 4402,
    "ki@@": 4403,
    "ierter": 4404,
    "herausge@@": 4405,
    "entscheiden@@": 4406,
    "auen": 4407,
    "angen": 4408,
    "Schritt": 4409,
    "Quellen": 4410,
    "Os@@": 4411,
    "Literatur@@": 4412,
    "Licht@@": 4413,
    "League": 4414,
    "King@@": 4415,
    "Jack": 4416,
    "Idee": 4417,
    "Gemeinschaft": 4418,
    "Dire@@": 4419,
    "Brand@@": 4420,
    "Beziehungen": 4421,
    "2@@": 4422,
    "öder@@": 4423,
    "willi@@": 4424,
    "stär@@": 4425,
    "ständig": 4426,
    "reise": 4427,
    "offizielle": 4428,
    "mut@@": 4429,
    "kümm@@": 4430,
    "glaube": 4431,
    "endete": 4432,
    "dauer@@": 4433,
    "ald": 4434,
    "Zeitschrift": 4435,
    "Todes@@": 4436,
    "Punk@@": 4437,
    "Länder": 4438,
    "Et@@": 4439,
    "Einheit": 4440,
    "Autob@@": 4441,
    "schlä@@": 4442,
    "miteinander": 4443,
    "lex@@": 4444,
    "kurzen": 4445,
    "inspir@@": 4446,
    "höher@@": 4447,
    "getrenn@@": 4448,
    "genug": 4449,
    "fizierung": 4450,
    "blon@@": 4451,
    "bestehen": 4452,
    "atoren": 4453,
    "Zustand": 4454,
    "Tan@@": 4455,
    "Rin@@": 4456,
    "Produkte": 4457,
    "Mehr@@": 4458,
    "Konzept": 4459,
    "Glei@@": 4460,
    "Fle@@": 4461,
    "Fans": 4462,
    "Cemetery": 4463,
    "Bewohner": 4464,
    "Ade@@": 4465,
    "zug@@": 4466,
    "ysteme": 4467,
    "yn": 4468,
    "waff@@": 4469,
    "vel@@": 4470,
    "starke": 4471,
    "meister": 4472,
    "lig": 4473,
    "höchste": 4474,
    "gewesen": 4475,
    "ffe": 4476,
    "eres": 4477,
    "dens@@": 4478,
    "ball": 4479,
    "angs@@": 4480,
    "amb@@": 4481,
    "Mak@@": 4482,
    "Lon@@": 4483,
    "Hälfte": 4484,
    "Formen": 4485,
    "Flusses": 4486,
    "Ehe@@": 4487,
    "Comi@@": 4488,
    "öh@@": 4489,
    "änger": 4490,
    "verkauft": 4491,
    "sichtlich": 4492,
    "schwarzer": 4493,
    "schreibt": 4494,
    "niemand": 4495,
    "größeren": 4496,
    "gabe": 4497,
    "frage": 4498,
    "fest": 4499,
    "erstes": 4500,
    "darf": 4501,
    "braunen": 4502,
    "basier@@": 4503,
    "Washington": 4504,
    "Veranstaltungen": 4505,
    "Tel@@": 4506,
    "Stan@@": 4507,
    "Prozess@@": 4508,
    "Material": 4509,
    "Liga": 4510,
    "Down@@": 4511,
    "weite": 4512,
    "tex@@": 4513,
    "tenden": 4514,
    "spezi@@": 4515,
    "ror@@": 4516,
    "part@@": 4517,
    "nation@@": 4518,
    "leitet": 4519,
    "künst@@": 4520,
    "fehl@@": 4521,
    "fach@@": 4522,
    "drück@@": 4523,
    "drit@@": 4524,
    "Wi@@": 4525,
    "Theater": 4526,
    "Sendung": 4527,
    "Präsident@@": 4528,
    "Metall@@": 4529,
    "Hi@@": 4530,
    "Herz": 4531,
    "Fla@@": 4532,
    "Empf@@": 4533,
    "Dau@@": 4534,
    "Center": 4535,
    "Brown": 4536,
    "Bran@@": 4537,
    "Albums": 4538,
    "0@@": 4539,
    "”": 4540,
    "unterstützte": 4541,
    "spei@@": 4542,
    "sili@@": 4543,
    "schulen": 4544,
    "pu@@": 4545,
    "neuer": 4546,
    "lichkeiten": 4547,
    "drehte": 4548,
    "derte": 4549,
    "betre@@": 4550,
    "beschreibt": 4551,
    "begannen": 4552,
    "aller@@": 4553,
    "ahnen": 4554,
    "Verhalten": 4555,
    "Rö@@": 4556,
    "Hör@@": 4557,
    "Eu@@": 4558,
    "Ersten": 4559,
    "Elemente": 4560,
    "Behandlung": 4561,
    "All": 4562,
    "unt": 4563,
    "traten": 4564,
    "stin@@": 4565,
    "spielten": 4566,
    "quali@@": 4567,
    "aktuellen": 4568,
    "Zäh@@": 4569,
    "Worte": 4570,
    "Voll@@": 4571,
    "Vict@@": 4572,
    "Skla@@": 4573,
    "Runde": 4574,
    "Net@@": 4575,
    "Lyn@@": 4576,
    "Infolgedessen": 4577,
    "Ham@@": 4578,
    "Fit@@": 4579,
    "Chicago": 4580,
    "Beruf@@": 4581,
    "Aufnahmen": 4582,
    "zusätz@@": 4583,
    "we": 4584,
    "redu@@": 4585,
    "nu@@": 4586,
    "isst": 4587,
    "iken": 4588,
    "hät@@": 4589,
    "förmi@@": 4590,
    "freie": 4591,
    "ete": 4592,
    "erziel@@": 4593,
    "ennt": 4594,
    "barkeit": 4595,
    "achtz@@": 4596,
    "Unternehmens": 4597,
    "Teilen": 4598,
    "Stunde": 4599,
    "Statist@@": 4600,
    "Spiels": 4601,
    "Song@@": 4602,
    "Publik@@": 4603,
    "Parlam@@": 4604,
    "Natur": 4605,
    "Lord": 4606,
    "Kreisstadt": 4607,
    "Kosten": 4608,
    "Johnson": 4609,
    "ürz@@": 4610,
    "zwe@@": 4611,
    "wohl@@": 4612,
    "wichtigen": 4613,
    "uf@@": 4614,
    "ständi@@": 4615,
    "spür@@": 4616,
    "sat@@": 4617,
    "pr@@": 4618,
    "nomin@@": 4619,
    "läch@@": 4620,
    "hä@@": 4621,
    "etz": 4622,
    "dert": 4623,
    "chron@@": 4624,
    "cast@@": 4625,
    "Vir@@": 4626,
    "Tit@@": 4627,
    "Shi@@": 4628,
    "Leistung": 4629,
    "Lar@@": 4630,
    "Internet": 4631,
    "Des@@": 4632,
    "Bundesstaat": 4633,
    "zählen": 4634,
    "wollen": 4635,
    "verz@@": 4636,
    "ute": 4637,
    "och": 4638,
    "nationale": 4639,
    "mente": 4640,
    "linien": 4641,
    "liegenden": 4642,
    "interessi@@": 4643,
    "gert": 4644,
    "beschrän@@": 4645,
    "befest@@": 4646,
    "ars": 4647,
    "arischen": 4648,
    "Zy@@": 4649,
    "Phil@@": 4650,
    "Mem@@": 4651,
    "Mass@@": 4652,
    "Markt@@": 4653,
    "Leiter": 4654,
    "Fußball": 4655,
    "Forschung": 4656,
    "Dom@@": 4657,
    "Brief": 4658,
    "Bezirks": 4659,
    "Ash@@": 4660,
    "Ange@@": 4661,
    "ähnlichen": 4662,
    "zwölf": 4663,
    "verwand@@": 4664,
    "sper@@": 4665,
    "itten": 4666,
    "isse": 4667,
    "identi@@": 4668,
    "gesellschaft": 4669,
    "genannt": 4670,
    "ga": 4671,
    "ftige": 4672,
    "entschied": 4673,
    "dru@@": 4674,
    "boo@@": 4675,
    "ble": 4676,
    "alismus": 4677,
    "ai": 4678,
    "Wein@@": 4679,
    "Vergangenheit": 4680,
    "Union": 4681,
    "Tax@@": 4682,
    "Sonne": 4683,
    "Rus@@": 4684,
    "Pion@@": 4685,
    "Nachfolger": 4686,
    "Gramm@@": 4687,
    "Funktionen": 4688,
    "Frie@@": 4689,
    "Eigent@@": 4690,
    "Bildungs@@": 4691,
    "Aktiv@@": 4692,
    "üsse": 4693,
    "Öl@@": 4694,
    "top@@": 4695,
    "steigen@@": 4696,
    "ordin@@": 4697,
    "ns": 4698,
    "musi@@": 4699,
    "küh@@": 4700,
    "itt": 4701,
    "ieb@@": 4702,
    "holte": 4703,
    "gsten": 4704,
    "bungen": 4705,
    "bringen": 4706,
    "ama": 4707,
    "aktuelle": 4708,
    "Werbe@@": 4709,
    "USA": 4710,
    "Tages@@": 4711,
    "Sun@@": 4712,
    "Onkel": 4713,
    "Modell": 4714,
    "Meer@@": 4715,
    "Medien": 4716,
    "Lebensmittel@@": 4717,
    "Kommun@@": 4718,
    "Koh@@": 4719,
    "Haw@@": 4720,
    "Flori@@": 4721,
    "Chi@@": 4722,
    "Air": 4723,
    "änder": 4724,
    "spann@@": 4725,
    "ph": 4726,
    "ong@@": 4727,
    "hieß": 4728,
    "griffen": 4729,
    "gerin@@": 4730,
    "fertig@@": 4731,
    "dün@@": 4732,
    "buch": 4733,
    "beschrieb": 4734,
    "ani@@": 4735,
    "ams": 4736,
    "Tiere": 4737,
    "Technologie": 4738,
    "Spitznamen": 4739,
    "Sied@@": 4740,
    "Lor@@": 4741,
    "Kultur": 4742,
    "Fern@@": 4743,
    "Dru@@": 4744,
    "Dame": 4745,
    "Brot@@": 4746,
    "Bern@@": 4747,
    "Abteilung": 4748,
    "ös@@": 4749,
    "älterer": 4750,
    "wenigen": 4751,
    "vern@@": 4752,
    "tat": 4753,
    "sichts@@": 4754,
    "schriften": 4755,
    "pen@@": 4756,
    "kts": 4757,
    "ith@@": 4758,
    "halt": 4759,
    "geschn@@": 4760,
    "gebäude": 4761,
    "eten": 4762,
    "anen": 4763,
    "Weihnachts@@": 4764,
    "Vorsitzender": 4765,
    "Sonn@@": 4766,
    "Sci@@": 4767,
    "Schriftstell@@": 4768,
    "Handels@@": 4769,
    "Green": 4770,
    "Gir@@": 4771,
    "Gebieten": 4772,
    "Ehe": 4773,
    "é@@": 4774,
    "stoff": 4775,
    "schir@@": 4776,
    "prakti@@": 4777,
    "nisse": 4778,
    "möglich": 4779,
    "liter@@": 4780,
    "konserv@@": 4781,
    "kleinere": 4782,
    "ile": 4783,
    "herunter@@": 4784,
    "erfolgt": 4785,
    "ena": 4786,
    "bild": 4787,
    "benö@@": 4788,
    "beinhaltet": 4789,
    "Theater@@": 4790,
    "Sü@@": 4791,
    "Rit@@": 4792,
    "Ram@@": 4793,
    "Milli@@": 4794,
    "Literatur": 4795,
    "Lehrer": 4796,
    "Jahrhunder@@": 4797,
    "Hügel": 4798,
    "Großbritannien": 4799,
    "Grand": 4800,
    "Fünf": 4801,
    "Figuren": 4802,
    "Einkaufs@@": 4803,
    "Bibliothe@@": 4804,
    "Beh@@": 4805,
    "Bar": 4806,
    "ühr@@": 4807,
    "til@@": 4808,
    "teilen": 4809,
    "rieb": 4810,
    "mussten": 4811,
    "lia": 4812,
    "häus@@": 4813,
    "fän@@": 4814,
    "erzielte": 4815,
    "ener": 4816,
    "braun@@": 4817,
    "bekam": 4818,
    "aturen": 4819,
    "ante": 4820,
    "ano": 4821,
    "Systeme": 4822,
    "Sto@@": 4823,
    "Staat": 4824,
    "Slo@@": 4825,
    "Schnee": 4826,
    "Moun@@": 4827,
    "Leg@@": 4828,
    "Kreuz@@": 4829,
    "Jag@@": 4830,
    "Heiligen": 4831,
    "Geträn@@": 4832,
    "Franc@@": 4833,
    "Corn@@": 4834,
    "Änderungen": 4835,
    "uellen": 4836,
    "täu@@": 4837,
    "stamm@@": 4838,
    "rote": 4839,
    "nungs@@": 4840,
    "gespielt": 4841,
    "gehend": 4842,
    "erer": 4843,
    "dunkel@@": 4844,
    "Veranstal@@": 4845,
    "Studien": 4846,
    "Sicherheit": 4847,
    "Schü@@": 4848,
    "Schön@@": 4849,
    "Manager": 4850,
    "Lee": 4851,
    "Komment@@": 4852,
    "Institu@@": 4853,
    "Hur@@": 4854,
    "Firma": 4855,
    "Felsen": 4856,
    "Dokument@@": 4857,
    "China": 4858,
    "Bilder": 4859,
    "Aspe@@": 4860,
    "Amts@@": 4861,
    "Alt@@": 4862,
    "Akt@@": 4863,
    "”@@": 4864,
    "zimmer": 4865,
    "wirst": 4866,
    "tive": 4867,
    "produzierte": 4868,
    "leiter": 4869,
    "interess@@": 4870,
    "illen": 4871,
    "hören": 4872,
    "hoff@@": 4873,
    "europäischen": 4874,
    "entwickelt": 4875,
    "ehen": 4876,
    "dopp@@": 4877,
    "brauner": 4878,
    "Williams": 4879,
    "Termin@@": 4880,
    "Ni@@": 4881,
    "Krankenhaus": 4882,
    "Exper@@": 4883,
    "Direktor": 4884,
    "Amerikan@@": 4885,
    "Abschl@@": 4886,
    "äußerst": 4887,
    "wissen": 4888,
    "trop@@": 4889,
    "tnis": 4890,
    "sorg@@": 4891,
    "setzen": 4892,
    "schläge": 4893,
    "nat@@": 4894,
    "lautet": 4895,
    "lands": 4896,
    "hörte": 4897,
    "entfernt": 4898,
    "dienst@@": 4899,
    "dein": 4900,
    "aliforn@@": 4901,
    "Verb@@": 4902,
    "United": 4903,
    "Trainer": 4904,
    "Stau@@": 4905,
    "Star": 4906,
    "Ric@@": 4907,
    "Programme": 4908,
    "Old": 4909,
    "Minuten": 4910,
    "Mensch@@": 4911,
    "Lösung": 4912,
    "Louis@@": 4913,
    "Lager@@": 4914,
    "Küste": 4915,
    "Hö@@": 4916,
    "Genau": 4917,
    "Filmen": 4918,
    "Big": 4919,
    "Bauern@@": 4920,
    "Aff@@": 4921,
    "win": 4922,
    "perfe@@": 4923,
    "ona": 4924,
    "offiziellen": 4925,
    "ktions@@": 4926,
    "herum": 4927,
    "gruppen": 4928,
    "glei@@": 4929,
    "gerei@@": 4930,
    "geord@@": 4931,
    "galt": 4932,
    "fung@@": 4933,
    "endet": 4934,
    "dische": 4935,
    "charakter@@": 4936,
    "besondere": 4937,
    "automat@@": 4938,
    "Süß@@": 4939,
    "Spann@@": 4940,
    "Sitz@@": 4941,
    "Schrift@@": 4942,
    "Party": 4943,
    "Oper@@": 4944,
    "Little": 4945,
    "Ins@@": 4946,
    "Get@@": 4947,
    "Erz@@": 4948,
    "Comm@@": 4949,
    "Ausdruck": 4950,
    "äumen": 4951,
    "umfassen": 4952,
    "tru@@": 4953,
    "stä@@": 4954,
    "sinn@@": 4955,
    "richten@@": 4956,
    "rein@@": 4957,
    "psych@@": 4958,
    "ordnung": 4959,
    "old": 4960,
    "letzter": 4961,
    "konzentr@@": 4962,
    "igung": 4963,
    "fünfzig": 4964,
    "fig@@": 4965,
    "exist@@": 4966,
    "ersta@@": 4967,
    "enge": 4968,
    "bezirk": 4969,
    "Wochen@@": 4970,
    "Wash@@": 4971,
    "Unsere": 4972,
    "Texas": 4973,
    "Solche": 4974,
    "Records": 4975,
    "Popul@@": 4976,
    "Pferd": 4977,
    "Himmel": 4978,
    "Gemälde": 4979,
    "Eri@@": 4980,
    "Enkel@@": 4981,
    "Deshalb": 4982,
    "Denk@@": 4983,
    "vat@@": 4984,
    "unser": 4985,
    "undzwanzig": 4986,
    "mitten": 4987,
    "metho@@": 4988,
    "jährlich": 4989,
    "ingt": 4990,
    "fluss": 4991,
    "erhielten": 4992,
    "ennen": 4993,
    "einzelnen": 4994,
    "beein@@": 4995,
    "astro@@": 4996,
    "ark": 4997,
    "ala": 4998,
    "Univer@@": 4999,
    "Stamm@@": 5000,
    "Schau@@": 5001,
    "Rober@@": 5002,
    "Regel@@": 5003,
    "Publikum": 5004,
    "Opfer": 5005,
    "Kraft": 5006,
    "Kell@@": 5007,
    "It@@": 5008,
    "Hoff@@": 5009,
    "Gattung": 5010,
    "Foto": 5011,
    "Alexander": 5012,
    "zehnten": 5013,
    "umfang@@": 5014,
    "schauen": 5015,
    "poli@@": 5016,
    "nes": 5017,
    "kanadischen": 5018,
    "inner@@": 5019,
    "inen@@": 5020,
    "ihr@@": 5021,
    "hob": 5022,
    "halts@@": 5023,
    "groß": 5024,
    "französische": 5025,
    "einiger": 5026,
    "dun@@": 5027,
    "blick": 5028,
    "Zer@@": 5029,
    "Zahlen": 5030,
    "Umwelt@@": 5031,
    "Stud@@": 5032,
    "Satz": 5033,
    "Pas@@": 5034,
    "Niemand": 5035,
    "Mär@@": 5036,
    "Kä@@": 5037,
    "Indien": 5038,
    "Hop@@": 5039,
    "Gesundheits@@": 5040,
    "Funktion": 5041,
    "Community": 5042,
    "älteren": 5043,
    "vollen": 5044,
    "versuchte": 5045,
    "tür@@": 5046,
    "sur@@": 5047,
    "setzten": 5048,
    "schli@@": 5049,
    "quenz": 5050,
    "post@@": 5051,
    "mond": 5052,
    "latein@@": 5053,
    "internation@@": 5054,
    "gliche": 5055,
    "gerte": 5056,
    "folgten": 5057,
    "eut@@": 5058,
    "ennung": 5059,
    "ckung": 5060,
    "chinesischen": 5061,
    "beru@@": 5062,
    "beherbergt": 5063,
    "assung": 5064,
    "Wett@@": 5065,
    "Verfahren": 5066,
    "Seh@@": 5067,
    "Schulbezirk": 5068,
    "Schriftsteller": 5069,
    "Rum@@": 5070,
    "Ruf": 5071,
    "Rand": 5072,
    "Persön@@": 5073,
    "Paris": 5074,
    "Nutz@@": 5075,
    "Nar@@": 5076,
    "Nachbar@@": 5077,
    "Miner@@": 5078,
    "Midd@@": 5079,
    "Konstru@@": 5080,
    "Fün@@": 5081,
    "Ei@@": 5082,
    "Demokrat@@": 5083,
    "Bun@@": 5084,
    "Barr@@": 5085,
    "unabhängig": 5086,
    "tigten": 5087,
    "stete": 5088,
    "stellvertre@@": 5089,
    "starr@@": 5090,
    "sig@@": 5091,
    "schnitt": 5092,
    "schieden@@": 5093,
    "ri": 5094,
    "res": 5095,
    "neg@@": 5096,
    "natürlichen": 5097,
    "mt": 5098,
    "morgen": 5099,
    "grupp@@": 5100,
    "erreichte": 5101,
    "erheb@@": 5102,
    "entstand": 5103,
    "entlich": 5104,
    "engag@@": 5105,
    "dreißig": 5106,
    "Zusammen": 5107,
    "World": 5108,
    "Vorort": 5109,
    "Tot@@": 5110,
    "St.": 5111,
    "Sind": 5112,
    "Sem@@": 5113,
    "Quelle": 5114,
    "Produkt": 5115,
    "Nachmittag": 5116,
    "Meilen": 5117,
    "Magaz@@": 5118,
    "Königin": 5119,
    "Fähigkeiten": 5120,
    "Bildung": 5121,
    "Arm": 5122,
    "Angel@@": 5123,
    "Ah@@": 5124,
    "ziel@@": 5125,
    "wid@@": 5126,
    "wand": 5127,
    "traditionelle": 5128,
    "tags@@": 5129,
    "selts@@": 5130,
    "schuss": 5131,
    "ott": 5132,
    "orien": 5133,
    "hem@@": 5134,
    "gon@@": 5135,
    "eil": 5136,
    "ay": 5137,
    "antwort@@": 5138,
    "Verbin@@": 5139,
    "Robot@@": 5140,
    "Pon@@": 5141,
    "Nahr@@": 5142,
    "Männern": 5143,
    "Mom@@": 5144,
    "Lassen": 5145,
    "King": 5146,
    "Festival": 5147,
    "Diale@@": 5148,
    "Chic@@": 5149,
    "weder": 5150,
    "stimmte": 5151,
    "station@@": 5152,
    "rist@@": 5153,
    "näch@@": 5154,
    "nei@@": 5155,
    "nehme": 5156,
    "musst": 5157,
    "kli@@": 5158,
    "indischen": 5159,
    "hil@@": 5160,
    "gezogen": 5161,
    "geschütz@@": 5162,
    "fühlte": 5163,
    "endgül@@": 5164,
    "digt": 5165,
    "deh@@": 5166,
    "Zusammenhang": 5167,
    "Start@@": 5168,
    "Rückkehr": 5169,
    "Psych@@": 5170,
    "Prü@@": 5171,
    "Massachus@@": 5172,
    "Krat@@": 5173,
    "Herstellung": 5174,
    "Hat": 5175,
    "Größ@@": 5176,
    "Great": 5177,
    "Glück": 5178,
    "Garten": 5179,
    "Fr@@": 5180,
    "Erfahrung": 5181,
    "Dr.": 5182,
    "Cast@@": 5183,
    "Brüder": 5184,
    "Brief@@": 5185,
    "äufer": 5186,
    "stehende": 5187,
    "stattdessen": 5188,
    "russ@@": 5189,
    "rick@@": 5190,
    "prü@@": 5191,
    "pflich@@": 5192,
    "orte": 5193,
    "löste": 5194,
    "lichem": 5195,
    "lernte": 5196,
    "inge": 5197,
    "halte": 5198,
    "ha": 5199,
    "getan": 5200,
    "dauerte": 5201,
    "chem@@": 5202,
    "atz": 5203,
    "Zivil@@": 5204,
    "Woh@@": 5205,
    "Mun@@": 5206,
    "Minist@@": 5207,
    "Mehrheit": 5208,
    "Masch@@": 5209,
    "Innerhalb": 5210,
    "Herrschaft": 5211,
    "Gut@@": 5212,
    "Goo@@": 5213,
    "East@@": 5214,
    "Bevor": 5215,
    "wa": 5216,
    "tendlich": 5217,
    "tele@@": 5218,
    "schlüss@@": 5219,
    "ländischen": 5220,
    "lis": 5221,
    "kle@@": 5222,
    "jährige": 5223,
    "haupt@@": 5224,
    "gefangen": 5225,
    "gebr@@": 5226,
    "frühe": 5227,
    "fein@@": 5228,
    "bis@@": 5229,
    "alog@@": 5230,
    "alisten": 5231,
    "Zentral@@": 5232,
    "Treffen": 5233,
    "Tal": 5234,
    "Strom@@": 5235,
    "Soldaten": 5236,
    "Pennsyl@@": 5237,
    "Patienten": 5238,
    "Mir": 5239,
    "Methoden": 5240,
    "Lewis": 5241,
    "Last@@": 5242,
    "Kapitän": 5243,
    "Joh@@": 5244,
    "Jahrzeh@@": 5245,
    "Gründer": 5246,
    "Gefängnis": 5247,
    "Flei@@": 5248,
    "Brun@@": 5249,
    "Baum": 5250,
    "umfasste": 5251,
    "teilte": 5252,
    "stör@@": 5253,
    "schmerz@@": 5254,
    "ole": 5255,
    "oberen": 5256,
    "kombin@@": 5257,
    "häufigsten": 5258,
    "grei@@": 5259,
    "führende": 5260,
    "fläch@@": 5261,
    "beschä@@": 5262,
    "bes": 5263,
    "ath": 5264,
    "abhän@@": 5265,
    "Zusammenarbeit": 5266,
    "Wider@@": 5267,
    "Pit@@": 5268,
    "Parks": 5269,
    "Marine@@": 5270,
    "Königreich": 5271,
    "Krater": 5272,
    "Kais@@": 5273,
    "Gibt": 5274,
    "Company": 5275,
    "Boston": 5276,
    "Bell@@": 5277,
    "Augu@@": 5278,
    "windig@@": 5279,
    "verwendeten": 5280,
    "transpor@@": 5281,
    "spor@@": 5282,
    "sieb@@": 5283,
    "sel": 5284,
    "schrift": 5285,
    "schneller": 5286,
    "reag@@": 5287,
    "nt": 5288,
    "nie@@": 5289,
    "linken": 5290,
    "körper@@": 5291,
    "hätten": 5292,
    "haar@@": 5293,
    "gestellt": 5294,
    "daraufhin": 5295,
    "bon@@": 5296,
    "ash": 5297,
    "ansässi@@": 5298,
    "anda": 5299,
    "Zusätzlich": 5300,
    "Zukunft": 5301,
    "Wert": 5302,
    "Ve@@": 5303,
    "Technolog@@": 5304,
    "Route": 5305,
    "Prie@@": 5306,
    "Pick@@": 5307,
    "Musiker": 5308,
    "Music": 5309,
    "Modelle": 5310,
    "Memorial": 5311,
    "Max@@": 5312,
    "Louis": 5313,
    "Lam@@": 5314,
    "Krieges": 5315,
    "Kit@@": 5316,
    "Jung@@": 5317,
    "Jahrhundert": 5318,
    "Fron@@": 5319,
    "Fro@@": 5320,
    "Fahrer": 5321,
    "Brit@@": 5322,
    "Blum@@": 5323,
    "Andre@@": 5324,
    "überall": 5325,
    "öffnete": 5326,
    "wärts": 5327,
    "wn": 5328,
    "ull": 5329,
    "tis": 5330,
    "seitdem": 5331,
    "rel@@": 5332,
    "offen": 5333,
    "medizin@@": 5334,
    "intensi@@": 5335,
    "half": 5336,
    "griechischen": 5337,
    "gleichzeitig": 5338,
    "gien": 5339,
    "day": 5340,
    "Zi@@": 5341,
    "Serv@@": 5342,
    "Präsidenten": 5343,
    "Pfarr@@": 5344,
    "Kön@@": 5345,
    "Kreis@@": 5346,
    "Kongress@@": 5347,
    "Jeans": 5348,
    "Ihm": 5349,
    "Betrieb": 5350,
    "Beobach@@": 5351,
    "Auszeichnung": 5352,
    "Alles": 5353,
    "wandte": 5354,
    "uch": 5355,
    "tiere": 5356,
    "sprü@@": 5357,
    "shire": 5358,
    "och@@": 5359,
    "not@@": 5360,
    "isierte": 5361,
    "io": 5362,
    "inzwischen": 5363,
    "han": 5364,
    "glie@@": 5365,
    "genannten": 5366,
    "fahrt": 5367,
    "erstre@@": 5368,
    "dlichen": 5369,
    "dent@@": 5370,
    "allgemeine": 5371,
    "Zeu@@": 5372,
    "Wissenschaft@@": 5373,
    "Wass@@": 5374,
    "Texte": 5375,
    "Ten@@": 5376,
    "Shar@@": 5377,
    "Schauspielerin": 5378,
    "Red": 5379,
    "Nov@@": 5380,
    "Forsch@@": 5381,
    "Emm@@": 5382,
    "Chris": 5383,
    "Büro": 5384,
    "statist@@": 5385,
    "schü@@": 5386,
    "reicher": 5387,
    "jün@@": 5388,
    "italien@@": 5389,
    "eingesetzt": 5390,
    "cre@@": 5391,
    "beauf@@": 5392,
    "beam@@": 5393,
    "arbeiter": 5394,
    "Züge": 5395,
    "Studium": 5396,
    "Steve": 5397,
    "Spit@@": 5398,
    "Situation": 5399,
    "Siedlung": 5400,
    "Schott@@": 5401,
    "Schla@@": 5402,
    "Praxis": 5403,
    "Pflanzen": 5404,
    "Kritik": 5405,
    "Joe": 5406,
    "Grenzen": 5407,
    "Gas@@": 5408,
    "Erschein@@": 5409,
    "Erinner@@": 5410,
    "Eisen@@": 5411,
    "Dank": 5412,
    "Cher@@": 5413,
    "Auswirkungen": 5414,
    "Alex@@": 5415,
    "’@@": 5416,
    "zeug": 5417,
    "vierte": 5418,
    "tem@@": 5419,
    "sätz@@": 5420,
    "stärk@@": 5421,
    "spit@@": 5422,
    "solchen": 5423,
    "rigen": 5424,
    "reserv@@": 5425,
    "proble@@": 5426,
    "pfen": 5427,
    "otte": 5428,
    "offiziell": 5429,
    "nal": 5430,
    "lik@@": 5431,
    "lieb@@": 5432,
    "kür@@": 5433,
    "itäten": 5434,
    "höch@@": 5435,
    "grau@@": 5436,
    "glichen": 5437,
    "fing": 5438,
    "ethn@@": 5439,
    "erober@@": 5440,
    "ehn": 5441,
    "Wagen": 5442,
    "Verbess@@": 5443,
    "Tradition": 5444,
    "Ton": 5445,
    "Stro@@": 5446,
    "Stadion": 5447,
    "Society": 5448,
    "Sicher@@": 5449,
    "Reise@@": 5450,
    "Organisationen": 5451,
    "Mission": 5452,
    "Krank@@": 5453,
    "Kirchen@@": 5454,
    "Ih@@": 5455,
    "Gü@@": 5456,
    "Grü@@": 5457,
    "verkehr": 5458,
    "unseren": 5459,
    "still@@": 5460,
    "station": 5461,
    "spruch": 5462,
    "rechten": 5463,
    "more": 5464,
    "meines": 5465,
    "mau@@": 5466,
    "male": 5467,
    "ild": 5468,
    "gabe@@": 5469,
    "Wissen": 5470,
    "Tante": 5471,
    "Stad@@": 5472,
    "Schrit@@": 5473,
    "Offiz@@": 5474,
    "Finde": 5475,
    "Ausgabe": 5476,
    "Ansatz": 5477,
    "zün@@": 5478,
    "stung": 5479,
    "rupp@@": 5480,
    "rennt": 5481,
    "religi@@": 5482,
    "ktiv": 5483,
    "keiten": 5484,
    "hervorra@@": 5485,
    "gelegene": 5486,
    "geber": 5487,
    "bisschen": 5488,
    "beu@@": 5489,
    "bende": 5490,
    "beinhal@@": 5491,
    "Vorder@@": 5492,
    "Städten": 5493,
    "Stä@@": 5494,
    "Smit@@": 5495,
    "Restauran@@": 5496,
    "Rak@@": 5497,
    "Monaten": 5498,
    "Küsten@@": 5499,
    "Grafschaft": 5500,
    "Eth@@": 5501,
    "Division": 5502,
    "Brie@@": 5503,
    "Beam@@": 5504,
    "Anhänger": 5505,
    "Altern@@": 5506,
    "0": 5507,
    "vieler": 5508,
    "versucht": 5509,
    "unserer": 5510,
    "sub@@": 5511,
    "stau@@": 5512,
    "schöne": 5513,
    "reisen": 5514,
    "reis@@": 5515,
    "nischen": 5516,
    "mäß@@": 5517,
    "machten": 5518,
    "ly": 5519,
    "könig@@": 5520,
    "haber": 5521,
    "gre@@": 5522,
    "freien": 5523,
    "fläche": 5524,
    "dür@@": 5525,
    "betrachtet": 5526,
    "annt": 5527,
    "ands": 5528,
    "ami@@": 5529,
    "Zit@@": 5530,
    "Zeichen": 5531,
    "Virginia": 5532,
    "Stücke": 5533,
    "Stuhl": 5534,
    "Preis@@": 5535,
    "Ner@@": 5536,
    "May@@": 5537,
    "Mathem@@": 5538,
    "Kart@@": 5539,
    "Kalifornien": 5540,
    "Hande@@": 5541,
    "Gefän@@": 5542,
    "Gebir@@": 5543,
    "Dou@@": 5544,
    "Dabei": 5545,
    "Computer": 5546,
    "Beat@@": 5547,
    "August": 5548,
    "schlossen": 5549,
    "pal@@": 5550,
    "ose": 5551,
    "lächeln@@": 5552,
    "kürzlich": 5553,
    "isiert": 5554,
    "ino": 5555,
    "fluss@@": 5556,
    "erstreckt": 5557,
    "effizi@@": 5558,
    "begei@@": 5559,
    "ance": 5560,
    "abe": 5561,
    "Wäl@@": 5562,
    "Säu@@": 5563,
    "Sänger": 5564,
    "Shir@@": 5565,
    "Santa": 5566,
    "Ohne": 5567,
    "Natürlich": 5568,
    "Lev@@": 5569,
    "Hay@@": 5570,
    "Göt@@": 5571,
    "Farb@@": 5572,
    "Energie@@": 5573,
    "Eich@@": 5574,
    "Druck@@": 5575,
    "Darstellung": 5576,
    "Columbia": 5577,
    "zweiter": 5578,
    "zweit@@": 5579,
    "zierte": 5580,
    "versor@@": 5581,
    "ther": 5582,
    "teu@@": 5583,
    "terin": 5584,
    "stige": 5585,
    "stall@@": 5586,
    "spru@@": 5587,
    "schließt": 5588,
    "rechte": 5589,
    "passiert": 5590,
    "onie": 5591,
    "mitglie@@": 5592,
    "lex": 5593,
    "konf@@": 5594,
    "ikt@@": 5595,
    "hrop@@": 5596,
    "hi": 5597,
    "größtenteils": 5598,
    "grenz@@": 5599,
    "bir@@": 5600,
    "arren": 5601,
    "album": 5602,
    "Wis@@": 5603,
    "Verwaltungssitz": 5604,
    "Spitze": 5605,
    "Schutz": 5606,
    "Schreiben": 5607,
    "Pflanzen@@": 5608,
    "Lern@@": 5609,
    "Klo@@": 5610,
    "Gehir@@": 5611,
    "Einrichtungen": 5612,
    "Coll@@": 5613,
    "Church": 5614,
    "Broad@@": 5615,
    "Beglei@@": 5616,
    "zentralen": 5617,
    "ym": 5618,
    "ye": 5619,
    "wohnt": 5620,
    "westliche": 5621,
    "tender": 5622,
    "teilungen": 5623,
    "sprachen": 5624,
    "sonn@@": 5625,
    "scheinen": 5626,
    "opti@@": 5627,
    "mannschaft": 5628,
    "kehrt": 5629,
    "igsten": 5630,
    "ignor@@": 5631,
    "häuser": 5632,
    "haften": 5633,
    "chester": 5634,
    "berühmten": 5635,
    "aden": 5636,
    "Thom@@": 5637,
    "Studios": 5638,
    "Software": 5639,
    "Noch": 5640,
    "Long": 5641,
    "Krankheit": 5642,
    "Kaiser": 5643,
    "Hose": 5644,
    "Himm@@": 5645,
    "Eröff@@": 5646,
    "Erklärung": 5647,
    "Dri@@": 5648,
    "Diag@@": 5649,
    "Ce@@": 5650,
    "Blue": 5651,
    "Ausgaben": 5652,
    "Ara@@": 5653,
    "Überreste": 5654,
    "wör@@": 5655,
    "veran@@": 5656,
    "tierten": 5657,
    "richtig": 5658,
    "rah@@": 5659,
    "onische": 5660,
    "nutzen": 5661,
    "mie@@": 5662,
    "mas@@": 5663,
    "malen": 5664,
    "klei@@": 5665,
    "insgesamt": 5666,
    "herrsch@@": 5667,
    "hart": 5668,
    "getötet": 5669,
    "ence": 5670,
    "dunklen": 5671,
    "drän@@": 5672,
    "aufgenommen": 5673,
    "atz@@": 5674,
    "Tor": 5675,
    "Stipen@@": 5676,
    "Reservierung": 5677,
    "Religi@@": 5678,
    "Rail@@": 5679,
    "Prop@@": 5680,
    "Parlament": 5681,
    "Oak@@": 5682,
    "Nan@@": 5683,
    "Nah@@": 5684,
    "Mid@@": 5685,
    "Maskottchen": 5686,
    "Konserv@@": 5687,
    "Key@@": 5688,
    "Internation@@": 5689,
    "Golf@@": 5690,
    "Elektr@@": 5691,
    "Dem": 5692,
    "Budd@@": 5693,
    "Bedingungen": 5694,
    "Argum@@": 5695,
    "ämm@@": 5696,
    "verkaufte": 5697,
    "umin@@": 5698,
    "umf@@": 5699,
    "tut": 5700,
    "tin": 5701,
    "schlag": 5702,
    "repar@@": 5703,
    "park": 5704,
    "mitglied": 5705,
    "jo@@": 5706,
    "iker": 5707,
    "gegeben": 5708,
    "frü@@": 5709,
    "ek": 5710,
    "eigent@@": 5711,
    "dale": 5712,
    "beendete": 5713,
    "atte": 5714,
    "alien": 5715,
    "Zwischen@@": 5716,
    "Van@@": 5717,
    "Taylor": 5718,
    "Städ@@": 5719,
    "Stir@@": 5720,
    "Rollen": 5721,
    "Regie": 5722,
    "Portug@@": 5723,
    "Mir@@": 5724,
    "Mand@@": 5725,
    "Fru@@": 5726,
    "Fig@@": 5727,
    "Est@@": 5728,
    "Ergeb@@": 5729,
    "Charakter": 5730,
    "C.": 5731,
    "Award": 5732,
    "Anwalt": 5733,
    "Angst": 5734,
    "zahl": 5735,
    "wäss@@": 5736,
    "ware": 5737,
    "stiz@@": 5738,
    "stens": 5739,
    "orig@@": 5740,
    "miss@@": 5741,
    "ländische": 5742,
    "kreu@@": 5743,
    "krei@@": 5744,
    "kampf": 5745,
    "halb@@": 5746,
    "fts@@": 5747,
    "dienste": 5748,
    "bisher": 5749,
    "atten": 5750,
    "ada": 5751,
    "Wirk@@": 5752,
    "Text@@": 5753,
    "Technik": 5754,
    "Service": 5755,
    "Rap@@": 5756,
    "Quar@@": 5757,
    "Port": 5758,
    "Pho@@": 5759,
    "Mitgliedern": 5760,
    "Kostü@@": 5761,
    "Kern@@": 5762,
    "Hier@@": 5763,
    "Gewä@@": 5764,
    "Feuerwehr@@": 5765,
    "Dutz@@": 5766,
    "Distrikt": 5767,
    "Diskus@@": 5768,
    "Dach@@": 5769,
    "Buck@@": 5770,
    "überwiegend": 5771,
    "äng@@": 5772,
    "zep@@": 5773,
    "zeitgenöss@@": 5774,
    "za": 5775,
    "yan": 5776,
    "wen": 5777,
    "schwimm@@": 5778,
    "mögen": 5779,
    "masch@@": 5780,
    "liste": 5781,
    "größer": 5782,
    "erreicht": 5783,
    "einfache": 5784,
    "befanden": 5785,
    "anzen": 5786,
    "Teilnehmer": 5787,
    "Tat": 5788,
    "Spring@@": 5789,
    "Scott": 5790,
    "Schach@@": 5791,
    "Pläne": 5792,
    "Over@@": 5793,
    "Nachrichten": 5794,
    "Marke": 5795,
    "Mah@@": 5796,
    "Lit@@": 5797,
    "Kleid": 5798,
    "Katze": 5799,
    "Hersteller": 5800,
    "Gold": 5801,
    "Geschle@@": 5802,
    "Gem@@": 5803,
    "Erzäh@@": 5804,
    "Eines": 5805,
    "Ecke": 5806,
    "Cho@@": 5807,
    "British": 5808,
    "Bli@@": 5809,
    "Besonder@@": 5810,
    "Ass@@": 5811,
    "vollständi@@": 5812,
    "verlassen": 5813,
    "terte": 5814,
    "menschlichen": 5815,
    "materi@@": 5816,
    "lität": 5817,
    "künstler@@": 5818,
    "ingu@@": 5819,
    "gänge": 5820,
    "gige": 5821,
    "fung": 5822,
    "bungs@@": 5823,
    "angem@@": 5824,
    "alo@@": 5825,
    "Zimmer": 5826,
    "Verkauf@@": 5827,
    "Stor@@": 5828,
    "Sich@@": 5829,
    "Sex@@": 5830,
    "Rech@@": 5831,
    "Public": 5832,
    "Pad@@": 5833,
    "Nomin@@": 5834,
    "Kandidaten": 5835,
    "Exempl@@": 5836,
    "Dich@@": 5837,
    "Blei@@": 5838,
    "Andrew": 5839,
    "Academy": 5840,
    "vollständige": 5841,
    "unteren": 5842,
    "trifft": 5843,
    "treffen": 5844,
    "tierung": 5845,
    "tens": 5846,
    "schiff": 5847,
    "rank@@": 5848,
    "mäh@@": 5849,
    "mus": 5850,
    "ko": 5851,
    "geren": 5852,
    "erklärte": 5853,
    "druck": 5854,
    "bat": 5855,
    "argum@@": 5856,
    "abi@@": 5857,
    "Wirt@@": 5858,
    "Wirkung": 5859,
    "Viertel": 5860,
    "Tony": 5861,
    "Swe@@": 5862,
    "Sum@@": 5863,
    "Steuer@@": 5864,
    "Sign@@": 5865,
    "Schnell@@": 5866,
    "Rund@@": 5867,
    "Regionen": 5868,
    "Refer@@": 5869,
    "Namens@@": 5870,
    "Motor": 5871,
    "Milit@@": 5872,
    "Maria": 5873,
    "Karten": 5874,
    "Herausforder@@": 5875,
    "Feier@@": 5876,
    "Fas@@": 5877,
    "Fair@@": 5878,
    "Einrichtung": 5879,
    "Cr@@": 5880,
    "Bezir@@": 5881,
    "Astron@@": 5882,
    "Allen": 5883,
    "Abstamm@@": 5884,
    "urg@@": 5885,
    "trei@@": 5886,
    "suche": 5887,
    "stücke": 5888,
    "stet": 5889,
    "schaute": 5890,
    "prof@@": 5891,
    "offiz@@": 5892,
    "low": 5893,
    "leitung": 5894,
    "kes": 5895,
    "ight": 5896,
    "ide": 5897,
    "geschlossen": 5898,
    "fle@@": 5899,
    "exp@@": 5900,
    "eth@@": 5901,
    "erfor@@": 5902,
    "berühmte": 5903,
    "altern@@": 5904,
    "Waffen": 5905,
    "Vorfall": 5906,
    "Van": 5907,
    "Territ@@": 5908,
    "Stahl@@": 5909,
    "South@@": 5910,
    "Sab@@": 5911,
    "Republik": 5912,
    "Pom@@": 5913,
    "Philosophie": 5914,
    "Maß@@": 5915,
    "Landes": 5916,
    "Kirchen": 5917,
    "Effe@@": 5918,
    "Denn@@": 5919,
    "Brad@@": 5920,
    "Aufgabe": 5921,
    "Arbeiter": 5922,
    "Anwendungen": 5923,
    "Ag@@": 5924,
    "ziehen": 5925,
    "wart": 5926,
    "unmittel@@": 5927,
    "tischen": 5928,
    "tief": 5929,
    "tain@@": 5930,
    "stimmt": 5931,
    "ral": 5932,
    "ola": 5933,
    "neh@@": 5934,
    "klass@@": 5935,
    "instru@@": 5936,
    "hül@@": 5937,
    "gesagt": 5938,
    "eton": 5939,
    "dürfen": 5940,
    "dreimal": 5941,
    "brenn@@": 5942,
    "bb@@": 5943,
    "Verfügung": 5944,
    "Universitäten": 5945,
    "Tabelle": 5946,
    "Sn@@": 5947,
    "Selbst": 5948,
    "Quad@@": 5949,
    "Punkte": 5950,
    "Patri@@": 5951,
    "Nummer": 5952,
    "Nap@@": 5953,
    "Mitglie@@": 5954,
    "Miss": 5955,
    "Kämpf@@": 5956,
    "Kritikern": 5957,
    "Kritiker": 5958,
    "Kie@@": 5959,
    "Kamera": 5960,
    "Haar": 5961,
    "Celia": 5962,
    "Associ@@": 5963,
    "Alber@@": 5964,
    "Übersetzung": 5965,
    "zuver@@": 5966,
    "vest@@": 5967,
    "urm": 5968,
    "schwei@@": 5969,
    "roll@@": 5970,
    "orium": 5971,
    "mung": 5972,
    "medi@@": 5973,
    "iment@@": 5974,
    "hinzu": 5975,
    "gebiete": 5976,
    "führenden": 5977,
    "flächen@@": 5978,
    "dienen": 5979,
    "deter": 5980,
    "dam@@": 5981,
    "brech@@": 5982,
    "braucht": 5983,
    "berech@@": 5984,
    "bemerkens@@": 5985,
    "Unterschied": 5986,
    "Tä@@": 5987,
    "Tepp@@": 5988,
    "Stru@@": 5989,
    "Siedler": 5990,
    "Rezep@@": 5991,
    "Ret@@": 5992,
    "Menschenmenge": 5993,
    "Lieblings@@": 5994,
    "Kunden": 5995,
    "Kontrover@@": 5996,
    "Ideen": 5997,
    "Früher": 5998,
    "Einheiten": 5999,
    "Eigenschaften": 6000,
    "Bin@@": 6001,
    "Autoren": 6002,
    "Anwendung": 6003,
    "Anwen@@": 6004,
    "Akti@@": 6005,
    "wodurch": 6006,
    "verfü@@": 6007,
    "stammte": 6008,
    "sofern": 6009,
    "schlägt": 6010,
    "schluss": 6011,
    "rie": 6012,
    "ode": 6013,
    "kos@@": 6014,
    "komplett": 6015,
    "igkeiten": 6016,
    "hoh@@": 6017,
    "gelegen@@": 6018,
    "ftigen": 6019,
    "fort": 6020,
    "ersetzte": 6021,
    "ele": 6022,
    "deutsche": 6023,
    "demokrat@@": 6024,
    "braune": 6025,
    "betrieb": 6026,
    "befrei@@": 6027,
    "bedeutende": 6028,
    "Vorsitzende": 6029,
    "Spa@@": 6030,
    "Sonder@@": 6031,
    "Proz@@": 6032,
    "Pr@@": 6033,
    "Minister": 6034,
    "Kun@@": 6035,
    "Gründen": 6036,
    "Gestal@@": 6037,
    "Fähr@@": 6038,
    "Cin@@": 6039,
    "Chem@@": 6040,
    "Bud@@": 6041,
    "Bestandteil": 6042,
    "Bericht": 6043,
    "Auszeichnungen": 6044,
    "Aufmerksamkeit": 6045,
    "Agen@@": 6046,
    "östliche": 6047,
    "wissenschaftliche": 6048,
    "wirft": 6049,
    "urt": 6050,
    "stil": 6051,
    "steller": 6052,
    "schaffte": 6053,
    "namen": 6054,
    "mär@@": 6055,
    "lief@@": 6056,
    "lichste": 6057,
    "lebenden": 6058,
    "klär@@": 6059,
    "jüngeren": 6060,
    "irgendwo": 6061,
    "ils": 6062,
    "iell": 6063,
    "gig": 6064,
    "gelte": 6065,
    "gefei@@": 6066,
    "frühere": 6067,
    "ehemaliger": 6068,
    "ativer": 6069,
    "arbeitung": 6070,
    "Zwischenzeit": 6071,
    "Zerstör@@": 6072,
    "Verf@@": 6073,
    "Verbindungen": 6074,
    "Unterstütz@@": 6075,
    "Tän@@": 6076,
    "Test": 6077,
    "Tempel": 6078,
    "Szene": 6079,
    "Stein": 6080,
    "Sm@@": 6081,
    "Silber@@": 6082,
    "Schlüssel": 6083,
    "Point": 6084,
    "Pfei@@": 6085,
    "Mül@@": 6086,
    "Mund": 6087,
    "Mul@@": 6088,
    "Mol@@": 6089,
    "Marine": 6090,
    "Lös@@": 6091,
    "Liebl@@": 6092,
    "Kauf@@": 6093,
    "Kateg@@": 6094,
    "Junior": 6095,
    "Jackson": 6096,
    "Höhe@@": 6097,
    "Großvater": 6098,
    "Fels@@": 6099,
    "Einen": 6100,
    "Davis": 6101,
    "Bereichen": 6102,
    "Basis": 6103,
    "Assist@@": 6104,
    "Arthur": 6105,
    "Ansichten": 6106,
    "Angeles": 6107,
    "vierten": 6108,
    "van": 6109,
    "tiv@@": 6110,
    "stitu@@": 6111,
    "stieß": 6112,
    "schwarz": 6113,
    "onischen": 6114,
    "mierte": 6115,
    "lin": 6116,
    "lass": 6117,
    "kir@@": 6118,
    "jüngere": 6119,
    "itäts@@": 6120,
    "grä@@": 6121,
    "geschichte": 6122,
    "gebung": 6123,
    "entschul@@": 6124,
    "dende": 6125,
    "benannt": 6126,
    "basi@@": 6127,
    "australischen": 6128,
    "altung": 6129,
    "aktive": 6130,
    "Zudem": 6131,
    "Wald": 6132,
    "Verwaltung": 6133,
    "Stern@@": 6134,
    "Skate@@": 6135,
    "Sek@@": 6136,
    "Schlüssel@@": 6137,
    "Pass@@": 6138,
    "Oberfläche": 6139,
    "Milch@@": 6140,
    "Mana@@": 6141,
    "Holz": 6142,
    "Gib": 6143,
    "Fried@@": 6144,
    "Ereignisse": 6145,
    "Ehren@@": 6146,
    "Diam@@": 6147,
    "Chef@@": 6148,
    "Cent@@": 6149,
    "Blat@@": 6150,
    "Auftritt": 6151,
    "Anweis@@": 6152,
    "äußer@@": 6153,
    "zwanzig": 6154,
    "worth": 6155,
    "unabhängige": 6156,
    "tour@@": 6157,
    "tic": 6158,
    "sist@@": 6159,
    "scheu@@": 6160,
    "pot@@": 6161,
    "ossen": 6162,
    "onien": 6163,
    "konzentriert": 6164,
    "iet": 6165,
    "ident@@": 6166,
    "finde": 6167,
    "film": 6168,
    "extrem": 6169,
    "dlicher": 6170,
    "brechen": 6171,
    "beträch@@": 6172,
    "angeblich": 6173,
    "allgemeinen": 6174,
    "Zweck": 6175,
    "Weltkrieg": 6176,
    "Vertreter": 6177,
    "Treppe": 6178,
    "Staffel": 6179,
    "Rede": 6180,
    "Peri@@": 6181,
    "Orch@@": 6182,
    "Namens": 6183,
    "Klima@@": 6184,
    "Keine": 6185,
    "Jac@@": 6186,
    "Höhe": 6187,
    "Hamp@@": 6188,
    "Gouver@@": 6189,
    "För@@": 6190,
    "Fehl@@": 6191,
    "E.": 6192,
    "Brille": 6193,
    "öffentlich": 6194,
    "zie@@": 6195,
    "wahrschein@@": 6196,
    "ständ@@": 6197,
    "spekt@@": 6198,
    "organ@@": 6199,
    "minister": 6200,
    "lers": 6201,
    "laub@@": 6202,
    "japanische": 6203,
    "grüne": 6204,
    "gelang": 6205,
    "erwarb": 6206,
    "dunkl@@": 6207,
    "dens": 6208,
    "ctor": 6209,
    "chern": 6210,
    "bewus@@": 6211,
    "beer@@": 6212,
    "baute": 6213,
    "aut": 6214,
    "ami": 6215,
    "Vögel": 6216,
    "Stock": 6217,
    "Status": 6218,
    "Physi@@": 6219,
    "Parteien": 6220,
    "Mantel": 6221,
    "Lok@@": 6222,
    "Kombination": 6223,
    "Jim": 6224,
    "Häus@@": 6225,
    "Hub@@": 6226,
    "Gras": 6227,
    "Falls": 6228,
    "Experi@@": 6229,
    "Eur@@": 6230,
    "Emp@@": 6231,
    "Druck": 6232,
    "Dig@@": 6233,
    "Clin@@": 6234,
    "Chil@@": 6235,
    "verlei@@": 6236,
    "verbra@@": 6237,
    "vention@@": 6238,
    "trag": 6239,
    "theit": 6240,
    "sätze": 6241,
    "ologen": 6242,
    "notwen@@": 6243,
    "mont": 6244,
    "mmern": 6245,
    "mechan@@": 6246,
    "länger": 6247,
    "höhere": 6248,
    "grenze": 6249,
    "est": 6250,
    "deinen": 6251,
    "befeh@@": 6252,
    "attra@@": 6253,
    "Vergleich": 6254,
    "Touristen": 6255,
    "Ski@@": 6256,
    "Schne@@": 6257,
    "Offen@@": 6258,
    "Männchen": 6259,
    "Mitt@@": 6260,
    "Millionen": 6261,
    "Micro@@": 6262,
    "Leuten": 6263,
    "Leh@@": 6264,
    "Konzep@@": 6265,
    "Kommand@@": 6266,
    "Imm@@": 6267,
    "Häuf@@": 6268,
    "Hart@@": 6269,
    "Hafen": 6270,
    "Gymna@@": 6271,
    "Feder@@": 6272,
    "Energie": 6273,
    "Bezeichnung": 6274,
    "Benutz@@": 6275,
    "Beiträge": 6276,
    "öß@@": 6277,
    "öffent@@": 6278,
    "Ägyp@@": 6279,
    "ziert": 6280,
    "wahl": 6281,
    "view": 6282,
    "teilt": 6283,
    "stische": 6284,
    "sport": 6285,
    "riesigen": 6286,
    "ood": 6287,
    "off": 6288,
    "natürliche": 6289,
    "män@@": 6290,
    "markt": 6291,
    "liebt": 6292,
    "liber@@": 6293,
    "lassung": 6294,
    "lan": 6295,
    "korre@@": 6296,
    "ini": 6297,
    "igt": 6298,
    "hom@@": 6299,
    "gramm": 6300,
    "gelassen": 6301,
    "ffs": 6302,
    "ess": 6303,
    "daille": 6304,
    "bereitet": 6305,
    "benachbar@@": 6306,
    "beliebtes": 6307,
    "ask@@": 6308,
    "Zahn@@": 6309,
    "Wegen": 6310,
    "Spezies": 6311,
    "Schwier@@": 6312,
    "Ricardo": 6313,
    "Pseu@@": 6314,
    "Meer": 6315,
    "M.": 6316,
    "Lou@@": 6317,
    "Kanal": 6318,
    "Gä@@": 6319,
    "Folgen": 6320,
    "B": 6321,
    "Aufgaben": 6322,
    "As@@": 6323,
    "Angebot": 6324,
    "Anführer": 6325,
    "Americ@@": 6326,
    "verwir@@": 6327,
    "verblei@@": 6328,
    "une": 6329,
    "struktur": 6330,
    "sprin@@": 6331,
    "sollen": 6332,
    "serie": 6333,
    "schirm": 6334,
    "rige": 6335,
    "reicht": 6336,
    "private": 6337,
    "positi@@": 6338,
    "online": 6339,
    "nütz@@": 6340,
    "lub": 6341,
    "katholischen": 6342,
    "jährigen": 6343,
    "inform@@": 6344,
    "ian": 6345,
    "hilfe": 6346,
    "genutzt": 6347,
    "gender": 6348,
    "cial": 6349,
    "chtete": 6350,
    "bul@@": 6351,
    "blü@@": 6352,
    "bekanntesten": 6353,
    "ammer": 6354,
    "ames": 6355,
    "alter@@": 6356,
    "absol@@": 6357,
    "Weibchen": 6358,
    "Water@@": 6359,
    "W.": 6360,
    "Ufer": 6361,
    "Studien@@": 6362,
    "Ori@@": 6363,
    "Ordnung": 6364,
    "Oran@@": 6365,
    "Nig@@": 6366,
    "Myth@@": 6367,
    "Mig@@": 6368,
    "Maschinen@@": 6369,
    "Log@@": 6370,
    "Les@@": 6371,
    "Handel": 6372,
    "Florida": 6373,
    "Fernsehen": 6374,
    "Ear@@": 6375,
    "Dir@@": 6376,
    "Bang@@": 6377,
    "Avenue": 6378,
    "Aqu@@": 6379,
    "Amate@@": 6380,
    "ältesten": 6381,
    "wards": 6382,
    "verschiedener": 6383,
    "umgeben": 6384,
    "stren@@": 6385,
    "rup@@": 6386,
    "rieben": 6387,
    "olz": 6388,
    "ki": 6389,
    "italienischen": 6390,
    "ines": 6391,
    "ind": 6392,
    "günst@@": 6393,
    "gewöhnliche": 6394,
    "füllt": 6395,
    "ester": 6396,
    "ermu@@": 6397,
    "erhält": 6398,
    "eigentlich": 6399,
    "diag@@": 6400,
    "cs": 6401,
    "breite": 6402,
    "bein@@": 6403,
    "aum": 6404,
    "arab@@": 6405,
    "analy@@": 6406,
    "ake": 6407,
    "Wör@@": 6408,
    "Vil@@": 6409,
    "Verkauf": 6410,
    "Singles": 6411,
    "Sehr": 6412,
    "Revolution": 6413,
    "Pir@@": 6414,
    "Länge": 6415,
    "Leider": 6416,
    "Klima": 6417,
    "Geschäfte": 6418,
    "Gegenstand": 6419,
    "Freien": 6420,
    "Francis": 6421,
    "Flor@@": 6422,
    "Cous@@": 6423,
    "Buff@@": 6424,
    "Australi@@": 6425,
    "äden": 6426,
    "wes@@": 6427,
    "vielfäl@@": 6428,
    "verrin@@": 6429,
    "verfügen": 6430,
    "verbunden": 6431,
    "unterscheidet": 6432,
    "trock@@": 6433,
    "tradition@@": 6434,
    "strecke": 6435,
    "sters": 6436,
    "richtete": 6437,
    "ografie": 6438,
    "natür@@": 6439,
    "mmet@@": 6440,
    "lediglich": 6441,
    "kandi@@": 6442,
    "jüdischen": 6443,
    "jährliche": 6444,
    "inischen": 6445,
    "genauso": 6446,
    "führungen": 6447,
    "funk@@": 6448,
    "flei@@": 6449,
    "europä@@": 6450,
    "bzw.": 6451,
    "bisch@@": 6452,
    "ax@@": 6453,
    "annen": 6454,
    "Zun@@": 6455,
    "Wahlen": 6456,
    "Vorsitz@@": 6457,
    "Verkehrs@@": 6458,
    "Vaters": 6459,
    "Tok@@": 6460,
    "Stör@@": 6461,
    "Spar@@": 6462,
    "September": 6463,
    "Sax@@": 6464,
    "Platten@@": 6465,
    "Mitglied@@": 6466,
    "Mischung": 6467,
    "Materi@@": 6468,
    "Kontakt": 6469,
    "Kampagne": 6470,
    "H.": 6471,
    "Gor@@": 6472,
    "Geben": 6473,
    "Fri@@": 6474,
    "Flugzeuge": 6475,
    "Don": 6476,
    "Besatzung": 6477,
    "Absolv@@": 6478,
    "äche": 6479,
    "zweif@@": 6480,
    "zehn@@": 6481,
    "ystemen": 6482,
    "wan": 6483,
    "verst@@": 6484,
    "ua": 6485,
    "typischerweise": 6486,
    "sucht": 6487,
    "springen": 6488,
    "sozialen": 6489,
    "sonst": 6490,
    "sem@@": 6491,
    "reu@@": 6492,
    "regionale": 6493,
    "pper": 6494,
    "omi@@": 6495,
    "menschliche": 6496,
    "kin": 6497,
    "hergestellt": 6498,
    "gewal@@": 6499,
    "getr@@": 6500,
    "ession@@": 6501,
    "direkte": 6502,
    "dauert": 6503,
    "darin": 6504,
    "daraus": 6505,
    "aktuell": 6506,
    "Yu@@": 6507,
    "Western": 6508,
    "Wahrheit": 6509,
    "Tak@@": 6510,
    "Straf@@": 6511,
    "Spitz@@": 6512,
    "Schna@@": 6513,
    "Rog@@": 6514,
    "Rel@@": 6515,
    "Multi@@": 6516,
    "Kein": 6517,
    "Kau@@": 6518,
    "Integr@@": 6519,
    "Herkunft": 6520,
    "Flüssig@@": 6521,
    "Elizabeth": 6522,
    "Ehemann": 6523,
    "Dach": 6524,
    "Cy@@": 6525,
    "By@@": 6526,
    "Besucher": 6527,
    "Angeb@@": 6528,
    "ücken": 6529,
    "yd": 6530,
    "wich": 6531,
    "terer": 6532,
    "q@@": 6533,
    "promin@@": 6534,
    "pla@@": 6535,
    "pen": 6536,
    "mili@@": 6537,
    "konzentrierte": 6538,
    "klassischen": 6539,
    "keiner": 6540,
    "hinterließ": 6541,
    "gehalten": 6542,
    "filme": 6543,
    "eum": 6544,
    "etische": 6545,
    "erwies": 6546,
    "erinnert": 6547,
    "entsprech@@": 6548,
    "enter": 6549,
    "beobachtet": 6550,
    "beliebte": 6551,
    "abger@@": 6552,
    "Zwischen": 6553,
    "Zauber@@": 6554,
    "Young": 6555,
    "Vul@@": 6556,
    "Tour": 6557,
    "Tig@@": 6558,
    "Tam@@": 6559,
    "Spezial@@": 6560,
    "Sam": 6561,
    "Ron@@": 6562,
    "Pur@@": 6563,
    "Musikvide@@": 6564,
    "Magazin": 6565,
    "Latein@@": 6566,
    "Karte": 6567,
    "Jemand": 6568,
    "Irland": 6569,
    "Identi@@": 6570,
    "Generation": 6571,
    "Gebur@@": 6572,
    "Fris@@": 6573,
    "Bol@@": 6574,
    "Bill@@": 6575,
    "Besetzung": 6576,
    "Berichten": 6577,
    "Af@@": 6578,
    "Aber@@": 6579,
    "ßer": 6580,
    "zerr@@": 6581,
    "zentrale": 6582,
    "wick": 6583,
    "wesen": 6584,
    "verlän@@": 6585,
    "uth": 6586,
    "traum": 6587,
    "sey": 6588,
    "sahen": 6589,
    "russischen": 6590,
    "raten": 6591,
    "orienti@@": 6592,
    "nehmer": 6593,
    "musik": 6594,
    "leuch@@": 6595,
    "laut": 6596,
    "klassische": 6597,
    "hau@@": 6598,
    "genaue": 6599,
    "gebro@@": 6600,
    "ftung": 6601,
    "erungs@@": 6602,
    "erfolgte": 6603,
    "eingeschrän@@": 6604,
    "durchschnit@@": 6605,
    "digkeit": 6606,
    "brauchen": 6607,
    "bewe@@": 6608,
    "benutzt": 6609,
    "Zell@@": 6610,
    "Wü@@": 6611,
    "Wetter@@": 6612,
    "Stie@@": 6613,
    "Sobald": 6614,
    "Snow@@": 6615,
    "Senator": 6616,
    "Produktions@@": 6617,
    "Partner": 6618,
    "Nehmen": 6619,
    "Mittel": 6620,
    "Leucht@@": 6621,
    "Leicht@@": 6622,
    "Ken@@": 6623,
    "Italien": 6624,
    "Hä@@": 6625,
    "Grundschule": 6626,
    "Geburt": 6627,
    "Frieden": 6628,
    "Erei@@": 6629,
    "Blätter": 6630,
    "ährung": 6631,
    "zun@@": 6632,
    "zess@@": 6633,
    "vorsichtig": 6634,
    "standen": 6635,
    "schwör@@": 6636,
    "phen": 6637,
    "ok": 6638,
    "maßen": 6639,
    "kungen": 6640,
    "kung": 6641,
    "indi@@": 6642,
    "ical": 6643,
    "helfen": 6644,
    "genannte": 6645,
    "gegangen": 6646,
    "fir@@": 6647,
    "essi@@": 6648,
    "erwachsen@@": 6649,
    "elf": 6650,
    "bun@@": 6651,
    "bessere": 6652,
    "beliebter": 6653,
    "amerikan@@": 6654,
    "Vieh@@": 6655,
    "Var@@": 6656,
    "Untersuch@@": 6657,
    "Tatsächlich": 6658,
    "Rho@@": 6659,
    "Mos@@": 6660,
    "Mobil@@": 6661,
    "Kei@@": 6662,
    "Gär@@": 6663,
    "Flüsse": 6664,
    "Elektro@@": 6665,
    "Dy@@": 6666,
    "Block@@": 6667,
    "Änderung": 6668,
    "zukün@@": 6669,
    "zeugen": 6670,
    "vorüber@@": 6671,
    "uther@@": 6672,
    "system": 6673,
    "staat@@": 6674,
    "sowjet@@": 6675,
    "schä@@": 6676,
    "schwere": 6677,
    "schott@@": 6678,
    "riesi@@": 6679,
    "produktion": 6680,
    "position": 6681,
    "ographie": 6682,
    "musikal@@": 6683,
    "litt": 6684,
    "ktr@@": 6685,
    "kore@@": 6686,
    "jahr": 6687,
    "ium": 6688,
    "istan": 6689,
    "iss": 6690,
    "iko": 6691,
    "gemischte": 6692,
    "gefäl@@": 6693,
    "farben": 6694,
    "erlei@@": 6695,
    "erfordert": 6696,
    "elli@@": 6697,
    "afrikan@@": 6698,
    "Wik@@": 6699,
    "Unterschiede": 6700,
    "Trotzdem": 6701,
    "Statue": 6702,
    "Spra@@": 6703,
    "Past@@": 6704,
    "Nick@@": 6705,
    "Möglichkeit": 6706,
    "Minder@@": 6707,
    "Kontin@@": 6708,
    "Independent": 6709,
    "Immobili@@": 6710,
    "Gründungs@@": 6711,
    "Führung": 6712,
    "Fäh@@": 6713,
    "Fast": 6714,
    "Eli@@": 6715,
    "Dorfes": 6716,
    "De": 6717,
    "Dave": 6718,
    "Dampf@@": 6719,
    "Bö@@": 6720,
    "Bek@@": 6721,
    "Albert": 6722,
    "ütze": 6723,
    "Öster@@": 6724,
    "züglich": 6725,
    "zem": 6726,
    "yne": 6727,
    "weiten": 6728,
    "verab@@": 6729,
    "unterscheiden": 6730,
    "unabhängigen": 6731,
    "trugen": 6732,
    "traditionell": 6733,
    "tage": 6734,
    "siden@@": 6735,
    "schreiben": 6736,
    "räger": 6737,
    "rise": 6738,
    "menten": 6739,
    "ländlichen": 6740,
    "kleineren": 6741,
    "herausra@@": 6742,
    "halbe": 6743,
    "gestern": 6744,
    "gelt": 6745,
    "gebau@@": 6746,
    "ganzes": 6747,
    "fürwor@@": 6748,
    "fällig": 6749,
    "ftig": 6750,
    "frucht@@": 6751,
    "esten": 6752,
    "erungen": 6753,
    "erheblich": 6754,
    "eli@@": 6755,
    "drau@@": 6756,
    "cer": 6757,
    "bran@@": 6758,
    "berück@@": 6759,
    "begrün@@": 6760,
    "Zuvor": 6761,
    "Vit@@": 6762,
    "Veget@@": 6763,
    "Urein@@": 6764,
    "Töchter": 6765,
    "Tests": 6766,
    "Sympt@@": 6767,
    "Schokol@@": 6768,
    "Schatten": 6769,
    "Rang": 6770,
    "Phän@@": 6771,
    "Orten": 6772,
    "Oberteil": 6773,
    "My": 6774,
    "Leitung": 6775,
    "Leit@@": 6776,
    "Kindheit": 6777,
    "Jedoch": 6778,
    "Isa@@": 6779,
    "Gegner": 6780,
    "Frem@@": 6781,
    "Flag@@": 6782,
    "Europä@@": 6783,
    "Eisenbahn": 6784,
    "Definition": 6785,
    "Dal@@": 6786,
    "Clubs": 6787,
    "Boule@@": 6788,
    "Bahn": 6789,
    "zahlen": 6790,
    "verwaltung": 6791,
    "urs": 6792,
    "ura": 6793,
    "uen": 6794,
    "taus@@": 6795,
    "sy@@": 6796,
    "sions@@": 6797,
    "richtigen": 6798,
    "programm": 6799,
    "plätze": 6800,
    "otyp@@": 6801,
    "orie": 6802,
    "lös@@": 6803,
    "kraft": 6804,
    "kanad@@": 6805,
    "kan": 6806,
    "häufiger": 6807,
    "hilft": 6808,
    "hers": 6809,
    "fur@@": 6810,
    "fter": 6811,
    "frühe@@": 6812,
    "fotograf@@": 6813,
    "folgen": 6814,
    "fizierte": 6815,
    "etzung": 6816,
    "basierte": 6817,
    "artige": 6818,
    "alisierung": 6819,
    "Wy@@": 6820,
    "Situ@@": 6821,
    "Shows": 6822,
    "Premi@@": 6823,
    "Platt@@": 6824,
    "Philipp@@": 6825,
    "Mör@@": 6826,
    "Matthe@@": 6827,
    "Lich@@": 6828,
    "Leiden@@": 6829,
    "Küh@@": 6830,
    "Kreu@@": 6831,
    "Inse@@": 6832,
    "Innenstadt": 6833,
    "Händen": 6834,
    "Hat@@": 6835,
    "Gewinner": 6836,
    "Gesamt@@": 6837,
    "Gelehr@@": 6838,
    "Ful@@": 6839,
    "Exe@@": 6840,
    "Erwachsene": 6841,
    "Code": 6842,
    "Bäume": 6843,
    "Berat@@": 6844,
    "Autobahn": 6845,
    "Alli@@": 6846,
    "ähnelt": 6847,
    "verbindet": 6848,
    "ulation": 6849,
    "täglich": 6850,
    "städtischen": 6851,
    "strö@@": 6852,
    "sozial@@": 6853,
    "rische": 6854,
    "rei": 6855,
    "protest@@": 6856,
    "pin@@": 6857,
    "ower": 6858,
    "mäßige": 6859,
    "mittleren": 6860,
    "massi@@": 6861,
    "lemen@@": 6862,
    "lehnt": 6863,
    "landes@@": 6864,
    "krieg": 6865,
    "krat@@": 6866,
    "iser@@": 6867,
    "ike": 6868,
    "gänger": 6869,
    "grü@@": 6870,
    "griech@@": 6871,
    "gemäß@@": 6872,
    "fuß@@": 6873,
    "fragen": 6874,
    "erter": 6875,
    "entsprechend": 6876,
    "bst": 6877,
    "blät@@": 6878,
    "Zeitungen": 6879,
    "Wilson": 6880,
    "Wand": 6881,
    "Victoria": 6882,
    "Verschiedene": 6883,
    "Trupp@@": 6884,
    "Transport": 6885,
    "Tha@@": 6886,
    "Symbol@@": 6887,
    "Studio": 6888,
    "Stoff@@": 6889,
    "Squ@@": 6890,
    "Sport": 6891,
    "Schlä@@": 6892,
    "Satelli@@": 6893,
    "Rhyth@@": 6894,
    "Pfund": 6895,
    "Ohio": 6896,
    "Niederlan@@": 6897,
    "Nachricht": 6898,
    "Kabin@@": 6899,
    "God@@": 6900,
    "Fund@@": 6901,
    "Französisch": 6902,
    "Format": 6903,
    "Expre@@": 6904,
    "Caf@@": 6905,
    "Bürgersteig": 6906,
    "Auftritte": 6907,
    "Abendessen": 6908,
    "örtliche": 6909,
    "ätten": 6910,
    "ziger": 6911,
    "zeichneten": 6912,
    "verfahren": 6913,
    "stätte": 6914,
    "stungs@@": 6915,
    "spezif@@": 6916,
    "soli@@": 6917,
    "rot": 6918,
    "punkte": 6919,
    "posiert": 6920,
    "port": 6921,
    "orthodo@@": 6922,
    "liest": 6923,
    "lab@@": 6924,
    "kretär": 6925,
    "industrie": 6926,
    "hundert@@": 6927,
    "erklärt": 6928,
    "einziges": 6929,
    "dramat@@": 6930,
    "chtes": 6931,
    "bew@@": 6932,
    "betrieben": 6933,
    "belie@@": 6934,
    "aker": 6935,
    "Veränder@@": 6936,
    "Turnier": 6937,
    "Toron@@": 6938,
    "Tee": 6939,
    "Sul@@": 6940,
    "Streitkräfte": 6941,
    "Sla@@": 6942,
    "Schle@@": 6943,
    "S.": 6944,
    "Ry@@": 6945,
    "Programmier@@": 6946,
    "Posi@@": 6947,
    "Panz@@": 6948,
    "Merk@@": 6949,
    "Mensch": 6950,
    "Loch": 6951,
    "Label": 6952,
    "Kreis": 6953,
    "Kalk@@": 6954,
    "Kab@@": 6955,
    "Howard": 6956,
    "Graf@@": 6957,
    "Geschen@@": 6958,
    "Gerü@@": 6959,
    "Forts@@": 6960,
    "Etwa": 6961,
    "Bischof": 6962,
    "Anhän@@": 6963,
    "überprü@@": 6964,
    "ändern": 6965,
    "zit@@": 6966,
    "wohlha@@": 6967,
    "weis": 6968,
    "utzt": 6969,
    "up": 6970,
    "trot@@": 6971,
    "suchte": 6972,
    "strat@@": 6973,
    "stin": 6974,
    "schwemm@@": 6975,
    "reiste": 6976,
    "phil@@": 6977,
    "nungen": 6978,
    "mak@@": 6979,
    "lichsten": 6980,
    "legung": 6981,
    "kämpfen": 6982,
    "gewe@@": 6983,
    "geschätz@@": 6984,
    "gelegt": 6985,
    "funktioniert": 6986,
    "disku@@": 6987,
    "brille": 6988,
    "blüh@@": 6989,
    "bemerkenswer@@": 6990,
    "bekannter": 6991,
    "bares": 6992,
    "atische": 6993,
    "ampe": 6994,
    "able": 6995,
    "Wie@@": 6996,
    "Waffe": 6997,
    "Verkehr": 6998,
    "Ven@@": 6999,
    "Variante": 7000,
    "Top": 7001,
    "Tick@@": 7002,
    "Soc@@": 7003,
    "Shorts": 7004,
    "Schlu@@": 7005,
    "Pier@@": 7006,
    "Oxford": 7007,
    "Orte": 7008,
    "Medikam@@": 7009,
    "Mars@@": 7010,
    "Law@@": 7011,
    "Kas@@": 7012,
    "Kamp@@": 7013,
    "Geschwi@@": 7014,
    "Gefühl": 7015,
    "Gab@@": 7016,
    "Erfin@@": 7017,
    "Deta@@": 7018,
    "Common@@": 7019,
    "Brian": 7020,
    "Behaup@@": 7021,
    "äuß@@": 7022,
    "verursacht": 7023,
    "trotz": 7024,
    "tain": 7025,
    "stellungs@@": 7026,
    "spezifische": 7027,
    "spanischen": 7028,
    "sh": 7029,
    "sang": 7030,
    "ruhig": 7031,
    "rasch": 7032,
    "pp": 7033,
    "orangefarbenen": 7034,
    "ora": 7035,
    "manchen": 7036,
    "klo@@": 7037,
    "jüngste": 7038,
    "irischen": 7039,
    "igste": 7040,
    "gewonnen": 7041,
    "gesamm@@": 7042,
    "gemeinsame": 7043,
    "gegenseitig": 7044,
    "erfol@@": 7045,
    "eo": 7046,
    "enes": 7047,
    "burn": 7048,
    "beliebt": 7049,
    "barer": 7050,
    "ates": 7051,
    "assten": 7052,
    "ani": 7053,
    "Ziele": 7054,
    "Wohltätigkeits@@": 7055,
    "Wohl@@": 7056,
    "Wissenschaftler": 7057,
    "Vok@@": 7058,
    "Veter@@": 7059,
    "Varianten": 7060,
    "Unterricht": 7061,
    "Typ": 7062,
    "Toronto": 7063,
    "Schriften": 7064,
    "Schrei@@": 7065,
    "Schlei@@": 7066,
    "Sche@@": 7067,
    "Ruhe@@": 7068,
    "Rechte": 7069,
    "Rebel@@": 7070,
    "Premierminister": 7071,
    "Med@@": 7072,
    "Londoner": 7073,
    "Liv@@": 7074,
    "Leon@@": 7075,
    "Jenn@@": 7076,
    "Je": 7077,
    "Illustr@@": 7078,
    "Grab": 7079,
    "Forest": 7080,
    "Flügel": 7081,
    "Dörfer": 7082,
    "Domin@@": 7083,
    "Behörden": 7084,
    "Bachel@@": 7085,
    "Ausnahme": 7086,
    "April": 7087,
    "wort": 7088,
    "wirt@@": 7089,
    "weißem": 7090,
    "weigerte": 7091,
    "weich@@": 7092,
    "text": 7093,
    "teres": 7094,
    "spu@@": 7095,
    "solcher": 7096,
    "ski": 7097,
    "sis": 7098,
    "singt": 7099,
    "schlu@@": 7100,
    "ren": 7101,
    "orts": 7102,
    "ool": 7103,
    "omie": 7104,
    "musikalische": 7105,
    "medizinische": 7106,
    "legten": 7107,
    "illeg@@": 7108,
    "illa": 7109,
    "iertes": 7110,
    "ieller": 7111,
    "ichtete": 7112,
    "hum@@": 7113,
    "gewannen": 7114,
    "geschäft": 7115,
    "frem@@": 7116,
    "endlich": 7117,
    "dynam@@": 7118,
    "benötigen": 7119,
    "bens@@": 7120,
    "back": 7121,
    "You": 7122,
    "Widerstand": 7123,
    "War": 7124,
    "Verteidigung": 7125,
    "Urhe@@": 7126,
    "Teenager": 7127,
    "Sym@@": 7128,
    "Strö@@": 7129,
    "Spen@@": 7130,
    "Spaß": 7131,
    "Schloss": 7132,
    "Samuel": 7133,
    "Rh@@": 7134,
    "Normalerweise": 7135,
    "Nik@@": 7136,
    "Mannschaften": 7137,
    "Kel@@": 7138,
    "Kandi@@": 7139,
    "Irgend@@": 7140,
    "Initi@@": 7141,
    "Hypothe@@": 7142,
    "Herausgeber": 7143,
    "Golf": 7144,
    "Gedichte": 7145,
    "Fleisch": 7146,
    "Flam@@": 7147,
    "Finn@@": 7148,
    "Crick@@": 7149,
    "Büros": 7150,
    "Bundesstaat@@": 7151,
    "Besuch": 7152,
    "Ank@@": 7153,
    "wöchent@@": 7154,
    "wirkt": 7155,
    "wettbewer@@": 7156,
    "titel": 7157,
    "tausend": 7158,
    "sts": 7159,
    "sky": 7160,
    "schwan@@": 7161,
    "ron": 7162,
    "opro@@": 7163,
    "offenen": 7164,
    "nachts": 7165,
    "militärische": 7166,
    "ingham": 7167,
    "hall": 7168,
    "gemeins@@": 7169,
    "entschieden": 7170,
    "deln": 7171,
    "com": 7172,
    "bour@@": 7173,
    "beginnen": 7174,
    "austral@@": 7175,
    "Zie@@": 7176,
    "Wesentlichen": 7177,
    "Verd@@": 7178,
    "Unabhäng@@": 7179,
    "Thor@@": 7180,
    "Sydney": 7181,
    "Sonntag": 7182,
    "Restaurants": 7183,
    "Papier": 7184,
    "Olympischen": 7185,
    "Nachfol@@": 7186,
    "Mord": 7187,
    "Liver@@": 7188,
    "Leistungen": 7189,
    "Konfer@@": 7190,
    "Juni": 7191,
    "Institute": 7192,
    "Industrie": 7193,
    "Greg@@": 7194,
    "Dollar": 7195,
    "Bord": 7196,
    "Ble@@": 7197,
    "Bevölkerungs@@": 7198,
    "Bemühungen": 7199,
    "ürzte": 7200,
    "Öff@@": 7201,
    "wu@@": 7202,
    "wil@@": 7203,
    "vermut@@": 7204,
    "umb@@": 7205,
    "staatlichen": 7206,
    "sorgt": 7207,
    "ris": 7208,
    "pul@@": 7209,
    "phys@@": 7210,
    "oti@@": 7211,
    "mouth": 7212,
    "maschin@@": 7213,
    "komme": 7214,
    "ischsprach@@": 7215,
    "heißen": 7216,
    "gericht": 7217,
    "fertig": 7218,
    "eingesch@@": 7219,
    "dition": 7220,
    "bezeichnete": 7221,
    "behandelt": 7222,
    "ags": 7223,
    "Zuhause": 7224,
    "Ziegel@@": 7225,
    "Stamm": 7226,
    "Rücken": 7227,
    "Rezen@@": 7228,
    "Regeln": 7229,
    "Ray@@": 7230,
    "Pitts@@": 7231,
    "Param@@": 7232,
    "Manchester": 7233,
    "Kurse": 7234,
    "Handlung": 7235,
    "Gewin@@": 7236,
    "Gefan@@": 7237,
    "Ford": 7238,
    "First": 7239,
    "Finger": 7240,
    "Ero@@": 7241,
    "Eigentümer": 7242,
    "Doktor@@": 7243,
    "Carr@@": 7244,
    "Bag@@": 7245,
    "Association": 7246,
    "üm@@": 7247,
    "wollten": 7248,
    "welt": 7249,
    "stischen": 7250,
    "sphäre": 7251,
    "soziale": 7252,
    "silien": 7253,
    "schung": 7254,
    "schickte": 7255,
    "ord": 7256,
    "neter": 7257,
    "leistungs@@": 7258,
    "katholische": 7259,
    "j": 7260,
    "industr@@": 7261,
    "ily": 7262,
    "iers": 7263,
    "ica": 7264,
    "häng@@": 7265,
    "gebe": 7266,
    "existiert": 7267,
    "erlitt": 7268,
    "einzelne": 7269,
    "besuchen": 7270,
    "bedient": 7271,
    "angrenz@@": 7272,
    "Wissen@@": 7273,
    "Wahrschein@@": 7274,
    "Vin@@": 7275,
    "Verlust": 7276,
    "Verhäl@@": 7277,
    "Vergn@@": 7278,
    "Trag@@": 7279,
    "Skulpt@@": 7280,
    "Rein@@": 7281,
    "Piz@@": 7282,
    "Passag@@": 7283,
    "November": 7284,
    "Nordosten": 7285,
    "Netzwerk": 7286,
    "Mathematik": 7287,
    "Materialien": 7288,
    "Lande@@": 7289,
    "Kommission": 7290,
    "Kok@@": 7291,
    "Is": 7292,
    "Innov@@": 7293,
    "Große": 7294,
    "Gipfel": 7295,
    "Gespräch": 7296,
    "Freiwilli@@": 7297,
    "Francisco": 7298,
    "Erweiterung": 7299,
    "Episoden": 7300,
    "Entwicklungs@@": 7301,
    "Einführung": 7302,
    "Dör@@": 7303,
    "Dr@@": 7304,
    "Cowbo@@": 7305,
    "Bos@@": 7306,
    "Beru@@": 7307,
    "Bereiche": 7308,
    "Aven@@": 7309,
    "Arab@@": 7310,
    "ünst@@": 7311,
    "wissenschaften": 7312,
    "wechselte": 7313,
    "wartet": 7314,
    "unterhalten": 7315,
    "strie@@": 7316,
    "stan@@": 7317,
    "spez@@": 7318,
    "sorgfäl@@": 7319,
    "schlechte": 7320,
    "regionalen": 7321,
    "region@@": 7322,
    "pä@@": 7323,
    "passt": 7324,
    "messer": 7325,
    "mehrerer": 7326,
    "iv": 7327,
    "grauen": 7328,
    "fröh@@": 7329,
    "flächen": 7330,
    "flex@@": 7331,
    "faszin@@": 7332,
    "farb@@": 7333,
    "erson": 7334,
    "erseits": 7335,
    "drückt": 7336,
    "adi@@": 7337,
    "Zweiten": 7338,
    "Zwe@@": 7339,
    "Zo@@": 7340,
    "Wär@@": 7341,
    "Wäh@@": 7342,
    "Volk": 7343,
    "Verein": 7344,
    "Unfall": 7345,
    "Tausende": 7346,
    "Stephen": 7347,
    "Spir@@": 7348,
    "Sechs": 7349,
    "Schwerpunkt": 7350,
    "Olymp@@": 7351,
    "Möchten": 7352,
    "Kongress": 7353,
    "Kathedrale": 7354,
    "Gur@@": 7355,
    "Gru@@": 7356,
    "Grafik@@": 7357,
    "Good@@": 7358,
    "Fälle": 7359,
    "Flagge": 7360,
    "Fei@@": 7361,
    "Einschrän@@": 7362,
    "Dän@@": 7363,
    "Daniel": 7364,
    "Beweise": 7365,
    "Arzt": 7366,
    "Are@@": 7367,
    "Amer@@": 7368,
    "özese": 7369,
    "äuch@@": 7370,
    "wissenschaftlichen": 7371,
    "wasser": 7372,
    "tle": 7373,
    "terie": 7374,
    "ssystem": 7375,
    "spät": 7376,
    "somit": 7377,
    "rou@@": 7378,
    "romant@@": 7379,
    "plötzlich": 7380,
    "ook": 7381,
    "mehrmals": 7382,
    "lebende": 7383,
    "küste": 7384,
    "konkurr@@": 7385,
    "klar": 7386,
    "jewei@@": 7387,
    "ills": 7388,
    "handlungen": 7389,
    "gramme": 7390,
    "gigen": 7391,
    "gewählt": 7392,
    "gestrei@@": 7393,
    "gekenn@@": 7394,
    "fühlt": 7395,
    "entdeckt": 7396,
    "einfachen": 7397,
    "dus": 7398,
    "dunk@@": 7399,
    "dokum@@": 7400,
    "diver@@": 7401,
    "chts@@": 7402,
    "blauem": 7403,
    "blau": 7404,
    "behielt": 7405,
    "beeinträch@@": 7406,
    "basis": 7407,
    "ba": 7408,
    "ason": 7409,
    "anwalt": 7410,
    "ac": 7411,
    "Zul@@": 7412,
    "Winn@@": 7413,
    "Wechsel@@": 7414,
    "Wasserst@@": 7415,
    "Wales": 7416,
    "Vorschlag": 7417,
    "Tin@@": 7418,
    "Symbol": 7419,
    "Stadtrat": 7420,
    "Rom": 7421,
    "Prinz": 7422,
    "Phase": 7423,
    "Penn@@": 7424,
    "Kub@@": 7425,
    "Johnny": 7426,
    "Historiker": 7427,
    "Für@@": 7428,
    "Fox": 7429,
    "Fabri@@": 7430,
    "Chron@@": 7431,
    "Ankunft": 7432,
    "Algorith@@": 7433,
    "wirtschaftliche": 7434,
    "wiederholt": 7435,
    "weibliche": 7436,
    "vers": 7437,
    "utzte": 7438,
    "tätig": 7439,
    "trainer": 7440,
    "tnisse": 7441,
    "sack": 7442,
    "religiösen": 7443,
    "rein": 7444,
    "quar@@": 7445,
    "priv@@": 7446,
    "prakt@@": 7447,
    "nissen": 7448,
    "nennt": 7449,
    "mögliche": 7450,
    "monat@@": 7451,
    "inten@@": 7452,
    "gon": 7453,
    "glücklich": 7454,
    "genehmi@@": 7455,
    "gehol@@": 7456,
    "gefer@@": 7457,
    "fünfzehn": 7458,
    "fas@@": 7459,
    "exter@@": 7460,
    "etab@@": 7461,
    "cro@@": 7462,
    "col@@": 7463,
    "chent@@": 7464,
    "brä@@": 7465,
    "blaue": 7466,
    "berühmt": 7467,
    "anhand": 7468,
    "alisierte": 7469,
    "akter@@": 7470,
    "Ye@@": 7471,
    "Walter": 7472,
    "Völ@@": 7473,
    "Tol@@": 7474,
    "Schnit@@": 7475,
    "Radios@@": 7476,
    "Post": 7477,
    "Pause": 7478,
    "Muster": 7479,
    "Motto": 7480,
    "Love": 7481,
    "Linien": 7482,
    "Len@@": 7483,
    "Jugend": 7484,
    "Interpre@@": 7485,
    "Großen": 7486,
    "Großbritann@@": 7487,
    "Geschwindigkeit": 7488,
    "Fotos": 7489,
    "Erfahrungen": 7490,
    "Entde@@": 7491,
    "Daraufhin": 7492,
    "Charl@@": 7493,
    "Cambridge": 7494,
    "Berk@@": 7495,
    "Ben": 7496,
    "Außer@@": 7497,
    "Auff@@": 7498,
    "zif@@": 7499,
    "wahlen": 7500,
    "version": 7501,
    "undenen": 7502,
    "tt": 7503,
    "tagen": 7504,
    "symbol@@": 7505,
    "startete": 7506,
    "spon@@": 7507,
    "sende": 7508,
    "schottischen": 7509,
    "rele@@": 7510,
    "onn@@": 7511,
    "onal": 7512,
    "nächstgelegenen": 7513,
    "nami@@": 7514,
    "mittelalter@@": 7515,
    "latz": 7516,
    "ktur": 7517,
    "kins": 7518,
    "geg@@": 7519,
    "fakt@@": 7520,
    "exper@@": 7521,
    "erium": 7522,
    "einfluss@@": 7523,
    "char@@": 7524,
    "brauchte": 7525,
    "blie@@": 7526,
    "artigen": 7527,
    "anna": 7528,
    "ahn": 7529,
    "absolut": 7530,
    "Wettervorhersage": 7531,
    "Vogel": 7532,
    "Veränderungen": 7533,
    "Verteidigungs@@": 7534,
    "Tap@@": 7535,
    "Stimmen": 7536,
    "Stellen": 7537,
    "Staff@@": 7538,
    "Schalt@@": 7539,
    "Raub@@": 7540,
    "Preise": 7541,
    "Pennsylvania": 7542,
    "Oze@@": 7543,
    "Opposi@@": 7544,
    "Neuseeland": 7545,
    "Mü@@": 7546,
    "Musli@@": 7547,
    "Mrs.": 7548,
    "Moh@@": 7549,
    "Mai": 7550,
    "Kult@@": 7551,
    "Kos@@": 7552,
    "Korre@@": 7553,
    "Institut": 7554,
    "Inf@@": 7555,
    "Hig@@": 7556,
    "Haaren": 7557,
    "Gren@@": 7558,
    "Gesang": 7559,
    "Fahrzeug": 7560,
    "Fahrt": 7561,
    "Ereignis": 7562,
    "D.": 7563,
    "Chap@@": 7564,
    "Beitrag": 7565,
    "Beach": 7566,
    "Autom@@": 7567,
    "Auswahl": 7568,
    "Aufzeichnungen": 7569,
    "Auftr@@": 7570,
    "Architektur": 7571,
    "Andy": 7572,
    "Ale@@": 7573,
    "Adre@@": 7574,
    "üss@@": 7575,
    "zwanz@@": 7576,
    "weib@@": 7577,
    "virtu@@": 7578,
    "trafen": 7579,
    "tisch": 7580,
    "teilten": 7581,
    "tation": 7582,
    "ständige": 7583,
    "spezielle": 7584,
    "side": 7585,
    "schweren": 7586,
    "rennen": 7587,
    "osau@@": 7588,
    "offene": 7589,
    "nützlich": 7590,
    "nordwestlich": 7591,
    "leger": 7592,
    "lege": 7593,
    "ktro@@": 7594,
    "kontinuier@@": 7595,
    "klasse": 7596,
    "kennen": 7597,
    "iso@@": 7598,
    "grundle@@": 7599,
    "gewöhnlichen": 7600,
    "ery": 7601,
    "ermor@@": 7602,
    "eman": 7603,
    "eiten": 7604,
    "definiert": 7605,
    "bet": 7606,
    "bern": 7607,
    "beispielsweise": 7608,
    "bauten": 7609,
    "anlagen": 7610,
    "anischer": 7611,
    "alist": 7612,
    "akt": 7613,
    "Vorstand": 7614,
    "Toil@@": 7615,
    "Strah@@": 7616,
    "Soundtrack": 7617,
    "Rot": 7618,
    "Rab@@": 7619,
    "Minnes@@": 7620,
    "Landschaft": 7621,
    "Jazz": 7622,
    "Gewerk@@": 7623,
    "Gewalt": 7624,
    "Gerät": 7625,
    "Freder@@": 7626,
    "Franch@@": 7627,
    "Fantas@@": 7628,
    "Fakt@@": 7629,
    "Fahrzeuge": 7630,
    "Erhol@@": 7631,
    "Eigentum": 7632,
    "Eier": 7633,
    "Dol@@": 7634,
    "Charaktere": 7635,
    "Brenn@@": 7636,
    "Brei@@": 7637,
    "Beschreibung": 7638,
    "Arena": 7639,
    "Anforder@@": 7640,
    "äume": 7641,
    "zerstört": 7642,
    "wohnern": 7643,
    "wiederum": 7644,
    "teln": 7645,
    "stoffe": 7646,
    "stig": 7647,
    "steigen": 7648,
    "sent@@": 7649,
    "riebene": 7650,
    "privaten": 7651,
    "ometer": 7652,
    "nahezu": 7653,
    "jüngerer": 7654,
    "jüdische": 7655,
    "isl@@": 7656,
    "instal@@": 7657,
    "individu@@": 7658,
    "gül@@": 7659,
    "familie": 7660,
    "falt": 7661,
    "etischen": 7662,
    "energ@@": 7663,
    "dimension@@": 7664,
    "damaligen": 7665,
    "chinesische": 7666,
    "bol@@": 7667,
    "bekommen": 7668,
    "Wissenschaft": 7669,
    "Vinc@@": 7670,
    "Urteil": 7671,
    "Tsch@@": 7672,
    "Sterne": 7673,
    "Sprecher": 7674,
    "Schwierigkeiten": 7675,
    "Schmu@@": 7676,
    "Rug@@": 7677,
    "Ruck@@": 7678,
    "One": 7679,
    "Mosk@@": 7680,
    "Lincoln": 7681,
    "Landkreis": 7682,
    "Kont@@": 7683,
    "Kohlen@@": 7684,
    "Jersey": 7685,
    "Inva@@": 7686,
    "Indu@@": 7687,
    "Gegenwärtig": 7688,
    "Gedicht": 7689,
    "Geburts@@": 7690,
    "Einw@@": 7691,
    "Dist@@": 7692,
    "Davi@@": 7693,
    "Cricket": 7694,
    "Canadi@@": 7695,
    "Baseball": 7696,
    "Bands": 7697,
    "Alan": 7698,
    "zunehmend": 7699,
    "zip": 7700,
    "wichtig": 7701,
    "wachsen": 7702,
    "veröffentlichten": 7703,
    "unglück@@": 7704,
    "town": 7705,
    "stü@@": 7706,
    "sthe@@": 7707,
    "speziell": 7708,
    "siehe": 7709,
    "rug": 7710,
    "restau@@": 7711,
    "ray": 7712,
    "que": 7713,
    "nächstgelegene": 7714,
    "mm": 7715,
    "kru@@": 7716,
    "klein": 7717,
    "iner": 7718,
    "ille": 7719,
    "igur@@": 7720,
    "ib@@": 7721,
    "höchsten": 7722,
    "gste": 7723,
    "gemeinnütz@@": 7724,
    "geko@@": 7725,
    "fällen": 7726,
    "ergän@@": 7727,
    "erfolgreiche": 7728,
    "benutzen": 7729,
    "bean@@": 7730,
    "atik": 7731,
    "amin": 7732,
    "alternative": 7733,
    "akte@@": 7734,
    "Wrest@@": 7735,
    "Wahlkreis": 7736,
    "Vorstands@@": 7737,
    "Tromm@@": 7738,
    "Sound": 7739,
    "Sonnenunter@@": 7740,
    "Siedlungen": 7741,
    "Shr@@": 7742,
    "Seg@@": 7743,
    "Seen": 7744,
    "Schild": 7745,
    "Schicksal": 7746,
    "Operationen": 7747,
    "Kommunik@@": 7748,
    "Jord@@": 7749,
    "Jahrzehnte": 7750,
    "Herzog@@": 7751,
    "Gord@@": 7752,
    "Gesundheit": 7753,
    "Freude": 7754,
    "Finale": 7755,
    "Famili@@": 7756,
    "Ever@@": 7757,
    "Dunkel@@": 7758,
    "Donn@@": 7759,
    "Court": 7760,
    "Council": 7761,
    "Carolina": 7762,
    "Bus": 7763,
    "Blut": 7764,
    "Berufung": 7765,
    "Auft@@": 7766,
    "Abgeord@@": 7767,
    "öhn@@": 7768,
    "äten": 7769,
    "änden": 7770,
    "älter": 7771,
    "zellen": 7772,
    "wären": 7773,
    "wohner": 7774,
    "wimmen": 7775,
    "verkün@@": 7776,
    "verbreitete": 7777,
    "unserem": 7778,
    "sprang": 7779,
    "schönen": 7780,
    "schließen": 7781,
    "schlecht": 7782,
    "rt": 7783,
    "plötz@@": 7784,
    "ning": 7785,
    "möglichen": 7786,
    "mund": 7787,
    "miert": 7788,
    "las": 7789,
    "kus@@": 7790,
    "kurzem": 7791,
    "kaufte": 7792,
    "house": 7793,
    "gutes": 7794,
    "greif@@": 7795,
    "glo@@": 7796,
    "gezeigt": 7797,
    "gesetzt": 7798,
    "gement": 7799,
    "gekommen": 7800,
    "ffer": 7801,
    "fach": 7802,
    "explo@@": 7803,
    "ese": 7804,
    "enheit": 7805,
    "dasselbe": 7806,
    "cor@@": 7807,
    "chsel": 7808,
    "chens": 7809,
    "bücher": 7810,
    "boden": 7811,
    "besonderen": 7812,
    "beschul@@": 7813,
    "ata": 7814,
    "assozi@@": 7815,
    "amm": 7816,
    "Verbrau@@": 7817,
    "Tul@@": 7818,
    "Spanien": 7819,
    "Schottland": 7820,
    "Romane": 7821,
    "Münzen": 7822,
    "Mala@@": 7823,
    "Lap@@": 7824,
    "Küche": 7825,
    "Jimm@@": 7826,
    "Jane": 7827,
    "Hospit@@": 7828,
    "Hochschule": 7829,
    "Geist": 7830,
    "Freundin": 7831,
    "Fernsehsen@@": 7832,
    "Einzelhande@@": 7833,
    "Det@@": 7834,
    "Bruce": 7835,
    "Analy@@": 7836,
    "ßer@@": 7837,
    "xen": 7838,
    "wesenheit": 7839,
    "vis": 7840,
    "stärker": 7841,
    "streifen": 7842,
    "späten": 7843,
    "reichte": 7844,
    "regul@@": 7845,
    "norweg@@": 7846,
    "nah": 7847,
    "mutter": 7848,
    "mex@@": 7849,
    "lesen": 7850,
    "lam": 7851,
    "ktoren": 7852,
    "igten": 7853,
    "iden": 7854,
    "höh@@": 7855,
    "grün": 7856,
    "grundlegende": 7857,
    "gebäu@@": 7858,
    "fügte": 7859,
    "frikan@@": 7860,
    "französ@@": 7861,
    "erscheinen": 7862,
    "entwickelten": 7863,
    "entschei@@": 7864,
    "cia": 7865,
    "bevölk@@": 7866,
    "besonder@@": 7867,
    "arische": 7868,
    "archite@@": 7869,
    "angs": 7870,
    "Wurzeln": 7871,
    "Wind": 7872,
    "Vertei@@": 7873,
    "Techniken": 7874,
    "Regisseur": 7875,
    "Ral@@": 7876,
    "Moz@@": 7877,
    "Mik@@": 7878,
    "Merkmale": 7879,
    "Meister": 7880,
    "Manuskrip@@": 7881,
    "Lady": 7882,
    "Konferenz": 7883,
    "Inhalt": 7884,
    "Hex@@": 7885,
    "Heutzutage": 7886,
    "Hamilton": 7887,
    "Geschmack": 7888,
    "Freu@@": 7889,
    "Dienste": 7890,
    "Damals": 7891,
    "Cir@@": 7892,
    "Berater": 7893,
    "Ausstellung": 7894,
    "Anzug": 7895,
    "Analyse": 7896,
    "Airport": 7897,
    "é": 7898,
    "äter": 7899,
    "ächs@@": 7900,
    "wachen": 7901,
    "vorsitz@@": 7902,
    "vernich@@": 7903,
    "skri@@": 7904,
    "schafft": 7905,
    "riebenen": 7906,
    "republi@@": 7907,
    "rechts": 7908,
    "rad": 7909,
    "praktisch": 7910,
    "physi@@": 7911,
    "ov": 7912,
    "näher": 7913,
    "mehrfach": 7914,
    "lösung": 7915,
    "lo": 7916,
    "line": 7917,
    "ktiven": 7918,
    "karten": 7919,
    "hängen": 7920,
    "gewicht": 7921,
    "gentin@@": 7922,
    "eth": 7923,
    "erlangte": 7924,
    "erhöht": 7925,
    "enor@@": 7926,
    "ement": 7927,
    "ehem@@": 7928,
    "dadurch": 7929,
    "ces": 7930,
    "breiten": 7931,
    "assungs@@": 7932,
    "ari": 7933,
    "antwor@@": 7934,
    "alem": 7935,
    "aktu@@": 7936,
    "Zellen": 7937,
    "Wachstum": 7938,
    "Wach@@": 7939,
    "Umständen": 7940,
    "Terra@@": 7941,
    "Rettungs@@": 7942,
    "Pierre": 7943,
    "Phili@@": 7944,
    "Nun": 7945,
    "Melodie": 7946,
    "Lawrence": 7947,
    "Kritiken": 7948,
    "Kleine": 7949,
    "Juli": 7950,
    "Ihrem": 7951,
    "Handschu@@": 7952,
    "Golden": 7953,
    "Gewe@@": 7954,
    "Geburtsort": 7955,
    "Erinnerung": 7956,
    "Dyna@@": 7957,
    "Donald": 7958,
    "Chir@@": 7959,
    "Campbel@@": 7960,
    "Camp": 7961,
    "Bisch@@": 7962,
    "Benutzer": 7963,
    "Attra@@": 7964,
    "Arn@@": 7965,
    "Arkan@@": 7966,
    "Ariz@@": 7967,
    "änge": 7968,
    "ystems": 7969,
    "wirtschaftlichen": 7970,
    "verschwin@@": 7971,
    "vermutlich": 7972,
    "verfolgte": 7973,
    "unterrichtete": 7974,
    "stets": 7975,
    "stechn@@": 7976,
    "staatliche": 7977,
    "sph@@": 7978,
    "scheinend": 7979,
    "räume": 7980,
    "pfel": 7981,
    "persönlichen": 7982,
    "persönliche": 7983,
    "nördliche": 7984,
    "militärischen": 7985,
    "kämpfte": 7986,
    "koh@@": 7987,
    "itionen": 7988,
    "istisch": 7989,
    "immi@@": 7990,
    "gerten": 7991,
    "gefil@@": 7992,
    "forschung": 7993,
    "fabri@@": 7994,
    "erwähnt": 7995,
    "erhe@@": 7996,
    "erfre@@": 7997,
    "entstanden": 7998,
    "ehrt": 7999,
    "dierte": 8000,
    "brit@@": 8001,
    "arbeiteten": 8002,
    "amerikanischer": 8003,
    "aktiven": 8004,
    "absolvierte": 8005,
    "Zunächst": 8006,
    "Zir@@": 8007,
    "Zin@@": 8008,
    "Wörter": 8009,
    "Weltkriegs": 8010,
    "Vene@@": 8011,
    "Szenen": 8012,
    "Strateg@@": 8013,
    "Simon": 8014,
    "Republi@@": 8015,
    "Repräsent@@": 8016,
    "Pati@@": 8017,
    "Passagiere": 8018,
    "Northern": 8019,
    "Nation": 8020,
    "März": 8021,
    "Mes@@": 8022,
    "Medizin": 8023,
    "Major": 8024,
    "Magi@@": 8025,
    "Inneren": 8026,
    "Hinsicht": 8027,
    "Hauptquartier": 8028,
    "Haare": 8029,
    "Glasg@@": 8030,
    "Gesetze": 8031,
    "Geschma@@": 8032,
    "Dokument": 8033,
    "Bä@@": 8034,
    "Blumen": 8035,
    "Auge": 8036,
    "äle": 8037,
    "zeichnung": 8038,
    "wirtschaft": 8039,
    "willig": 8040,
    "wichtiges": 8041,
    "versuchen": 8042,
    "stru@@": 8043,
    "set": 8044,
    "quelle": 8045,
    "prot@@": 8046,
    "nett": 8047,
    "negative": 8048,
    "lington": 8049,
    "ji": 8050,
    "iten": 8051,
    "isa": 8052,
    "holi@@": 8053,
    "hang": 8054,
    "gemäß": 8055,
    "falsch": 8056,
    "dreht": 8057,
    "deutet": 8058,
    "can": 8059,
    "breitung": 8060,
    "brachten": 8061,
    "blickt": 8062,
    "aly@@": 8063,
    "alog": 8064,
    "Waren": 8065,
    "Urspr@@": 8066,
    "Tasche": 8067,
    "Südosten": 8068,
    "Southern": 8069,
    "Sinn": 8070,
    "Schri@@": 8071,
    "Religion": 8072,
    "Reich": 8073,
    "Premier@@": 8074,
    "Ple@@": 8075,
    "Nachbarn": 8076,
    "Konz@@": 8077,
    "Jungs": 8078,
    "Haust@@": 8079,
    "Gemü@@": 8080,
    "Gedanken": 8081,
    "Farm": 8082,
    "Entfernung": 8083,
    "Entdeckung": 8084,
    "Dichter": 8085,
    "Clark": 8086,
    "Besitzer": 8087,
    "Berichte": 8088,
    "Antrag": 8089,
    "züge": 8090,
    "xe": 8091,
    "vertrat": 8092,
    "terien": 8093,
    "sorgte": 8094,
    "sichtigt": 8095,
    "schön": 8096,
    "sammlung": 8097,
    "program@@": 8098,
    "ond": 8099,
    "mans": 8100,
    "lätze": 8101,
    "lover": 8102,
    "let": 8103,
    "ius": 8104,
    "issi@@": 8105,
    "gelern@@": 8106,
    "entspricht": 8107,
    "ea": 8108,
    "ct": 8109,
    "andelt": 8110,
    "akteur": 8111,
    "Zeremonie": 8112,
    "Wes@@": 8113,
    "Ursache": 8114,
    "Umfang": 8115,
    "Turm": 8116,
    "Tournee": 8117,
    "Teilnahme": 8118,
    "Sängerin": 8119,
    "Spezi@@": 8120,
    "Senat": 8121,
    "Oktober": 8122,
    "Male": 8123,
    "Liz@@": 8124,
    "Lager": 8125,
    "Jefferson": 8126,
    "Israel": 8127,
    "Insgesamt": 8128,
    "Hunderte": 8129,
    "Gewicht": 8130,
    "Erfindung": 8131,
    "Cousin": 8132,
    "Commun@@": 8133,
    "Billy": 8134,
    "Bezieh@@": 8135,
    "Auftrag": 8136,
    "Architekten": 8137,
    "Anschluss": 8138,
    "Anderson": 8139,
    "Amerikaner": 8140,
    "Amerika": 8141,
    "Akademie": 8142,
    "ügen": 8143,
    "äne": 8144,
    "yo": 8145,
    "wächst": 8146,
    "wurf": 8147,
    "temp@@": 8148,
    "sterte": 8149,
    "senden": 8150,
    "schiffe": 8151,
    "lieren": 8152,
    "lichte": 8153,
    "krö@@": 8154,
    "knapp": 8155,
    "kette": 8156,
    "jekt": 8157,
    "hr": 8158,
    "hoher": 8159,
    "förmigen": 8160,
    "elben": 8161,
    "dingt": 8162,
    "dene": 8163,
    "deckt": 8164,
    "daten": 8165,
    "cus": 8166,
    "bestimmt": 8167,
    "beschrieben": 8168,
    "benötigt": 8169,
    "automatisch": 8170,
    "ahe": 8171,
    "Sturm": 8172,
    "Sicht": 8173,
    "Science": 8174,
    "Schlagzeuger": 8175,
    "Sand": 8176,
    "Qualität": 8177,
    "Kreuzung": 8178,
    "Helm": 8179,
    "Glauben": 8180,
    "Geräte": 8181,
    "Gebrauch": 8182,
    "Existenz": 8183,
    "Drehbuch": 8184,
    "Berlin": 8185,
    "Abstammung": 8186,
    "widmete": 8187,
    "wegs": 8188,
    "versorgung": 8189,
    "tiker": 8190,
    "ständnis": 8191,
    "straßen": 8192,
    "strafe": 8193,
    "stands@@": 8194,
    "sta": 8195,
    "sozi@@": 8196,
    "schüttelte": 8197,
    "schritt": 8198,
    "prüfung": 8199,
    "ppt": 8200,
    "owjet@@": 8201,
    "ments": 8202,
    "leidet": 8203,
    "kran@@": 8204,
    "ita": 8205,
    "ico": 8206,
    "herap@@": 8207,
    "handlung": 8208,
    "geführt": 8209,
    "gebieten": 8210,
    "fess@@": 8211,
    "existieren": 8212,
    "entr@@": 8213,
    "dler": 8214,
    "boarder": 8215,
    "behör@@": 8216,
    "annes": 8217,
    "ager": 8218,
    "Wun@@": 8219,
    "Weiß": 8220,
    "Verletzung": 8221,
    "Tennessee": 8222,
    "Start": 8223,
    "Schuhe": 8224,
    "Schar@@": 8225,
    "Sarah": 8226,
    "Rob@@": 8227,
    "Reaktionen": 8228,
    "Produzent": 8229,
    "Planeten": 8230,
    "Pflanze": 8231,
    "Ontario": 8232,
    "Oh": 8233,
    "Mountain": 8234,
    "Miller": 8235,
    "Merkmal": 8236,
    "Margaret": 8237,
    "Lokomoti@@": 8238,
    "Kandidat": 8239,
    "Job": 8240,
    "Fic@@": 8241,
    "Christopher": 8242,
    "Bucht": 8243,
    "Briten": 8244,
    "Bezirke": 8245,
    "Befehle": 8246,
    "Anthony": 8247,
    "Anerkennung": 8248,
    "Adams": 8249,
    "ück": 8250,
    "übersetzt": 8251,
    "Än@@": 8252,
    "wirkte": 8253,
    "wies": 8254,
    "warten": 8255,
    "unterschei@@": 8256,
    "sell": 8257,
    "politan": 8258,
    "phe": 8259,
    "orangefar@@": 8260,
    "oper": 8261,
    "nimm@@": 8262,
    "ness": 8263,
    "mily": 8264,
    "lätz@@": 8265,
    "ition": 8266,
    "ission": 8267,
    "gründeten": 8268,
    "gessen": 8269,
    "erzählt": 8270,
    "erkannte": 8271,
    "eit": 8272,
    "chin@@": 8273,
    "bus": 8274,
    "bewohner": 8275,
    "besiegte": 8276,
    "bemerkte": 8277,
    "bedingungen": 8278,
    "Wochenende": 8279,
    "Weihna@@": 8280,
    "Videos": 8281,
    "Tim": 8282,
    "Sachen": 8283,
    "Russland": 8284,
    "Riv@@": 8285,
    "Positionen": 8286,
    "O": 8287,
    "Nutzung": 8288,
    "Moderne": 8289,
    "Mexiko": 8290,
    "Kleinkind": 8291,
    "Hauptrolle": 8292,
    "Gregson": 8293,
    "Gerichtshof": 8294,
    "Etwas": 8295,
    "Deutschen": 8296,
    "Christian": 8297,
    "Bewegungen": 8298,
    "Angelegenheiten": 8299,
    "Algorithmus": 8300,
    "ühren": 8301,
    "überrascht": 8302,
    "uld": 8303,
    "trauen": 8304,
    "tons": 8305,
    "tikel": 8306,
    "stit@@": 8307,
    "stal@@": 8308,
    "see": 8309,
    "schauer": 8310,
    "row": 8311,
    "richter": 8312,
    "rich": 8313,
    "regierung": 8314,
    "racht": 8315,
    "ouver@@": 8316,
    "othe@@": 8317,
    "oth@@": 8318,
    "organisation": 8319,
    "mierung": 8320,
    "kürz@@": 8321,
    "körper": 8322,
    "kirche": 8323,
    "if@@": 8324,
    "heiß": 8325,
    "gerungen": 8326,
    "eute": 8327,
    "ells": 8328,
    "einzel@@": 8329,
    "dat": 8330,
    "beschloss": 8331,
    "ally": 8332,
    "Werken": 8333,
    "Vereinig@@": 8334,
    "Theorien": 8335,
    "Schweden": 8336,
    "Produzenten": 8337,
    "Pferde": 8338,
    "Pacific": 8339,
    "Niederlage": 8340,
    "Krone": 8341,
    "Harris": 8342,
    "Haltung": 8343,
    "Gelegenheit": 8344,
    "Gary": 8345,
    "Franklin": 8346,
    "Erklär@@": 8347,
    "Entwurf": 8348,
    "Dorothy": 8349,
    "Day": 8350,
    "Color@@": 8351,
    "3@@": 8352,
    "zel": 8353,
    "wählen": 8354,
    "vorbei": 8355,
    "variiert": 8356,
    "variieren": 8357,
    "utze": 8358,
    "urop@@": 8359,
    "tanzen": 8360,
    "stattung": 8361,
    "schüt@@": 8362,
    "schläft": 8363,
    "right": 8364,
    "riebe": 8365,
    "rey": 8366,
    "rest@@": 8367,
    "rate": 8368,
    "ough": 8369,
    "orten": 8370,
    "ols": 8371,
    "offensichtlich": 8372,
    "litten": 8373,
    "ismen": 8374,
    "igte": 8375,
    "how": 8376,
    "ghts": 8377,
    "gentlich": 8378,
    "gemeinde": 8379,
    "gelö@@": 8380,
    "formation": 8381,
    "erlei": 8382,
    "elson": 8383,
    "een": 8384,
    "dson": 8385,
    "board": 8386,
    "blickte": 8387,
    "ati": 8388,
    "Woo@@": 8389,
    "Scot@@": 8390,
    "Milch": 8391,
    "Michigan": 8392,
    "Maschine": 8393,
    "Lauf": 8394,
    "Kerl": 8395,
    "Kansas": 8396,
    "Highway": 8397,
    "Herbst": 8398,
    "Hau@@": 8399,
    "Gemüse": 8400,
    "Eis": 8401,
    "Einzelheiten": 8402,
    "Doll@@": 8403,
    "Büchern": 8404,
    "Bach": 8405,
    "Adam": 8406,
    "öcke": 8407,
    "zählt": 8408,
    "zufrieden": 8409,
    "zess": 8410,
    "yle": 8411,
    "unge": 8412,
    "ula": 8413,
    "tauchte": 8414,
    "taucht": 8415,
    "sa": 8416,
    "ruf": 8417,
    "pft": 8418,
    "persönlich": 8419,
    "ote": 8420,
    "od": 8421,
    "nennen": 8422,
    "möchten": 8423,
    "ika": 8424,
    "ieht": 8425,
    "händler": 8426,
    "herapie": 8427,
    "heim": 8428,
    "fungierte": 8429,
    "entrums": 8430,
    "denke": 8431,
    "ckey": 8432,
    "bewegte": 8433,
    "besucht": 8434,
    "bby": 8435,
    "bauen": 8436,
    "Wein": 8437,
    "Vize@@": 8438,
    "Veröffentlichungen": 8439,
    "Vereinigung": 8440,
    "Teufel": 8441,
    "Tenne@@": 8442,
    "Strat@@": 8443,
    "Reihenfolge": 8444,
    "Prinzessin": 8445,
    "Phi@@": 8446,
    "Personal": 8447,
    "Orange": 8448,
    "Offiziere": 8449,
    "Micha@@": 8450,
    "Kräfte": 8451,
    "Kategorie": 8452,
    "Intelligenz": 8453,
    "Gussie": 8454,
    "Bevölk@@": 8455,
    "Bett": 8456,
    "Ausland": 8457,
    "Ari@@": 8458,
    "Anwesen": 8459,
    "öpfe": 8460,
    "wechselt": 8461,
    "wass@@": 8462,
    "verrü@@": 8463,
    "tigkeiten": 8464,
    "quenzen": 8465,
    "pra@@": 8466,
    "nel": 8467,
    "lingen": 8468,
    "lerin": 8469,
    "langer": 8470,
    "kleidung": 8471,
    "kalt": 8472,
    "gle": 8473,
    "fikation": 8474,
    "erh@@": 8475,
    "ello": 8476,
    "benutzte": 8477,
    "beln": 8478,
    "behörde": 8479,
    "arme": 8480,
    "andel": 8481,
    "altet": 8482,
    "Vorstellung": 8483,
    "Vizepräsiden@@": 8484,
    "Verfassung": 8485,
    "Urlau@@": 8486,
    "Strukturen": 8487,
    "Stadtzentrum": 8488,
    "Sant@@": 8489,
    "Nationen": 8490,
    "Lizenz": 8491,
    "Klassen": 8492,
    "Jesus": 8493,
    "Georgia": 8494,
    "Fabrik": 8495,
    "Element": 8496,
    "Castle": 8497,
    "C": 8498,
    "Burg": 8499,
    "Buchstaben": 8500,
    "Bell": 8501,
    "Beine": 8502,
    "Basketball": 8503,
    "Bart": 8504,
    "Arts": 8505,
    "Angriffe": 8506,
    "ösen": 8507,
    "äte": 8508,
    "Öffent@@": 8509,
    "vertrag": 8510,
    "verband": 8511,
    "stigen": 8512,
    "schrie": 8513,
    "schau": 8514,
    "riss": 8515,
    "richtungen": 8516,
    "positiv": 8517,
    "kräfte": 8518,
    "hinten": 8519,
    "hing": 8520,
    "gerschaft": 8521,
    "gehe": 8522,
    "fühle": 8523,
    "ffizi@@": 8524,
    "dd": 8525,
    "Zü@@": 8526,
    "Zwecke": 8527,
    "Zentr@@": 8528,
    "Versuch": 8529,
    "Südwesten": 8530,
    "Systems": 8531,
    "Stern": 8532,
    "Radfahrer": 8533,
    "Projekte": 8534,
    "Polen": 8535,
    "Nort@@": 8536,
    "Nordwesten": 8537,
    "Minute": 8538,
    "Lesen": 8539,
    "Kommunikation": 8540,
    "Inde@@": 8541,
    "Herzen": 8542,
    "Halbinsel": 8543,
    "Führer": 8544,
    "Forscher": 8545,
    "Faktoren": 8546,
    "Edinburgh": 8547,
    "Connec@@": 8548,
    "Bach@@": 8549,
    "Aktivität": 8550,
    "Abschnitte": 8551,
    "ächter": 8552,
    "würfe": 8553,
    "verbindungen": 8554,
    "usses": 8555,
    "tot": 8556,
    "tei": 8557,
    "starben": 8558,
    "sive": 8559,
    "sachen": 8560,
    "präsentiert": 8561,
    "pfte": 8562,
    "orn": 8563,
    "oo": 8564,
    "nam": 8565,
    "lierte": 8566,
    "liebte": 8567,
    "ischt": 8568,
    "ict@@": 8569,
    "heben": 8570,
    "gyp@@": 8571,
    "finale": 8572,
    "extre@@": 8573,
    "esien": 8574,
    "erzeugt": 8575,
    "derungen": 8576,
    "ction": 8577,
    "bliothe@@": 8578,
    "beteili@@": 8579,
    "besiegt": 8580,
    "ament": 8581,
    "Welle": 8582,
    "Wappen": 8583,
    "Tourismus": 8584,
    "Tages": 8585,
    "Strom": 8586,
    "Streifen": 8587,
    "Schwestern": 8588,
    "Ruhestand": 8589,
    "Roy@@": 8590,
    "Lebensmittel": 8591,
    "Law": 8592,
    "Laden": 8593,
    "Kollegen": 8594,
    "Instrumente": 8595,
    "Hunder@@": 8596,
    "Hoo@@": 8597,
    "Hauses": 8598,
    "Dokum@@": 8599,
    "Dezember": 8600,
    "Denkmal": 8601,
    "Corporation": 8602,
    "Corpor@@": 8603,
    "Centre": 8604,
    "Berge": 8605,
    "Begriffe": 8606,
    "überw@@": 8607,
    "viertel": 8608,
    "unterschiedlich": 8609,
    "tent@@": 8610,
    "spaz@@": 8611,
    "schuldig": 8612,
    "reitet": 8613,
    "persön@@": 8614,
    "ny": 8615,
    "nern": 8616,
    "istin": 8617,
    "iler": 8618,
    "ief": 8619,
    "hört": 8620,
    "freundlich": 8621,
    "fangen": 8622,
    "einte": 8623,
    "bridge": 8624,
    "bend": 8625,
    "anzug": 8626,
    "Türk@@": 8627,
    "Teen@@": 8628,
    "Super": 8629,
    "Skateboard": 8630,
    "Schwarz": 8631,
    "Schools": 8632,
    "Nachbarschaft": 8633,
    "Mannes": 8634,
    "Jean": 8635,
    "Ehem@@": 8636,
    "Chef": 8637,
    "Blät@@": 8638,
    "Anne": 8639,
    "yp": 8640,
    "warst": 8641,
    "verlässt": 8642,
    "uts": 8643,
    "ungsmittel": 8644,
    "steigt": 8645,
    "ssourcen": 8646,
    "schusses": 8647,
    "ruhi@@": 8648,
    "olas": 8649,
    "nant": 8650,
    "mitteln": 8651,
    "merkt": 8652,
    "ky": 8653,
    "kord": 8654,
    "karriere": 8655,
    "höher": 8656,
    "heraus": 8657,
    "gewiesen": 8658,
    "gegründet": 8659,
    "flüsse": 8660,
    "entwicklung": 8661,
    "danke": 8662,
    "chines@@": 8663,
    "burgh": 8664,
    "bank": 8665,
    "aga": 8666,
    "Werbung": 8667,
    "Verkehr@@": 8668,
    "Urlaub": 8669,
    "Rose": 8670,
    "Maßnahmen": 8671,
    "Massachusetts": 8672,
    "Hockey": 8673,
    "Helden": 8674,
    "Details": 8675,
    "Bäumen": 8676,
    "Beste": 8677,
    "Bergen": 8678,
    "ändert": 8679,
    "werken": 8680,
    "unterricht": 8681,
    "ule": 8682,
    "tötet": 8683,
    "pool": 8684,
    "langt": 8685,
    "lager": 8686,
    "kompl@@": 8687,
    "klus": 8688,
    "ital": 8689,
    "illon": 8690,
    "höfe": 8691,
    "früher@@": 8692,
    "entwickeln": 8693,
    "eindeutig": 8694,
    "bewegung": 8695,
    "bedeckt": 8696,
    "anlage": 8697,
    "anie": 8698,
    "ampen": 8699,
    "achtet": 8700,
    "Wachst@@": 8701,
    "Town": 8702,
    "Thompson": 8703,
    "Sorgen": 8704,
    "Samen": 8705,
    "Republikaner": 8706,
    "Möglichkeiten": 8707,
    "Helene": 8708,
    "Gefahr": 8709,
    "Gebäuden": 8710,
    "Eingang": 8711,
    "Effekt": 8712,
    "Cover": 8713,
    "Bier": 8714,
    "Behand@@": 8715,
    "Ausrüstung": 8716,
    "übt": 8717,
    "überlebte": 8718,
    "ödie": 8719,
    "ziehung": 8720,
    "work": 8721,
    "weigert": 8722,
    "wache": 8723,
    "verantwortlich": 8724,
    "ul": 8725,
    "trover@@": 8726,
    "stone": 8727,
    "stimmen": 8728,
    "sehe": 8729,
    "schwierig": 8730,
    "scheiden": 8731,
    "riech@@": 8732,
    "richten": 8733,
    "grad": 8734,
    "gnis": 8735,
    "gil@@": 8736,
    "getroffen": 8737,
    "gate": 8738,
    "garten": 8739,
    "fungen": 8740,
    "floh": 8741,
    "eur": 8742,
    "erwäh@@": 8743,
    "dorthin": 8744,
    "derer": 8745,
    "bricht": 8746,
    "beinhalten": 8747,
    "ausgeführt": 8748,
    "antwortung": 8749,
    "X": 8750,
    "Unabhängigkeit": 8751,
    "Teu@@": 8752,
    "Senior": 8753,
    "Regen": 8754,
    "Presse": 8755,
    "Posten": 8756,
    "Philadelphia": 8757,
    "Nordamerika": 8758,
    "Naz@@": 8759,
    "Lincol@@": 8760,
    "Klavier": 8761,
    "Interessen": 8762,
    "Illinois": 8763,
    "Field": 8764,
    "Bridge": 8765,
    "Anlage": 8766,
    "ährt": 8767,
    "zentren": 8768,
    "zeichnen": 8769,
    "verstehe": 8770,
    "una": 8771,
    "terten": 8772,
    "sum": 8773,
    "stehend": 8774,
    "seien": 8775,
    "schlagen": 8776,
    "sache": 8777,
    "reichs": 8778,
    "ont": 8779,
    "nör@@": 8780,
    "lieben": 8781,
    "kturen": 8782,
    "hilf@@": 8783,
    "halle": 8784,
    "gerin": 8785,
    "flüge": 8786,
    "fiziert": 8787,
    "fa": 8788,
    "eutzutage": 8789,
    "euch": 8790,
    "ersetzt": 8791,
    "erneu@@": 8792,
    "entsteht": 8793,
    "dt": 8794,
    "besitzer": 8795,
    "att": 8796,
    "arch": 8797,
    "angesehen": 8798,
    "alb@@": 8799,
    "akte": 8800,
    "Werte": 8801,
    "Vereinbarung": 8802,
    "Tier": 8803,
    "Tanz": 8804,
    "Streit@@": 8805,
    "Stars": 8806,
    "Sound@@": 8807,
    "Plattform": 8808,
    "Ozean": 8809,
    "Line": 8810,
    "Hit": 8811,
    "Gesund@@": 8812,
    "Erweiter@@": 8813,
    "Bürger": 8814,
    "Angelegenheit": 8815,
    "waffe": 8816,
    "unkt": 8817,
    "stuhl": 8818,
    "sorgen": 8819,
    "saison": 8820,
    "rig": 8821,
    "reden": 8822,
    "pflanzen": 8823,
    "ohen": 8824,
    "möglichkeiten": 8825,
    "maschine": 8826,
    "listen": 8827,
    "links": 8828,
    "krank": 8829,
    "horn": 8830,
    "geld": 8831,
    "ez": 8832,
    "chtest": 8833,
    "braun": 8834,
    "beeinflusst": 8835,
    "Verletzungen": 8836,
    "Stand": 8837,
    "Spur": 8838,
    "Railway": 8839,
    "Physik": 8840,
    "Moore": 8841,
    "Meisterschaft": 8842,
    "Komponenten": 8843,
    "Isra@@": 8844,
    "Instrument": 8845,
    "Hou@@": 8846,
    "Hollywood": 8847,
    "Hinweis": 8848,
    "Handy": 8849,
    "Festivals": 8850,
    "Festiv@@": 8851,
    "Enter@@": 8852,
    "Ehefrau": 8853,
    "Ebenen": 8854,
    "Dienstleistungen": 8855,
    "Charlie": 8856,
    "Ann": 8857,
    "weißt": 8858,
    "verwaltet": 8859,
    "stron@@": 8860,
    "stisch": 8861,
    "ros": 8862,
    "reiben": 8863,
    "raft": 8864,
    "oto": 8865,
    "organisiert": 8866,
    "ologien": 8867,
    "nieman@@": 8868,
    "nd": 8869,
    "liefert": 8870,
    "kathol@@": 8871,
    "int": 8872,
    "iens": 8873,
    "getragen": 8874,
    "ella": 8875,
    "dio": 8876,
    "dagegen": 8877,
    "aka": 8878,
    "ain": 8879,
    "ads": 8880,
    "Wood": 8881,
    "Village": 8882,
    "Standard": 8883,
    "Morris": 8884,
    "Melbourne": 8885,
    "Logo": 8886,
    "Identität": 8887,
    "Hawai@@": 8888,
    "Glas": 8889,
    "Einkaufszentrum": 8890,
    "Dynastie": 8891,
    "Area": 8892,
    "Arbeitgeber": 8893,
    "Academ@@": 8894,
    "—": 8895,
    "wohnen": 8896,
    "wenden": 8897,
    "verändert": 8898,
    "utz": 8899,
    "ud": 8900,
    "stheorie": 8901,
    "sterben": 8902,
    "siedlung": 8903,
    "schutz": 8904,
    "schrän@@": 8905,
    "ohlen": 8906,
    "mord": 8907,
    "leute": 8908,
    "itte": 8909,
    "ickte": 8910,
    "here": 8911,
    "geschlagen": 8912,
    "gangen": 8913,
    "funktion": 8914,
    "erschienen": 8915,
    "entum": 8916,
    "ema": 8917,
    "elbe": 8918,
    "borough": 8919,
    "baut": 8920,
    "asser": 8921,
    "ace": 8922,
    "Villa": 8923,
    "Taus@@": 8924,
    "Program@@": 8925,
    "Politiker": 8926,
    "Patrick": 8927,
    "Neuse@@": 8928,
    "Motorrad": 8929,
    "Motoren": 8930,
    "Lächeln": 8931,
    "Krä@@": 8932,
    "Kennedy": 8933,
    "Kaffee": 8934,
    "Hongkong": 8935,
    "Hills": 8936,
    "Hamil@@": 8937,
    "Gebäudes": 8938,
    "Fisch": 8939,
    "Douglas": 8940,
    "Abenteuer": 8941,
    "vision": 8942,
    "verstanden": 8943,
    "verschieden@@": 8944,
    "verletzt": 8945,
    "sident@@": 8946,
    "leichter": 8947,
    "kna@@": 8948,
    "getrennt": 8949,
    "geschah": 8950,
    "gels": 8951,
    "förmig": 8952,
    "erien": 8953,
    "archie": 8954,
    "Süda@@": 8955,
    "Stär@@": 8956,
    "Roo@@": 8957,
    "Ritter": 8958,
    "Republikan@@": 8959,
    "Rah@@": 8960,
    "Philosoph@@": 8961,
    "Pass": 8962,
    "Maler": 8963,
    "Herkun@@": 8964,
    "Harvard": 8965,
    "Griechen@@": 8966,
    "Al": 8967,
    "zdem": 8968,
    "vil": 8969,
    "vergessen": 8970,
    "val": 8971,
    "rün@@": 8972,
    "positionen": 8973,
    "osoph@@": 8974,
    "ln": 8975,
    "ield": 8976,
    "gst": 8977,
    "gin": 8978,
    "gekauft": 8979,
    "gefällt": 8980,
    "brücke": 8981,
    "ausch": 8982,
    "Zigarette": 8983,
    "Zigar@@": 8984,
    "Verwal@@": 8985,
    "Telefon": 8986,
    "Südafrika": 8987,
    "Spielzeug": 8988,
    "Spielern": 8989,
    "Library": 8990,
    "Kommando": 8991,
    "Jour@@": 8992,
    "Group": 8993,
    "öffnet": 8994,
    "äus@@": 8995,
    "wartete": 8996,
    "verwandt": 8997,
    "verfolgt": 8998,
    "steig": 8999,
    "spra@@": 9000,
    "seln": 9001,
    "schied": 9002,
    "quellen": 9003,
    "owell": 9004,
    "miker": 9005,
    "mache": 9006,
    "ligen@@": 9007,
    "kurr@@": 9008,
    "ionen": 9009,
    "hie@@": 9010,
    "get": 9011,
    "ering": 9012,
    "delt": 9013,
    "bo": 9014,
    "Weste": 9015,
    "Wege": 9016,
    "Versuche": 9017,
    "Stadtz@@": 9018,
    "Springs": 9019,
    "Server": 9020,
    "Schulter": 9021,
    "Ring": 9022,
    "Mond": 9023,
    "Lane": 9024,
    "Kentucky": 9025,
    "Jeeves": 9026,
    "Fäl@@": 9027,
    "Force": 9028,
    "Deutsch": 9029,
    "Defin@@": 9030,
    "Dah@@": 9031,
    "Country": 9032,
    "Afrika": 9033,
    "äger": 9034,
    "zieren": 9035,
    "ulen": 9036,
    "uar": 9037,
    "singen": 9038,
    "sigkeit": 9039,
    "schre@@": 9040,
    "publi@@": 9041,
    "oga": 9042,
    "lätzen": 9043,
    "lässig": 9044,
    "lien": 9045,
    "king": 9046,
    "holt": 9047,
    "hinweg": 9048,
    "hafen": 9049,
    "figur": 9050,
    "erwartet": 9051,
    "eits": 9052,
    "dor": 9053,
    "ditionen": 9054,
    "ding": 9055,
    "diert": 9056,
    "dia": 9057,
    "code": 9058,
    "chtern": 9059,
    "bewegt": 9060,
    "betri@@": 9061,
    "beteiligt": 9062,
    "begonnen": 9063,
    "ausgewählt": 9064,
    "ao": 9065,
    "aki": 9066,
    "Vide@@": 9067,
    "Schließ@@": 9068,
    "Objekt": 9069,
    "Minnesota": 9070,
    "Labour": 9071,
    "Kurs": 9072,
    "Haut": 9073,
    "Earl": 9074,
    "Detroit": 9075,
    "&": 9076,
    "ätze": 9077,
    "ähren": 9078,
    "ählt": 9079,
    "ury": 9080,
    "unterrichtet": 9081,
    "unken": 9082,
    "ungewöhnlich": 9083,
    "tue": 9084,
    "trinken": 9085,
    "schwach": 9086,
    "richtet": 9087,
    "rang": 9088,
    "lustr@@": 9089,
    "kinder": 9090,
    "gerät": 9091,
    "fliegen": 9092,
    "fehlt": 9093,
    "ermöglichen": 9094,
    "einheiten": 9095,
    "dustr@@": 9096,
    "darum": 9097,
    "betrachten": 9098,
    "aktion": 9099,
    "ader": 9100,
    "Veröffentlich@@": 9101,
    "Stärke": 9102,
    "Power": 9103,
    "Lernen": 9104,
    "Käse": 9105,
    "Kentu@@": 9106,
    "Kent@@": 9107,
    "Jahrhunderts": 9108,
    "Hyp@@": 9109,
    "Geschäftsmann": 9110,
    "Front": 9111,
    "Fische": 9112,
    "Entertainment": 9113,
    "Dak@@": 9114,
    "Canyon": 9115,
    "Canada": 9116,
    "Book": 9117,
    "Ansicht": 9118,
    "ücke": 9119,
    "yton": 9120,
    "wechseln": 9121,
    "utter": 9122,
    "unterteilt": 9123,
    "untersucht": 9124,
    "uel": 9125,
    "spazieren": 9126,
    "reifen": 9127,
    "preis": 9128,
    "op": 9129,
    "langte": 9130,
    "izi@@": 9131,
    "grund": 9132,
    "ghton": 9133,
    "gesprochen": 9134,
    "etts": 9135,
    "erlaubt": 9136,
    "cky": 9137,
    "buchen": 9138,
    "bie": 9139,
    "beschäftigt": 9140,
    "ban": 9141,
    "Zus@@": 9142,
    "Ursprün@@": 9143,
    "Stone": 9144,
    "Schlange": 9145,
    "Okl@@": 9146,
    "Misch@@": 9147,
    "Master": 9148,
    "Management": 9149,
    "Krebs": 9150,
    "Konzert": 9151,
    "Foundation": 9152,
    "Found@@": 9153,
    "Fan": 9154,
    "Erste": 9155,
    "D": 9156,
    "Cow@@": 9157,
    "Bou@@": 9158,
    "5@@": 9159,
    "äß@@": 9160,
    "ämpft": 9161,
    "wiegend": 9162,
    "vorhanden": 9163,
    "vard": 9164,
    "utzen": 9165,
    "ume": 9166,
    "ssig@@": 9167,
    "seu@@": 9168,
    "schrecklich": 9169,
    "ritt": 9170,
    "pa": 9171,
    "ohn": 9172,
    "jüd@@": 9173,
    "its": 9174,
    "ieden": 9175,
    "hinunter": 9176,
    "ela": 9177,
    "eau": 9178,
    "cester": 9179,
    "beziehen": 9180,
    "bereiten": 9181,
    "bereit": 9182,
    "bemerk@@": 9183,
    "beendet": 9184,
    "becken": 9185,
    "awa": 9186,
    "aktionen": 9187,
    "achsen": 9188,
    "abgeschlossen": 9189,
    "Windows": 9190,
    "Schweiz": 9191,
    "Psychologie": 9192,
    "Mail": 9193,
    "Juden": 9194,
    "Erfahr@@": 9195,
    "Enkel": 9196,
    "Cross": 9197,
    "Broadway": 9198,
    "ötz@@": 9199,
    "zucht": 9200,
    "zeitung": 9201,
    "zahlt": 9202,
    "vir@@": 9203,
    "verstehen": 9204,
    "verhalten": 9205,
    "verfügbar": 9206,
    "unterstützen": 9207,
    "ti": 9208,
    "telligen@@": 9209,
    "sium": 9210,
    "rus": 9211,
    "ota": 9212,
    "osi@@": 9213,
    "ix": 9214,
    "ikas": 9215,
    "holen": 9216,
    "glauben": 9217,
    "geschickt": 9218,
    "gelöst": 9219,
    "gebrochen": 9220,
    "fru@@": 9221,
    "blem": 9222,
    "bla@@": 9223,
    "anisch": 9224,
    "Pool": 9225,
    "Open": 9226,
    "Missouri": 9227,
    "Künstlern": 9228,
    "Houston": 9229,
    "Hongkon@@": 9230,
    "Hof": 9231,
    "Fähigkeit": 9232,
    "Freiheit": 9233,
    "Dublin": 9234,
    "Comics": 9235,
    "Angela": 9236,
    "’": 9237,
    "ür": 9238,
    "ögel": 9239,
    "zweifelt": 9240,
    "wege": 9241,
    "ward": 9242,
    "vidu@@": 9243,
    "sso@@": 9244,
    "rüstung": 9245,
    "rufen": 9246,
    "ony": 9247,
    "li": 9248,
    "kehren": 9249,
    "iti": 9250,
    "ima": 9251,
    "hauses": 9252,
    "gor@@": 9253,
    "gnisse": 9254,
    "gestorben": 9255,
    "gefallen": 9256,
    "eland": 9257,
    "durchgeführt": 9258,
    "derzei@@": 9259,
    "alth": 9260,
    "alia": 9261,
    "Verletz@@": 9262,
    "Sun": 9263,
    "Student@@": 9264,
    "Studen@@": 9265,
    "Soundtra@@": 9266,
    "Mississippi": 9267,
    "Kinos": 9268,
    "It": 9269,
    "Instit@@": 9270,
    "Insekten": 9271,
    "E": 9272,
    "Cup": 9273,
    "Cleveland": 9274,
    "Aufmerk@@": 9275,
    "windigkeit": 9276,
    "ständen": 9277,
    "sst": 9278,
    "sien": 9279,
    "serve": 9280,
    "nchen": 9281,
    "kult@@": 9282,
    "kas": 9283,
    "jun@@": 9284,
    "entstehen": 9285,
    "disch": 9286,
    "dargestellt": 9287,
    "ated": 9288,
    "any": 9289,
    "Staates": 9290,
    "Philadelph@@": 9291,
    "Oreg@@": 9292,
    "Oklahoma": 9293,
    "Ohren": 9294,
    "Louisiana": 9295,
    "Lippen": 9296,
    "Hits": 9297,
    "Gesam@@": 9298,
    "Brookl@@": 9299,
    "Armen": 9300,
    "Alab@@": 9301,
    "übrig": 9302,
    "ämpfen": 9303,
    "xis": 9304,
    "trolle": 9305,
    "tra": 9306,
    "ssel": 9307,
    "sied@@": 9308,
    "ship": 9309,
    "schießen": 9310,
    "schaffen": 9311,
    "regel@@": 9312,
    "ops": 9313,
    "oma": 9314,
    "kreis": 9315,
    "innt": 9316,
    "herine": 9317,
    "geändert": 9318,
    "gelb": 9319,
    "fähig": 9320,
    "fot@@": 9321,
    "folge@@": 9322,
    "erstellt": 9323,
    "abhängig": 9324,
    "Wunsch": 9325,
    "Tenn@@": 9326,
    "Singap@@": 9327,
    "Montreal": 9328,
    "Maryland": 9329,
    "Kenne@@": 9330,
    "Edin@@": 9331,
    "Dallas": 9332,
    "Colorado": 9333,
    "zir@@": 9334,
    "verhaftet": 9335,
    "verbreitet": 9336,
    "tan": 9337,
    "rier": 9338,
    "reduziert": 9339,
    "out": 9340,
    "mensch@@": 9341,
    "mas": 9342,
    "jap@@": 9343,
    "iem@@": 9344,
    "geschehen": 9345,
    "fordert": 9346,
    "einrichtungen": 9347,
    "dauern": 9348,
    "bewusst": 9349,
    "ations": 9350,
    "ants": 9351,
    "ado": 9352,
    "Zau@@": 9353,
    "Unterschie@@": 9354,
    "Restau@@": 9355,
    "Jeff@@": 9356,
    "Eins": 9357,
    "Dakota": 9358,
    "Dahlia": 9359,
    "äß": 9360,
    "zwöl@@": 9361,
    "wütend": 9362,
    "wärtig": 9363,
    "versteckt": 9364,
    "veranstaltet": 9365,
    "uri": 9366,
    "sonder@@": 9367,
    "rix": 9368,
    "owa": 9369,
    "kaufen": 9370,
    "eint": 9371,
    "ander": 9372,
    "amerika": 9373,
    "Zerem@@": 9374,
    "Seattle": 9375,
    "Seat@@": 9376,
    "Reihen@@": 9377,
    "Profess@@": 9378,
    "Oregon": 9379,
    "Entfern@@": 9380,
    "Dauer": 9381,
    "Chance": 9382,
    "Bass": 9383,
    "wirken": 9384,
    "verkaufen": 9385,
    "ppy": 9386,
    "iveau": 9387,
    "griffe": 9388,
    "greifen": 9389,
    "geblieben": 9390,
    "etzen": 9391,
    "ehmi@@": 9392,
    "drücken": 9393,
    "droht": 9394,
    "davor": 9395,
    "chan@@": 9396,
    "bedeutete": 9397,
    "ausgesprochen": 9398,
    "arriere": 9399,
    "ago": 9400,
    "Way": 9401,
    "Trot@@": 9402,
    "Trail": 9403,
    "Tayl@@": 9404,
    "Spanisch": 9405,
    "Montre@@": 9406,
    "Iran": 9407,
    "Home": 9408,
    "Behör@@": 9409,
    "ühm@@": 9410,
    "ös": 9411,
    "volution": 9412,
    "vater": 9413,
    "sign": 9414,
    "oria": 9415,
    "merzen": 9416,
    "hire": 9417,
    "fügen": 9418,
    "feiern": 9419,
    "erforderlich": 9420,
    "bens": 9421,
    "Singapur": 9422,
    "Pop": 9423,
    "Connecticut": 9424,
    "Asien": 9425,
    "spielsweise": 9426,
    "sas": 9427,
    "ran": 9428,
    "liefern": 9429,
    "grau": 9430,
    "geschützt": 9431,
    "geplant": 9432,
    "gegensei@@": 9433,
    "ernannt": 9434,
    "entworfen": 9435,
    "behalten": 9436,
    "austr@@": 9437,
    "aufgeführt": 9438,
    "alisiert": 9439,
    "Tem@@": 9440,
    "Minne@@": 9441,
    "Metal": 9442,
    "Live": 9443,
    "Kent": 9444,
    "Intelligen@@": 9445,
    "Grie@@": 9446,
    "9@@": 9447,
    "6@@": 9448,
    "ächer": 9449,
    "zugänglich": 9450,
    "tier": 9451,
    "stritten": 9452,
    "schmerzen": 9453,
    "leistet": 9454,
    "kunft": 9455,
    "komplex": 9456,
    "holz": 9457,
    "gründen": 9458,
    "geleitet": 9459,
    "druckt": 9460,
    "dieren": 9461,
    "besetzt": 9462,
    "auft": 9463,
    "Wet@@": 9464,
    "Pflan@@": 9465,
    "Pers@@": 9466,
    "News": 9467,
    "Bestand@@": 9468,
    "Alabama": 9469,
    "üd@@": 9470,
    "üblich": 9471,
    "zeichnungen": 9472,
    "undet": 9473,
    "lächelt": 9474,
    "kriegs": 9475,
    "istor@@": 9476,
    "handeln": 9477,
    "erinnern": 9478,
    "chtet": 9479,
    "aue": 9480,
    "Time": 9481,
    "Schick@@": 9482,
    "Me": 9483,
    "Life": 9484,
    "Indiana": 9485,
    "Eliz@@": 9486,
    "Cem@@": 9487,
    "Angelegen@@": 9488,
    "&@@": 9489,
    "ümer": 9490,
    "ührt": 9491,
    "überlebt": 9492,
    "werfen": 9493,
    "verbind@@": 9494,
    "ungs": 9495,
    "unger": 9496,
    "studiert": 9497,
    "stown": 9498,
    "stert": 9499,
    "ssourc@@": 9500,
    "sichten": 9501,
    "samkeit": 9502,
    "q": 9503,
    "mingham": 9504,
    "militär@@": 9505,
    "lichten": 9506,
    "inne": 9507,
    "iele": 9508,
    "glaubt": 9509,
    "geschnitten": 9510,
    "geeignet": 9511,
    "fang": 9512,
    "ex": 9513,
    "eg": 9514,
    "edy": 9515,
    "dreiß@@": 9516,
    "dent": 9517,
    "bezeichnen": 9518,
    "Tabel@@": 9519,
    "Sees": 9520,
    "Rasen": 9521,
    "Original": 9522,
    "Mikrofon": 9523,
    "Jul@@": 9524,
    "Alpha": 9525,
    "/@@": 9526,
    "öffnen": 9527,
    "unmöglich": 9528,
    "steige": 9529,
    "spezialisiert": 9530,
    "ows": 9531,
    "osten": 9532,
    "mittl@@": 9533,
    "kümmern": 9534,
    "kontin@@": 9535,
    "gerichtet": 9536,
    "fizieren": 9537,
    "entiert": 9538,
    "brauch": 9539,
    "behauptete": 9540,
    "ardo": 9541,
    "andt": 9542,
    "Worten": 9543,
    "Hawaii": 9544,
    "Griechenland": 9545,
    "Gesprä@@": 9546,
    "Geräusch": 9547,
    "2": 9548,
    "wall": 9549,
    "teili@@": 9550,
    "serviert": 9551,
    "sal": 9552,
    "mmen": 9553,
    "menge": 9554,
    "ierend": 9555,
    "hand": 9556,
    "geöffnet": 9557,
    "geworden": 9558,
    "gebildet": 9559,
    "euert": 9560,
    "erweitert": 9561,
    "erreichen": 9562,
    "erkun@@": 9563,
    "enne@@": 9564,
    "bewegen": 9565,
    "Vertre@@": 9566,
    "Verteidig@@": 9567,
    "Herausge@@": 9568,
    "Hampshire": 9569,
    "Dall@@": 9570,
    "Abenteu@@": 9571,
    "7@@": 9572,
    "wirkungen": 9573,
    "verbessert": 9574,
    "sinn": 9575,
    "präsent@@": 9576,
    "mat": 9577,
    "läne": 9578,
    "leistungen": 9579,
    "isieren": 9580,
    "ieder@@": 9581,
    "geschaffen": 9582,
    "gelesen": 9583,
    "gehoben": 9584,
    "europ@@": 9585,
    "eingestellt": 9586,
    "damal@@": 9587,
    "beherber@@": 9588,
    "begleitet": 9589,
    "ario": 9590,
    "Uns@@": 9591,
    "Unab@@": 9592,
    "Spez@@": 9593,
    "H": 9594,
    "Einkauf@@": 9595,
    "Brooklyn": 9596,
    "Blues": 9597,
    "übernommen": 9598,
    "wimm@@": 9599,
    "verteilt": 9600,
    "spiegel": 9601,
    "okrat@@": 9602,
    "interessiert": 9603,
    "hinzugefügt": 9604,
    "gewinnen": 9605,
    "gelernt": 9606,
    "geheiratet": 9607,
    "frau": 9608,
    "eignet": 9609,
    "dion": 9610,
    "bart": 9611,
    "ause": 9612,
    "Rugby": 9613,
    "4@@": 9614,
    "ux": 9615,
    "urce": 9616,
    "striert": 9617,
    "schnitte": 9618,
    "reibt": 9619,
    "ordnet": 9620,
    "ischerweise": 9621,
    "geprägt": 9622,
    "errichtet": 9623,
    "ernen": 9624,
    "berichtet": 9625,
    "aufgelöst": 9626,
    "ahlen": 9627,
    "abgeleitet": 9628,
    "Produz@@": 9629,
    "M": 9630,
    "Kör@@": 9631,
    "Ihr@@": 9632,
    "Eisenb@@": 9633,
    "Compu@@": 9634,
    "Allgem@@": 9635,
    "übertragen": 9636,
    "wahr": 9637,
    "schlafen": 9638,
    "pfer": 9639,
    "our": 9640,
    "finanziert": 9641,
    "erkannt": 9642,
    "deu@@": 9643,
    "begraben": 9644,
    "antwortet": 9645,
    "Wisconsin": 9646,
    "S": 9647,
    "L": 9648,
    "Kombin@@": 9649,
    "4": 9650,
    "überqueren": 9651,
    "ördert": 9652,
    "unser@@": 9653,
    "tauchen": 9654,
    "tah": 9655,
    "ohl": 9656,
    "odie": 9657,
    "leiten": 9658,
    "hunder@@": 9659,
    "hinein": 9660,
    "hinauf": 9661,
    "gerufen": 9662,
    "etzt": 9663,
    "erkennen": 9664,
    "erhoben": 9665,
    "eingeführt": 9666,
    "eindeu@@": 9667,
    "eim@@": 9668,
    "angenommen": 9669,
    "ahen": 9670,
    "R": 9671,
    "Quebec": 9672,
    "Columb@@": 9673,
    "Arth@@": 9674,
    "Aller@@": 9675,
    "8@@": 9676,
    "á@@": 9677,
    "urc@@": 9678,
    "präsiden@@": 9679,
    "passen": 9680,
    "notwendig": 9681,
    "gearbeitet": 9682,
    "erzählen": 9683,
    "begrenzt": 9684,
    "ausgerichtet": 9685,
    "angeboten": 9686,
    "akzeptiert": 9687,
    "Jem@@": 9688,
    "Halbin@@": 9689,
    "Gemäl@@": 9690,
    "Anth@@": 9691,
    "..": 9692,
    "wendet": 9693,
    "verurteilt": 9694,
    "schützen": 9695,
    "ords": 9696,
    "omin@@": 9697,
    "nominiert": 9698,
    "kör@@": 9699,
    "heiraten": 9700,
    "gemischt": 9701,
    "entlassen": 9702,
    "beten": 9703,
    "ausgebildet": 9704,
    "antworten": 9705,
    "angewendet": 9706,
    "V": 9707,
    "Erinn@@": 9708,
    "Bür@@": 9709,
    "worben": 9710,
    "volu@@": 9711,
    "vide@@": 9712,
    "sweise": 9713,
    "niem@@": 9714,
    "mittag": 9715,
    "mieren": 9716,
    "konzentrieren": 9717,
    "kontr@@": 9718,
    "jor": 9719,
    "jenigen": 9720,
    "immen": 9721,
    "identifiziert": 9722,
    "geworfen": 9723,
    "ermordet": 9724,
    "dings": 9725,
    "N": 9726,
    "ürzt": 9727,
    "verschwunden": 9728,
    "ursprüng@@": 9729,
    "undert": 9730,
    "sammeln": 9731,
    "rom@@": 9732,
    "raus": 9733,
    "ogar": 9734,
    "lobt": 9735,
    "kritisiert": 9736,
    "hyth@@": 9737,
    "hoffe": 9738,
    "gegessen": 9739,
    "gedreht": 9740,
    "gedacht": 9741,
    "esse": 9742,
    "dustrie": 9743,
    "abgelehnt": 9744,
    "Zusätz@@": 9745,
    "Opp@@": 9746,
    "Inv@@": 9747,
    "Heraus@@": 9748,
    "verwundet": 9749,
    "verlegt": 9750,
    "schreibung": 9751,
    "schland": 9752,
    "schieden": 9753,
    "nee": 9754,
    "lossen": 9755,
    "loss": 9756,
    "logen": 9757,
    "leid": 9758,
    "bewahrt": 9759,
    "adem@@": 9760,
    "Publi@@": 9761,
    "Margar@@": 9762,
    "Läch@@": 9763,
    "Libr@@": 9764,
    "Jes@@": 9765,
    "7": 9766,
    "zuständig": 9767,
    "wickelt": 9768,
    "voraus": 9769,
    "vertrauen": 9770,
    "untergebracht": 9771,
    "töten": 9772,
    "sprochen": 9773,
    "sichtbar": 9774,
    "olis": 9775,
    "lernen": 9776,
    "komponiert": 9777,
    "inspiriert": 9778,
    "haupt": 9779,
    "beschädigt": 9780,
    "ampf": 9781,
    "abhängi@@": 9782,
    "Viz@@": 9783,
    "Vergan@@": 9784,
    "T": 9785,
    "Ost": 9786,
    "Origin@@": 9787,
    "Ja": 9788,
    "Entertain@@": 9789,
    "Dunk@@": 9790,
    "Detro@@": 9791,
    "ziem@@": 9792,
    "zeh@@": 9793,
    "verursachen": 9794,
    "verfasst": 9795,
    "umbenannt": 9796,
    "tikern": 9797,
    "gram@@": 9798,
    "füllen": 9799,
    "erzeugen": 9800,
    "erklären": 9801,
    "erfahren": 9802,
    "ehmen": 9803,
    "bewohnt": 9804,
    "betrifft": 9805,
    "beschreiben": 9806,
    "ausgestattet": 9807,
    "appen": 9808,
    "angebracht": 9809,
    "agne": 9810,
    "Niem@@": 9811,
    "Energ@@": 9812,
    "Dez@@": 9813,
    "western": 9814,
    "wendung": 9815,
    "vergeben": 9816,
    "sym@@": 9817,
    "staat": 9818,
    "lösen": 9819,
    "herausgegeben": 9820,
    "glas": 9821,
    "geteilt": 9822,
    "gesam@@": 9823,
    "gefahren": 9824,
    "fon": 9825,
    "festgestellt": 9826,
    "festgelegt": 9827,
    "destens": 9828,
    "behauptet": 9829,
    "Weih@@": 9830,
    "Times": 9831,
    "Exist@@": 9832,
    "Centr@@": 9833,
    "ängerin": 9834,
    "zial@@": 9835,
    "vertrieben": 9836,
    "stungen": 9837,
    "sichtig": 9838,
    "pson": 9839,
    "misch": 9840,
    "leisten": 9841,
    "gren@@": 9842,
    "gerettet": 9843,
    "flä@@": 9844,
    "erzielt": 9845,
    "erweise": 9846,
    "boar@@": 9847,
    "betreut": 9848,
    "angebaut": 9849,
    "Whi@@": 9850,
    "Sout@@": 9851,
    "Häl@@": 9852,
    "Eig@@": 9853,
    "Dopp@@": 9854,
    "yon": 9855,
    "wünschte": 9856,
    "völ@@": 9857,
    "vertreten": 9858,
    "verliehen": 9859,
    "urch": 9860,
    "tie": 9861,
    "roffen": 9862,
    "onnen": 9863,
    "chmal": 9864,
    "bestätigt": 9865,
    "aufgebaut": 9866,
    "anerkannt": 9867,
    "Fiction": 9868,
    "8": 9869,
    "​@@": 9870,
    "zin": 9871,
    "verbringen": 9872,
    "try": 9873,
    "listet": 9874,
    "kott@@": 9875,
    "geliefert": 9876,
    "erwarten": 9877,
    "erhältlich": 9878,
    "ausgezeichnet": 9879,
    "ausgestrahlt": 9880,
    "aufhin": 9881,
    "allgem@@": 9882,
    "Symp@@": 9883,
    "REMOVE": 9884,
    "K": 9885,
    "üben": 9886,
    "wö@@": 9887,
    "stehe": 9888,
    "sprä@@": 9889,
    "hodo@@": 9890,
    "geordnet": 9891,
    "gefähr": 9892,
    "gefasst": 9893,
    "gedruckt": 9894,
    "fft": 9895,
    "entrum": 9896,
    "bourne": 9897,
    "bchen": 9898,
    "aufgeteilt": 9899,
    "adt": 9900,
    "abet@@": 9901,
    "Christop@@": 9902,
    "Begin@@": 9903,
    "5": 9904,
    "öze@@": 9905,
    "ó@@": 9906,
    "ñ@@": 9907,
    "´@@": 9908,
    "zurückzuführen": 9909,
    "verlieren": 9910,
    "telte": 9911,
    "owj@@": 9912,
    "otto": 9913,
    "neur": 9914,
    "nab@@": 9915,
    "kind": 9916,
    "fran@@": 9917,
    "entscheiden": 9918,
    "einzi@@": 9919,
    "diskutiert": 9920,
    "Rett@@": 9921,
    "P": 9922,
    "Base@@": 9923,
    "vorbereitet": 9924,
    "retten": 9925,
    "reis": 9926,
    "nein": 9927,
    "ischte": 9928,
    "gner": 9929,
    "gia": 9930,
    "genheit": 9931,
    "funktionieren": 9932,
    "froh": 9933,
    "emen": 9934,
    "denti@@": 9935,
    "asselbe": 9936,
    "angegeben": 9937,
    "W": 9938,
    "Spre@@": 9939,
    "Paci@@": 9940,
    "J": 9941,
    "Inner@@": 9942,
    "3": 9943,
    "yland": 9944,
    "unabhängi@@": 9945,
    "träch@@": 9946,
    "syl@@": 9947,
    "nieder": 9948,
    "gum@@": 9949,
    "gorith@@": 9950,
    "gewidmet": 9951,
    "gelegen": 9952,
    "gekennzeichnet": 9953,
    "frika": 9954,
    "ersetzen": 9955,
    "erkennung": 9956,
    "benach@@": 9957,
    "Z": 9958,
    "Mic@@": 9959,
    "Fant@@": 9960,
    "Episo@@": 9961,
    "Überre@@": 9962,
    "zeugt": 9963,
    "zeln": 9964,
    "wai@@": 9965,
    "vorgeschlagen": 9966,
    "verboten": 9967,
    "solv@@": 9968,
    "quot@@": 9969,
    "hoben": 9970,
    "haupts@@": 9971,
    "gelangen": 9972,
    "gehabt": 9973,
    "entlichen": 9974,
    "cil": 9975,
    "barung": 9976,
    "aufgewachsen": 9977,
    "anstal@@": 9978,
    "ahr": 9979,
    "abgehalten": 9980,
    "Unit@@": 9981,
    "Online": 9982,
    "Kohl@@": 9983,
    "Kathedr@@": 9984,
    "Bertie": 9985,
    "ächlich": 9986,
    "wett@@": 9987,
    "westen": 9988,
    "vermeiden": 9989,
    "ulpt@@": 9990,
    "tigkeits@@": 9991,
    "strahlt": 9992,
    "rums": 9993,
    "nommen": 9994,
    "kto@@": 9995,
    "hl": 9996,
    "hause": 9997,
    "gewachsen": 9998,
    "gefeiert": 9999,
    "ffee": 10000,
    "Deu@@": 10001,
    "zugeschrieben": 10002,
    "verfolgen": 10003,
    "umstritten": 10004,
    "rence": 10005,
    "lück@@": 10006,
    "komoti@@": 10007,
    "gesungen": 10008,
    "eröffnet": 10009,
    "bol": 10010,
    "beschlossen": 10011,
    "Sep@@": 10012,
    "Nord": 10013,
    "Aug@@": 10014,
    ":@@": 10015,
    "9": 10016,
    "ú@@": 10017,
    "vorgestellt": 10018,
    "vorgenommen": 10019,
    "verbessern": 10020,
    "ssist@@": 10021,
    "okol@@": 10022,
    "ligi@@": 10023,
    "igan": 10024,
    "iest": 10025,
    "gliedert": 10026,
    "chsel@@": 10027,
    "ausgestellt": 10028,
    "abri@@": 10029,
    "U": 10030,
    "Ahnung": 10031,
    "„": 10032,
    "´": 10033,
    "verhindern": 10034,
    "orben": 10035,
    "gezwungen": 10036,
    "fortgesetzt": 10037,
[...]
